<unk>	0
<blank>	1
的	2
，	3
。	4
和	5
、	6
在	7
.	8
了	9
/	10
)	11
(	12
年	13
是	14
第	15
对	16
"	17
；	18
委员会	19
《	20
》	21
并	22
国家	23
与	24
为	25
问题	26
中	27
将	28
会议	29
报告	30
提供	31
发展	32
,	33
）	34
（	35
其	36
国际	37
联合国	38
：	39
关于	40
或	41
有	42
以及	43
组织	44
包括	45
月	46
以	47
工作	48
方案	49
进行	50
到	51
不	52
社会	53
号	54
一个	55
通过	56
这些	57
所	58
该	59
方面	60
决议	61
情况	62
妇女	63
其他	64
-	65
机构	66
特别	67
执行	68
1	69
有关	70
上	71
活动	72
政府	73
向	74
人	75
行动	76
还	77
日	78
建议	79
公约	80
区域	81
儿童	82
可	83
所有	84
而	85
人权	86
这	87
项目	88
安全	89
也	90
就	91
我们	92
经济	93
根据	94
规定	95
2	96
被	97
个	98
A	99
合作	100
地	101
及	102
3	103
支持	104
提出	105
下	106
大会	107
理事会	108
需要	109
政策	110
应	111
于	112
法律	113
决定	114
权利	115
技术	116
促进	117
加强	118
目标	119
但	120
没有	121
各	122
他	123
采取	124
影响	125
措施	126
已	127
新	128
从	129
使	130
能力	131
确保	132
时	133
管理	134
4	135
保护	136
段	137
服务	138
和平	139
6	140
5	141
提交	142
必须	143
要求	144
可能	145
继续	146
都	147
代表	148
期间	149
由	150
条	151
资源	152
草案	153
开展	154
他们	155
建立	156
计划	157
秘书长	158
系统	159
努力	160
主要	161
更	162
援助	163
一些	164
举行	165
注意	166
增加	167
它	168
7	169
人员	170
作为	171
支助	172
战略	173
基金	174
实施	175
审查	176
全球	177
10	178
教育	179
实现	180
--	181
认为	182
各国	183
内	184
其中	185
信息	186
12	187
缔约国	188
这一	189
使用	190
本	191
行为	192
审议	193
持续	194
文件	195
之间	196
相关	197
领域	198
因此	199
环境	200
重要	201
参与	202
预算	203
一项	204
特派团	205
协调	206
任何	207
可以	208
获得	209
者	210
小组	211
这种	212
等	213
考虑	214
工作人员	215
先生	216
得到	217
至	218
地区	219
指出	220
培训	221
美元	222
成员	223
后	224
作出	225
有效	226
框架	227
人口	228
讨论	229
机制	230
8	231
研究	232
9	233
评估	234
减少	235
主席	236
说	237
制定	238
名	239
11	240
非洲	241
程序	242
已经	243
世界	244
政治	245
一	246
及其	247
平等	248
·	249
a	250
最	251
多	252
发展中国家	253
进一步	254
取得	255
作用	256
由于	257
任务	258
处理	259
目前	260
次	261
提高	262
代表团	263
来	264
进程	265
秘书处	266
条约	267
正在	268
中心	269
费用	270
解决	271
能够	272
确定	273
资料	274
以便	275
因为	276
表示	277
会	278
意见	279
事务	280
缔约方	281
各种	282
b	283
请	284
调查	285
部门	286
性别	287
议程	288
人民	289
原则	290
方式	291
说明	292
15	293
强调	294
工作组	295
此外	296
2005	297
2010	298
间	299
我	300
做法	301
它们	302
许多	303
标准	304
进展	305
维持	306
2008	307
参加	308
适当	309
设立	310
2009	311
同时	312
30	313
建设	314
文化	315
即	316
承诺	317
利用	318
要	319
办事处	320
各项	321
具体	322
2006	323
监测	324
司法	325
消除	326
国	327
全面	328
资金	329
数据	330
而且	331
如果	332
000	333
用于	334
方法	335
专家	336
办法	337
会员国	338
制度	339
必要	340
家庭	341
部分	342
范围	343
涉及	344
歧视	345
造成	346
目的	347
基础	348
2004	349
具有	350
机会	351
犯罪	352
2007	353
咨询	354
2011	355
协助	356
议定书	357
需	358
按照	359
款	360
非政府	361
投资	362
贸易	363
*	364
共同	365
给	366
尤其	367
同	368
存在	369
20	370
行政	371
挑战	372
法	373
充分	374
产生	375
应当	376
14	377
两年	378
鼓励	379
13	380
接受	381
例如	382
社区	383
冲突	384
日至	385
受到	386
这个	387
2000	388
不同	389
发言	390
义务	391
负责	392
期	393
这方面	394
难民	395
关切	396
优先	397
法院	398
责任	399
暴力	400
前	401
2012	402
成果	403
2003	404
把	405
地方	406
占	407
以下	408
但是	409
事项	410
生活	411
c	412
为了	413
2002	414
受	415
部队	416
16	417
开始	418
对于	419
办公室	420
严重	421
分析	422
人道主义	423
是否	424
18	425
形式	426
改革	427
国内	428
业务	429
发生	430
批准	431
以色列	432
如	433
并且	434
2001	435
协定	436
一种	437
:	438
尽管	439
适用	440
案件	441
武器	442
帮助	443
立法	444
非	445
见	446
关系	447
成为	448
最后	449
土著	450
利益	451
基本	452
认识	453
一次	454
安排	455
现有	456
未	457
纳入	458
恐怖主义	459
改善	460
条件	461
联合	462
仍然	463
以来	464
经费	465
报告员	466
附件	467
结果	468
打击	469
她	470
评价	471
员额	472
欢迎	473
性	474
17	475
综合	476
完成	477
关注	478
当局	479
公司	480
能	481
31	482
仍	483
2013	484
采用	485
21	486
个人	487
％	488
监督	489
表明	490
健康	491
制订	492
履行	493
禁止	494
两个	495
介绍	496
1999	497
自	498
如何	499
19	500
约	501
发达国家	502
伙伴关系	503
直接	504
选举	505
审计	506
千年	507
针对	508
一般	509
论坛	510
宣言	511
防止	512
一份	513
应该	514
E	515
时间	516
需求	517
指导	518
自由	519
这项	520
希望	521
过程	522
之后	523
独立	524
预防	525
增长	526
稳定	527
巴勒斯坦	528
虽然	529
扩大	530
．	531
25	532
S	533
重申	534
广泛	535
厅	536
艾滋病	537
1998	538
限制	539
风险	540
对话	541
临时	542
积极	543
按	544
推动	545
24	546
艾滋病毒	547
重点	548
最近	549
某些	550
全国	551
22	552
则	553
原因	554
警察	555
面临	556
条款	557
保障	558
非法	559
贩运	560
之前	561
23	562
出现	563
规划	564
该国	565
定期	566
人数	567
倡议	568
从而	569
承认	570
收到	571
呼吁	572
发挥	573
群体	574
项	575
保健	576
又	577
生产	578
就业	579
;	580
内容	581
状况	582
这样	583
协商	584
谈判	585
一切	586
地位	587
年度	588
应对	589
[	590
做	591
然而	592
控制	593
旨在	594
军事	595
所述	596
收入	597
侵犯	598
很	599
规则	600
土地	601
请求	602
]	603
安理会	604
实际	605
明确	606
美国	607
因	608
联系	609
财政	610
不是	611
方	612
民间	613
经	614
本国	615
无法	616
宪法	617
d	618
因素	619
当地	620
企业	621
准则	622
违反	623
材料	624
遵守	625
导致	626
贫穷	627
编写	628
改进	629
受害者	630
法庭	631
实体	632
达到	633
自己	634
同意	635
长期	636
威胁	637
另	638
公民	639
之	640
伊拉克	641
举办	642
指标	643
了解	644
市场	645
C	646
来自	647
伙伴	648
60	649
网络	650
公共	651
作	652
集团	653
领土	654
26	655
境内	656
让	657
岁	658
确认	659
协议	660
上述	661
人类	662
宣传	663
成员国	664
重新	665
普遍	666
拘留	667
下列	668
27	669
合同	670
行动计划	671
加入	672
不能	673
女士	674
刑事	675
28	676
内部	677
着	678
有助于	679
超过	680
落实	681
回顾	682
外	683
那些	684
做出	685
起	686
流离失所	687
结构	688
拟议	689
设施	690
保证	691
程度	692
基金会	693
缺乏	694
记录	695
B	696
基于	697
更加	698
事件	699
过去	700
现象	701
宗教	702
农业	703
文书	704
现在	705
符合	706
支付	707
正式	708
酷刑	709
29	710
结束	711
经常	712
人们	713
采购	714
支出	715
题为	716
专业	717
反映	718
列入	719
重大	720
法官	721
学校	722
经验	723
知识	724
后续	725
青年	726
女性	727
区	728
空间	729
部	730
管制	731
估计	732
P	733
城市	734
享有	735
森林	736
提到	737
修订	738
欧洲	739
高	740
整个	741
恢复	742
毒品	743
职能	744
在内	745
提议	746
编制	747
类	748
科学	749
工具	750
移徙	751
补充	752
1997	753
民主	754
50	755
每年	756
均	757
较	758
一名	759
保留	760
基础设施	761
气候变化	762
分	763
比例	764
若干	765
不断	766
40	767
2014	768
满足	769
关键	770
以上	771
开发	772
扩散	773
一直	774
比	775
手段	776
授权	777
拟订	778
苏丹	779
e	780
首脑会议	781
危机	782
57	783
阶段	784
只有	785
统计	786
增强	787
实行	788
设备	789
同样	790
移民	791
农村	792
资产	793
拥有	794
构成	795
收集	796
提案	797
残疾人	798
多边	799
阿富汗	800
成功	801
两性	802
粮食	803
数量	804
给予	805
里	806
万美元	807
结论	808
一级	809
总部	810
商定	811
58	812
举措	813
权	814
成立	815
每	816
协会	817
条例	818
59	819
财务	820
专门	821
达成	822
罪行	823
今后	824
调整	825
贸发	826
答复	827
55	828
副	829
截至	830
通信	831
表	832
国际法	833
开发署	834
贡献	835
团体	836
地点	837
局势	838
中国	839
变化	840
部署	841
官员	842
完全	843
水平	844
签署	845
2015	846
讲习班	847
运动	848
解释	849
尊重	850
61	851
为此	852
除	853
一部分	854
分配	855
住房	856
非正式	857
总	858
允许	859
重要性	860
选择	861
此	862
裁军	863
加拿大	864
保持	865
65	866
大约	867
62	868
我国	869
纲领	870
访问	871
预计	872
领导	873
显示	874
贫困	875
核准	876
组成	877
总统	878
64	879
未来	880
生物	881
黎巴嫩	882
加以	883
议会	884
索赔	885
自愿	886
鉴于	887
外国	888
理由	889
此类	890
登记	891
从事	892
署	893
各方	894
52	895
这是	896
出口	897
非常	898
反对	899
更好	900
核武器	901
权力	902
53	903
大	904
带来	905
准备	906
63	907
每个	908
运作	909
捐款	910
价值	911
54	912
另外	913
职位	914
证据	915
之一	916
用	917
56	918
核心	919
财产	920
出	921
体制	922
医疗	923
尚未	924
一致	925
传统	926
三个	927
平民	928
进入	929
100	930
赔偿	931
危险	932
而言	933
35	934
公平	935
能源	936
私营部门	937
担任	938
与会者	939
寻求	940
大量	941
来源	942
召开	943
宣布	944
敦促	945
二	946
最佳	947
32	948
团	949
遭受	950
欧洲联盟	951
产品	952
主题	953
干事	954
日本	955
交流	956
步骤	957
1996	958
声明	959
捐助	960
或者	961
45	962
34	963
处	964
统一	965
分别	966
侵害	967
联盟	968
资助	969
卫生	970
创造	971
专题	972
据	973
33	974
感到	975
证明	976
运输	977
指控	978
预期	979
数额	980
债务	981
属于	982
课程	983
申请	984
66	985
传播	986
主任	987
通知	988
外地	989
她们	990
磋商	991
高级别	992
攸关	993
损失	994
如下	995
筹资	996
予以	997
印度	998
最大	999
观察员	1000
日内瓦	1001
亚洲	1002
特殊	1003
专家组	1004
少数	1005
质量	1006
趋势	1007
大多数	1008
办	1009
模式	1010
实质性	1011
地雷	1012
定义	1013
供资	1014
总额	1015
供	1016
36	1017
依据	1018
困难	1019
有些	1020
大学	1021
古巴	1022
无	1023
1995	1024
研讨会	1025
死亡	1026
起诉	1027
性质	1028
承担	1029
还有	1030
司	1031
工作队	1032
发现	1033
媒体	1034
科索沃	1035
67	1036
高级	1037
公众	1038
决策	1039
概念	1040
障碍	1041
维护	1042
反	1043
占领	1044
观点	1045
37	1046
就是	1047
阿拉伯	1048
51	1049
采取行动	1050
下降	1051
任命	1052
金融	1053
过	1054
率	1055
多样性	1056
第二	1057
至少	1058
工业	1059
改变	1060
上诉	1061
学生	1062
索马里	1063
小	1064
发表	1065
第五	1066
各级	1067
38	1068
不仅	1069
39	1070
海洋	1071
清单	1072
至关重要	1073
安保	1074
民族	1075
主管	1076
公正	1077
审判	1078
单位	1079
再次	1080
避免	1081
监狱	1082
开发计划署	1083
职业	1084
此种	1085
所涉	1086
工人	1087
身份	1088
法国	1089
48	1090
不过	1091
详细	1092
依照	1093
宪章	1094
背景	1095
有限	1096
－	1097
特定	1098
紧急	1099
低	1100
500	1101
工发	1102
救济	1103
女孩	1104
68	1105
只	1106
41	1107
致力于	1108
迅速	1109
44	1110
疾病	1111
一系列	1112
设计	1113
澳大利亚	1114
委会	1115
生效	1116
Add.1	1117
成本	1118
正	1119
辩论	1120
49	1121
一起	1122
D	1123
武装冲突	1124
适应	1125
巴西	1126
46	1127
治疗	1128
第六	1129
武装	1130
42	1131
任择	1132
账户	1133
官方	1134
科威特	1135
一般性	1136
损害	1137
战争	1138
及时	1139
仅	1140
十年	1141
公开	1142
意义	1143
联合王国	1144
除了	1145
难民署	1146
商业	1147
达	1148
有权	1149
43	1150
第一	1151
修改	1152
越来越	1153
当前	1154
良好	1155
最高	1156
们	1157
达尔富尔	1158
平均	1159
墨西哥	1160
残疾	1161
再	1162
降低	1163
47	1164
之外	1165
视为	1166
查明	1167
男子	1168
专员	1169
以前	1170
待遇	1171
1990	1172
载	1173
赞赏	1174
三	1175
所作	1176
下午	1177
指南	1178
治理	1179
虐待	1180
水	1181
过渡	1182
德国	1183
效率	1184
类似	1185
数字	1186
居民	1187
银行	1188
罪	1189
顾问	1190
欧元	1191
女童	1192
劳工	1193
灾害	1194
高级专员	1195
便利	1196
200	1197
往往	1198
维和	1199
计算	1200
部长	1201
英语	1202
相互	1203
国际公约	1204
最终	1205
各个	1206
筹备	1207
不足	1208
物质	1209
引起	1210
信托	1211
各自	1212
还是	1213
药物	1214
随后	1215
电子	1216
提及	1217
纽约	1218
剥削	1219
却	1220
称	1221
新闻	1222
律师	1223
接触	1224
处于	1225
制裁	1226
核	1227
转让	1228
主流	1229
利比里亚	1230
技能	1231
协调员	1232
修正	1233
数目	1234
其它	1235
卢旺达	1236
理解	1237
启动	1238
申诉	1239
最新	1240
----	1241
南	1242
不会	1243
曾	1244
以外	1245
暴力行为	1246
破坏	1247
土耳其	1248
体系	1249
十分	1250
一点	1251
一年	1252
？	1253
联邦	1254
股	1255
足够	1256
应用	1257
遭到	1258
行使	1259
种族主义	1260
福利	1261
国民	1262
立即	1263
订正	1264
精神	1265
重视	1266
大规模	1267
通常	1268
学习	1269
获取	1270
增进	1271
巴基斯坦	1272
本身	1273
组	1274
网站	1275
加勒比	1276
起草	1277
国家一级	1278
领导人	1279
延长	1280
全部	1281
且	1282
维也纳	1283
评论	1284
后勤	1285
研究所	1286
很大	1287
指定	1288
法令	1289
通报	1290
总体	1291
日益	1292
发出	1293
几个	1294
f	1295
才	1296
邀请	1297
有人	1298
双边	1299
比较	1300
流动	1301
太平洋	1302
竞争	1303
初步	1304
立场	1305
人力资源	1306
环境署	1307
不利	1308
种族歧视	1309
事实	1310
亿美元	1311
语言	1312
份	1313
俄罗斯联邦	1314
交易	1315
劳动	1316
届	1317
检察官	1318
平衡	1319
数据库	1320
才能	1321
拉丁美洲	1322
协作	1323
高专	1324
人权委员会	1325
工程处	1326
载有	1327
检查	1328
化学品	1329
出席	1330
透明度	1331
差距	1332
1994	1333
感谢	1334
节	1335
强迫	1336
双方	1337
颁布	1338
额外	1339
后果	1340
用途	1341
心理	1342
更新	1343
外部	1344
合作伙伴	1345
首先	1346
年龄	1347
助理	1348
重建	1349
最低	1350
袭击	1351
津贴	1352
创新	1353
来说	1354
瑞士	1355
77	1356
职责	1357
未能	1358
家庭暴力	1359
规范	1360
核查	1361
训练	1362
300	1363
拟定	1364
一样	1365
欧盟	1366
南非	1367
名单	1368
全体会议	1369
货物	1370
资格	1371
咨	1372
省	1373
海地	1374
挪威	1375
很多	1376
干预	1377
上文	1378
你	1379
判决	1380
容忍	1381
估计数	1382
共和国	1383
日期	1384
组成部分	1385
西班牙	1386
防治	1387
埃及	1388
共识	1389
69	1390
法治	1391
执法	1392
会议室	1393
供应	1394
层面	1395
中期	1396
明显	1397
执行局	1398
不可	1399
转移	1400
子女	1401
雇员	1402
剥夺	1403
不得	1404
全世界	1405
正如	1406
真正	1407
种族	1408
返回	1409
担保	1410
今天	1411
解决办法	1412
拒绝	1413
诉讼	1414
常设	1415
现行	1416
第一次	1417
诸如	1418
票	1419
补救	1420
跨国	1421
逮捕	1422
调动	1423
弹药	1424
复杂	1425
投入	1426
裁决	1427
来文	1428
化	1429
印度尼西亚	1430
原子能	1431
商品	1432
全球化	1433
几乎	1434
叙利亚	1435
期限	1436
途径	1437
法案	1438
行预	1439
科特迪瓦	1440
卫星	1441
集中	1442
集体	1443
业绩	1444
私人	1445
分享	1446
依然	1447
生殖	1448
意大利	1449
形成	1450
采取措施	1451
70	1452
族裔	1453
这次	1454
世界银行	1455
点	1456
荒漠化	1457
列	1458
死亡率	1459
哪些	1460
之下	1461
预测	1462
以期	1463
东帝汶	1464
男女	1465
包含	1466
四	1467
特设	1468
案文	1469
经过	1470
相比	1471
涵盖	1472
刑法	1473
哥伦比亚	1474
甚至	1475
酌情	1476
居住	1477
州	1478
历史	1479
捐助者	1480
年底	1481
出版物	1482
攻击	1483
第二次	1484
透明	1485
派遣	1486
男性	1487
科	1488
信任	1489
愿意	1490
机关	1491
第三	1492
表决	1493
阿根廷	1494
合理	1495
青少年	1496
重返	1497
示范	1498
非洲联盟	1499
基地	1500
切实	1501
提请	1502
展开	1503
似乎	1504
废物	1505
气候	1506
分发	1507
人力	1508
反恐	1509
00	1510
人居	1511
失踪	1512
边界	1513
起来	1514
储存	1515
反应	1516
拨款	1517
公共部门	1518
指示	1519
争取	1520
探讨	1521
制止	1522
燃料	1523
看法	1524
想	1525
逐步	1526
400	1527
埃塞俄比亚	1528
团结	1529
享受	1530
摩洛哥	1531
民众	1532
加沙	1533
主持	1534
表现	1535
荷兰	1536
塞拉利昂	1537
i	1538
替代	1539
停止	1540
瑞典	1541
意味着	1542
赋予	1543
知道	1544
语文	1545
次级	1546
事务部	1547
住	1548
潜在	1549
可能性	1550
合并	1551
级	1552
对此	1553
合法	1554
案	1555
预防犯罪	1556
阻碍	1557
驻	1558
当	1559
有利于	1560
尼日利亚	1561
上午	1562
所载	1563
现金	1564
一位	1565
价格	1566
令人	1567
局	1568
多个	1569
平台	1570
手册	1571
全	1572
随着	1573
600	1574
附属	1575
征聘	1576
那样	1577
融入	1578
减贫	1579
处罚	1580
中央	1581
分类	1582
公布	1583
单独	1584
赞扬	1585
庇护	1586
打算	1587
效力	1588
外勤	1589
妇女地位	1590
如此	1591
乌克兰	1592
上升	1593
之中	1594
大部分	1595
力量	1596
信息技术	1597
巨大	1598
是因为	1599
候选人	1600
万	1601
减轻	1602
排放	1603
g	1604
贷款	1605
融资	1606
更为	1607
1993	1608
议题	1609
新西兰	1610
80	1611
飞机	1612
开放	1613
脆弱	1614
天	1615
惩罚	1616
人道主义法	1617
发布	1618
以后	1619
刚果民主共和国	1620
差异	1621
仲裁	1622
常驻	1623
肯尼亚	1624
既	1625
世贸组织	1626
实际上	1627
监禁	1628
养	1629
注重	1630
空缺	1631
因而	1632
概述	1633
类别	1634
时候	1635
什么	1636
意识	1637
道路	1638
确立	1639
取消	1640
款项	1641
共	1642
开支	1643
腐败	1644
发起	1645
小岛屿	1646
得以	1647
有所	1648
国籍	1649
场所	1650
经委会	1651
过境	1652
武装部队	1653
规模	1654
CN.4	1655
实地	1656
相对	1657
职等	1658
车辆	1659
多年	1660
受益	1661
在于	1662
劳动力	1663
薪金	1664
界定	1665
分摊	1666
乌干达	1667
菲律宾	1668
相应	1669
四个	1670
受害人	1671
自然资源	1672
体现	1673
密切	1674
应急	1675
所有人	1676
1991	1677
恤金	1678
公务员	1679
规划署	1680
刚果	1681
父母	1682
即使	1683
证人	1684
部长级	1685
以往	1686
联合会	1687
美利坚合众国	1688
突出	1689
类型	1690
阿尔及利亚	1691
1992	1692
衡量	1693
产出	1694
该项	1695
看到	1696
世纪	1697
800	1698
南部	1699
布隆迪	1700
90	1701
多数	1702
审理	1703
一体化	1704
C.2	1705
中有	1706
教师	1707
奥地利	1708
推广	1709
西非	1710
混合	1711
放在	1712
任期	1713
清楚	1714
75	1715
备选	1716
促使	1717
使得	1718
波斯尼亚	1719
态度	1720
智利	1721
外交	1722
筹措	1723
澄清	1724
第四	1725
时期	1726
效益	1727
教科文组织	1728
共同体	1729
al	1730
泰国	1731
总数	1732
一定	1733
付款	1734
生命	1735
成就	1736
旅行	1737
进步	1738
厄立特里亚	1739
巩固	1740
只是	1741
免费	1742
量	1743
感染	1744
须	1745
进口	1746
吁请	1747
共有	1748
妨碍	1749
管辖权	1750
复员	1751
回应	1752
数	1753
初级	1754
设	1755
渔业	1756
未经	1757
相信	1758
唯一	1759
生态系统	1760
证实	1761
消费	1762
资本	1763
危害	1764
销毁	1765
事实上	1766
女	1767
赞同	1768
显然	1769
法规	1770
阿塞拜疆	1771
装备	1772
即将	1773
设想	1774
志愿人员	1775
和解	1776
第三次	1777
引渡	1778
严格	1779
低于	1780
促请	1781
石油	1782
'	1783
利比亚	1784
修正案	1785
额	1786
容易	1787
互动	1788
人士	1789
主权	1790
相当	1791
700	1792
马来西亚	1793
医院	1794
尽可能	1795
C.3	1796
推进	1797
阐述	1798
F	1799
秘书	1800
同一	1801
意愿	1802
结合	1803
性暴力	1804
找到	1805
争端	1806
保险	1807
相同	1808
卖淫	1809
护理	1810
用户	1811
好	1812
近	1813
一@@	1814
监管	1815
讨论会	1816
工资	1817
可持续性	1818
老年人	1819
小时	1820
本次	1821
B@@	1822
主席团	1823
认可	1824
驱逐	1825
塞浦路斯	1826
名额	1827
约旦	1828
年代	1829
出版	1830
道德	1831
谴责	1832
管辖	1833
工程	1834
信	1835
而是	1836
近东	1837
孟加拉国	1838
然后	1839
高度	1840
72	1841
得	1842
提供援助	1843
发放	1844
销售	1845
秘鲁	1846
信贷	1847
南斯拉夫	1848
案例	1849
可靠	1850
71	1851
申诉人	1852
谅解	1853
不@@	1854
母亲	1855
共计	1856
更大	1857
制造	1858
丹麦	1859
型	1860
定于	1861
特遣队	1862
表达	1863
黑塞哥维那	1864
释放	1865
清洁	1866
一道	1867
依赖	1868
问责制	1869
要素	1870
取决于	1871
情报	1872
费	1873
伊朗	1874
核定	1875
询问	1876
发言者	1877
列出	1878
并非	1879
驻地	1880
格鲁吉亚	1881
补贴	1882
T@@	1883
政治权利	1884
声称	1885
73	1886
雇主	1887
伤害	1888
细则	1889
斗争	1890
会计准则	1891
比率	1892
芬兰	1893
马里	1894
G@@	1895
危地马拉	1896
每月	1897
潜力	1898
约束力	1899
基准	1900
粮农组织	1901
加	1902
那么	1903
吨	1904
大使	1905
受理	1906
食物	1907
囚犯	1908
口头	1909
74	1910
Rev.1	1911
年度报告	1912
供应商	1913
不再	1914
波兰	1915
决心	1916
限度	1917
余额	1918
有利	1919
任意	1920
持久	1921
两	1922
遇到	1923
会上	1924
安置	1925
人格	1926
获悉	1927
周期	1928
核裁军	1929
伊斯兰	1930
加快	1931
为期	1932
豁免	1933
五	1934
具备	1935
建造	1936
令	1937
S@@	1938
恶化	1939
军队	1940
比利时	1941
专门知识	1942
实践	1943
规约	1944
76	1945
死刑	1946
方向	1947
推迟	1948
报道	1949
角度	1950
特点	1951
满意	1952
h	1953
克罗地亚	1954
营养	1955
听取	1956
白俄罗斯	1957
强奸	1958
缅甸	1959
密切合作	1960
整体	1961
汞	1962
D@@	1963
最初	1964
厄瓜多尔	1965
显著	1966
气体	1967
婚姻	1968
M@@	1969
与其	1970
备忘录	1971
负担	1972
金融机构	1973
移交	1974
建筑	1975
HRC	1976
两次	1977
被告	1978
并未	1979
行业	1980
交付	1981
C.5	1982
一套	1983
无核武器	1984
克服	1985
就此	1986
经济体	1987
大韩民国	1988
压力	1989
观察	1990
失业	1991
建设性	1992
据称	1993
汇编	1994
终止	1995
信通	1996
排除	1997
内罗毕	1998
成绩	1999
78	2000
排雷	2001
将会	2002
仇外	2003
外层空间	2004
不人道	2005
地球	2006
私营	2007
污染	2008
百分比	2009
巴勒斯坦人	2010
协同	2011
尼泊尔	2012
当时	2013
五个	2014
两名	2015
海关	2016
解除武装	2017
突尼斯	2018
中东	2019
现实	2020
900	2021
L@@	2022
协商一致	2023
敏感	2024
反腐败	2025
联络	2026
除非	2027
问责	2028
I	2029
今年	2030
书面	2031
尊严	2032
C.1	2033
设在	2034
第四次	2035
自治	2036
世界各地	2037
第一个	2038
81	2039
雇用	2040
滥用	2041
物品	2042
制作	2043
家	2044
已有	2045
H@@	2046
方针	2047
自身	2048
康复	2049
文	2050
北部	2051
协调一致	2052
自然灾害	2053
专门机构	2054
内陆	2055
塞尔维亚	2056
斯里兰卡	2057
例子	2058
79	2059
粮食安全	2060
充足	2061
自然	2062
命令	2063
职务	2064
可行	2065
争议	2066
全体	2067
三年	2068
五年	2069
投票	2070
所以	2071
购买	2072
斯	2073
名义	2074
纲要	2075
宗旨	2076
效果	2077
包容性	2078
货币	2079
工会	2080
食品	2081
行政当局	2082
终了	2083
出于	2084
加剧	2085
公民权利	2086
管理局	2087
照顾	2088
P@@	2089
摊款	2090
联刚	2091
以此	2092
少数民族	2093
概算	2094
财务报表	2095
有时	2096
国际法庭	2097
装置	2098
阿	2099
就业机会	2100
无论	2101
体	2102
强化	2103
难以	2104
85	2105
赞成	2106
正常	2107
间接	2108
净额	2109
塞内加尔	2110
南南合作	2111
惯例	2112
准确	2113
东道国	2114
北京	2115
试图	2116
本届	2117
几年	2118
参考	2119
遣返	2120
许可证	2121
应付	2122
页	2123
离开	2124
调解	2125
亚美尼亚	2126
中@@	2127
金	2128
大楼	2129
有罪	2130
82	2131
代理	2132
有害	2133
指	2134
贸易法	2135
普通	2136
市	2137
网	2138
德	2139
处决	2140
经验教训	2141
罗马尼亚	2142
穷人	2143
事先	2144
83	2145
疟疾	2146
增至	2147
派	2148
各类	2149
K@@	2150
管理人员	2151
N@@	2152
飞行	2153
统计数据	2154
分庭	2155
两项	2156
拟	2157
设法	2158
告知	2159
加上	2160
有辱	2161
状态	2162
资源管理	2163
分列	2164
削减	2165
提高认识	2166
援助团	2167
缔结	2168
轻武器	2169
㈠	2170
前往	2171
根本	2172
何种	2173
葡萄牙	2174
深入	2175
补偿	2176
希腊	2177
用品	2178
多哈	2179
委内瑞拉	2180
面前	2181
处境	2182
情形	2183
恐怖	2184
阁下	2185
加纳	2186
观念	2187
外国人	2188
每天	2189
后来	2190
缺少	2191
京都	2192
取代	2193
用来	2194
各地	2195
首次	2196
强烈	2197
适合	2198
确实	2199
阿拉伯叙利亚共和国	2200
短期	2201
六	2202
通讯	2203
期待	2204
毁灭性	2205
先前	2206
去	2207
o	2208
事态	2209
记者	2210
哥斯达黎加	2211
会计	2212
残忍	2213
美洲	2214
诉	2215
审评	2216
融合	2217
证书	2218
小学	2219
快速	2220
贩卖	2221
安哥拉	2222
上空	2223
㈡	2224
学院	2225
坚持	2226
120	2227
国际贸易	2228
观察团	2229
预算外	2230
出生	2231
认定	2232
政党	2233
邻国	2234
主办	2235
废除	2236
排放量	2237
印发	2238
着手	2239
2@@	2240
俄罗斯	2241
乌拉圭	2242
金额	2243
新闻部	2244
罗马	2245
议事规则	2246
主张	2247
渠道	2248
裁定	2249
Corr.1	2250
十一届	2251
柬埔寨	2252
87	2253
经营	2254
陈述	2255
84	2256
收益	2257
期望	2258
爱尔兰	2259
强调指出	2260
守则	2261
北	2262
首长	2263
不论	2264
面对	2265
主动	2266
不到	2267
国别	2268
多种	2269
重复	2270
加速	2271
认真	2272
关联	2273
许可	2274
G	2275
那里	2276
订立	2277
退化	2278
侧重于	2279
｟d11｠	2280
匈牙利	2281
｟d37｠	2282
照料	2283
自我	2284
86	2285
负债	2286
温室	2287
C@@	2288
对象	2289
捐助国	2290
｟d49｠	2291
｟d39｠	2292
当选	2293
提名	2294
｟d18｠	2295
灵活	2296
脆弱性	2297
裁军谈判	2298
｟d35｠	2299
｟d38｠	2300
遵循	2301
共享	2302
份额	2303
常常	2304
98	2305
改为	2306
编列	2307
｟d12｠	2308
限	2309
｟d27｠	2310
｟d21｠	2311
95	2312
社会保障	2313
R@@	2314
一半	2315
一旦	2316
｟d29｠	2317
｟d31｠	2318
｟d8｠	2319
积极参与	2320
1@@	2321
｟d41｠	2322
｟d36｠	2323
索赔人	2324
续	2325
F@@	2326
安全部队	2327
｟d20｠	2328
单方面	2329
必要性	2330
｟d48｠	2331
｟d32｠	2332
转型	2333
饥饿	2334
任职	2335
人人	2336
`	2337
定为	2338
｟d46｠	2339
｟d47｠	2340
｟d10｠	2341
处置	2342
｟d17｠	2343
汇报	2344
乍得	2345
怀孕	2346
后者	2347
｟d14｠	2348
｟d33｠	2349
｟d43｠	2350
玻利维亚	2351
｟d9｠	2352
知识产权	2353
与此同时	2354
试验	2355
｟d30｠	2356
时间表	2357
｟d16｠	2358
掌握	2359
发射	2360
｟d23｠	2361
｟d6｠	2362
所属	2363
交换	2364
｟d44｠	2365
巴黎	2366
｟d22｠	2367
图	2368
｟d45｠	2369
｟d34｠	2370
91	2371
｟d15｠	2372
｟d28｠	2373
｟d42｠	2374
｟d24｠	2375
｟d13｠	2376
92	2377
拖延	2378
地带	2379
相	2380
变革	2381
正义	2382
｟d40｠	2383
｟d26｠	2384
｟d19｠	2385
｟d25｠	2386
缓解	2387
｟d7｠	2388
88	2389
生计	2390
小型	2391
UNEP	2392
大@@	2393
好处	2394
定罪	2395
s@@	2396
捷克共和国	2397
最高法院	2398
er	2399
议员	2400
｟d5｠	2401
某	2402
杀害	2403
库存	2404
犯下	2405
简要	2406
阿@@	2407
摘要	2408
｟d4｠	2409
沙特阿拉伯	2410
便	2411
因特网	2412
只能	2413
式	2414
投诉	2415
载于	2416
不应	2417
核可	2418
少	2419
97	2420
排斥	2421
｟d3｠	2422
营地	2423
监察员	2424
负责人	2425
附近	2426
西亚	2427
件	2428
简化	2429
界	2430
89	2431
伊朗伊斯兰共和国	2432
边境	2433
A@@	2434
93	2435
推行	2436
FCCC	2437
士兵	2438
任	2439
相当于	2440
仅仅	2441
Al	2442
包容	2443
法律援助	2444
若	2445
信仰	2446
促成	2447
这类	2448
96	2449
民事	2450
99	2451
越南	2452
阐明	2453
级别	2454
哈萨克斯坦	2455
尼加拉瓜	2456
总理	2457
着重	2458
一国	2459
领空	2460
单一	2461
附加	2462
地理	2463
咨询服务	2464
该法	2465
值得	2466
｟d2｠	2467
指数	2468
杀伤	2469
农民	2470
彻底	2471
吸引	2472
那	2473
支柱	2474
an	2475
偿还	2476
3@@	2477
紧急情况	2478
一致性	2479
领取	2480
机场	2481
培训班	2482
倡导	2483
作业	2484
极端	2485
招募	2486
提醒	2487
客户	2488
电话	2489
喀麦隆	2490
得出	2491
特征	2492
多@@	2493
只要	2494
其余	2495
很少	2496
拉	2497
阻止	2498
试点	2499
签订	2500
多样化	2501
歧视性	2502
跟踪	2503
94	2504
有用	2505
区域合作	2506
总共	2507
制	2508
国际标准	2509
前景	2510
经历	2511
萨尔瓦多	2512
｟d1｠	2513
所谓	2514
法定	2515
动员	2516
M	2517
童工	2518
洗钱	2519
s	2520
斯洛文尼亚	2521
权能	2522
现代	2523
毛额	2524
丧失	2525
也门	2526
d@@	2527
绩效	2528
关押	2529
位于	2530
图书馆	2531
婴儿	2532
没收	2533
赠款	2534
披露	2535
体育	2536
结论性	2537
扩展	2538
一方面	2539
正确	2540
有力	2541
150	2542
寻找	2543
物资	2544
毛里求斯	2545
所有权	2546
最好	2547
功能	2548
创建	2549
少年	2550
时限	2551
此项	2552
强有力	2553
早期	2554
迄今	2555
坚定	2556
大家	2557
孩子	2558
消费者	2559
地域	2560
第二个	2561
新加坡	2562
离职	2563
阿尔巴尼亚	2564
产妇	2565
用以	2566
旅游	2567
期内	2568
干旱	2569
增长率	2570
l@@	2571
不够	2572
有益	2573
k@@	2574
非正规	2575
斯洛伐克	2576
10@@	2577
武力	2578
西	2579
爆炸	2580
列为	2581
撒哈拉	2582
in	2583
高于	2584
员	2585
净	2586
碳	2587
m@@	2588
定居点	2589
规章	2590
亚太经社会	2591
马@@	2592
暂停	2593
始终	2594
个别	2595
对待	2596
的话	2597
变得	2598
支援	2599
难民营	2600
北爱尔兰	2601
弱势群体	2602
民兵	2603
竞争力	2604
米	2605
消耗	2606
复原	2607
CN.9	2608
开办	2609
这份	2610
无@@	2611
纪律	2612
卡塔尔	2613
完善	2614
完整	2615
转变	2616
税收	2617
保加利亚	2618
删除	2619
家人	2620
现已	2621
色情	2622
决策者	2623
称为	2624
被迫	2625
再生能源	2626
不罚	2627
互联网	2628
养护	2629
可用	2630
道	2631
org	2632
www	2633
尽快	2634
质疑	2635
巴塞尔	2636
警方	2637
技术转让	2638
纳	2639
大大	2640
登记册	2641
4@@	2642
联黎	2643
还应	2644
东部	2645
宏观经济	2646
成	2647
极为	2648
多名	2649
放弃	2650
绑架	2651
青年人	2652
入侵	2653
清除	2654
沿海	2655
水资源	2656
赞比亚	2657
还要	2658
职权范围	2659
未成年人	2660
指导方针	2661
第一届	2662
代表性	2663
言	2664
发	2665
独特	2666
特	2667
b@@	2668
医生	2669
另一方面	2670
批款	2671
根源	2672
两种	2673
谨	2674
格式	2675
t@@	2676
一词	2677
实质	2678
南方	2679
制约	2680
速度	2681
卡	2682
科技咨询	2683
J@@	2684
性虐待	2685
罪犯	2686
溴	2687
前提	2688
注册	2689
运用	2690
拉@@	2691
依靠	2692
药品	2693
卡@@	2694
独立性	2695
位	2696
兼	2697
缺陷	2698
u	2699
委员	2700
配置	2701
V@@	2702
应有	2703
｟d0｠	2704
亚太	2705
参照	2706
视察	2707
常规武器	2708
W@@	2709
迄今为止	2710
强制性	2711
弱势	2712
下述	2713
西岸	2714
de	2715
联利	2716
安全部门	2717
受伤	2718
联塞	2719
推出	2720
爆炸物	2721
作出贡献	2722
灵活性	2723
绿色	2724
肯定	2725
经合组织	2726
关闭	2727
当事方	2728
有机	2729
男女平等	2730
文本	2731
年初	2732
分子	2733
信息系统	2734
选定	2735
所列	2736
观测	2737
该部	2738
h@@	2739
克	2740
营养不良	2741
行事	2742
长	2743
农村妇女	2744
时至	2745
关心	2746
进度	2747
退休	2748
国外	2749
内部监督	2750
加大	2751
高兴	2752
回返	2753
é	2754
之内	2755
黑山	2756
像	2757
妇发	2758
至于	2759
某种	2760
语	2761
几内亚	2762
当事人	2763
有效性	2764
企图	2765
遗憾	2766
坚决	2767
债权人	2768
免遭	2769
纠正	2770
指称	2771
布基纳法索	2772
假设	2773
主义	2774
将来	2775
对策	2776
跨界	2777
区分	2778
牙买加	2779
250	2780
怀疑	2781
110	2782
105	2783
区别	2784
几内亚比绍	2785
恐怖分子	2786
谈到	2787
软件	2788
去年	2789
合格	2790
马耳他	2791
一条	2792
年间	2793
极大	2794
空中	2795
蒙特利尔	2796
得不到	2797
不妨	2798
犯罪行为	2799
自由化	2800
运行	2801
升级	2802
错误	2803
大幅	2804
c@@	2805
汇率	2806
各位	2807
卫生组织	2808
en	2809
ar@@	2810
十五届	2811
联科	2812
兴趣	2813
种植	2814
化学武器	2815
n@@	2816
中非共和国	2817
年轻人	2818
一家	2819
相反	2820
L	2821
工作文件	2822
国内法	2823
判例	2824
立陶宛	2825
多次	2826
条文	2827
认证	2828
超出	2829
担心	2830
钻石	2831
解决方案	2832
四年	2833
总干事	2834
设置	2835
持有	2836
旅游业	2837
均衡	2838
同次	2839
成效	2840
首席	2841
培养	2842
同等	2843
购置	2844
裁谈会	2845
大不列颠	2846
军	2847
禁运	2848
公报	2849
亦	2850
当中	2851
家属	2852
公认	2853
监察	2854
优势	2855
首要	2856
出售	2857
战斗人员	2858
月份	2859
大型	2860
子	2861
破产	2862
病毒	2863
测试	2864
转交	2865
第二届	2866
来看	2867
保存	2868
核实	2869
计划署	2870
自从	2871
小额	2872
无害	2873
人均	2874
CEDAW	2875
动态	2876
用作	2877
补助金	2878
al@@	2879
失去	2880
全球性	2881
岛屿	2882
维修	2883
有着	2884
初次	2885
为止	2886
所示	2887
总结	2888
帐户	2889
E@@	2890
外联	2891
r@@	2892
穆斯林	2893
管理系统	2894
配偶	2895
生产总值	2896
受害	2897
例外	2898
ar	2899
宝贵	2900
公里	2901
针对性	2902
计量	2903
102	2904
免受	2905
职类	2906
身体	2907
轨道	2908
低收入	2909
变动	2910
蒙古	2911
下文	2912
价值观	2913
对@@	2914
法语	2915
档案	2916
津巴布韦	2917
沟通	2918
由此	2919
国际法院	2920
1.@@	2921
参与者	2922
人@@	2923
封锁	2924
111	2925
审查会议	2926
5@@	2927
他人	2928
生存	2929
爱沙尼亚	2930
强制	2931
负有	2932
6@@	2933
污染物	2934
管理层	2935
工作者	2936
接近	2937
非索	2938
知情	2939
组合	2940
高等教育	2941
y@@	2942
福祉	2943
中非	2944
第二条	2945
i@@	2946
必需	2947
人为	2948
普及	2949
人权法	2950
种种	2951
秩序	2952
随时	2953
101	2954
贝宁	2955
简报	2956
限于	2957
1980	2958
行动者	2959
习俗	2960
O@@	2961
回收	2962
近年来	2963
逐渐	2964
不当	2965
绝对	2966
海洋法	2967
港口	2968
违背	2969
海上	2970
填补	2971
董事会	2972
事故	2973
清理	2974
领袖	2975
n	2976
103	2977
也许	2978
正是	2979
安装	2980
文职人员	2981
增多	2982
104	2983
英文	2984
描述	2985
保安	2986
必要措施	2987
差别	2988
会晤	2989
海外	2990
项下	2991
种	2992
科@@	2993
席位	2994
站	2995
巡逻	2996
被占领土	2997
着重指出	2998
诉诸	2999
广播	3000
头	3001
永久	3002
p@@	3003
设定	3004
航空	3005
莫桑比克	3006
人群	3007
实物	3008
拉脱维亚	3009
角色	3010
以南	3011
入	3012
分布	3013
德班	3014
认捐	3015
任何人	3016
直到	3017
中学	3018
痛苦	3019
覆盖	3020
过度	3021
每日	3022
翻译	3023
形势	3024
an@@	3025
探索	3026
边缘化	3027
and	3028
有@@	3029
煽动	3030
铭记	3031
合法性	3032
伊	3033
对付	3034
客观	3035
力	3036
岛	3037
内@@	3038
事	3039
教学	3040
新@@	3041
2020	3042
文明	3043
召集	3044
纪念	3045
中等	3046
直至	3047
英国	3048
in@@	3049
风险管理	3050
章	3051
Y@@	3052
转	3053
削弱	3054
国际劳工组织	3055
支配	3056
刑法典	3057
可@@	3058
转递	3059
1989	3060
假	3061
警察部队	3062
缴款	3063
乌兹别克斯坦	3064
军备	3065
其他人	3066
失业率	3067
力求	3068
撤销	3069
联合国开发计划署	3070
130	3071
+	3072
响应	3073
正规	3074
加@@	3075
Ch@@	3076
流程	3077
a@@	3078
1988	3079
星期五	3080
判处	3081
恰当	3082
第三方	3083
裂变	3084
咨商	3085
of	3086
中部	3087
臭氧	3088
卫生设施	3089
标准化	3090
卢森堡	3091
仇恨	3092
本人	3093
每周	3094
驳回	3095
调查结果	3096
有所增加	3097
多项	3098
y	3099
导弹	3100
单元	3101
补编	3102
自动	3103
室	3104
k	3105
108	3106
107	3107
剩余	3108
提起	3109
经共体	3110
追加	3111
计划生育	3112
否则	3113
被捕	3114
开设	3115
另有	3116
巴林	3117
曾经	3118
Add.2	3119
会费	3120
位置	3121
欺诈	3122
学术	3123
选民	3124
援引	3125
辅助	3126
疫苗	3127
er@@	3128
村	3129
纳米比亚	3130
能否	3131
闭会	3132
生产力	3133
106	3134
体面	3135
不得不	3136
紧张	3137
查阅	3138
第五次	3139
面向	3140
孕产妇	3141
连续	3142
缩小	3143
弃权	3144
作物	3145
冻结	3146
圆桌会议	3147
尔	3148
电信	3149
马	3150
现代化	3151
税	3152
刑事法庭	3153
残疾儿童	3154
言论自由	3155
台	3156
架	3157
112	3158
高效	3159
一方	3160
亿	3161
分段	3162
近期	3163
发挥作用	3164
其@@	3165
海事	3166
迫切需要	3167
供水	3168
星期一	3169
优惠	3170
j	3171
分担	3172
冰岛	3173
现状	3174
当然	3175
改造	3176
治安	3177
巴拿马	3178
东耶路撒冷	3179
丰富	3180
巴@@	3181
巴拉圭	3182
散发	3183
遭	3184
两级	3185
男孩	3186
授予	3187
联检	3188
联合国大会	3189
协调会	3190
配合	3191
系统地	3192
防范	3193
暂时	3194
草稿	3195
115	3196
旅费	3197
采纳	3198
l	3199
拉加	3200
蒙特雷	3201
简单	3202
解除	3203
订约	3204
基本权利	3205
Z@@	3206
最为	3207
回答	3208
饮用水	3209
II	3210
接收	3211
做到	3212
e@@	3213
感兴趣	3214
置于	3215
工作量	3216
捕捞	3217
繁荣	3218
大幅度	3219
罗姆人	3220
序言	3221
on	3222
属	3223
生态	3224
斯德哥尔摩	3225
愿望	3226
村庄	3227
共同努力	3228
养恤	3229
洪都拉斯	3230
继承	3231
化学	3232
忽视	3233
网上	3234
理论	3235
尽	3236
维护者	3237
预防性	3238
这里	3239
113	3240
之@@	3241
丈夫	3242
言论	3243
上@@	3244
方便	3245
标题	3246
薪酬	3247
三@@	3248
公路	3249
任用	3250
㈢	3251
114	3252
患者	3253
列支敦士登	3254
侵略	3255
合作社	3256
灾难	3257
将近	3258
持久性	3259
高@@	3260
比额	3261
面积	3262
器	3263
巴	3264
星期四	3265
队	3266
操守	3267
马其顿共和国	3268
万人	3269
姆	3270
实例	3271
R	3272
特@@	3273
物	3274
两@@	3275
我要	3276
骚扰	3277
z@@	3278
堕胎	3279
上次	3280
健全	3281
报酬	3282
例	3283
儿基会	3284
非殖民化	3285
林业	3286
高质量	3287
特性	3288
团伙	3289
牵头	3290
和@@	3291
易	3292
看来	3293
制品	3294
众多	3295
六个	3296
筹备工作	3297
减免	3298
说法	3299
109	3300
CRC	3301
生育	3302
发展权	3303
第六条	3304
不要	3305
讲话	3306
短缺	3307
运送	3308
116	3309
世界卫生组织	3310
等等	3311
利	3312
法律文书	3313
t	3314
原籍	3315
减缓	3316
盟约	3317
系	3318
意图	3319
家园	3320
截止	3321
结余	3322
政府首脑	3323
准备金	3324
联邦政府	3325
un	3326
紧迫	3327
发给	3328
卫生部	3329
船只	3330
补助	3331
对外	3332
至今	3333
所得	3334
施加	3335
部落	3336
年轻	3337
联海	3338
基本建设	3339
申明	3340
犯有	3341
修建	3342
提升	3343
自决	3344
所@@	3345
流行病	3346
140	3347
物体	3348
表格	3349
延迟	3350
船舶	3351
十三届	3352
选出	3353
采矿	3354
18@@	3355
一所	3356
值	3357
金融危机	3358
一贯	3359
结婚	3360
孕妇	3361
倾向	3362
思想	3363
审	3364
117	3365
f@@	3366
经社理事会	3367
民警	3368
其后	3369
十二届	3370
告诉	3371
整合	3372
无论是	3373
指挥官	3374
习惯	3375
一架	3376
中亚	3377
职业培训	3378
星期三	3379
122	3380
斐济	3381
房屋	3382
at	3383
经济危机	3384
g@@	3385
关键作用	3386
左右	3387
惩治	3388
书	3389
投资者	3390
第三届	3391
关税	3392
多哥	3393
am@@	3394
土库曼斯坦	3395
有待	3396
国家元首	3397
含有	3398
计算机	3399
土著人	3400
想法	3401
坦桑尼亚联合共和国	3402
路线图	3403
奠定	3404
摆脱	3405
各个方面	3406
r	3407
政权	3408
更多地	3409
军火	3410
效应	3411
无国籍	3412
人事	3413
尼	3414
作出努力	3415
市场准入	3416
1967	3417
围绕	3418
中所	3419
见下文	3420
必不可少	3421
第十四条	3422
机遇	3423
特使	3424
节省	3425
塔吉克斯坦	3426
契约	3427
讲	3428
穷国	3429
振兴	3430
j@@	3431
118	3432
惩处	3433
征求	3434
该司	3435
视	3436
保密	3437
中所载	3438
种族灭绝	3439
1373	3440
原	3441
住所	3442
小@@	3443
U@@	3444
中小企业	3445
普查	3446
日常	3447
不久	3448
分歧	3449
实验室	3450
加工	3451
时@@	3452
年前	3453
奥@@	3454
吉尔吉斯斯坦	3455
事业	3456
看	3457
非国家	3458
7@@	3459
吉布提	3460
买卖	3461
某个	3462
据估计	3463
信心	3464
西@@	3465
119	3466
取得成功	3467
H	3468
禁毒	3469
自@@	3470
DP	3471
这笔	3472
此后	3473
度	3474
罚款	3475
免疫	3476
脱离	3477
次数	3478
基本上	3479
欧洲委员会	3480
科技	3481
星期二	3482
识别	3483
V	3484
分至	3485
同@@	3486
开采	3487
指令	3488
国@@	3489
公共政策	3490
水@@	3491
真相	3492
司法部	3493
估算	3494
承包商	3495
鱼类	3496
125	3497
工业化	3498
不受	3499
感到遗憾	3500
交给	3501
一步	3502
本@@	3503
比如	3504
追踪	3505
消灭	3506
分散	3507
十届	3508
行政部门	3509
所在	3510
160	3511
en@@	3512
纳@@	3513
南部非洲	3514
组建	3515
入学率	3516
抵消	3517
开列	3518
统筹	3519
17@@	3520
I@@	3521
措辞	3522
星期	3523
家庭成员	3524
顾及	3525
在线	3526
警务	3527
致使	3528
扫盲	3529
施政	3530
汇款	3531
交通	3532
w@@	3533
老龄	3534
招聘	3535
筹集	3536
卫生保健	3537
除外	3538
发达	3539
强大	3540
主导	3541
辩护	3542
马拉维	3543
as	3544
七	3545
节目	3546
设有	3547
0	3548
约翰内斯堡	3549
既定	3550
贫民窟	3551
下@@	3552
180	3553
羁押	3554
为什么	3555
所用	3556
获	3557
尼日尔	3558
行	3559
123	3560
祝贺	3561
构想	3562
固定	3563
该条	3564
重叠	3565
核试验	3566
以@@	3567
ia	3568
伊@@	3569
121	3570
或是	3571
普遍性	3572
金属	3573
某一	3574
部委	3575
发动	3576
东盟	3577
司长	3578
亚	3579
跨	3580
等待	3581
14@@	3582
本着	3583
一揽子	3584
负面影响	3585
业	3586
线	3587
三分之一	3588
贩卖人口	3589
警官	3590
聘用	3591
成人	3592
N	3593
其次	3594
带	3595
多米尼加共和国	3596
父亲	3597
广大	3598
收容	3599
预算编制	3600
号法	3601
族	3602
大力	3603
毛里塔尼亚	3604
常会	3605
承付	3606
预警	3607
的确	3608
｟n37｠	3609
源	3610
学科	3611
日@@	3612
名册	3613
大赦	3614
检测	3615
实效	3616
第七条	3617
缓慢	3618
世卫	3619
两份	3620
撤回	3621
it@@	3622
｟n11｠	3623
es	3624
http	3625
提倡	3626
统计数字	3627
直升机	3628
标志	3629
万@@	3630
会见	3631
首都	3632
单	3633
枚	3634
the	3635
学	3636
｟n12｠	3637
要点	3638
遗留	3639
｟n27｠	3640
操作	3641
评注	3642
县	3643
特权	3644
｟n16｠	3645
产量	3646
无效	3647
迹象	3648
124	3649
应为	3650
联苏	3651
法@@	3652
｟n15｠	3653
地@@	3654
精简	3655
马达加斯加	3656
运营	3657
｟n4｠	3658
灭绝种族	3659
兰	3660
合适	3661
麻醉药品	3662
司法制度	3663
塔	3664
起到	3665
｟n22｠	3666
复苏	3667
术语	3668
｟n36｠	3669
志愿	3670
租赁	3671
｟n25｠	3672
｟n32｠	3673
具体措施	3674
惠益	3675
｟n45｠	3676
波动	3677
｟n47｠	3678
｟n17｠	3679
权限	3680
模型	3681
办公	3682
斯@@	3683
｟n5｠	3684
名称	3685
多少	3686
流行	3687
138	3688
应@@	3689
m	3690
博茨瓦纳	3691
｟n20｠	3692
塞人	3693
｟n23｠	3694
｟n26｠	3695
｟n28｠	3696
偏见	3697
八	3698
0.@@	3699
颁发	3700
｟n34｠	3701
持	3702
约束	3703
局面	3704
｟n31｠	3705
塞族	3706
｟n46｠	3707
反馈	3708
｟n49｠	3709
跨国公司	3710
现场	3711
｟n24｠	3712
外债	3713
公共行政	3714
权力下放	3715
审讯	3716
｟n19｠	3717
｟n21｠	3718
v@@	3719
｟n41｠	3720
军事行动	3721
专题讨论	3722
周	3723
｟n33｠	3724
欣见	3725
队伍	3726
经济委员会	3727
综合性	3728
｟n10｠	3729
｟n9｠	3730
不足以	3731
南亚	3732
场	3733
13@@	3734
｟n35｠	3735
案情	3736
赤贫	3737
｟n44｠	3738
el@@	3739
草坪	3740
｟n39｠	3741
｟n38｠	3742
｟n42｠	3743
理想	3744
教训	3745
｟n7｠	3746
划拨	3747
执法人员	3748
｟n48｠	3749
元	3750
萨摩亚	3751
信函	3752
｟n29｠	3753
｟n14｠	3754
月底	3755
｟n6｠	3756
门	3757
｟n30｠	3758
根除	3759
迫使	3760
时代	3761
届会	3762
开会	3763
el	3764
一场	3765
｟n43｠	3766
Al@@	3767
｟n18｠	3768
ad@@	3769
入学	3770
外交部长	3771
谋求	3772
指挥	3773
16@@	3774
｟n8｠	3775
INF	3776
追回	3777
联	3778
入境	3779
极其	3780
欧安组织	3781
155	3782
战斗	3783
｟n40｠	3784
马尔代夫	3785
碎片	3786
顺利	3787
实务	3788
老年	3789
正当	3790
艺术	3791
分@@	3792
尽管如此	3793
激励	3794
赞助	3795
联合国总部	3796
分娩	3797
适足	3798
当代	3799
中美洲	3800
库	3801
｟n13｠	3802
公共卫生	3803
编辑	3804
奖励	3805
员工	3806
产业	3807
范畴	3808
教授	3809
瓦	3810
布@@	3811
暂行	3812
先决条件	3813
配额	3814
第四届	3815
所指	3816
先进	3817
费率	3818
调集	3819
重组	3820
公私	3821
机	3822
海盗	3823
医疗保健	3824
126	3825
三项	3826
代价	3827
128	3828
｟n2｠	3829
出来	3830
尽早	3831
C.4	3832
发了	3833
曼谷	3834
便于	3835
吸收	3836
据说	3837
增设	3838
12@@	3839
动机	3840
盘旋	3841
储备	3842
撤出	3843
社会福利	3844
委托	3845
｟n3｠	3846
很难	3847
连续性	3848
较大	3849
追究	3850
2016	3851
182	3852
不丹	3853
三名	3854
at@@	3855
地震	3856
电子商务	3857
签发	3858
据此	3859
木材	3860
移动	3861
212	3862
爆发	3863
犯	3864
种类	3865
章程	3866
塔利班	3867
生境	3868
体罚	3869
引发	3870
证词	3871
配备	3872
世界人权宣言	3873
技术支持	3874
外@@	3875
目的地	3876
20@@	3877
口译	3878
会谈	3879
司法部门	3880
第一章	3881
家长	3882
少女	3883
参加者	3884
不结盟运动	3885
第十届	3886
下次	3887
德@@	3888
名@@	3889
134	3890
包	3891
本地	3892
K	3893
公共服务	3894
苏丹政府	3895
毫米	3896
性骚扰	3897
和平利用	3898
公顷	3899
文职	3900
报	3901
六个月	3902
网址	3903
遏制	3904
群岛	3905
萨@@	3906
弥补	3907
2.@@	3908
差旅	3909
找出	3910
环境保护	3911
现	3912
一届	3913
利润	3914
妻子	3915
服务中心	3916
较为	3917
阿拉伯联合酋长国	3918
核能	3919
非@@	3920
女生	3921
电台	3922
玻利瓦尔	3923
or@@	3924
财务报告	3925
延误	3926
TD	3927
作法	3928
次序	3929
得出结论	3930
警察局	3931
巴巴多斯	3932
第三条	3933
事宜	3934
动力	3935
西撒哈拉	3936
展示	3937
秘密	3938
甄选	3939
第二章	3940
剂	3941
迁移	3942
地面	3943
处以	3944
流入	3945
刑事诉讼法	3946
O	3947
从未	3948
中间	3949
演变	3950
第六次	3951
ab@@	3952
u@@	3953
救助	3954
具	3955
隔离	3956
新兴	3957
创业	3958
足以	3959
远远	3960
或许	3961
周围	3962
基	3963
车	3964
活力	3965
重大进展	3966
彼此	3967
议定	3968
事务处	3969
转型期	3970
129	3971
一支	3972
瓦@@	3973
业已	3974
高级官员	3975
势头	3976
各部	3977
133	3978
证件	3979
第四条	3980
列举	3981
房	3982
准许	3983
反对派	3984
法外	3985
刑事诉讼	3986
联合国环境规划署	3987
全面禁止	3988
常规	3989
明确规定	3990
国民议会	3991
135	3992
学会	3993
成年人	3994
ch@@	3995
庆祝	3996
每次	3997
忆及	3998
132	3999
接种	4000
圭亚那	4001
具体情况	4002
更具	4003
1540	4004
物种	4005
报表	4006
布鲁塞尔	4007
这场	4008
架构	4009
集束	4010
海@@	4011
甲基	4012
叙述	4013
禁令	4014
15@@	4015
摧毁	4016
接纳	4017
会期	4018
引入	4019
年@@	4020
诊所	4021
影响力	4022
主管部门	4023
划分	4024
测量	4025
停火	4026
签证	4027
指明	4028
十@@	4029
走	4030
Sh@@	4031
替代品	4032
病人	4033
图@@	4034
撤离	4035
应由	4036
生产能力	4037
极端主义	4038
助长	4039
我谨	4040
象	4041
恶劣	4042
裁撤	4043
克@@	4044
尊重人权	4045
127	4046
偷运	4047
品	4048
款额	4049
相关性	4050
通用	4051
电视	4052
不仅仅	4053
批评	4054
缴纳	4055
遗产	4056
过渡时期	4057
对应	4058
企业家	4059
双重	4060
问	4061
辐射	4062
教育部	4063
获益	4064
辆	4065
169	4066
哈@@	4067
T	4068
｟n1｠	4069
采取有效	4070
141	4071
便利化	4072
专长	4073
恐吓	4074
无障碍	4075
审计员	4076
微型	4077
摩尔多瓦共和国	4078
汽车	4079
依	4080
达成协议	4081
论述	4082
格	4083
寿命	4084
奴役	4085
土壤	4086
考试	4087
倍	4088
罗@@	4089
基@@	4090
第二阶段	4091
述及	4092
建制	4093
131	4094
地中海	4095
之二	4096
检查组	4097
导航	4098
中止	4099
收养	4100
死	4101
集会	4102
传染病	4103
萨	4104
诊断	4105
为@@	4106
印刷	4107
抗议	4108
增效	4109
2017	4110
离婚	4111
性健康	4112
耶路撒冷	4113
报复	4114
总量	4115
外空	4116
捍卫	4117
第三国	4118
ag@@	4119
事情	4120
转化	4121
战略性	4122
财富	4123
淘汰	4124
WP.@@	4125
WG	4126
划界	4127
从@@	4128
J	4129
CO	4130
病例	4131
路	4132
前@@	4133
开幕	4134
枪支	4135
中小型	4136
埃@@	4137
外交部	4138
对抗	4139
活跃	4140
街头	4141
增编	4142
联合国秘书处	4143
陷入	4144
分为	4145
零	4146
之际	4147
一再	4148
不幸	4149
侧重	4150
8@@	4151
签字	4152
9@@	4153
1970	4154
安@@	4155
敌对行动	4156
发言人	4157
消极	4158
意外	4159
四@@	4160
ah	4161
申报	4162
据报	4163
更换	4164
严峻	4165
是从	4166
总是	4167
使用者	4168
变成	4169
核证	4170
不管	4171
尚	4172
刺激	4173
修复	4174
利息	4175
153	4176
比@@	4177
生	4178
概况	4179
租金	4180
连接	4181
自主	4182
布雷顿	4183
多人	4184
亚@@	4185
申请人	4186
哈	4187
出@@	4188
大西洋	4189
山区	4190
西部	4191
伦敦	4192
含义	4193
检察长	4194
率为	4195
调查表	4196
孤儿	4197
170	4198
切割	4199
每一	4200
病	4201
冲击	4202
区域间	4203
产假	4204
力度	4205
十四届	4206
等级	4207
危及	4208
空运	4209
收取	4210
进行谈判	4211
和谐	4212
确切	4213
ad	4214
凡	4215
尽量	4216
各@@	4217
境况	4218
编号	4219
解释性	4220
财政年度	4221
o@@	4222
假定	4223
相互依存	4224
定居	4225
挂钩	4226
此次	4227
氟	4228
布	4229
细节	4230
展望	4231
送交	4232
本来	4233
系列	4234
赋权	4235
1986	4236
拘押	4237
送	4238
136	4239
最多	4240
自主权	4241
海洋环境	4242
训研	4243
区域性	4244
第九届	4245
PRST	4246
相一致	4247
二氧化碳	4248
235	4249
3.@@	4250
利@@	4251
建筑物	4252
一天	4253
137	4254
加元	4255
大陆	4256
理事	4257
总收入	4258
142	4259
以供	4260
概览	4261
谋杀	4262
载列	4263
总产值	4264
使命	4265
阵地	4266
结构性	4267
期@@	4268
版本	4269
权威	4270
学术界	4271
可信	4272
积累	4273
概要	4274
西班牙语	4275
伊斯坦布尔	4276
如@@	4277
2.1	4278
不予	4279
氯化	4280
失败	4281
中将	4282
143	4283
城镇	4284
文@@	4285
摩纳哥	4286
行径	4287
转向	4288
这@@	4289
令人满意	4290
受益人	4291
第三个	4292
补救措施	4293
尔@@	4294
这两项	4295
留在	4296
多方	4297
拨	4298
飞离	4299
贩毒	4300
第五条	4301
id@@	4302
检验	4303
as@@	4304
房舍	4305
裔	4306
从中	4307
发病率	4308
措词	4309
绝大多数	4310
发@@	4311
待	4312
三分之二	4313
奖学金	4314
权益	4315
抵达	4316
迫害	4317
联委会	4318
莱索托	4319
乡村	4320
联阿	4321
而@@	4322
法典	4323
迪	4324
妥善	4325
ing	4326
重@@	4327
多边贸易	4328
电力	4329
上学	4330
et	4331
详尽	4332
遵约	4333
1985	4334
内阁	4335
继	4336
SR.@@	4337
收回	4338
减至	4339
1.1	4340
公务	4341
埃	4342
基伍	4343
充分利用	4344
为何	4345
资发	4346
气象	4347
扶持	4348
il@@	4349
干涉	4350
本案	4351
139	4352
城市化	4353
环境卫生	4354
第六届	4355
un@@	4356
受益者	4357
幸存者	4358
朝鲜民主主义人民共和国	4359
时说	4360
连贯	4361
加蓬	4362
专用	4363
联合国儿童基金会	4364
妇女组织	4365
三次	4366
捐赠	4367
传染性	4368
生产性	4369
资金来源	4370
债务人	4371
ST	4372
并于	4373
违法行为	4374
蔓延	4375
国防	4376
救灾	4377
伤亡	4378
七个	4379
收费	4380
阵线	4381
调	4382
见解	4383
口粮	4384
种群	4385
延期	4386
用水	4387
am	4388
is@@	4389
跨部门	4390
完整性	4391
ak@@	4392
所说	4393
戈兰	4394
147	4395
第七届	4396
一笔	4397
原先	4398
章节	4399
英镑	4400
145	4401
非洲大陆	4402
调查团	4403
一事	4404
保持一致	4405
预防措施	4406
吸毒	4407
兵	4408
勘探	4409
扭转	4410
关键问题	4411
日起	4412
联网	4413
附录	4414
多万	4415
禁产	4416
144	4417
用尽	4418
示威	4419
隔离墙	4420
提	4421
优质	4422
司法机关	4423
ri@@	4424
文盲	4425
气氛	4426
两者	4427
预见	4428
大程度	4429
极	4430
146	4431
0@@	4432
班	4433
上帝	4434
改组	4435
博士	4436
回合	4437
避孕	4438
ou@@	4439
令人遗憾	4440
放射性	4441
归还	4442
几@@	4443
团长	4444
162	4445
天然气	4446
尼@@	4447
Sub.2	4448
差旅费	4449
本条	4450
所提	4451
论点	4452
署长	4453
该次	4454
海牙	4455
1987	4456
预定	4457
大众	4458
续会	4459
养老金	4460
动物	4461
经常性	4462
详情	4463
3.1	4464
人口普查	4465
发送	4466
承受	4467
追求	4468
流通	4469
第五届	4470
麻醉品	4471
可行性	4472
殴打	4473
超越	4474
做好	4475
鹿特丹	4476
定居者	4477
多地	4478
第十一届	4479
加紧努力	4480
管理机构	4481
警卫	4482
初期	4483
抗	4484
第九条	4485
政府部门	4486
买方	4487
之上	4488
税务	4489
性别歧视	4490
阿曼	4491
Add.3	4492
农产品	4493
刑事犯罪	4494
表示感谢	4495
文章	4496
薄弱	4497
已@@	4498
早	4499
绳之以法	4500
一致意见	4501
刑罚	4502
270	4503
领土完整	4504
可否	4505
每@@	4506
第一阶段	4507
饮水	4508
AC.109	4509
中断	4510
战略规划	4511
各州	4512
出台	4513
过于	4514
几项	4515
欧洲人	4516
河	4517
á	4518
核不扩散	4519
分开	4520
参与性	4521
im@@	4522
一段	4523
动用	4524
转@@	4525
派出	4526
举报	4527
科学家	4528
罗	4529
马德里	4530
is	4531
矛盾	4532
海底	4533
结核病	4534
同事	4535
220	4536
第五十八	4537
网页	4538
全民投票	4539
协商会议	4540
三方	4541
151	4542
东欧	4543
新增	4544
消耗性	4545
哥本哈根	4546
复杂性	4547
更改	4548
营	4549
深	4550
雇佣军	4551
形象	4552
摩加迪沙	4553
应予	4554
普@@	4555
或@@	4556
编纂	4557
区内	4558
作出反应	4559
法文	4560
五@@	4561
勒	4562
如同	4563
人身	4564
分离	4565
徒刑	4566
缉获	4567
港	4568
蓄意	4569
版	4570
段落	4571
保护措施	4572
驱动	4573
兼顾	4574
154	4575
核算	4576
姓名	4577
货币基金	4578
不可或缺	4579
生@@	4580
创收	4581
路线	4582
警告	4583
非洲人	4584
外勤人员	4585
差	4586
扣押	4587
ay@@	4588
第五十九	4589
紧密	4590
无疑	4591
二十一	4592
加深	4593
飞越	4594
益处	4595
研训	4596
前任	4597
预先	4598
152	4599
迈出	4600
208	4601
占有	4602
C.6	4603
气	4604
联合行动	4605
国家计划	4606
指派	4607
索	4608
东南亚	4609
儿	4610
149	4611
CD	4612
劳动法	4613
手续	4614
156	4615
宪法法院	4616
宣称	4617
应收款	4618
不限	4619
小组讨论	4620
148	4621
提前	4622
重债	4623
未决	4624
242	4625
210	4626
夫	4627
伊斯兰教	4628
大多	4629
海	4630
法人	4631
降至	4632
=	4633
吸取	4634
紧张局势	4635
条@@	4636
计	4637
基线	4638
护照	4639
数@@	4640
挑选	4641
更正	4642
谁	4643
远	4644
托	4645
总@@	4646
第纳尔	4647
战略方针	4648
由@@	4649
博@@	4650
小规模	4651
自决权	4652
二@@	4653
受过	4654
地图	4655
学年	4656
很快	4657
世界贸易组织	4658
201	4659
无线电	4660
辅导	4661
全额	4662
｟a23｠	4663
进	4664
总务	4665
余留	4666
十六届	4667
职权	4668
层次	4669
157	4670
别的	4671
富有	4672
药物滥用	4673
里@@	4674
主管机构	4675
和平解决	4676
一类	4677
巴格达	4678
ic@@	4679
os	4680
几次	4681
船	4682
158	4683
01	4684
全国性	4685
｟a48｠	4686
1973	4687
所致	4688
发行	4689
各项规定	4690
男人	4691
｟a20｠	4692
｟a34｠	4693
亲属	4694
否认	4695
此事	4696
努力实现	4697
原则上	4698
可疑	4699
190	4700
医学	4701
｟a24｠	4702
愿景	4703
浓度	4704
胁迫	4705
｟a13｠	4706
冈比亚	4707
节余	4708
谨慎	4709
革命	4710
248	4711
｟a22｠	4712
1982	4713
ol@@	4714
科学技术	4715
1978	4716
红十字	4717
on@@	4718
担忧	4719
｟a37｠	4720
｟a40｠	4721
ed@@	4722
回到	4723
拘禁	4724
｟a19｠	4725
下面	4726
住宅	4727
沙@@	4728
签名	4729
先	4730
名为	4731
证	4732
｟a41｠	4733
花费	4734
过@@	4735
｟a3｠	4736
各省	4737
儿子	4738
常见	4739
编入	4740
｟a11｠	4741
1325	4742
火器	4743
省份	4744
看作	4745
｟a44｠	4746
犯罪活动	4747
｟a43｠	4748
｟a6｠	4749
暴力事件	4750
周年	4751
宗	4752
思考	4753
达@@	4754
愿	4755
｟a36｠	4756
｟a42｠	4757
涉嫌	4758
南@@	4759
应计	4760
第八届	4761
｟a14｠	4762
｟a38｠	4763
｟a4｠	4764
固有	4765
党	4766
｟a39｠	4767
166	4768
西撒	4769
｟a35｠	4770
查询	4771
欧洲共同体	4772
ac@@	4773
陆地	4774
征税	4775
遵照	4776
｟a33｠	4777
限制性	4778
｟a10｠	4779
｟a28｠	4780
习惯法	4781
｟a9｠	4782
市镇	4783
｟a45｠	4784
友好	4785
特派	4786
｟a29｠	4787
令人鼓舞	4788
国际原子能机构	4789
条中	4790
经济社会	4791
｟a7｠	4792
｟a17｠	4793
X	4794
与会	4795
兄弟	4796
英	4797
驻科	4798
充当	4799
失望	4800
｟a30｠	4801
个案	4802
多重	4803
｟a46｠	4804
｟a49｠	4805
减灾	4806
靠	4807
｟a32｠	4808
抢劫	4809
短	4810
看出	4811
L.1	4812
｟a5｠	4813
｟a15｠	4814
平等权利	4815
遥感	4816
内政部	4817
｟a21｠	4818
民族和解	4819
判刑	4820
着眼于	4821
｟a47｠	4822
消费量	4823
缩短	4824
借鉴	4825
被控	4826
太	4827
雷@@	4828
巴哈马	4829
附	4830
户	4831
维@@	4832
拖欠	4833
｟a31｠	4834
分钟	4835
161	4836
因@@	4837
｟a8｠	4838
持久和平	4839
｟a18｠	4840
劳动者	4841
学员	4842
同行	4843
高效率	4844
汲取	4845
塞@@	4846
危险废物	4847
｟a2｠	4848
证券	4849
海啸	4850
累积	4851
㈣	4852
不法行为	4853
｟a25｠	4854
北方	4855
改动	4856
省级	4857
早日	4858
亚的斯亚贝巴	4859
目前为止	4860
｟a12｠	4861
负担得起	4862
天@@	4863
东	4864
文字	4865
｟a27｠	4866
居留	4867
事务司	4868
教育权	4869
面	4870
｟a26｠	4871
统计资料	4872
ani	4873
加重	4874
大麻	4875
通货膨胀	4876
女工	4877
迪@@	4878
｟a16｠	4879
坦桑尼亚	4880
COP	4881
生物武器	4882
无条件	4883
不可分割	4884
救援	4885
350	4886
电子邮件	4887
保护区	4888
限额	4889
230	4890
捕鱼	4891
边缘	4892
1981	4893
ur@@	4894
里程碑	4895
仔细	4896
卷入	4897
定	4898
遭遇	4899
无视	4900
分组	4901
复兴	4902
化合物	4903
回	4904
幅度	4905
循环	4906
｟n0｠	4907
肇事者	4908
派驻	4909
164	4910
ć	4911
p	4912
节约	4913
金伯利	4914
预审	4915
此前	4916
社	4917
至迟	4918
支	4919
感染者	4920
扶贫	4921
参数	4922
土著居民	4923
强制执行	4924
前体	4925
天基	4926
管	4927
难	4928
小册子	4929
极为重要	4930
职	4931
华盛顿	4932
即便	4933
农场	4934
竞争法	4935
邦	4936
编	4937
成长	4938
相符	4939
鲁@@	4940
159	4941
困境	4942
213	4943
非盟	4944
240	4945
侦查	4946
es@@	4947
工厂	4948
受@@	4949
09	4950
互助	4951
2.2	4952
165	4953
问卷	4954
明	4955
佛得角	4956
251	4957
切实有效	4958
你们	4959
拆除	4960
260	4961
交流信息	4962
办理	4963
动荡	4964
接待	4965
损坏	4966
抵抗	4967
暴行	4968
军官	4969
信中	4970
策略	4971
充分考虑	4972
检查站	4973
裁减	4974
｟a1｠	4975
Mar@@	4976
ra	4977
不变	4978
缴付	4979
有形	4980
原来	4981
八个	4982
之所以	4983
未@@	4984
降	4985
各项措施	4986
朝	4987
作战	4988
季度	4989
认同	4990
医疗保险	4991
全权	4992
执行机构	4993
公职人员	4994
储蓄	4995
后@@	4996
基层	4997
纠纷	4998
储备金	4999
鼓舞	5000
境外	5001
新生儿	5002
杜@@	5003
三年期	5004
卷	5005
波恩	5006
犯罪者	5007
幼儿	5008
即@@	5009
技术咨询	5010
几十年	5011
族群	5012
第五十七届	5013
塞	5014
带有	5015
该@@	5016
技术性	5017
发展部	5018
相@@	5019
深信	5020
解雇	5021
深切	5022
法律事务	5023
ed	5024
167	5025
兹	5026
严厉	5027
社团	5028
占领国	5029
走私	5030
工	5031
干扰	5032
ina	5033
产	5034
向前	5035
基础教育	5036
厂	5037
注	5038
财务状况	5039
镇	5040
抚养	5041
民用	5042
反@@	5043
提@@	5044
4.1	5045
越境	5046
多达	5047
í	5048
服务业	5049
波黑	5050
解放	5051
诺	5052
遗传	5053
et@@	5054
文化遗产	5055
刑事责任	5056
经社	5057
社会保险	5058
一人	5059
炸弹	5060
第二十届	5061
在职	5062
将要	5063
场地	5064
套	5065
验证	5066
农药	5067
尼亚	5068
已于	5069
开	5070
有意	5071
应是	5072
相似	5073
考察	5074
施行	5075
相辅相成	5076
注销	5077
格@@	5078
到达	5079
受援国	5080
独立国家	5081
163	5082
兑现	5083
创伤	5084
量化	5085
看待	5086
侵权行为	5087
患有	5088
不必要	5089
特立尼达和多巴哥	5090
巴布亚新几内亚	5091
距离	5092
陈	5093
会议议程	5094
生育率	5095
生殖器	5096
矿物	5097
韩国	5098
海岸	5099
称赞	5100
要么	5101
托克劳	5102
通@@	5103
两位	5104
宽容	5105
总计	5106
联发援	5107
国会	5108
九	5109
受到限制	5110
理念	5111
谈	5112
当事	5113
必然	5114
审计报告	5115
退出	5116
健康状况	5117
被害人	5118
层	5119
所定	5120
189	5121
实况	5122
农业部门	5123
日历	5124
基督教	5125
伯利兹	5126
故意	5127
开@@	5128
植物	5129
依法	5130
系统性	5131
土地利用	5132
履约	5133
财力	5134
阶层	5135
恩	5136
第十二届	5137
211	5138
立法机构	5139
对本	5140
模块	5141
坚信	5142
1.2	5143
培训中心	5144
晋升	5145
覆盖面	5146
定稿	5147
男童	5148
尽量减少	5149
孤立	5150
波@@	5151
深刻	5152
192	5153
含	5154
索偿	5155
总人口	5156
175	5157
第七	5158
适宜	5159
5%	5160
_	5161
世界粮食计划署	5162
市政	5163
5.@@	5164
惩戒	5165
斯威士兰	5166
168	5167
过分	5168
不必	5169
无人	5170
判定	5171
一部	5172
交叉	5173
司法程序	5174
后裔	5175
方@@	5176
缺口	5177
大气	5178
前所未有	5179
香港	5180
丧生	5181
连同	5182
227	5183
免除	5184
无需	5185
庭长	5186
搬迁	5187
自行	5188
塔@@	5189
广告	5190
慈善	5191
添加	5192
III	5193
年份	5194
批	5195
中为	5196
出缺	5197
判断	5198
索@@	5199
法律顾问	5200
苦难	5201
or	5202
表@@	5203
所在地	5204
俱乐部	5205
174	5206
僵局	5207
含水层	5208
团队	5209
承办	5210
生命权	5211
中立	5212
供应链	5213
斡旋	5214
特别法庭	5215
伊拉克政府	5216
潜能	5217
发电机	5218
最低工资	5219
会员	5220
借助	5221
183	5222
特许	5223
第一份	5224
如今	5225
172	5226
付出	5227
内外	5228
沙特	5229
北约	5230
文献	5231
之害	5232
峰会	5233
现任	5234
采取任何	5235
家具	5236
226	5237
前进	5238
托@@	5239
打破	5240
阿卜耶伊	5241
三大	5242
长@@	5243
撰写	5244
负	5245
登记处	5246
战略目标	5247
交通运输	5248
汇集	5249
贯彻	5250
审前	5251
公@@	5252
强行	5253
重	5254
RES	5255
一体	5256
成@@	5257
3.2	5258
值得注意	5259
顺序	5260
毕业	5261
181	5262
分项	5263
筹备会议	5264
185	5265
估值	5266
利害关系	5267
到期	5268
刚刚	5269
监视	5270
简介	5271
安道尔	5272
详细资料	5273
流	5274
金融服务	5275
em@@	5276
俄	5277
214	5278
平等待遇	5279
竞争性	5280
美国政府	5281
动议	5282
不确定性	5283
频繁	5284
联伊	5285
附带	5286
下去	5287
国际货币基金组织	5288
排	5289
朝着	5290
灾后	5291
29@@	5292
第二十三届	5293
委	5294
联络点	5295
it	5296
综管	5297
环境影响	5298
成熟	5299
结成	5300
希@@	5301
钱	5302
186	5303
以使	5304
科摩罗	5305
私有化	5306
177	5307
RC	5308
制造业	5309
Mr	5310
书记	5311
农发	5312
希族	5313
长时间	5314
173	5315
243	5316
鱼	5317
初	5318
副本	5319
推定	5320
书记官	5321
迫切	5322
回复	5323
住宿	5324
诸多	5325
升	5326
当作	5327
直布罗陀	5328
洛@@	5329
2.5	5330
感	5331
一周	5332
远程	5333
该股	5334
平方公里	5335
快	5336
曼	5337
资源分配	5338
Q@@	5339
使@@	5340
178	5341
地名	5342
Kh@@	5343
火箭	5344
奇	5345
低@@	5346
制度化	5347
相结合	5348
控制措施	5349
202	5350
臭氧层	5351
to	5352
206	5353
注射	5354
ul@@	5355
187	5356
普通照会	5357
字	5358
联络小组	5359
贝鲁特	5360
生产者	5361
逃离	5362
户主	5363
职员	5364
民航	5365
天内	5366
引进	5367
生产率	5368
开罗	5369
莱@@	5370
x@@	5371
创立	5372
高等法院	5373
尤为	5374
逆转录	5375
一节	5376
分阶段	5377
人员编制	5378
留下	5379
SBI	5380
熟悉	5381
处在	5382
想要	5383
性@@	5384
时刻	5385
鉴定	5386
原@@	5387
无辜	5388
深感	5389
1984	5390
苏里南	5391
犯人	5392
古@@	5393
支持者	5394
强	5395
提高效率	5396
不满	5397
贝@@	5398
吉@@	5399
2.3	5400
普遍存在	5401
第一步	5402
Ar@@	5403
学者	5404
真实	5405
搜查	5406
表述	5407
免于	5408
题目	5409
监控	5410
233	5411
波多黎各	5412
出入	5413
全@@	5414
AC.105	5415
st@@	5416
进而	5417
着重于	5418
184	5419
上面	5420
铁路	5421
二苯醚	5422
当今	5423
公然	5424
解决问题	5425
om@@	5426
在此期间	5427
相关者	5428
进出口	5429
行@@	5430
171	5431
空白	5432
优先权	5433
电@@	5434
贸易协定	5435
南北	5436
复审	5437
卖方	5438
奖	5439
老人	5440
4.@@	5441
解放军	5442
安	5443
第十三届	5444
二级	5445
夫人	5446
ICEF	5447
列报	5448
虽	5449
即决	5450
口	5451
经@@	5452
反叛	5453
西欧	5454
191	5455
年龄组	5456
杀	5457
选择性	5458
194	5459
一下	5460
外来	5461
下放	5462
艰难	5463
十	5464
走向	5465
176	5466
育儿	5467
自动化	5468
该科	5469
一次性	5470
六@@	5471
起@@	5472
萨赫勒	5473
re@@	5474
决定性	5475
毁坏	5476
Q	5477
单@@	5478
文中	5479
ah@@	5480
［	5481
05	5482
价	5483
该处	5484
225	5485
良心	5486
底	5487
av@@	5488
东亚	5489
平方米	5490
兵力	5491
专业知识	5492
x	5493
活产	5494
ir@@	5495
这使	5496
分裂	5497
合办	5498
瓦努阿图	5499
SC	5500
218	5501
奥	5502
附表	5503
出资	5504
民政	5505
穆@@	5506
轮	5507
妥协	5508
精算	5509
2050	5510
207	5511
新闻稿	5512
继续加强	5513
三种	5514
展览	5515
承担责任	5516
作@@	5517
土族	5518
加紧	5519
老挝人民民主共和国	5520
209	5521
CERD	5522
独联体	5523
一组	5524
初等教育	5525
盈余	5526
科学研究	5527
仲裁庭	5528
...	5529
莫@@	5530
接到	5531
th@@	5532
大批	5533
下令	5534
空气	5535
Add.4	5536
即可	5537
多方面	5538
性行为	5539
监督机构	5540
结构调整	5541
联合国安全理事会	5542
规划系统	5543
声音	5544
不明	5545
个体	5546
消息	5547
见表	5548
有限公司	5549
合理化	5550
一并	5551
王国	5552
出色	5553
递交	5554
一批	5555
官	5556
代理人	5557
健康权	5558
贯穿	5559
237	5560
入@@	5561
命运	5562
St@@	5563
一案	5564
出身	5565
第十九条	5566
抵销	5567
殖民地	5568
半	5569
母婴	5570
用@@	5571
空@@	5572
携带	5573
信誉	5574
替换	5575
第七次	5576
朝鲜	5577
确信	5578
205	5579
该案	5580
｟a0｠	5581
禁毒署	5582
急剧	5583
179	5584
以色列国防军	5585
蒂	5586
梅@@	5587
保卫	5588
ó	5589
屠杀	5590
用语	5591
定型	5592
林	5593
ai	5594
体@@	5595
相称	5596
光@@	5597
占据	5598
非统组织	5599
拯救	5600
航行	5601
222	5602
人中	5603
4%	5604
中等教育	5605
官长	5606
年度预算	5607
性取向	5608
传真	5609
］	5610
实用	5611
打@@	5612
主持人	5613
部长会议	5614
CCPR	5615
定性	5616
苏@@	5617
266	5618
事例	5619
3%	5620
手	5621
男	5622
仓库	5623
联东	5624
院	5625
永远	5626
PC	5627
麻	5628
269	5629
内在	5630
库@@	5631
铀	5632
再度	5633
1%	5634
六种	5635
山	5636
地向	5637
家中	5638
禁试	5639
两国	5640
伊斯兰会议组织	5641
笔	5642
听到	5643
第一条	5644
论文	5645
阿布哈兹	5646
ut@@	5647
略有	5648
1960	5649
奴隶制	5650
有毒	5651
规范性	5652
1949	5653
或非	5654
时应	5655
民法	5656
花	5657
ana	5658
生成	5659
铲除	5660
ICCD	5661
手中	5662
6%	5663
圣马力诺	5664
188	5665
提供者	5666
互相	5667
供其	5668
统计局	5669
化@@	5670
教会	5671
调查员	5672
帕@@	5673
系数	5674
228	5675
负面	5676
过时	5677
06	5678
会@@	5679
费@@	5680
革新	5681
08	5682
简易	5683
赤字	5684
以色列政府	5685
汇总	5686
仅限于	5687
如上	5688
集装箱	5689
介入	5690
条所	5691
前面	5692
监护	5693
穆罕默德	5694
密集	5695
第二节	5696
声援	5697
常任理事	5698
ou	5699
国防军	5700
耶	5701
审视	5702
241	5703
施工	5704
不论是	5705
含量	5706
建立联系	5707
获释	5708
us	5709
新型	5710
追查	5711
项目管理	5712
保@@	5713
四名	5714
引导	5715
占领军	5716
军人	5717
洛	5718
恐惧	5719
无关	5720
这么	5721
雷	5722
受伤害	5723
变更	5724
L.2	5725
U	5726
输入	5727
覆盖率	5728
图瓦卢	5729
积压	5730
身心	5731
抵制	5732
上涨	5733
不动产	5734
加共体	5735
成年	5736
获准	5737
九个	5738
违约	5739
暂定	5740
221	5741
传染	5742
保	5743
鸿沟	5744
1979	5745
杂志	5746
%	5747
另见	5748
嫌疑人	5749
程序性	5750
卢	5751
圣@@	5752
界限	5753
速效	5754
实验	5755
张	5756
本项	5757
发表意见	5758
烟草	5759
破坏性	5760
管理工作	5761
地址	5762
原始	5763
特别强调	5764
精确	5765
识字	5766
伴侣	5767
借口	5768
教	5769
236	5770
切实可行	5771
四项	5772
进出	5773
不适	5774
医务	5775
毫无	5776
空	5777
载入	5778
之友	5779
发票	5780
东非	5781
年内	5782
流量	5783
联@@	5784
国防部	5785
座	5786
招标	5787
238	5788
全环	5789
仪式	5790
卫生部门	5791
群	5792
阿拉木图	5793
la	5794
基石	5795
EC	5796
“	5797
附上	5798
利率	5799
参见	5800
地理信息系统	5801
等于	5802
6.@@	5803
中欧	5804
例外情况	5805
联合国人口基金	5806
基金组织	5807
1951	5808
累计	5809
楼	5810
到位	5811
癌症	5812
第十条	5813
喀布尔	5814
回国	5815
216	5816
信件	5817
4.2	5818
疗法	5819
辩护律师	5820
关键因素	5821
193	5822
优化	5823
信号	5824
可靠性	5825
罗姆	5826
.1	5827
莫斯科	5828
频率	5829
撤消	5830
那时	5831
而定	5832
请愿	5833
IN@@	5834
研发	5835
乌@@	5836
上限	5837
报纸	5838
解散	5839
集	5840
延续	5841
海洋生物	5842
吉	5843
电视台	5844
评委	5845
阅读	5846
ES	5847
必要条件	5848
投标	5849
调解人	5850
im	5851
自杀	5852
215	5853
不利于	5854
兴奋剂	5855
um@@	5856
竞选	5857
打死	5858
人才	5859
多元化	5860
ov	5861
商	5862
195	5863
198	5864
中央银行	5865
初始	5866
现况	5867
贾@@	5868
过渡政府	5869
历史性	5870
小组会议	5871
出发	5872
当@@	5873
车队	5874
CAT	5875
CONF.@@	5876
204	5877
源自	5878
少于	5879
转换	5880
严重性	5881
所罗门群岛	5882
技巧	5883
毫不	5884
监察组	5885
服务提供者	5886
模拟	5887
下属	5888
1975	5889
交@@	5890
油	5891
197	5892
203	5893
可取	5894
继续执行	5895
连	5896
监护人	5897
行政助理	5898
代替	5899
种子	5900
自卫	5901
253	5902
真诚	5903
SBSTA	5904
组@@	5905
不少	5906
注意力	5907
Ab@@	5908
国际金融	5909
深化	5910
造林	5911
范例	5912
与非	5913
往	5914
早婚	5915
保育	5916
阿拉伯语	5917
杀人	5918
第五十四届	5919
io	5920
慷慨	5921
诺@@	5922
萨米	5923
07	5924
图像	5925
保留意见	5926
公斤	5927
住户	5928
弱点	5929
28@@	5930
”	5931
重计	5932
审慎	5933
恩@@	5934
Am@@	5935
得知	5936
访谈	5937
严格遵守	5938
淡水	5939
z	5940
准入	5941
米@@	5942
宣读	5943
表示遗憾	5944
中请	5945
一段时间	5946
圣卢西亚	5947
核对	5948
艰苦	5949
领事	5950
基会	5951
and@@	5952
岗位	5953
武装力量	5954
7.@@	5955
国情	5956
密切相关	5957
法医	5958
年来	5959
280	5960
严重威胁	5961
森	5962
全氟	5963
5.1	5964
此@@	5965
199	5966
议会选举	5967
职司	5968
查@@	5969
ov@@	5970
流@@	5971
转运	5972
公营	5973
喀土穆	5974
增值	5975
照片	5976
草拟	5977
各种各样	5978
27@@	5979
3.3	5980
276	5981
回归	5982
02	5983
265	5984
增订	5985
精神药物	5986
组成员	5987
多元	5988
巴厘	5989
Th@@	5990
场合	5991
公升	5992
196	5993
信息管理	5994
八届	5995
合作项目	5996
450	5997
7%	5998
os@@	5999
清洗	6000
热带	6001
易于	6002
赤道几内亚	6003
运转	6004
标记	6005
卢@@	6006
合@@	6007
教材	6008
估价	6009
心@@	6010
249	6011
非核心	6012
呈	6013
246	6014
乍	6015
住区	6016
关岛	6017
作者	6018
出庭	6019
民主化	6020
Ali	6021
忽略	6022
话	6023
电	6024
拨出	6025
侵入	6026
应收	6027
视角	6028
毒素	6029
2.4	6030
调节	6031
货运	6032
五名	6033
ir	6034
217	6035
名字	6036
有所改善	6037
El@@	6038
千克	6039
朋友	6040
签署国	6041
致命	6042
选项	6043
所起	6044
1974	6045
东京	6046
分工	6047
258	6048
POPS	6049
多层面	6050
现@@	6051
教育领域	6052
247	6053
引用	6054
eg@@	6055
全文	6056
卡尔	6057
太阳能	6058
庇护所	6059
电脑	6060
收@@	6061
Add.@@	6062
搜索	6063
03	6064
244	6065
投	6066
1961	6067
An@@	6068
C.12	6069
播放	6070
和平部队	6071
复@@	6072
塞舌尔	6073
残割	6074
ig@@	6075
侦察机	6076
北非	6077
作证	6078
法律依据	6079
已婚	6080
其管辖	6081
刚	6082
行列	6083
等国	6084
还会	6085
七@@	6086
海运	6087
man	6088
专@@	6089
巴勒斯坦国	6090
性传播	6091
尝试	6092
il	6093
汽油	6094
管理制	6095
总的来说	6096
255	6097
奴隶	6098
平行	6099
身份证	6100
有效率	6101
向@@	6102
缩编	6103
1977	6104
从业人员	6105
信念	6106
护士	6107
翻修	6108
9.@@	6109
扭曲	6110
联署	6111
自然人	6112
反洗钱	6113
不良	6114
同期	6115
金沙萨	6116
us@@	6117
相互作用	6118
考绩	6119
工艺	6120
阿克拉	6121
两天	6122
财务管理	6123
负有责任	6124
征收	6125
收缴	6126
职工	6127
可卡因	6128
290	6129
访问团	6130
飓风	6131
289	6132
目录	6133
保养	6134
第一项	6135
难题	6136
制@@	6137
工作日	6138
赢得	6139
一大	6140
扣除	6141
征得	6142
教@@	6143
为本	6144
适用范围	6145
毒性	6146
1267	6147
部族	6148
词	6149
UN@@	6150
众所周知	6151
致	6152
逻辑	6153
社会工作者	6154
洪水	6155
Kar@@	6156
232	6157
延伸	6158
牲畜	6159
信仰自由	6160
加勒比地区	6161
扎	6162
附有	6163
稳步	6164
湖区	6165
不愿	6166
时所	6167
1983	6168
od@@	6169
名誉	6170
权@@	6171
荣幸	6172
成分	6173
核@@	6174
第六十六	6175
何时	6176
保护法	6177
往来	6178
各个领域	6179
264	6180
sh@@	6181
卡车	6182
254	6183
主	6184
在场	6185
圣	6186
联布	6187
da	6188
回@@	6189
全民	6190
283	6191
法律咨询	6192
租用	6193
西班牙文	6194
联大	6195
下届	6196
公共秩序	6197
先例	6198
博	6199
统治	6200
打	6201
第三节	6202
PV.@@	6203
一个月	6204
娱乐	6205
Bar@@	6206
付	6207
联络处	6208
于@@	6209
重大贡献	6210
团聚	6211
已知	6212
跨越	6213
旧	6214
地下水	6215
媒介	6216
热@@	6217
布林迪西	6218
退休金	6219
2%	6220
片	6221
223	6222
修理	6223
共@@	6224
将军	6225
ib@@	6226
个@@	6227
231	6228
几位	6229
捍卫者	6230
极其重要	6231
商业性	6232
消极影响	6233
出席会议	6234
警务人员	6235
机会均等	6236
减排	6237
疑问	6238
流域	6239
aw@@	6240
被判	6241
备件	6242
第一款	6243
转入	6244
同性恋	6245
毫无疑问	6246
第二项	6247
学@@	6248
横向	6249
联格	6250
差额	6251
借此机会	6252
肤色	6253
航空公司	6254
接着	6255
叛乱	6256
聚集	6257
报@@	6258
部@@	6259
经由	6260
在@@	6261
大于	6262
惠及	6263
未成年	6264
殖民主义	6265
之类	6266
查	6267
第八	6268
调拨	6269
一辆	6270
交	6271
视频	6272
XV	6273
乐观	6274
外籍	6275
皮@@	6276
八@@	6277
应用程序	6278
戈	6279
8.@@	6280
鲁	6281
CN.7	6282
并入	6283
林@@	6284
产科	6285
迎接	6286
汤加	6287
选	6288
列明	6289
记得	6290
对照	6291
美@@	6292
219	6293
替代性	6294
交流经验	6295
指责	6296
高风险	6297
234	6298
桥梁	6299
高层	6300
使该	6301
公职	6302
氢	6303
联索	6304
El	6305
改划	6306
表示满意	6307
04	6308
保人	6309
务实	6310
发生率	6311
塞浦路斯共和国	6312
245	6313
什	6314
大纲	6315
宗教信仰	6316
Ad@@	6317
源于	6318
管理处	6319
镇压	6320
赔偿金	6321
下达	6322
印度洋	6323
拘留所	6324
艰巨	6325
一新	6326
｟p19｠	6327
10%	6328
法律义务	6329
游客	6330
手@@	6331
罪名	6332
义务教育	6333
传达	6334
减	6335
各届	6336
阿比让	6337
杂项	6338
终身	6339
扩充	6340
ro@@	6341
取缔	6342
｟p17｠	6343
后代	6344
女@@	6345
里奥	6346
ti@@	6347
其所	6348
963	6349
供@@	6350
十七届	6351
普	6352
中向	6353
各项政策	6354
管理制度	6355
价值链	6356
善政	6357
常	6358
8%	6359
应分	6360
心	6361
摩尔多瓦	6362
演讲	6363
深表	6364
造福	6365
.3	6366
党派	6367
市长	6368
｟p20｠	6369
偿付	6370
五岁	6371
双@@	6372
在外	6373
炮弹	6374
预警系统	6375
IS@@	6376
百分点	6377
贸易谈判	6378
｟p41｠	6379
前者	6380
审案	6381
金@@	6382
症	6383
ap@@	6384
下来	6385
人身安全	6386
｟p27｠	6387
战略部署	6388
房地	6389
临	6390
各不相同	6391
1971	6392
GC	6393
｟p44｠	6394
｟p46｠	6395
338	6396
｟p47｠	6397
增列	6398
主体	6399
您	6400
｟p14｠	6401
｟p15｠	6402
局限于	6403
灌溉	6404
附注	6405
鸦片	6406
224	6407
尚待	6408
全力支持	6409
急需	6410
通告	6411
交存	6412
取	6413
20%	6414
工@@	6415
机@@	6416
流动性	6417
拒	6418
查验	6419
az@@	6420
头@@	6421
指@@	6422
两倍	6423
结社自由	6424
旅馆	6425
托管	6426
组织法	6427
日本政府	6428
律师协会	6429
特许权	6430
韦@@	6431
｟p26｠	6432
259	6433
典型	6434
某种程度	6435
｟p42｠	6436
核设施	6437
贝尔格莱德	6438
1.3	6439
Add.5	6440
好@@	6441
拉特	6442
高度重视	6443
三角	6444
｟p49｠	6445
CCW	6446
皇家	6447
宗教自由	6448
af@@	6449
｟p9｠	6450
蒂@@	6451
余地	6452
保护环境	6453
通行	6454
清晰	6455
｟p5｠	6456
国贸	6457
财政部	6458
239	6459
备灾	6460
焦点	6461
吸毒者	6462
长期以来	6463
ay	6464
罢工	6465
按@@	6466
第三章	6467
2030	6468
｟p18｠	6469
｟p40｠	6470
eb@@	6471
人发	6472
贫困线	6473
｟p16｠	6474
｟p35｠	6475
两架	6476
阿鲁沙	6477
｟p48｠	6478
X@@	6479
转达	6480
9%	6481
医务人员	6482
渥太华	6483
｟p3｠	6484
CRP.1	6485
275	6486
为主	6487
｟p39｠	6488
1972	6489
｟p25｠	6490
ya	6491
之日起	6492
永久性	6493
写	6494
哪	6495
｟p24｠	6496
红十字会	6497
应享	6498
强劲	6499
插入	6500
移动电话	6501
动	6502
各次	6503
咨询机构	6504
Abu	6505
伤残	6506
板	6507
联合国日内瓦办事处	6508
大致	6509
｟p4｠	6510
288	6511
｟p10｠	6512
｟p43｠	6513
听	6514
大小	6515
探测	6516
籍	6517
标签	6518
走廊	6519
@	6520
金钱	6521
混乱	6522
千@@	6523
｟p45｠	6524
易受	6525
详细情况	6526
｟p29｠	6527
东@@	6528
教员	6529
1.5	6530
在实践中	6531
关键性	6532
人称	6533
地为	6534
大使馆	6535
选举法	6536
｟p28｠	6537
｟p34｠	6538
｟p37｠	6539
列@@	6540
印象	6541
充满	6542
推荐	6543
｟p12｠	6544
力图	6545
文莱达鲁萨兰国	6546
｟p13｠	6547
｟p38｠	6548
｟p31｠	6549
效能	6550
｟p11｠	6551
居	6552
公吨	6553
军@@	6554
创新性	6555
除名	6556
介绍性	6557
理@@	6558
箱	6559
油@@	6560
按时	6561
｟p8｠	6562
第十九届	6563
256	6564
限定	6565
｟p32｠	6566
一整套	6567
致函	6568
时机	6569
某项	6570
海洛因	6571
｟p2｠	6572
v	6573
安盟	6574
月初	6575
｟p36｠	6576
262	6577
CN.15	6578
医药	6579
圣文森特	6580
.2	6581
｟p23｠	6582
｟p7｠	6583
229	6584
公告	6585
卡拉巴赫	6586
违法	6587
一倍	6588
产权	6589
合计	6590
讲座	6591
标识	6592
落后	6593
原告	6594
导向	6595
激烈	6596
维	6597
>	6598
西非国家	6599
｟p33｠	6600
｟p6｠	6601
债券	6602
到@@	6603
树立	6604
总体而言	6605
总局	6606
携手	6607
安全措施	6608
物项	6609
紧急状态	6610
被告人	6611
该段	6612
课	6613
金融市场	6614
50%	6615
正@@	6616
司机	6617
ot@@	6618
三级	6619
格林纳达	6620
欠款	6621
没	6622
雇佣	6623
实@@	6624
录像	6625
早些时候	6626
兰@@	6627
营造	6628
ent@@	6629
得益于	6630
犹太人	6631
人体	6632
划定	6633
药	6634
1976	6635
Y	6636
上半年	6637
下表	6638
东南欧	6639
安全网	6640
闭幕	6641
&	6642
公正性	6643
原有	6644
无论如何	6645
特有	6646
1969	6647
姆@@	6648
并@@	6649
离	6650
｟p30｠	6651
伪造	6652
第六十	6653
正面	6654
依赖于	6655
敌对	6656
赫	6657
公海	6658
定位	6659
.4	6660
5.2	6661
物流	6662
｟p21｠	6663
军用飞机	6664
变为	6665
稿	6666
戈@@	6667
物理	6668
刑警	6669
十二	6670
人道	6671
项@@	6672
识字率	6673
环保	6674
悲剧	6675
耶@@	6676
272	6677
战略伙伴	6678
更高	6679
令人担忧	6680
低下	6681
匮乏	6682
所称	6683
ari	6684
利益冲突	6685
紧急状况	6686
犯罪人	6687
光	6688
缺点	6689
格林纳丁斯	6690
结核	6691
W	6692
推翻	6693
牺牲	6694
教育部门	6695
.@@	6696
避难	6697
261	6698
履行职责	6699
明@@	6700
明年	6701
L.@@	6702
持续增长	6703
放@@	6704
最低标准	6705
巡逻队	6706
数百万	6707
360	6708
奉行	6709
拥挤	6710
调@@	6711
生殖器官	6712
｟p22｠	6713
无家可归	6714
犹太	6715
政策措施	6716
ie	6717
第十七届	6718
ev@@	6719
薪资	6720
257	6721
军方	6722
沉重	6723
研制	6724
超@@	6725
休假	6726
控告	6727
292	6728
四方	6729
尽力	6730
只会	6731
质	6732
欧@@	6733
贿赂	6734
已获	6735
殖民	6736
下半年	6737
外聘	6738
款中	6739
轰炸	6740
连贯性	6741
ik@@	6742
吸引力	6743
Part	6744
大力支持	6745
浪费	6746
不可避免	6747
及早	6748
采访	6749
及@@	6750
步伐	6751
也就是说	6752
op@@	6753
ud@@	6754
㈤	6755
人选	6756
热线	6757
贝	6758
代表权	6759
届满	6760
杰出	6761
虚拟	6762
跨境	6763
阿拉伯人	6764
ong	6765
每人	6766
条约法	6767
行为人	6768
质量保证	6769
防@@	6770
改@@	6771
长期存在	6772
中介	6773
互补	6774
梅	6775
致力	6776
通道	6777
军用	6778
就业率	6779
埃厄	6780
夫妻	6781
珊瑚礁	6782
305	6783
750	6784
军备竞赛	6785
教科书	6786
英联邦	6787
12.@@	6788
完全符合	6789
总值	6790
轮调	6791
252	6792
人物	6793
创造条件	6794
家@@	6795
落	6796
既有	6797
缴	6798
空间科学	6799
排@@	6800
法郎	6801
白@@	6802
索取	6803
中央政府	6804
小国	6805
法制	6806
第十六届	6807
专委	6808
变	6809
通知书	6810
审定	6811
样本	6812
新闻界	6813
化管	6814
无力	6815
赫@@	6816
赔偿额	6817
节@@	6818
承运人	6819
理事国	6820
反过来	6821
坚实	6822
平均数	6823
炸药	6824
科技委	6825
第一批	6826
两类	6827
易@@	6828
波	6829
320	6830
中所列	6831
大屠杀	6832
指认	6833
各政党	6834
南共体	6835
启用	6836
｟p1｠	6837
民间组织	6838
<	6839
新设	6840
4.3	6841
263	6842
不合理	6843
偏远地区	6844
达喀尔	6845
ch	6846
手术	6847
面谈	6848
处@@	6849
更@@	6850
水域	6851
营业	6852
简短	6853
南斯拉夫联盟共和国	6854
网@@	6855
太平洋地区	6856
信息中心	6857
气@@	6858
血统	6859
267	6860
ang	6861
分在	6862
消失	6863
大家庭	6864
黑@@	6865
禁	6866
id	6867
缩减	6868
国际性	6869
弹道导弹	6870
诽谤	6871
庞大	6872
逾	6873
院长	6874
劳工法	6875
差价	6876
下落	6877
仅为	6878
意识形态	6879
敏感性	6880
FAO	6881
商务	6882
天主教	6883
第二款	6884
缔约	6885
雷区	6886
L.3	6887
服兵役	6888
查访	6889
创造性	6890
总之	6891
改革方案	6892
概括	6893
卢比	6894
欧共体	6895
第七章	6896
阿拉伯文	6897
平@@	6898
报销	6899
1701	6900
隐私	6901
总支出	6902
精@@	6903
信@@	6904
合	6905
总体目标	6906
旱地	6907
表面	6908
贫困人口	6909
陪同	6910
主@@	6911
导则	6912
敌方	6913
社会主义	6914
继续下去	6915
阿拉伯国家联盟	6916
努@@	6917
亿@@	6918
无数	6919
新喀里多尼亚	6920
安提瓜和巴布达	6921
汇	6922
近来	6923
西方	6924
身上	6925
非暴力	6926
工程师	6927
电影	6928
北@@	6929
拨给	6930
半数	6931
极@@	6932
中旬	6933
建	6934
领导层	6935
尸体	6936
野生	6937
阻挠	6938
第十二条	6939
机械	6940
ine	6941
余下	6942
if@@	6943
明确指出	6944
第十八届	6945
ang@@	6946
联合国粮食及农业组织	6947
起因	6948
届时	6949
承包者	6950
渔船	6951
符合国际	6952
编@@	6953
访问期间	6954
通货膨胀率	6955
高昂	6956
北美	6957
商品价格	6958
善治	6959
防卫	6960
寡妇	6961
强加	6962
读	6963
此一	6964
第十五届	6965
反复	6966
尊敬	6967
第八条	6968
转为	6969
Car@@	6970
辞职	6971
充作	6972
第二十四届	6973
紧急行动	6974
几天	6975
一件	6976
大臣	6977
谋生	6978
乌	6979
ara	6980
体重	6981
垃圾	6982
莫	6983
传递	6984
准军事	6985
民用航空	6986
285	6987
公共安全	6988
存放	6989
伴随	6990
第九	6991
实现目标	6992
第二十六条	6993
非法行为	6994
日常生活	6995
第一年	6996
le	6997
事务局	6998
情况通报	6999
ob@@	7000
专项	7001
取@@	7002
得@@	7003
毕业生	7004
管理部	7005
越	7006
执照	7007
控诉	7008
点@@	7009
详述	7010
当量	7011
恐怖活动	7012
协理	7013
合法化	7014
296	7015
中应	7016
股@@	7017
昂贵	7018
航班	7019
中型	7020
国家主权	7021
检察	7022
废料	7023
女儿	7024
结社	7025
误解	7026
评级	7027
局@@	7028
发育	7029
古	7030
检查和	7031
联合国贸易和发展会议	7032
一句	7033
法律效力	7034
279	7035
发生变化	7036
根本原因	7037
286	7038
判处死刑	7039
教廷	7040
瓦尔	7041
一本	7042
日止	7043
18.@@	7044
2.6	7045
存货	7046
通	7047
暴露	7048
330	7049
城	7050
显而易见	7051
两人	7052
办@@	7053
四分之一	7054
掉	7055
管理员	7056
高中	7057
生长	7058
ic	7059
否定	7060
参议院	7061
起飞	7062
550	7063
代@@	7064
浓缩	7065
增@@	7066
对联	7067
30@@	7068
比索	7069
对比	7070
悬而未决	7071
结果表明	7072
迈进	7073
听证会	7074
那种	7075
主管机关	7076
专利	7077
根深蒂固	7078
此案	7079
计入	7080
一期	7081
到来	7082
前后	7083
年里	7084
报导	7085
最长	7086
不可逆转	7087
南美洲	7088
效用	7089
东西	7090
包装	7091
广播电台	7092
技术培训	7093
艾@@	7094
见图	7095
年会	7096
来@@	7097
每一项	7098
迁徙	7099
3.5	7100
ur	7101
服务器	7102
案中	7103
?	7104
见@@	7105
L.4	7106
熟练	7107
苏	7108
连@@	7109
链接	7110
整理	7111
美好	7112
287	7113
亟需	7114
eh	7115
函件	7116
开展业务	7117
310	7118
发生冲突	7119
周转	7120
莱	7121
International	7122
宪政	7123
脚注	7124
任职者	7125
博物馆	7126
财产权	7127
不让	7128
偏远	7129
iy@@	7130
情绪	7131
茨	7132
产后	7133
海军	7134
qu@@	7135
环境退化	7136
黄金	7137
抵触	7138
门户	7139
帕	7140
水源	7141
需@@	7142
316	7143
志愿者	7144
罂粟	7145
专业化	7146
仲裁员	7147
定@@	7148
总协定	7149
消息来源	7150
第四章	7151
加倍努力	7152
重新考虑	7153
找	7154
裁判	7155
侮辱	7156
扫雷	7157
发电	7158
构成威胁	7159
不但	7160
选@@	7161
六年	7162
患	7163
热	7164
齐	7165
互补性	7166
加以解决	7167
3.4	7168
制定者	7169
派别	7170
那@@	7171
268	7172
总督	7173
CP	7174
拨付	7175
接@@	7176
令人不安	7177
十周年	7178
如上所述	7179
Mohamed	7180
列名	7181
聘请	7182
ec@@	7183
删去	7184
日志	7185
来源国	7186
否决	7187
零部件	7188
预@@	7189
马克	7190
第四节	7191
单个	7192
征募	7193
试行	7194
长远	7195
高出	7196
不符	7197
应从	7198
推@@	7199
曼@@	7200
百慕大	7201
295	7202
土@@	7203
战胜	7204
美洲国家组织	7205
随	7206
部件	7207
高达	7208
可预测性	7209
杰@@	7210
VI	7211
提法	7212
论	7213
刑事案件	7214
国王	7215
此人	7216
自营	7217
ra@@	7218
无罪	7219
饮食	7220
忧虑	7221
假期	7222
大马士革	7223
开枪	7224
深海	7225
相比之下	7226
车@@	7227
内战	7228
该款	7229
利亚	7230
避孕药	7231
导言	7232
核爆炸	7233
瑙鲁	7234
切@@	7235
监督机制	7236
阿里	7237
减损	7238
满	7239
这位	7240
281	7241
农@@	7242
普遍认为	7243
收容所	7244
阿尔@@	7245
273	7246
幼儿园	7247
过多	7248
个省	7249
女子	7250
1.4	7251
传媒	7252
很小	7253
装	7254
单身	7255
均等	7256
抵押	7257
提取	7258
构建	7259
运@@	7260
鼓掌	7261
ta	7262
文盲率	7263
万名	7264
辩称	7265
送到	7266
不同于	7267
司@@	7268
大选	7269
病@@	7270
辍学	7271
一语	7272
使人	7273
空气污染	7274
for	7275
两周	7276
容器	7277
犯罪集团	7278
本质	7279
闭门	7280
抱	7281
八国集团	7282
美国@@	7283
Gu@@	7284
桶	7285
10.@@	7286
宪兵	7287
成千上万	7288
木@@	7289
国有	7290
视听	7291
调度	7292
ek@@	7293
一轮	7294
公立	7295
准予	7296
回报	7297
以求	7298
立@@	7299
门@@	7300
被@@	7301
650	7302
A.@@	7303
里约热内卢	7304
精神病	7305
挑战性	7306
Har@@	7307
来到	7308
／	7309
但须	7310
借调	7311
失@@	7312
舆论	7313
责成	7314
海域	7315
红十字国际委员会	7316
687	7317
北极	7318
技术人员	7319
牢房	7320
谈话	7321
增补	7322
实时	7323
某人	7324
怎样	7325
逾期	7326
剩下	7327
受损	7328
沙	7329
过渡期	7330
干@@	7331
市政府	7332
4.5	7333
占用	7334
未满	7335
准确性	7336
密切联系	7337
iz@@	7338
制造商	7339
应于	7340
无意	7341
笔译	7342
门槛	7343
果断	7344
第二期	7345
国际刑警组织	7346
带到	7347
环卫	7348
规格	7349
黑人	7350
SA@@	7351
准	7352
旅	7353
降到	7354
医疗卫生	7355
可怕	7356
家务	7357
承包	7358
控制权	7359
日前	7360
根	7361
管道	7362
改良	7363
远距离	7364
em	7365
力@@	7366
服务台	7367
强@@	7368
联合声明	7369
胡@@	7370
30%	7371
借款	7372
扶养	7373
能效	7374
归因于	7375
日趋	7376
词语	7377
金融部门	7378
Ag@@	7379
防扩散	7380
出境	7381
比重	7382
｟d50｠	7383
减除	7384
毁	7385
奥斯陆	7386
欧空局	7387
申请者	7388
19@@	7389
Dec.@@	7390
天气	7391
深远	7392
老龄化	7393
联合体	7394
清	7395
蒙受	7396
定价	7397
款@@	7398
每届	7399
青年党	7400
民间团体	7401
书籍	7402
男生	7403
调查报告	7404
意在	7405
意志	7406
无限期	7407
原定	7408
原料	7409
换	7410
以免	7411
经济合作与发展组织	7412
定向	7413
NPT	7414
中午	7415
光盘	7416
流向	7417
火@@	7418
运费	7419
主计长	7420
数据处理	7421
阿布贾	7422
｟n50｠	7423
出口国	7424
借贷	7425
CP.7	7426
偏离	7427
全境	7428
忘记	7429
艘	7430
不安	7431
太@@	7432
除@@	7433
国家统计局	7434
ey	7435
参看	7436
特殊教育	7437
情事	7438
角度看	7439
274	7440
制图	7441
乘客	7442
五项	7443
从来	7444
卡塔赫纳	7445
宽带	7446
难@@	7447
九@@	7448
伦理	7449
先@@	7450
各部委	7451
监核	7452
苏联	7453
竞赛	7454
起点	7455
窗口	7456
文第	7457
沃@@	7458
澳大利亚政府	7459
SGB	7460
受灾	7461
筛选	7462
肺结核	7463
防御	7464
re	7465
超支	7466
380	7467
ers	7468
个州	7469
乃至	7470
却是	7471
但@@	7472
受让人	7473
进@@	7474
代	7475
偏低	7476
微额	7477
灾难性	7478
运载	7479
决策机构	7480
建议书	7481
方括号	7482
罚金	7483
远景	7484
块	7485
矿业	7486
纯粹	7487
购买力	7488
希	7489
其为	7490
278	7491
历来	7492
开辟	7493
分成	7494
固定翼	7495
核销	7496
驱逐出境	7497
5.3	7498
法域	7499
6.2	7500
能@@	7501
陪伴	7502
团@@	7503
并行	7504
弹	7505
悲惨	7506
抗击	7507
暗杀	7508
杜	7509
部际	7510
活	7511
au@@	7512
辛烷	7513
非传统	7514
282	7515
审核	7516
民@@	7517
社群	7518
大国	7519
维持费	7520
19.@@	7521
血@@	7522
动@@	7523
参与方	7524
第五章	7525
外国投资	7526
恩德培	7527
传送	7528
内向	7529
妇女儿童	7530
战术	7531
FPA	7532
合规	7533
商@@	7534
担负	7535
系指	7536
诚意	7537
实习	7538
多于	7539
受众	7540
答辩	7541
防护	7542
基本法	7543
事@@	7544
勒@@	7545
所在国	7546
同一个	7547
不结盟	7548
而应	7549
Z	7550
可比性	7551
第八次	7552
可见	7553
算	7554
工具包	7555
帕劳	7556
装运	7557
风@@	7558
演习	7559
船旗国	7560
交往	7561
四次	7562
移民局	7563
智力	7564
沿线	7565
修@@	7566
格局	7567
几种	7568
一座	7569
关爱	7570
妊娠	7571
ha	7572
大陆架	7573
进来	7574
数据中心	7575
额度	7576
一向	7577
公	7578
ard	7579
最终用户	7580
Ma@@	7581
走上	7582
顿	7583
挖掘	7584
365	7585
封闭	7586
撰文	7587
uk@@	7588
Su@@	7589
复制	7590
十一	7591
拿出	7592
4.4	7593
无须	7594
普里什蒂纳	7595
AC.26	7596
压迫	7597
重新部署	7598
交由	7599
地下	7600
年级	7601
第九次	7602
凝聚力	7603
年龄段	7604
服装	7605
..	7606
半@@	7607
废水	7608
状	7609
记	7610
340	7611
调和	7612
军事法庭	7613
切合实际	7614
最终目标	7615
第十四届	7616
记入	7617
极少	7618
第十七条	7619
是非	7620
紧缩	7621
分区	7622
可是	7623
族人	7624
百@@	7625
记载	7626
身	7627
切尔诺贝利	7628
归类	7629
ab	7630
外界	7631
案子	7632
蚊帐	7633
所处	7634
捷克	7635
高等	7636
ak	7637
积极主动	7638
领地	7639
26@@	7640
杀戮	7641
刚才	7642
受惠	7643
第二份	7644
负责管理	7645
判决书	7646
数值	7647
服刑	7648
未获	7649
美	7650
非歧视	7651
交战	7652
线路	7653
身@@	7654
结案	7655
群组	7656
面@@	7657
丁	7658
明白	7659
交换意见	7660
应予以	7661
欧洲理事会	7662
移送	7663
马绍尔群岛	7664
传单	7665
保管	7666
大气层	7667
新政府	7668
覆盖范围	7669
此基础	7670
武装集团	7671
独立宣言	7672
ka	7673
个案研究	7674
榜样	7675
模板	7676
干	7677
著名	7678
6.1	7679
旱灾	7680
略	7681
账目	7682
安援	7683
国际贸易中心	7684
早先	7685
天体	7686
开火	7687
晚	7688
机密	7689
经理	7690
277	7691
受雇	7692
奇@@	7693
总统令	7694
有所不同	7695
ok@@	7696
容纳	7697
延至	7698
约@@	7699
271	7700
分支机构	7701
生命周期	7702
使本	7703
表现形式	7704
IV	7705
他@@	7706
函	7707
彻底消除	7708
L.7	7709
生活费	7710
假@@	7711
司法人员	7712
垄断	7713
ation	7714
破产法	7715
劫持	7716
一枚	7717
弥合	7718
磺酸	7719
人质	7720
动乱	7721
后面	7722
波利萨	7723
ep@@	7724
人口比例	7725
元首	7726
社交	7727
仪器	7728
Sch@@	7729
体育运动	7730
第一季度	7731
裁研	7732
除此之外	7733
专题组	7734
另一名	7735
马舍尔	7736
掩盖	7737
目睹	7738
清真寺	7739
Gh@@	7740
采集	7741
伤	7742
册	7743
异议	7744
款下	7745
法学家	7746
一章	7747
举	7748
接受国	7749
体检	7750
墙	7751
外交政策	7752
翻新	7753
邻近	7754
军警	7755
深度	7756
盖	7757
供给	7758
废止	7759
贫困者	7760
304	7761
月间	7762
参观	7763
中国政府	7764
短@@	7765
势力	7766
外交官	7767
区@@	7768
协	7769
草	7770
进一步提高	7771
南极	7772
敌军	7773
地质	7774
漏洞	7775
刑期	7776
夫妇	7777
工商业	7778
检索	7779
霍@@	7780
公园	7781
内为	7782
尼科西亚	7783
无权	7784
L.6	7785
以为	7786
牢固	7787
抑制	7788
瑞士法郎	7789
议案	7790
发展局	7791
期限内	7792
案@@	7793
海盗行为	7794
吸入	7795
日后	7796
425	7797
L.5	7798
休	7799
剂量	7800
氟氯烃	7801
受限制	7802
承	7803
注入	7804
ri	7805
地说	7806
师	7807
既然	7808
齐@@	7809
国在	7810
整@@	7811
游说	7812
福@@	7813
第二号	7814
年鉴	7815
昨天	7816
混合物	7817
观	7818
当务之急	7819
架次	7820
1948	7821
感染率	7822
明智	7823
温度	7824
细目	7825
订	7826
交易所	7827
根据上述	7828
传统习俗	7829
住院	7830
停@@	7831
毁林	7832
第一@@	7833
联席会议	7834
镑	7835
L.8	7836
揭示	7837
利马	7838
图里	7839
家政	7840
相互尊重	7841
石	7842
拓展	7843
高峰	7844
aj@@	7845
当今世界	7846
政@@	7847
学位	7848
抽样	7849
装@@	7850
14.@@	7851
所获	7852
教堂	7853
420	7854
分部	7855
填写	7856
就要	7857
脱@@	7858
预付款	7859
冷战	7860
改叙为	7861
会议厅	7862
11.@@	7863
专职	7864
目	7865
政治化	7866
敲定	7867
ell@@	7868
失业者	7869
欧盟委员会	7870
被盗	7871
稳定性	7872
非法活动	7873
心理健康	7874
要@@	7875
｟p0｠	7876
1244	7877
311	7878
事后	7879
理	7880
目标群体	7881
这部分	7882
临时性	7883
q	7884
哈马斯	7885
沿海地区	7886
纪念活动	7887
ian	7888
家里	7889
改建	7890
栏	7891
第六十九	7892
漫长	7893
ez	7894
人工	7895
付给	7896
免税	7897
减量	7898
宽泛	7899
尚无	7900
待命	7901
直@@	7902
新近	7903
重新分配	7904
意	7905
麻疹	7906
AR@@	7907
og@@	7908
口@@	7909
存款	7910
驻扎	7911
ST@@	7912
利用率	7913
扩张	7914
环境法	7915
刊登	7916
筹集资金	7917
2.7	7918
全年	7919
德黑兰	7920
阿卜杜勒	7921
阿尔及尔	7922
293	7923
服从	7924
器官	7925
存储	7926
视@@	7927
论及	7928
ma	7929
安第斯	7930
抓住	7931
激发	7932
di	7933
全职	7934
感到高兴	7935
日益增长	7936
老挝	7937
张贴	7938
绝不	7939
编拟	7940
至多	7941
斯特	7942
辍学率	7943
CA@@	7944
庭	7945
来文方	7946
第一期	7947
纵向	7948
贵国	7949
40%	7950
战	7951
15.@@	7952
困扰	7953
备用	7954
对方	7955
收获	7956
任务区	7957
发言权	7958
嗣后	7959
可予	7960
摆在	7961
氯	7962
泰@@	7963
认	7964
起着	7965
ip@@	7966
只@@	7967
我愿	7968
组办	7969
震惊	7970
Sam@@	7971
报告期	7972
树	7973
第十次	7974
充分发挥	7975
审批	7976
外汇	7977
射击	7978
建@@	7979
南南	7980
省@@	7981
随之	7982
零@@	7983
产@@	7984
燃烧	7985
284	7986
众议院	7987
恐怖组织	7988
集@@	7989
否决权	7990
日益严重	7991
朱巴	7992
环节	7993
申请书	7994
1950	7995
前途	7996
密切协作	7997
感觉	7998
持续性	7999
援用	8000
本法	8001
等@@	8002
于是	8003
缓和	8004
Br@@	8005
会计师	8006
苯丙胺	8007
这会	8008
别	8009
每名	8010
该厅	8011
国际电联	8012
安南	8013
欠	8014
缅甸政府	8015
争辩	8016
戈马	8017
解放运动	8018
久	8019
戈尔诺	8020
班@@	8021
盗窃	8022
301	8023
ach@@	8024
充实	8025
出示	8026
提出申请	8027
甲	8028
le@@	8029
卫生系统	8030
始于	8031
城乡	8032
运	8033
303	8034
链	8035
断定	8036
预算内	8037
列于	8038
前瞻性	8039
周@@	8040
性犯罪	8041
通报情况	8042
2018	8043
adi	8044
价值观念	8045
国家级	8046
工作岗位	8047
民族团结	8048
锡	8049
Mu@@	8050
母乳喂养	8051
老@@	8052
蓝线	8053
逃避	8054
AC.@@	8055
主导作用	8056
多边合作	8057
机油	8058
两者之间	8059
立法机关	8060
蒙特塞	8061
警@@	8062
不足之处	8063
基因	8064
L.9	8065
17.@@	8066
Sal@@	8067
iv@@	8068
残酷	8069
吗	8070
更替	8071
三天	8072
事务所	8073
表中	8074
阿富汗人	8075
一般来说	8076
数年	8077
侵蚀	8078
信用	8079
操纵	8080
广义	8081
情节	8082
适用性	8083
力争	8084
核武库	8085
素质	8086
约定	8087
爆	8088
石棉	8089
崇高	8090
520	8091
似宜	8092
免	8093
扎@@	8094
未缴	8095
空前	8096
管理信息系统	8097
结@@	8098
ata	8099
商用	8100
展现	8101
302	8102
农户	8103
搜集	8104
最少	8105
润滑油	8106
Pr@@	8107
付诸实施	8108
希尔	8109
最具	8110
受控	8111
快速反应	8112
登	8113
行之有效	8114
安全局	8115
支@@	8116
税率	8117
专注	8118
全人类	8119
沿	8120
内政	8121
努力提高	8122
坎帕拉	8123
老	8124
佐证	8125
关	8126
ba	8127
养育	8128
金枪鱼	8129
298	8130
MA@@	8131
ee	8132
ing@@	8133
严肃	8134
研究生	8135
全球战略	8136
域外	8137
共用	8138
自豪	8139
陷于	8140
Vol	8141
CMP.1	8142
靠近	8143
密@@	8144
结果显示	8145
少量	8146
杀虫剂	8147
见本	8148
294	8149
ij@@	8150
害怕	8151
祸害	8152
修订本	8153
广为	8154
理性	8155
视委	8156
边	8157
开来	8158
RE@@	8159
国内外	8160
实力	8161
就读	8162
精力	8163
遴选	8164
平静	8165
停留	8166
艾哈迈德	8167
370	8168
同情	8169
接管	8170
增添	8171
廷	8172
291	8173
Man@@	8174
侵权	8175
减去	8176
建成	8177
获取信息	8178
平	8179
政治处	8180
重振	8181
L.10	8182
end@@	8183
予	8184
山@@	8185
慢性	8186
方在	8187
发布会	8188
引述	8189
方法学	8190
监委	8191
结算	8192
拉姆	8193
16.@@	8194
om	8195
河流	8196
崩溃	8197
307	8198
ub@@	8199
交货	8200
达格	8201
下跌	8202
亲@@	8203
特区	8204
生产商	8205
人力资本	8206
根本性	8207
生活水准	8208
信用证	8209
航运	8210
ev	8211
咖啡	8212
多种多样	8213
拟设	8214
助益	8215
不良影响	8216
发表声明	8217
施@@	8218
299	8219
各阶层	8220
一致同意	8221
境地	8222
检方	8223
静止	8224
一般而言	8225
扣留	8226
电池	8227
百万	8228
矿	8229
安非他明	8230
常任	8231
教派	8232
多边条约	8233
审计工作	8234
市场经济	8235
手工	8236
约翰	8237
公民投票	8238
流产	8239
盖@@	8240
可比	8241
宗教团体	8242
第四个	8243
商人	8244
突然	8245
管理者	8246
协力	8247
所有者	8248
Ham@@	8249
例行	8250
积极支持	8251
ova	8252
吸烟	8253
那个	8254
雄心勃勃	8255
首	8256
冲突地区	8257
凯@@	8258
哪个	8259
三国	8260
富裕	8261
集群	8262
宣告	8263
双边协定	8264
思维	8265
采@@	8266
变性	8267
国际@@	8268
增幅	8269
杀死	8270
桑@@	8271
美属	8272
路@@	8273
预报	8274
制剂	8275
大会堂	8276
红新月会	8277
ik	8278
ill@@	8279
因数	8280
工业部门	8281
毫克	8282
硫丹	8283
公益	8284
堡	8285
24@@	8286
公寓	8287
单证	8288
营销	8289
亿人	8290
大会决议	8291
金融体系	8292
铅	8293
使馆	8294
助产士	8295
投@@	8296
掠夺	8297
解读	8298
令人震惊	8299
荣誉	8300
佩@@	8301
边防	8302
杜绝	8303
极度	8304
真主党	8305
廉正	8306
酌处	8307
事实证明	8308
可望	8309
带头	8310
惩教	8311
房地产	8312
按计划	8313
警员	8314
拍卖	8315
资讯	8316
318	8317
Atlas	8318
即应	8319
国家@@	8320
um	8321
保险费	8322
完	8323
新建	8324
后期	8325
里约集团	8326
额@@	8327
6.3	8328
Di@@	8329
视作	8330
豁免权	8331
资@@	8332
中所作	8333
一览表	8334
传@@	8335
440	8336
一时期	8337
母语	8338
男女之间	8339
第四十九届	8340
结清	8341
求助	8342
远@@	8343
20.@@	8344
污水	8345
政治犯	8346
200@@	8347
占@@	8348
立方米	8349
群众	8350
297	8351
策划	8352
ama	8353
双性恋	8354
台湾	8355
庄严	8356
加拿大政府	8357
挑衅	8358
第二类	8359
董事	8360
办公厅	8361
及时性	8362
谈论	8363
透露	8364
80%	8365
善意	8366
持有人	8367
非营利	8368
ala	8369
棉花	8370
312	8371
氟碳	8372
过高	8373
最小	8374
东欧国家	8375
书面形式	8376
几名	8377
司法部长	8378
率@@	8379
est@@	8380
反思	8381
反而	8382
物@@	8383
硬件	8384
社会群体	8385
Le@@	8386
全盘	8387
德拉	8388
科目	8389
训练有素	8390
赚取	8391
oc@@	8392
另一方	8393
第二十二届	8394
管理司	8395
RA@@	8396
产前	8397
接替	8398
正当理由	8399
水道	8400
英@@	8401
争论	8402
亲自	8403
商事	8404
年满	8405
苏格兰	8406
PA@@	8407
深@@	8408
着力	8409
股东	8410
上校	8411
失衡	8412
应以	8413
柴油	8414
毛	8415
海峡	8416
机器	8417
松	8418
第一类	8419
重型	8420
ali	8421
当天	8422
全面实施	8423
具体步骤	8424
分支	8425
蒙@@	8426
远离	8427
劳力	8428
处长	8429
第六章	8430
非裔	8431
抵御	8432
5.4	8433
本应	8434
1612	8435
卡特尔	8436
声	8437
阿卜杜拉	8438
2.8	8439
元素	8440
贫困家庭	8441
瓦加杜古	8442
评审	8443
Add.6	8444
地理位置	8445
性侵犯	8446
海平面	8447
风	8448
土	8449
研究员	8450
选票	8451
换言之	8452
数据@@	8453
核技术	8454
850	8455
新闻媒体	8456
解@@	8457
选区	8458
保护主义	8459
居住地	8460
时效	8461
商讨	8462
机能	8463
Ahmed	8464
na	8465
动植物	8466
L.13	8467
公信力	8468
学费	8469
次@@	8470
随函	8471
传授	8472
不带	8473
将@@	8474
调入	8475
Ay@@	8476
句	8477
周边	8478
增大	8479
CONF	8480
逍遥法外	8481
ot	8482
变@@	8483
生产国	8484
虚假	8485
幸福	8486
边境地区	8487
460	8488
服务质量	8489
社会@@	8490
表示同意	8491
酸	8492
314	8493
L.11	8494
上将	8495
低成本	8496
印制	8497
工商	8498
核心作用	8499
退还	8500
菲@@	8501
记忆	8502
达尔	8503
邦特	8504
扬	8505
经济学	8506
经济援助	8507
及第	8508
容许	8509
枪	8510
第一节	8511
进攻	8512
非常任	8513
作品	8514
学前教育	8515
温	8516
定量	8517
航天	8518
倒退	8519
圣地亚哥	8520
有望	8521
赦免	8522
oy@@	8523
专	8524
创意	8525
协调会议	8526
参谋	8527
旅客	8528
私@@	8529
伦	8530
偿债	8531
富@@	8532
挽救	8533
股票	8534
飞@@	8535
兹@@	8536
失效	8537
长达	8538
循证	8539
运往	8540
ass@@	8541
仅@@	8542
创办	8543
衰退	8544
ane	8545
便是	8546
多氯联苯	8547
双语	8548
引@@	8549
私立	8550
增加额	8551
归属	8552
数次	8553
先后	8554
日向	8555
公共事务	8556
弗@@	8557
近@@	8558
迫击炮弹	8559
送回	8560
两用	8561
商业活动	8562
沦为	8563
时数	8564
厄	8565
变量	8566
晚些时候	8567
耕作	8568
自力更生	8569
随@@	8570
低估	8571
同盟	8572
和平谈判	8573
安曼	8574
综述	8575
ek	8576
int	8577
作好	8578
滴滴涕	8579
请@@	8580
逃犯	8581
何处	8582
俄文	8583
多余	8584
小企业	8585
前提条件	8586
整套	8587
末	8588
560	8589
应立即	8590
总面积	8591
科学界	8592
非洲地区	8593
音乐	8594
再@@	8595
大胆	8596
局限性	8597
E4	8598
公式	8599
教徒	8600
有效期	8601
L.15	8602
农田	8603
外包	8604
情景	8605
留@@	8606
直接参与	8607
跟进	8608
6.4	8609
son	8610
压制	8611
备@@	8612
325	8613
不具	8614
教育法	8615
激增	8616
价格上涨	8617
呢	8618
工商企业	8619
非正常	8620
移民法	8621
这名	8622
集体行动	8623
1968	8624
Par@@	8625
参与率	8626
角	8627
有所提高	8628
离@@	8629
领养	8630
走@@	8631
凯科	8632
简称	8633
经济@@	8634
编码	8635
责任人	8636
出口商	8637
尼维斯	8638
矿产	8639
圣基茨	8640
拉斯	8641
国家机关	8642
履行义务	8643
微@@	8644
ant@@	8645
使用权	8646
表决权	8647
上游	8648
读者	8649
23.@@	8650
宇宙	8651
意向	8652
来讲	8653
标@@	8654
氛围	8655
309	8656
安圭拉	8657
新德里	8658
遵行	8659
L.14	8660
第二@@	8661
篇	8662
卡拉	8663
当年	8664
火灾	8665
列示	8666
劳@@	8667
合成	8668
情	8669
挫折	8670
不顾	8671
业@@	8672
队部	8673
主权国家	8674
图表	8675
成见	8676
穆	8677
停火协定	8678
呈现	8679
ish@@	8680
带薪	8681
检察院	8682
第三阶段	8683
多米尼加	8684
夫@@	8685
施加压力	8686
特等	8687
知名人士	8688
南太平洋	8689
异常	8690
306	8691
40@@	8692
人均收入	8693
口头报告	8694
拦截	8695
联络官	8696
非洲法郎	8697
克制	8698
声誉	8699
蒙罗维亚	8700
赞成票	8701
21.@@	8702
5.5	8703
CO2	8704
倡导者	8705
差别待遇	8706
所欠	8707
未付	8708
然	8709
第三款	8710
补@@	8711
门户网站	8712
不断扩大	8713
五年期	8714
恐怖袭击	8715
有益于	8716
残@@	8717
共同利益	8718
小儿麻痹症	8719
抗@@	8720
财产损失	8721
第四十届	8722
认知	8723
CRP.2	8724
归@@	8725
ind@@	8726
分割	8727
后备	8728
国际海事组织	8729
威慑	8730
市政当局	8731
武装人员	8732
进修	8733
通往	8734
使团	8735
大大增加	8736
布宜诺斯艾利斯	8737
福利部	8738
1958	8739
326	8740
他于	8741
孕产	8742
收	8743
走访	8744
L.18	8745
上届	8746
中说	8747
佣工	8748
死@@	8749
渴望	8750
430	8751
社会工作	8752
运载工具	8753
很长	8754
柏林	8755
耗氧	8756
圆桌	8757
民主政体	8758
完毕	8759
很@@	8760
探访	8761
现阶段	8762
内务部	8763
所知	8764
15%	8765
岛上	8766
撒	8767
水灾	8768
额为	8769
JIU	8770
全民教育	8771
揭露	8772
整编	8773
经营者	8774
萨尔	8775
身心健康	8776
327	8777
三份	8778
所犯	8779
国籍法	8780
接下来	8781
说服	8782
主导地位	8783
格陵兰	8784
多米尼克	8785
料	8786
The	8787
异@@	8788
意思	8789
ey@@	8790
教室	8791
季节	8792
我@@	8793
60%	8794
L.16	8795
优点	8796
隐私权	8797
滥杀	8798
税款	8799
Sar@@	8800
410	8801
坎昆	8802
对受	8803
步枪	8804
赛	8805
25%	8806
ich@@	8807
该局	8808
下滑	8809
包@@	8810
票据	8811
973	8812
L.12	8813
人工流产	8814
原油	8815
圣保罗	8816
民盟	8817
哈瓦那	8818
正常化	8819
甚	8820
中级	8821
侨民	8822
标明	8823
缺席	8824
all@@	8825
常@@	8826
科菲	8827
管@@	8828
股长	8829
基薪	8830
情势	8831
CO@@	8832
书@@	8833
兵库	8834
福利金	8835
航天器	8836
邮政	8837
LA@@	8838
仍@@	8839
初@@	8840
禁@@	8841
经管	8842
13.@@	8843
另@@	8844
少年犯	8845
造@@	8846
预备	8847
二十年	8848
日程	8849
究竟	8850
amb@@	8851
休会	8852
387	8853
不佳	8854
以内	8855
可可	8856
伸张正义	8857
外阴	8858
并发症	8859
沿岸	8860
祝愿	8861
第四十六届	8862
ash@@	8863
主旨	8864
刑院	8865
升至	8866
战斗员	8867
不力	8868
毛利人	8869
答案	8870
kh@@	8871
停战	8872
退回	8873
韦	8874
受欢迎	8875
子@@	8876
有鉴于此	8877
建设项目	8878
强度	8879
#	8880
不准	8881
东道	8882
压	8883
拉美	8884
新闻记者	8885
环@@	8886
返还	8887
陆军	8888
上网	8889
伯@@	8890
含@@	8891
无偿	8892
真@@	8893
上一年	8894
初中	8895
可行性研究	8896
近地	8897
首相	8898
1963	8899
候补	8900
太阳	8901
照管	8902
子弹	8903
C.@@	8904
反对党	8905
税@@	8906
质@@	8907
可信度	8908
悬挂	8909
提出异议	8910
智慧	8911
汇@@	8912
E.@@	8913
VII	8914
双重标准	8915
co	8916
十五	8917
居@@	8918
6.5	8919
归	8920
急性	8921
民法典	8922
系统对	8923
1966	8924
不懈努力	8925
修订案	8926
副@@	8927
卢萨卡	8928
660	8929
出差	8930
盘存	8931
至@@	8932
致@@	8933
As@@	8934
各段	8935
廉价	8936
机动	8937
避孕套	8938
eh@@	8939
小农	8940
席	8941
最有	8942
CHW	8943
排定	8944
清偿	8945
温@@	8946
CN.3	8947
免@@	8948
公用事业	8949
库拉	8950
进口国	8951
L.20	8952
iyah	8953
散布	8954
海报	8955
糖尿病	8956
315	8957
北美洲	8958
反驳	8959
陈旧	8960
全力	8961
分销	8962
菲	8963
量@@	8964
同步	8965
核燃料	8966
次要	8967
维奇	8968
股份	8969
对非	8970
考验	8971
践踏	8972
道理	8973
308	8974
天然	8975
有序	8976
最@@	8977
社@@	8978
间隔	8979
非洲开发银行	8980
二十@@	8981
成套	8982
模糊	8983
求@@	8984
厕所	8985
违规	8986
种族隔离	8987
L.19	8988
一艘	8989
冲@@	8990
局长	8991
布尔	8992
基加利	8993
治@@	8994
共存	8995
第二十六届	8996
给出	8997
缺失	8998
减@@	8999
罪@@	9000
高水平	9001
共同市场	9002
政	9003
观察站	9004
首@@	9005
军营	9006
受权	9007
390	9008
发援会	9009
娜	9010
拟@@	9011
解	9012
玛	9013
一处	9014
公立学校	9015
上述情况	9016
还@@	9017
328	9018
国为	9019
牌	9020
特克斯	9021
视察员	9022
坦克	9023
性能	9024
人次	9025
恢复性	9026
ist@@	9027
尤@@	9028
独@@	9029
逮捕令	9030
生于	9031
示威者	9032
480	9033
ñ	9034
下称	9035
翻译成	9036
不善	9037
两起	9038
克拉	9039
依@@	9040
俄语	9041
富	9042
野蛮	9043
利息收入	9044
富有成效	9045
就此结束	9046
搁置	9047
民选	9048
焚烧	9049
L.17	9050
为数	9051
付诸	9052
形	9053
所设	9054
有无	9055
牢记	9056
50@@	9057
分从	9058
篇幅	9059
通盘	9060
SS	9061
土地权	9062
基本要素	9063
未清	9064
加利	9065
下载	9066
付费	9067
全会	9068
双边合作	9069
密克罗尼西亚联邦	9070
铁@@	9071
470	9072
壁垒	9073
砍伐	9074
称之为	9075
边远地区	9076
ale	9077
切	9078
印第安人	9079
弱	9080
背后	9081
为限	9082
未曾	9083
班吉	9084
知名	9085
ent	9086
机票	9087
领	9088
346	9089
375	9090
互@@	9091
团结一致	9092
巴拉	9093
谈会	9094
待@@	9095
有何	9096
航空安全	9097
转给	9098
防备	9099
㈥	9100
百万美元	9101
废弃物	9102
批准书	9103
Muhammad	9104
役	9105
流失	9106
两届	9107
以致	9108
提问	9109
敬意	9110
530	9111
十个	9112
场址	9113
举例	9114
ESCAP	9115
克斯	9116
勇气	9117
战时	9118
构架	9119
笼统	9120
临床	9121
会面	9122
居高不下	9123
细菌	9124
库克群岛	9125
追究责任	9126
公共利益	9127
教育工作者	9128
星	9129
轻型	9130
950	9131
供电	9132
技术@@	9133
7.2	9134
UN	9135
ica	9136
空间数据	9137
同侪	9138
最易	9139
充分就业	9140
记录在案	9141
限期	9142
借以	9143
各司	9144
案文见	9145
童婚	9146
进驻	9147
不太	9148
在上文	9149
就职	9150
海洋学	9151
高危	9152
饥荒	9153
780	9154
保全	9155
内有	9156
时才	9157
查出	9158
Mal@@	9159
特罗	9160
色	9161
313	9162
原本	9163
绘制	9164
Ak@@	9165
第十一条	9166
盘	9167
求	9168
ME@@	9169
ow@@	9170
安全性	9171
态势	9172
这点	9173
ne	9174
已登记	9175
神圣	9176
Far@@	9177
互惠	9178
第二十七届	9179
获@@	9180
评定	9181
预料	9182
大为	9183
性关系	9184
捕获	9185
结婚年龄	9186
递解	9187
活@@	9188
631	9189
假如	9190
养殖	9191
拒绝接受	9192
舞弊	9193
试@@	9194
扰乱	9195
航天局	9196
译成	9197
邮件	9198
工作进展	9199
边际	9200
药@@	9201
部厅	9202
沃	9203
澳元	9204
计@@	9205
起诉书	9206
510	9207
可为	9208
清@@	9209
诉求	9210
319	9211
aya	9212
万至	9213
25@@	9214
参考资料	9215
结盟	9216
获得成功	9217
317	9218
REP	9219
事关	9220
生理	9221
辖区	9222
定额	9223
立足于	9224
营运	9225
逆转	9226
OzL	9227
Ram@@	9228
⑴	9229
先令	9230
参@@	9231
棘手	9232
课题	9233
323	9234
ero	9235
专业人士	9236
水文	9237
液体	9238
上岗	9239
之处	9240
克什米尔	9241
反应堆	9242
威尔士	9243
被忽视	9244
7.1	9245
继承权	9246
1718	9247
叛乱分子	9248
技术开发	9249
杂项收入	9250
ru@@	9251
新闻自由	9252
雷达	9253
业务流程	9254
艺术家	9255
EA	9256
兑换	9257
在此之前	9258
放宽	9259
照	9260
酋长	9261
Mohammed	9262
些	9263
适用法律	9264
人人平等	9265
城市规划	9266
投标书	9267
正当程序	9268
540	9269
口译员	9270
局限	9271
CH@@	9272
与否	9273
为准	9274
修缮	9275
其间	9276
封	9277
开展调查	9278
感受	9279
索引	9280
70%	9281
卫生条件	9282
哨所	9283
相等	9284
23@@	9285
东北部	9286
押	9287
q@@	9288
杀伤性	9289
警报	9290
部在	9291
PR@@	9292
ii	9293
三倍	9294
什么样	9295
水事	9296
CC	9297
侦察	9298
日增	9299
载明	9300
乔@@	9301
封@@	9302
日于	9303
暗示	9304
滥伤	9305
贪污	9306
部将	9307
项中	9308
首脑	9309
使用率	9310
打开	9311
第三十八届	9312
各区	9313
汇总表	9314
IS	9315
现存	9316
讯问	9317
Ms	9318
公民权	9319
改叙	9320
形态	9321
有利条件	9322
322	9323
Add.7	9324
护送	9325
滥用权力	9326
送往	9327
中文	9328
惊人	9329
社会活动	9330
空军	9331
第十五条	9332
自由权	9333
五分之一	9334
十三	9335
宣扬	9336
测@@	9337
若@@	9338
过剩	9339
借@@	9340
国旗	9341
广	9342
结	9343
引爆	9344
6.6	9345
阳性	9346
丹	9347
亚非	9348
升@@	9349
听@@	9350
每项	9351
立	9352
自愿性	9353
范本	9354
裁	9355
觉得	9356
ung	9357
土地改革	9358
安全区	9359
贸易中心	9360
轮换	9361
双	9362
多媒体	9363
ol	9364
ug@@	9365
服役	9366
烟@@	9367
第四十八届	9368
7.5	9369
乙	9370
博拉	9371
步	9372
倾倒	9373
和平共处	9374
第十八条	9375
区别对待	9376
商店	9377
损害赔偿	9378
本章	9379
欠缺	9380
升温	9381
湿地	9382
第一轮	9383
该省	9384
身份证件	9385
里亚尔	9386
治	9387
集合	9388
不致	9389
减半	9390
四分之三	9391
清算	9392
湖	9393
同居	9394
坦	9395
庭审	9396
拖@@	9397
两大	9398
战斗机	9399
第四十七届	9400
农	9401
着重强调	9402
见到	9403
1737	9404
Qu@@	9405
座谈会	9406
息	9407
调配	9408
Tr@@	9409
太子港	9410
广泛传播	9411
电视节目	9412
第三十九届	9413
管控	9414
贫困率	9415
IC@@	9416
架飞机	9417
毒	9418
居民区	9419
333	9420
PBC.@@	9421
印度政府	9422
筹款	9423
折磨	9424
非常重视	9425
较少	9426
OEWG	9427
Sa@@	9428
亲	9429
从根本上	9430
多么	9431
往年	9432
文学	9433
早已	9434
根@@	9435
ew@@	9436
周转基金	9437
显得	9438
之用	9439
增拨	9440
第二十五届	9441
分包	9442
广泛支持	9443
条对	9444
现实情况	9445
试验性	9446
指望	9447
这段	9448
布隆迪政府	9449
海洋资源	9450
401	9451
六名	9452
工商界	9453
年届会	9454
期刊	9455
段时间	9456
相连	9457
ada	9458
小型企业	9459
恢复正常	9460
枪@@	9461
酗酒	9462
ER@@	9463
行政拘留	9464
延@@	9465
民事诉讼	9466
涌入	9467
刑	9468
总表	9469
自助	9470
0.7	9471
AI	9472
〇	9473
一封信	9474
不容	9475
内所	9476
经合	9477
自由贸易	9478
长久	9479
分析表明	9480
367	9481
严重破坏	9482
债权	9483
出具	9484
恪守	9485
最迟	9486
相互合作	9487
视频会议	9488
任@@	9489
优秀	9490
培育	9491
大体上	9492
实	9493
花@@	9494
986	9495
Pl@@	9496
一律	9497
季	9498
打交道	9499
病假	9500
胜利	9501
CN.6	9502
区域开发	9503
帝力	9504
开曼群岛	9505
陆上	9506
640	9507
大学生	9508
尺度	9509
紧迫性	9510
谢@@	9511
领@@	9512
321	9513
335	9514
洄游	9515
第十六条	9516
赫勒拿	9517
轮@@	9518
怎么	9519
技术员	9520
第二次世界大战	9521
连带	9522
Sp@@	9523
糟糕	9524
自给自足	9525
仇视	9526
比赛	9527
转账	9528
避难所	9529
助@@	9530
危险性	9531
号码	9532
外交使团	9533
赤道	9534
人向	9535
典范	9536
初审	9537
金融资产	9538
尚有	9539
接入	9540
有时候	9541
率领	9542
登@@	9543
KP	9544
凡是	9545
务必	9546
商业化	9547
越@@	9548
L.22	9549
审@@	9550
新任	9551
默@@	9552
对话者	9553
此举	9554
Pro@@	9555
公共信息	9556
某@@	9557
混淆	9558
电子政务	9559
升高	9560
南非洲	9561
水泥	9562
种姓	9563
竭尽全力	9564
AN@@	9565
之时	9566
增长速度	9567
文凭	9568
池	9569
爱@@	9570
通过培训	9571
00@@	9572
受灾国	9573
希亚	9574
德斯	9575
汉@@	9576
猛虎	9577
订于	9578
信徒	9579
基里巴斯	9580
学业	9581
应邀	9582
舍	9583
2.9	9584
电子@@	9585
缓冲区	9586
财政状况	9587
620	9588
一群	9589
上海	9590
个人@@	9591
听证	9592
外资	9593
年均	9594
游行	9595
编撰	9596
落@@	9597
讲习会	9598
1954	9599
Gr@@	9600
att@@	9601
令人@@	9602
加大力度	9603
抗灾	9604
雅@@	9605
代表作	9606
反对票	9607
哺乳	9608
微	9609
24.@@	9610
不间断	9611
放松	9612
方可	9613
水产	9614
致死	9615
责任制	9616
324	9617
329	9618
加班费	9619
日为	9620
注明	9621
食	9622
就@@	9623
敌	9624
葡萄牙语	9625
337	9626
Mat@@	9627
一封	9628
组织者	9629
轻	9630
顾客	9631
ura	9632
wa	9633
侧重点	9634
努	9635
医疗机构	9636
德尔	9637
火	9638
看护	9639
而作	9640
720	9641
加勒比海	9642
加权	9643
平价	9644
报刊	9645
礼拜	9646
福克兰群岛	9647
精算师	9648
语@@	9649
丁@@	9650
中小学	9651
非关税壁垒	9652
90%	9653
春季	9654
纺织品	9655
行为准则	9656
说@@	9657
账款	9658
3.6	9659
pl@@	9660
个人身份	9661
Mah@@	9662
广播节目	9663
政治家	9664
水电	9665
Ahmad	9666
NA@@	9667
存@@	9668
宏观	9669
审问	9670
改	9671
滞留	9672
皮	9673
第五号	9674
●	9675
民主联盟	9676
规章制度	9677
驻@@	9678
Rev.2	9679
工业界	9680
长度	9681
受审	9682
坦@@	9683
少@@	9684
投了	9685
标	9686
绝不能	9687
辛@@	9688
1964	9689
354	9690
490	9691
Mor@@	9692
ano	9693
出发点	9694
收购	9695
传唤	9696
在下文	9697
宣传材料	9698
第三十七届	9699
衡平	9700
袋	9701
追@@	9702
人因	9703
目@@	9704
义	9705
国营	9706
嫌犯	9707
交通管制	9708
即时	9709
想象	9710
杰	9711
1874	9712
te	9713
令人信服	9714
植被	9715
信息网	9716
品种	9717
总预算	9718
坚定不移	9719
多样	9720
散@@	9721
越过	9722
era	9723
管辖区	9724
录音	9725
私营企业	9726
道义	9727
系统化	9728
ö	9729
周岁	9730
每位	9731
第四十三届	9732
349	9733
仪	9734
协助执行	9735
如表	9736
有赖于	9737
船@@	9738
述	9739
严重后果	9740
雅加达	9741
可观	9742
性工作者	9743
订单	9744
适于	9745
ati@@	9746
丢失	9747
政令	9748
新生力量	9749
人以	9750
存量	9751
显@@	9752
集会自由	9753
DE@@	9754
体制改革	9755
城市论坛	9756
归于	9757
情感	9758
推动力	9759
资金不足	9760
ei	9761
ell	9762
惯常	9763
探视	9764
渐进	9765
渔民	9766
男@@	9767
谷物	9768
ISBA	9769
不想	9770
关@@	9771
一审	9772
东北	9773
第四十二届	9774
附@@	9775
其实	9776
扮演	9777
逗留	9778
Cor@@	9779
原产地	9780
支撑	9781
数码	9782
更是如此	9783
纪录	9784
布琼布拉	9785
单据	9786
声@@	9787
拆毁	9788
指引	9789
接口	9790
是否是	9791
li	9792
妥当	9793
年头	9794
核动力	9795
受训	9796
非洲之角	9797
保险公司	9798
初稿	9799
友谊	9800
本文	9801
环	9802
第二轮	9803
议长	9804
贯彻落实	9805
2025	9806
公允	9807
多份	9808
民	9809
终于	9810
街	9811
迟交	9812
高加索	9813
任何理由	9814
体内	9815
候选国	9816
积极行动	9817
空袭	9818
经济衰退	9819
以人为本	9820
似	9821
完工	9822
保持联系	9823
康复中心	9824
最惠国	9825
眼	9826
ih@@	9827
分会	9828
情报机构	9829
校@@	9830
检察机关	9831
离境	9832
Re@@	9833
维权	9834
旷日持久	9835
留住	9836
马拉喀什	9837
一张	9838
合法权利	9839
尚@@	9840
端	9841
谢赫	9842
国立	9843
毁灭	9844
经济损失	9845
致残	9846
司法官员	9847
热情	9848
硫化物	9849
经受	9850
就任	9851
村民	9852
谈及	9853
ast@@	9854
保守	9855
印@@	9856
较@@	9857
无遗	9858
被动	9859
跨@@	9860
检查员	9861
防	9862
委任	9863
射	9864
平均水平	9865
扩建	9866
症状	9867
自治区	9868
In@@	9869
军事装备	9870
可供	9871
照射	9872
筛查	9873
迈向	9874
SE@@	9875
小额贷款	9876
持@@	9877
法律法规	9878
稳固	9879
夜间	9880
弹性	9881
读@@	9882
332	9883
334	9884
亚洲开发银行	9885
开创	9886
救护车	9887
非洲统一组织	9888
0%	9889
497	9890
沉积物	9891
集结	9892
331	9893
336	9894
分派	9895
刊物	9896
归咎于	9897
教养	9898
确定性	9899
432	9900
HRI	9901
协商会	9902
夏季	9903
引人注目	9904
成人教育	9905
暴力犯罪	9906
濒危	9907
ez@@	9908
sp@@	9909
七年	9910
什@@	9911
值得一提的是	9912
号召	9913
战机	9914
未作	9915
研究成果	9916
345	9917
CRP.@@	9918
all	9919
奉	9920
年限	9921
违规行为	9922
同日	9923
家庭收入	9924
第十一次	9925
aa	9926
ex@@	9927
一至	9928
就学	9929
盛行	9930
系统@@	9931
细胞	9932
迄今已	9933
重新安排	9934
Res@@	9935
率先	9936
透过	9937
附加值	9938
L.24	9939
去世	9940
口径	9941
各种因素	9942
缴费	9943
女议员	9944
羞辱	9945
ry	9946
两家	9947
保护性	9948
信奉	9949
具体地说	9950
善	9951
容量	9952
祖@@	9953
稍后	9954
轨	9955
邮@@	9956
数月	9957
毗邻	9958
At@@	9959
ID@@	9960
碳@@	9961
中是	9962
在世界上	9963
增	9964
恫吓	9965
照@@	9966
自由选择	9967
薪	9968
426	9969
传输	9970
立足	9971
580	9972
一个多	9973
人日	9974
年时	9975
终端	9976
领水	9977
L.23	9978
Mon@@	9979
iya	9980
付@@	9981
有偿	9982
燃油	9983
ro	9984
伟大	9985
普及教育	9986
环境部	9987
五次	9988
保罗	9989
参政	9990
合约	9991
毒@@	9992
省长	9993
称作	9994
管理科	9995
象征	9996
货物运输	9997
iss@@	9998
两国政府	9999
工业@@	10000
消@@	10001
距	10002
分遣队	10003
即审	10004
转而	10005
存	10006
疫情	10007
Bou@@	10008
ca	10009
中约	10010
办事	10011
尤为重要	10012
毛派	10013
364	10014
凭借	10015
国土	10016
房@@	10017
排列	10018
兼并	10019
再循环	10020
大都	10021
寄宿	10022
结转	10023
网络@@	10024
行为能力	10025
产物	10026
科研	10027
触犯	10028
输送	10029
过失	10030
铁	10031
不如	10032
发交	10033
故	10034
救@@	10035
科学知识	10036
足额	10037
Is@@	10038
L.21	10039
ess@@	10040
上作	10041
客观性	10042
1624	10043
MISC.5	10044
信息安全	10045
分配资源	10046
少数几个	10047
施暴	10048
本款	10049
爱	10050
系统管理	10051
347	10052
湾	10053
犯罪分子	10054
等同于	10055
AC.51	10056
中以	10057
车间	10058
市@@	10059
放	10060
绝育	10061
货	10062
352	10063
357	10064
世@@	10065
人身保护	10066
单边	10067
疏忽	10068
世界性	10069
1962	10070
Cl@@	10071
欧洲议会	10072
议	10073
转让技术	10074
402	10075
不成比例	10076
击中	10077
劫持人质	10078
执政	10079
早@@	10080
民防	10081
第二十八届	10082
跨文化	10083
ao	10084
数学	10085
此处	10086
藐视	10087
占领区	10088
混@@	10089
第三十六届	10090
要件	10091
资	10092
ini	10093
za	10094
L.29	10095
业主	10096
国民经济	10097
故事	10098
507	10099
860	10100
加特	10101
多种形式	10102
存档	10103
尽职	10104
并不一定	10105
放缓	10106
氯苯	10107
表示祝贺	10108
Ba@@	10109
不懈	10110
专题报告	10111
和善	10112
宽@@	10113
较长	10114
下向	10115
减弱	10116
大大减少	10117
巴马科	10118
未用	10119
这为	10120
w	10121
入伍	10122
取样	10123
受害国	10124
洪灾	10125
联运	10126
推移	10127
洗@@	10128
排名	10129
权威性	10130
爆炸性	10131
突破	10132
系@@	10133
在校	10134
期为	10135
1.6	10136
AC.96	10137
〉	10138
严@@	10139
印	10140
圣多美和普林西比	10141
样品	10142
在经济上	10143
查找	10144
讲@@	10145
交谈	10146
分权	10147
普通法	10148
陆运	10149
348	10150
克隆	10151
另行	10152
大院	10153
带@@	10154
编制工作	10155
技术厅	10156
政治部	10157
数以千计	10158
366	10159
吸纳	10160
告诫	10161
多美元	10162
所持	10163
托运人	10164
款次	10165
留出	10166
类@@	10167
IX	10168
全面解决	10169
几份	10170
如能	10171
存入	10172
归入	10173
拟将	10174
期中	10175
私人资本	10176
诸	10177
调研	10178
341	10179
Bl@@	10180
ena	10181
归功于	10182
评述	10183
载述	10184
退休年龄	10185
配@@	10186
顶	10187
730	10188
ib	10189
奖金	10190
追溯	10191
休@@	10192
基桑加尼	10193
想@@	10194
维察	10195
联接	10196
逃	10197
更广	10198
民族@@	10199
管理工具	10200
重罪	10201
而已	10202
衣服	10203
5.6	10204
〈	10205
四氯化碳	10206
打印机	10207
据点	10208
科学@@	10209
能量	10210
讲述	10211
贾	10212
SP	10213
不负责任	10214
中长期	10215
净增	10216
国际协会	10217
塑料	10218
抛弃	10219
空调	10220
贸易壁垒	10221
760	10222
广@@	10223
情@@	10224
检疫	10225
段@@	10226
神@@	10227
装修	10228
降@@	10229
ino	10230
休息	10231
婚内	10232
迪拜	10233
MC	10234
VIII	10235
交通@@	10236
数十年	10237
日托	10238
最早	10239
认罪	10240
ary	10241
两条	10242
六项	10243
留存	10244
名录	10245
婚姻状况	10246
比勒陀利亚	10247
水准	10248
营利	10249
轻微	10250
食@@	10251
Bur@@	10252
oh@@	10253
停滞	10254
写入	10255
新生	10256
流落	10257
深入研究	10258
缺@@	10259
°	10260
对口	10261
布雷	10262
梅托	10263
海港	10264
考@@	10265
ost@@	10266
促进作用	10267
打伤	10268
流亡	10269
缔造	10270
嫌疑犯	10271
层级	10272
有损	10273
清偿债务	10274
第五节	10275
CRP.3	10276
一同	10277
萨拉	10278
金融交易	10279
Ber@@	10280
公共财政	10281
判	10282
制药	10283
明天	10284
洁净	10285
4.6	10286
Abd@@	10287
ef@@	10288
克减	10289
增加一倍	10290
派@@	10291
迫击炮	10292
寄养	10293
时向	10294
水质	10295
瘘管	10296
胜任	10297
374	10298
外侨	10299
委派	10300
赫尔辛基	10301
423	10302
三位	10303
不止	10304
矫正	10305
节能	10306
沮丧	10307
爱国	10308
证据规则	10309
1353	10310
资深	10311
414	10312
牧民	10313
石@@	10314
谢克尔	10315
az	10316
制服	10317
服	10318
社区服务	10319
轮胎	10320
1945	10321
res@@	10322
偿金	10323
原材料	10324
哈龙	10325
商业@@	10326
快@@	10327
掌控	10328
收支	10329
履行任务	10330
广阔	10331
康@@	10332
文人	10333
网播	10334
蓝图	10335
跨学科	10336
隶属	10337
590	10338
卖	10339
技经	10340
私有	10341
行政法院	10342
ita	10343
上以	10344
在政治上	10345
塑造	10346
森林资源	10347
ate	10348
不遗余力	10349
之三	10350
时地	10351
立法者	10352
紧急措施	10353
防空	10354
344	10355
借此	10356
劳工市场	10357
核扩散	10358
监督制度	10359
井	10360
兼职	10361
河@@	10362
瓦利	10363
贝尔	10364
内载	10365
回避	10366
塞尔维亚共和国	10367
补充性	10368
补给	10369
630	10370
AP@@	10371
ira	10372
下设	10373
不高	10374
伐木	10375
失踪者	10376
351	10377
355	10378
7.3	10379
CE@@	10380
对面	10381
蔬菜	10382
起码	10383
这套	10384
1000	10385
339	10386
680	10387
一篇	10388
对称	10389
数个	10390
聚@@	10391
请拨	10392
谨向	10393
运输系统	10394
一边	10395
圣地	10396
均@@	10397
坦率	10398
每季度	10399
贯彻执行	10400
Ibrahim	10401
SA	10402
中低收入	10403
有损于	10404
gu@@	10405
ial	10406
决不能	10407
案文@@	10408
照会	10409
货@@	10410
356	10411
列表	10412
综合症	10413
自由@@	10414
财政政策	10415
661	10416
墨西哥政府	10417
大区	10418
房间	10419
聚会	10420
藏@@	10421
公共场所	10422
华@@	10423
多国	10424
巴尔干	10425
求偿	10426
确@@	10427
能源安全	10428
营@@	10429
打击犯罪	10430
—	10431
三人	10432
提具	10433
L.26	10434
大洋洲	10435
本期	10436
然@@	10437
363	10438
Mc@@	10439
互动式	10440
半年	10441
同工同酬	10442
树木	10443
隆@@	10444
数最多	10445
更为重要	10446
服务处	10447
经济学家	10448
驱回	10449
战士	10450
议事	10451
记@@	10452
需求量	10453
413	10454
别人	10455
型飞机	10456
最起码	10457
环境监测	10458
能为	10459
配套	10460
385	10461
养@@	10462
外贸	10463
归化	10464
朝@@	10465
沿着	10466
相关联	10467
采掘业	10468
353	10469
Sect.@@	10470
ann@@	10471
波罗的海	10472
西北	10473
阿布	10474
实施者	10475
敌人	10476
毛@@	10477
监护权	10478
二者	10479
指挥部	10480
毛坯	10481
规避	10482
MSP	10483
und@@	10484
借	10485
全面性	10486
务	10487
姐妹	10488
学历	10489
探@@	10490
每种	10491
频道	10492
372	10493
前来	10494
巴博	10495
绝@@	10496
一共	10497
伊科	10498
充分认识	10499
圈	10500
密度	10501
巨额	10502
沉默	10503
瓶颈	10504
装有	10505
轻@@	10506
ü	10507
与会代表	10508
专业培训	10509
厄尔尼诺	10510
宿舍	10511
譬如	10512
乘坐	10513
保持稳定	10514
推销	10515
日刊	10516
服务费	10517
瘫痪	10518
迁离	10519
作贡献	10520
充分反映	10521
古柯	10522
开启	10523
投票权	10524
行政区	10525
企业界	10526
做@@	10527
克朗	10528
关怀	10529
制宪	10530
州政府	10531
应使	10532
遗弃	10533
L.27	10534
年终	10535
死者	10536
373	10537
居所	10538
未遂	10539
纽约联合国总部	10540
细@@	10541
进行性	10542
416	10543
610	10544
杜夫	10545
海牙公约	10546
第三十届	10547
道@@	10548
麻管局	10549
Pol@@	10550
来信	10551
L.38	10552
一读	10553
恶意	10554
拜	10555
政变	10556
该届	10557
铺平道路	10558
412	10559
P.@@	10560
oj@@	10561
事务部长	10562
亚太地区	10563
关联性	10564
凯恩	10565
火箭弹	10566
路易斯	10567
钚	10568
1820	10569
学家	10570
市民	10571
Em@@	10572
移	10573
第三十四届	10574
适应性	10575
酒精	10576
非军事化	10577
马尔@@	10578
便携式	10579
委@@	10580
泛美	10581
组在	10582
长期投资	10583
马尼拉	10584
100%	10585
L.25	10586
各个部门	10587
同性恋者	10588
妓女	10589
本土	10590
此项工作	10591
毫无根据	10592
那次	10593
417	10594
570	10595
En@@	10596
定制	10597
日渐	10598
暂@@	10599
递送	10600
ce	10601
抱怨	10602
未予	10603
步@@	10604
流行病学	10605
苏维埃	10606
371	10607
ain	10608
局部	10609
早就	10610
环境治理	10611
解体	10612
霍乱	10613
050	10614
1965	10615
AB	10616
咨委	10617
圆满	10618
甲@@	10619
转到	10620
Add.8	10621
公共开支	10622
幼@@	10623
征求意见	10624
战俘	10625
终生	10626
过期	10627
门诊	10628
do	10629
以向	10630
侯赛因	10631
假释	10632
化武	10633
参阅	10634
发展趋势	10635
四种	10636
牙科	10637
经济合作组织	10638
维生素	10639
课本	10640
1514	10641
室内	10642
敦请	10643
流浪	10644
Add.10	10645
一是	10646
例证	10647
半岛	10648
失学	10649
执法机关	10650
特色	10651
郊区	10652
上级	10653
世	10654
任何一方	10655
弹@@	10656
断@@	10657
期满	10658
桑	10659
法学院	10660
海湾	10661
甚@@	10662
细分	10663
GDP	10664
Lu@@	10665
一台	10666
分配情况	10667
利雅得	10668
第二句	10669
答卷	10670
线@@	10671
虫	10672
开庭	10673
数字化	10674
皮特	10675
联安	10676
尼罗	10677
招收	10678
中载列	10679
供应国	10680
放射	10681
政治局势	10682
检@@	10683
稍	10684
John	10685
感@@	10686
欺骗	10687
狭隘	10688
称@@	10689
谈谈	10690
乡	10691
参加国	10692
定期存款	10693
对性	10694
平均值	10695
政治@@	10696
过渡性	10697
送@@	10698
ex	10699
国际电信联盟	10700
急救	10701
提款权	10702
校	10703
检控	10704
歪曲	10705
讲授	10706
诉状	10707
CN.17	10708
保障制度	10709
倒	10710
千	10711
导	10712
归纳	10713
第三十二届	10714
里斯本	10715
割礼	10716
天数	10717
文化@@	10718
素	10719
详见	10720
钴	10721
颠覆	10722
马拉	10723
343	10724
争夺	10725
废弃	10726
当事国	10727
残暴	10728
研究院	10729
驾驶	10730
伊拉克人	10731
初等	10732
制成品	10733
坎@@	10734
来访	10735
版权	10736
Law	10737
不用	10738
东南亚国家联盟	10739
主观	10740
大门	10741
界线	10742
边界地区	10743
非人	10744
第三@@	10745
诋毁	10746
遇到困难	10747
部级	10748
陆	10749
408	10750
428	10751
在押	10752
幅	10753
最快	10754
积极性	10755
第二年	10756
紧@@	10757
遥远	10758
377	10759
境	10760
总费用	10761
恶性循环	10762
斯特@@	10763
炸死	10764
碰撞	10765
381	10766
š	10767
余@@	10768
十分重视	10769
合伙	10770
安卡拉	10771
方框	10772
炮击	10773
积极合作	10774
1559	10775
Bu@@	10776
com@@	10777
排序	10778
由该	10779
蔑视	10780
359	10781
Jabal	10782
htm	10783
万个	10784
卓有成效	10785
有期徒刑	10786
果	10787
空间站	10788
体育@@	10789
播出	10790
渔获	10791
知名度	10792
耻辱	10793
蒙	10794
重量	10795
our@@	10796
微生物	10797
触发	10798
Or@@	10799
处分	10800
多式	10801
控制系统	10802
更强	10803
途中	10804
配有	10805
487	10806
东正教	10807
白俄罗斯共和国	10808
警	10809
342	10810
一职	10811
从前	10812
大有	10813
微妙	10814
牧场	10815
第三十五届	10816
索马里人	10817
经验交流	10818
若干次	10819
论据	10820
1946	10821
Ng@@	10822
保有	10823
医@@	10824
辩方	10825
供词	10826
拿	10827
客	10828
工作@@	10829
游戏	10830
鼓吹	10831
L.32	10832
换@@	10833
朗	10834
活性	10835
甲烷	10836
纸@@	10837
送达	10838
人有	10839
共同@@	10840
化石	10841
原子	10842
国际收支	10843
富国	10844
布尼亚	10845
忠实	10846
范@@	10847
许诺	10848
ES@@	10849
不均	10850
专属	10851
批@@	10852
有近	10853
木	10854
退@@	10855
院校	10856
488	10857
不向	10858
个区	10859
划	10860
变暖	10861
旅@@	10862
符合条件	10863
CR@@	10864
不法	10865
催化剂	10866
利害攸关	10867
反腐	10868
第三十三届	10869
触及	10870
26.@@	10871
503	10872
820	10873
预付	10874
UNCTAD	10875
享用	10876
优@@	10877
和睦	10878
开端	10879
开除	10880
犹太主义	10881
祖国	10882
莱斯	10883
57@@	10884
哪里	10885
库尔德	10886
应得	10887
建筑业	10888
抚恤金	10889
本专题	10890
特殊性	10891
转用	10892
这部	10893
28.@@	10894
369	10895
ida	10896
弃权票	10897
筹划	10898
0.5	10899
导@@	10900
房子	10901
时常	10902
358	10903
456	10904
疏散	10905
的黎波里	10906
475	10907
L.34	10908
同一天	10909
总括	10910
更长	10911
米尔	10912
过早	10913
379	10914
437	10915
中未	10916
其下	10917
推断	10918
436	10919
修订版	10920
十九	10921
处处长	10922
条目	10923
航空器	10924
一代	10925
同性	10926
启发	10927
寄@@	10928
通行证	10929
Con@@	10930
Per@@	10931
单纯	10932
商界	10933
比前	10934
血液	10935
警卫队	10936
415	10937
Hassan	10938
出卖	10939
卫队	10940
第八章	10941
团在	10942
旧@@	10943
普斯卡	10944
汇聚	10945
背@@	10946
译员	10947
509	10948
ow	10949
中东问题	10950
基数	10951
岛民	10952
巴西政府	10953
362	10954
原住民	10955
和准	10956
表彰	10957
调查小组	10958
oz@@	10959
今天上午	10960
提供数据	10961
明文规定	10962
校长	10963
红利	10964
船上	10965
中作	10966
哥伦比亚政府	10967
官@@	10968
文化部	10969
生物@@	10970
ern@@	10971
小于	10972
晚上	10973
每隔	10974
遵从	10975
出租	10976
换取	10977
新元	10978
科长	10979
都市	10980
顽固	10981
决@@	10982
囚禁	10983
年末	10984
留给	10985
368	10986
依赖性	10987
化解	10988
家庭事务	10989
故障	10990
386	10991
Az@@	10992
互利	10993
恶@@	10994
患病	10995
高得	10996
NGO	10997
au	10998
情报局	10999
明斯克	11000
活动分子	11001
兼容	11002
大笔	11003
姓氏	11004
宁	11005
征用	11006
United	11007
充满活力	11008
冷@@	11009
十二个	11010
可信性	11011
地缘	11012
承包人	11013
购@@	11014
乌兹别克斯坦共和国	11015
共处	11016
剥夺权利	11017
无形	11018
满意度	11019
腹泻	11020
表演	11021
SPLOS	11022
武器弹药	11023
牛	11024
现实意义	11025
60@@	11026
五氯	11027
劳动部	11028
士	11029
泰勒	11030
腐败问题	11031
Tar@@	11032
iri@@	11033
告	11034
和表	11035
才干	11036
放牧	11037
红@@	11038
零售	11039
＊	11040
406	11041
分居	11042
富有成果	11043
陪审团	11044
宗@@	11045
投掷	11046
汗	11047
临近	11048
卢布	11049
子公司	11050
输@@	11051
ila	11052
密集型	11053
敌意	11054
方对	11055
科尔多凡	11056
落入	11057
见证	11058
该署	11059
古巴政府	11060
外流	11061
规	11062
颇	11063
4.8	11064
主审	11065
卓越	11066
欧亚	11067
理应	11068
转发	11069
22.@@	11070
751	11071
IT@@	11072
服务提供商	11073
灭绝	11074
Bal@@	11075
eng@@	11076
复杂化	11077
外展	11078
尽@@	11079
差不多	11080
微观	11081
司在	11082
氟化	11083
第一句	11084
航空航天	11085
装载	11086
预制	11087
Mas@@	11088
与@@	11089
业界	11090
制冷	11091
畜牧业	11092
第二十五条	11093
托儿所	11094
Ben@@	11095
GS	11096
one	11097
热烈	11098
383	11099
del	11100
ter	11101
十四	11102
参议员	11103
岛国	11104
断言	11105
求职者	11106
短暂	11107
维护和平	11108
馆	11109
DC	11110
举证责任	11111
冰@@	11112
带动	11113
拟于	11114
最高级别	11115
氯化石蜡	11116
电邮	11117
藏	11118
行政@@	11119
3.7	11120
anc@@	11121
全球定位系统	11122
兼@@	11123
新闻处	11124
积@@	11125
胎儿	11126
7.4	11127
压@@	11128
渗透	11129
较差	11130
近海	11131
适度	11132
为生	11133
人于	11134
战略武器	11135
施以	11136
继@@	11137
薪水	11138
For@@	11139
套@@	11140
故@@	11141
激进	11142
粮食价格	11143
起源	11144
422	11145
XVII	11146
名前	11147
帐	11148
沙巴	11149
爆炸事件	11150
等同	11151
迈@@	11152
690	11153
70@@	11154
ier	11155
中仅	11156
八年	11157
前线	11158
塔尔	11159
大体	11160
季节性	11161
总价值	11162
情报@@	11163
普及率	11164
创始	11165
同类	11166
固体废物	11167
展	11168
等候	11169
雷亚尔	11170
INF.@@	11171
伊比利亚	11172
数据交换	11173
泛滥	11174
种@@	11175
终结	11176
382	11177
L.28	11178
去@@	11179
测绘	11180
电气	11181
青@@	11182
465	11183
不起	11184
但应	11185
保释	11186
私立学校	11187
路障	11188
业经	11189
以下内容	11190
体育部	11191
史	11192
哈桑	11193
方方面面	11194
时有	11195
球	11196
各项任务	11197
国民军	11198
圆满成功	11199
常委会	11200
性别差异	11201
查看	11202
消防	11203
短时间	11204
能源供应	11205
载@@	11206
1572	11207
价格指数	11208
卜	11209
呼声	11210
多国部队	11211
比照	11212
黑海	11213
不列颠	11214
体制性	11215
相互理解	11216
谋@@	11217
不偏不倚	11218
异	11219
看@@	11220
第三项	11221
防灾	11222
389	11223
ul	11224
为例	11225
印度尼西亚政府	11226
宣判	11227
市值	11228
ran@@	11229
伤@@	11230
农业部	11231
奥林匹克	11232
学童	11233
并作	11234
特拉特	11235
耗资	11236
霍	11237
525	11238
La	11239
中毒	11240
住房问题	11241
登载	11242
移@@	11243
4.7	11244
停滞不前	11245
全时	11246
原文	11247
商业银行	11248
干部	11249
整修	11250
谷	11251
鱼种	11252
XX	11253
ati	11254
功效	11255
支票	11256
续@@	11257
入籍	11258
四大	11259
差@@	11260
开放式	11261
资历	11262
主持会议	11263
切断	11264
安全法	11265
尼泊尔政府	11266
改派	11267
未经许可	11268
洛尔科	11269
直升飞机	11270
自发	11271
解放阵线	11272
361	11273
CRIC	11274
UNA0@@	11275
html	11276
墨西哥城	11277
政体	11278
正规化	11279
生病	11280
512	11281
澳门	11282
苯酚	11283
轻重缓急	11284
辰	11285
非农业	11286
驯鹿	11287
27.@@	11288
三条	11289
位@@	11290
受损害	11291
各方对	11292
圣城	11293
比尔	11294
遣	11295
陆@@	11296
净减	11297
地形	11298
拥有者	11299
断	11300
诚信	11301
详细信息	11302
CAC	11303
大城市	11304
战@@	11305
污名	11306
生物学	11307
电缆	11308
组长	11309
耗费	11310
严密	11311
教学大纲	11312
滞后	11313
田	11314
绝大部分	11315
AC	11316
对立	11317
尔特	11318
欣慰	11319
评@@	11320
376	11321
435	11322
一生	11323
农产	11324
并用	11325
美洲开发银行	11326
392	11327
威@@	11328
投资人	11329
搜寻	11330
爵士	11331
监@@	11332
经纪人	11333
辩解	11334
马丁内斯	11335
670	11336
Val@@	11337
出去	11338
安全部	11339
检	11340
求助于	11341
诉讼法	11342
违犯	11343
EX	11344
L.30	11345
Ros@@	11346
劳动@@	11347
巴塞罗那	11348
条至	11349
第十一	11350
管理费用	11351
繁重	11352
致意	11353
伦@@	11354
品@@	11355
园	11356
害	11357
数千	11358
此时	11359
现正	11360
采掘	11361
se	11362
哥伦比亚特区	11363
并视	11364
挪用	11365
授课	11366
松@@	11367
牵涉到	11368
玛@@	11369
运动员	11370
卫生@@	11371
放置	11372
桥	11373
航	11374
全面落实	11375
典	11376
好几个	11377
客@@	11378
标界	11379
资料库	11380
轮流	11381
478	11382
Ed@@	11383
L.36	11384
交易成本	11385
休闲	11386
医师	11387
所长	11388
439	11389
偏向	11390
努力争取	11391
宜	11392
斟酌	11393
栋	11394
认@@	11395
L.39	11396
在发言中	11397
属性	11398
灯	11399
电文	11400
398	11401
DA@@	11402
世界市场	11403
净@@	11404
安全@@	11405
年期	11406
据@@	11407
血	11408
路径	11409
隐藏	11410
aq@@	11411
ko	11412
uc@@	11413
合乎	11414
手语	11415
期所	11416
权衡	11417
派往	11418
生产量	11419
绝望	11420
群@@	11421
翻@@	11422
酒	11423
雨水	11424
Ash@@	11425
tion	11426
一夫多妻制	11427
中间人	11428
同伴	11429
25.@@	11430
听众	11431
年增长率	11432
微不足道	11433
无家可归者	11434
海员	11435
这件	11436
逐字	11437
395	11438
39@@	11439
521	11440
565	11441
ies	11442
九年	11443
冬季	11444
固体	11445
招@@	11446
置	11447
001	11448
ech@@	11449
保险@@	11450
劳务	11451
哲学	11452
开幕式	11453
突显	11454
购	11455
awa	11456
其能	11457
判罪	11458
用处	11459
病媒	11460
福	11461
编排	11462
自立	11463
诉@@	11464
赛@@	11465
顺应	11466
int@@	11467
ss@@	11468
内陆国	11469
围栏	11470
德国政府	11471
恰@@	11472
跟上	11473
运载火箭	11474
遗址	11475
麦@@	11476
AL	11477
趋于	11478
近几个月	11479
雷场	11480
马其顿	11481
只不过	11482
开头	11483
AP	11484
夏@@	11485
多大	11486
惊讶	11487
慢	11488
本年度	11489
活动家	11490
阿塞拜疆共和国	11491
鱼@@	11492
ton	11493
中均	11494
中起	11495
度@@	11496
界@@	11497
百	11498
难以@@	11499
384	11500
Ger@@	11501
L.31	11502
ion	11503
一百@@	11504
中东地区	11505
乐@@	11506
开曼	11507
手机	11508
英格兰	11509
405	11510
恤	11511
抗辩	11512
第十	11513
管教	11514
0.7%	11515
418	11516
438	11517
七名	11518
区域环境	11519
十七	11520
工作效率	11521
折旧	11522
朗@@	11523
泽	11524
积极开展	11525
论证	11526
１	11527
433	11528
一小部分	11529
三类	11530
女人	11531
怀@@	11532
恩贾梅纳	11533
秋季	11534
获知	11535
迟迟	11536
会议记录	11537
危急	11538
护@@	11539
高级法院	11540
391	11541
汉普森	11542
继任	11543
贴	11544
Sol@@	11545
一度	11546
丰度	11547
久@@	11548
媒体报道	11549
烷	11550
船员	11551
378	11552
人民解放军	11553
务@@	11554
友好关系	11555
民族解放	11556
第十三条	11557
转变成	11558
Mad@@	11559
厄@@	11560
程序法	11561
第四@@	11562
纯	11563
Gar@@	11564
Kam@@	11565
aw	11566
ts	11567
ure	11568
收款	11569
远见	11570
Be@@	11571
rez	11572
国防部长	11573
宣传教育	11574
货币政策	11575
酒店	11576
前期	11577
台式	11578
婚	11579
技合	11580
投机	11581
资料袋	11582
of@@	11583
会后	11584
再次发生	11585
前南	11586
匹配	11587
彼得	11588
折扣	11589
沙漠	11590
421	11591
513	11592
man@@	11593
帐篷	11594
看守	11595
财务@@	11596
411	11597
Min@@	11598
各款	11599
含汞	11600
广场	11601
确保安全	11602
诸@@	11603
阿方索	11604
驻留	11605
Jean	11606
L.35	11607
入口	11608
化学@@	11609
周边地区	11610
因应	11611
建筑材料	11612
第二卷	11613
舒@@	11614
若干项	11615
一经	11616
第三世界	11617
言@@	11618
贫民区	11619
ens@@	11620
商会	11621
拓宽	11622
民解	11623
联塞建	11624
质量标准	11625
零件	11626
397	11627
东南	11628
使用费	11629
司将	11630
同年	11631
荷兰政府	11632
长老	11633
L.37	11634
ong@@	11635
不了	11636
创作	11637
思路	11638
狱警	11639
经济效益	11640
429	11641
477	11642
COSP	11643
主席国	11644
匿名	11645
报价	11646
红新月	11647
联尼	11648
Bo@@	11649
L.43	11650
our	11651
专属经济区	11652
买	11653
互相@@	11654
接	11655
沉@@	11656
调往	11657
^	11658
三十@@	11659
所受	11660
经纪	11661
458	11662
oun@@	11663
pdf	11664
暴力行动	11665
核计划	11666
第二天	11667
视力	11668
L.42	11669
官兵	11670
责任感	11671
连通	11672
FA@@	11673
ber@@	11674
乘数	11675
在册	11676
坑	11677
明示	11678
月@@	11679
氯烃	11680
相互之间	11681
征@@	11682
搬@@	11683
照明	11684
留用	11685
降落	11686
840	11687
Sim@@	11688
设@@	11689
音@@	11690
403	11691
434	11692
L.48	11693
pro@@	11694
几届	11695
不时	11696
优惠待遇	11697
勒索	11698
407	11699
710	11700
8.2	11701
ola	11702
乔治	11703
受援	11704
后于	11705
国际化	11706
常用	11707
惩罚性	11708
无法控制	11709
看起来	11710
草@@	11711
著作	11712
L.49	11713
乳腺癌	11714
常务副	11715
联阵	11716
丑	11717
冒	11718
劳资关系	11719
基金项目	11720
往@@	11721
投入使用	11722
联席	11723
行政事务	11724
转送	11725
404	11726
419	11727
ung@@	11728
个人卫生	11729
发出通知	11730
总裁	11731
承@@	11732
潮	11733
略@@	11734
自由贸易区	11735
辅之以	11736
适时	11737
526	11738
⑵	11739
倾听	11740
前沿	11741
大大提高	11742
字样	11743
旗帜	11744
真诚地	11745
管理程序	11746
萨拉热窝	11747
递延	11748
风暴	11749
驱虫	11750
IM@@	11751
人民@@	11752
以利于	11753
医治	11754
子孙后代	11755
把握	11756
1956	11757
424	11758
不定	11759
交互式	11760
周期性	11761
器具	11762
已达	11763
扫射	11764
苏人解	11765
西南亚	11766
里亚	11767
L.33	11768
No	11769
OC	11770
例@@	11771
入账	11772
外围	11773
退役	11774
＋	11775
CN	11776
SO@@	11777
anda	11778
hm@@	11779
往返	11780
留	11781
衍生	11782
转诊	11783
736	11784
两族	11785
之初	11786
宣誓	11787
布卡武	11788
折@@	11789
维尔京群岛	11790
诚实	11791
遣散	11792
阿什	11793
443	11794
GGE	11795
Ku@@	11796
L.40	11797
公共交通	11798
摒弃	11799
文物	11800
旋风	11801
445	11802
448	11803
一视同仁	11804
叛军	11805
国对	11806
小学生	11807
武@@	11808
签	11809
行政长官	11810
这批	11811
高速	11812
8.1	11813
今世	11814
完@@	11815
弗	11816
次访问	11817
目击者	11818
444	11819
不大可能	11820
凸显	11821
展@@	11822
残疾者	11823
民主党	11824
鉴别	11825
命	11826
因果关系	11827
所得税	11828
最大化	11829
水井	11830
空间信息	11831
立刻	11832
运到	11833
骚乱	11834
今日	11835
代表大会	11836
党@@	11837
缺	11838
CST	11839
交通事故	11840
使用暴力	11841
戏剧	11842
日子	11843
训练班	11844
首批	11845
仿效	11846
无人驾驶	11847
泽@@	11848
署@@	11849
486	11850
假日	11851
接壤	11852
409	11853
483	11854
537	11855
关键所在	11856
兵役	11857
卫星通信	11858
已故	11859
放射源	11860
第九@@	11861
冗长	11862
出国	11863
开放源码	11864
新闻报道	11865
水果	11866
水生	11867
Ltd	11868
ion@@	11869
五年计划	11870
实际行动	11871
投票站	11872
挪威政府	11873
照护	11874
规@@	11875
野生动物	11876
阴@@	11877
if	11878
单亲家庭	11879
团结起来	11880
本节	11881
第二十四条	11882
萘	11883
457	11884
国界	11885
外长	11886
布达佩斯	11887
换句话说	11888
自然环境	11889
轮值	11890
469	11891
515	11892
PA	11893
sen	11894
完备	11895
改正	11896
调解员	11897
557	11898
GC.22	11899
ric@@	11900
勇敢	11901
台@@	11902
国民大会	11903
地理信息	11904
市级	11905
粮	11906
罗姆族	11907
透彻	11908
阴谋	11909
393	11910
单亲	11911
塞尔	11912
备	11913
市区	11914
无国界	11915
来源于	11916
瑞士政府	11917
研所	11918
罗先生	11919
背道而驰	11920
455	11921
MO@@	11922
ON@@	11923
住处	11924
四周	11925
微克	11926
朱@@	11927
重伤	11928
隶属于	11929
505	11930
532	11931
imana	11932
图片	11933
复会	11934
奖@@	11935
察	11936
陛下	11937
几周	11938
分析员	11939
泰	11940
评估所	11941
880	11942
Jos	11943
L.41	11944
凯	11945
无期徒刑	11946
猖獗	11947
种植园	11948
474	11949
Sab@@	11950
San@@	11951
ity	11952
上报	11953
何@@	11954
农作物	11955
发射器	11956
弗里敦	11957
形@@	11958
英属维尔京群岛	11959
重大成就	11960
446	11961
Ny@@	11962
仓储	11963
办事员	11964
去除	11965
液	11966
管理法	11967
501	11968
SAT	11969
卡纳克	11970
巴哈	11971
急诊	11972
青春期	11973
453	11974
投标人	11975
海湾合作委员会	11976
甄别	11977
研@@	11978
腐败现象	11979
调停	11980
447	11981
485	11982
David	11983
ea	11984
征询	11985
成功经验	11986
折衷	11987
服@@	11988
母@@	11989
相互了解	11990
真空	11991
第二种	11992
733	11993
Kal@@	11994
ela	11995
前几次	11996
开通	11997
接生	11998
马诺河	11999
3.8	12000
Nor@@	12001
TE@@	12002
扫描	12003
派出所	12004
烧毁	12005
离岸	12006
第二十九届	12007
汇辑	12008
糖	12009
贷项	12010
面对面	12011
th	12012
ue	12013
帮派	12014
约瑟夫	12015
训	12016
误@@	12017
违禁	12018
451	12019
L.45	12020
L.53	12021
世界气象组织	12022
买@@	12023
劳工部	12024
国际事务	12025
肯	12026
食品安全	12027
信守	12028
朝向	12029
知	12030
知识库	12031
翻了一番	12032
随意	12033
545	12034
oll@@	12035
仍旧	12036
偷窃	12037
充资	12038
克族	12039
双边条约	12040
坚持不懈	12041
意@@	12042
感情	12043
更为严重	12044
相互信任	12045
统@@	12046
隆	12047
466	12048
予以考虑	12049
亵渎	12050
凭证	12051
大洋	12052
帐目	12053
引	12054
爱滋病	12055
白人	12056
试用	12057
遇害	12058
1521	12059
壳	12060
思@@	12061
清点	12062
达卡	12063
1907	12064
B型	12065
anga	12066
下旬	12067
严格执行	12068
白皮书	12069
逮捕证	12070
pp	12071
专题会议	12072
凌辱	12073
复核	12074
村@@	12075
氧	12076
自备	12077
适@@	12078
L.50	12079
akh@@	12080
从业者	12081
伯	12082
劳资	12083
受阻	12084
居住区	12085
已使	12086
报案	12087
468	12088
列有	12089
有形资产	12090
第十二次	12091
街道	12092
转载	12093
颗	12094
飞	12095
920	12096
CTOC	12097
by	12098
云	12099
代际	12100
到底	12101
夺取	12102
有所改进	12103
矿@@	12104
110.@@	12105
506	12106
L.47	12107
ace	12108
hi	12109
ja	12110
一侧	12111
公平竞争	12112
刑事警察	12113
日元	12114
深入分析	12115
离任	12116
计算机设备	12117
马格里布	12118
1.8	12119
388	12120
718	12121
六次	12122
在家	12123
学龄儿童	12124
实施方案	12125
斯洛伐克共和国	12126
耕种	12127
份文件	12128
哈尔	12129
巡回	12130
提供方便	12131
摄影	12132
普惠制	12133
极端分子	12134
民主选举	12135
纤维	12136
续设	12137
难度	12138
ISO	12139
Me@@	12140
des	12141
出版社	12142
加班	12143
同其	12144
围困	12145
如本	12146
引擎	12147
政见	12148
第六节	12149
象征性	12150
1955	12151
好转	12152
就业人数	12153
盆地	12154
营养@@	12155
463	12156
PS	12157
哈萨克斯坦共和国	12158
守@@	12159
开发新	12160
扣@@	12161
未爆	12162
瓜@@	12163
逐@@	12164
AS	12165
交出	12166
浓缩铀	12167
金融体制	12168
错综复杂	12169
427	12170
卖@@	12171
合用	12172
宫	12173
宽	12174
死于	12175
442	12176
候选	12177
置@@	12178
订@@	12179
近几年来	12180
Add.9	12181
Bel@@	12182
we	12183
供参考	12184
号@@	12185
姿态	12186
封信	12187
眼@@	12188
负债表	12189
几点	12190
击	12191
服务供应商	12192
测定	12193
皆	12194
简明	12195
记住	12196
软	12197
770	12198
ú	12199
不可@@	12200
五周年	12201
会外	12202
反倾销	12203
各派	12204
责	12205
返国	12206
L.44	12207
信息网络	12208
全新	12209
思	12210
技术标准	12211
未交	12212
铜	12213
信息管理系统	12214
引信	12215
援@@	12216
泄漏	12217
湖泊	12218
潜@@	12219
科学院	12220
第七@@	12221
粗暴	12222
经济制裁	12223
454	12224
498	12225
514	12226
740	12227
Ac@@	12228
世界卫生	12229
意大利政府	12230
甘@@	12231
XXIX	12232
传感器	12233
可用性	12234
归档	12235
必将	12236
执@@	12237
放射性物质	12238
有史以来	12239
肢体	12240
装甲车	12241
裨益	12242
计算方法	12243
问@@	12244
1.7	12245
Ph@@	12246
以防	12247
减刑	12248
总金额	12249
托儿	12250
支持性	12251
研	12252
组织协调	12253
色@@	12254
选用	12255
镇@@	12256
Peter	12257
交通工具	12258
屋	12259
巴库	12260
废@@	12261
持有者	12262
来往	12263
环己烷	12264
申@@	12265
电器	12266
稀少	12267
481	12268
492	12269
亲密	12270
坦诚	12271
外交关系	12272
学前	12273
扣减	12274
接洽	12275
航@@	12276
起初	12277
476	12278
Mil@@	12279
六氯	12280
底@@	12281
离去	12282
迟	12283
529	12284
555	12285
创@@	12286
受访者	12287
变通	12288
招待会	12289
英才	12290
获得性	12291
选举权	12292
1957	12293
一款	12294
人满为患	12295
具体做法	12296
卫生领域	12297
多数票	12298
智@@	12299
枢纽	12300
迟缓	12301
1591	12302
396	12303
协联	12304
国际商会	12305
破伤风	12306
绘图	12307
职业妇女	12308
自评	12309
误导	12310
399	12311
性别角色	12312
月度	12313
第一卷	12314
讯息	12315
路上	12316
阿马	12317
青	12318
472	12319
890	12320
AL@@	12321
以北	12322
填@@	12323
实在	12324
所订	12325
校园	12326
联机	12327
锡@@	12328
Abdel@@	12329
National	12330
oun	12331
二十周年	12332
如前所述	12333
摊派	12334
海里	12335
起始	12336
迁往	12337
1503	12338
394	12339
决	12340
拘捕	12341
政和	12342
痛	12343
知晓	12344
竞标	12345
银行业务	12346
面试	12347
633	12348
举@@	12349
喷@@	12350
损伤	12351
无线电台	12352
景观	12353
第十四次	12354
财政部长	12355
再接再厉	12356
收入水平	12357
本协定	12358
民主@@	12359
私下	12360
认明	12361
贬值	12362
集中精力	12363
Khan	12364
凭	12365
有别于	12366
法国政府	12367
罗德里格斯	12368
605	12369
Inspira	12370
作家	12371
别@@	12372
发动机	12373
呈件	12374
拉巴特	12375
职@@	12376
调查组	12377
难以获得	12378
8.3	12379
Un@@	12380
ok	12381
下才	12382
共同点	12383
刚果共和国	12384
忠诚	12385
改善生活	12386
眼前	12387
第七十三	12388
简@@	12389
节中	12390
越界	12391
参差不齐	12392
市场@@	12393
教益	12394
欧	12395
联苯	12396
行政法	12397
迟@@	12398
飞行器	12399
Add.11	12400
塔拉	12401
失散	12402
科托努	12403
479	12404
625	12405
中度	12406
供应品	12407
创业精神	12408
千百万	12409
塔什	12410
暴@@	12411
档	12412
欲	12413
耐@@	12414
警惕	12415
ac	12416
一块	12417
减小	12418
应聘	12419
未婚	12420
第十五次	12421
维拉	12422
速@@	12423
Sha	12424
aki	12425
偏@@	12426
安全事件	12427
尼斯	12428
电网	12429
467	12430
502	12431
一个@@	12432
军事化	12433
字@@	12434
店	12435
必需品	12436
通信@@	12437
eb	12438
开拓	12439
施	12440
赴	12441
98.@@	12442
Er@@	12443
上期	12444
助产	12445
址	12446
服务项目	12447
求职	12448
用地	12449
纽带	12450
让步	12451
｟a50｠	12452
491	12453
WG@@	12454
ima	12455
ph@@	12456
东南部	12457
偶尔	12458
创设	12459
应适当	12460
苦@@	12461
酸化	12462
Hu@@	12463
埃尔比勒	12464
存有	12465
房产	12466
所附	12467
播@@	12468
放映	12469
施暴者	12470
末尾	12471
死亡威胁	12472
洛美	12473
硕士	12474
险	12475
449	12476
CN.5	12477
GE@@	12478
不公	12479
中性	12480
五天	12481
坚称	12482
摩@@	12483
波哥大	12484
相互支持	12485
第十六次	12486
1929	12487
之多	12488
名是	12489
最新进展	12490
深受	12491
身分	12492
阿勒	12493
附文	12494
Kafr	12495
L.46	12496
政策性	12497
教育@@	12498
有没有	12499
包围	12500
区法院	12501
召集人	12502
期末	12503
该组	12504
跟	12505
461	12506
790	12507
CONF.2010	12508
ef	12509
介于	12510
探矿	12511
知悉	12512
衔接	12513
贝克	12514
黄@@	12515
㈦	12516
世界知识产权组织	12517
失业问题	12518
收据	12519
旋转翼	12520
条下	12521
法中	12522
潘基文	12523
第一位	12524
Jo@@	12525
国务秘书	12526
家务劳动	12527
小计	12528
洋@@	12529
犯罪团伙	12530
441	12531
人死于	12532
十多年	12533
外交人员	12534
常备	12535
稀缺	12536
缺水	12537
软@@	12538
aka	12539
ç	12540
助学金	12541
影片	12542
Se@@	12543
减让	12544
发病	12545
密切关系	12546
对账	12547
最穷	12548
破@@	12549
证明文件	12550
请求书	12551
431	12552
国产	12553
尔斯	12554
杂@@	12555
研讨	12556
脱贫	12557
长短	12558
603	12559
义@@	12560
份子	12561
增援	12562
政府军	12563
湿	12564
美洲国家	12565
起义	12566
边@@	12567
马尔维纳斯群岛	12568
默许	12569
com	12570
der	12571
ke	12572
lez	12573
七项	12574
十六	12575
地被	12576
展开讨论	12577
散居	12578
生物量	12579
第四季度	12580
组件	12581
身为	12582
防务	12583
领导力	12584
gov	12585
丙	12586
五十周年	12587
人民军	12588
总和	12589
普通教育	12590
盲人	12591
预留	12592
侦测	12593
奈@@	12594
持续时间	12595
水坝	12596
石油价格	12597
518	12598
Co@@	12599
合理性	12600
地使	12601
嫌疑	12602
巴士拉	12603
独自	12604
陈@@	12605
下游	12606
举出	12607
代管	12608
在短期内	12609
粮食供应	12610
452	12611
Nations	12612
PR	12613
ovi	12614
一带	12615
全权代表	12616
失业人数	12617
新闻@@	12618
时为	12619
枪击	12620
联会	12621
ore	12622
万国宫	12623
储藏	12624
南奥塞梯	12625
印尼	12626
坚@@	12627
学徒	12628
宣传@@	12629
5.7	12630
715	12631
Pal@@	12632
农业@@	12633
历次	12634
实地考察	12635
手榴弹	12636
框	12637
背离	12638
评为	12639
2019	12640
473	12641
主义者	12642
修	12643
全日制	12644
州@@	12645
残障	12646
泛	12647
第二十条	12648
管理@@	12649
绿@@	12650
轻易	12651
连通性	12652
通报会	12653
1.9	12654
504	12655
534	12656
XXI	12657
万维网	12658
上任	12659
不相称	12660
停顿	12661
化为	12662
机队	12663
用具	12664
疑虑	12665
讲师	12666
Ru@@	12667
○	12668
井@@	12669
商业界	12670
惊@@	12671
残余	12672
注视	12673
游@@	12674
证@@	12675
运输@@	12676
阿勒颇	12677
餐	12678
511	12679
567	12680
772	12681
Her@@	12682
Mur@@	12683
人口老龄化	12684
利特	12685
字母	12686
数据分析	12687
新一代	12688
核弹头	12689
站点	12690
9.1	12691
Nd@@	12692
ice	12693
副产品	12694
毛利	12695
达巴	12696
验收	12697
｟d51｠	12698
484	12699
一律平等	12700
使用寿命	12701
具体任务	12702
创造力	12703
固@@	12704
导游	12705
白	12706
网络安全	12707
责任者	12708
遗属	12709
采矿业	12710
471	12711
PCNICC	12712
决不	12713
分隔	12714
盐	12715
证明书	12716
870	12717
因果	12718
拍摄	12719
无理	12720
极力	12721
科科长	12722
词汇	12723
隐瞒	12724
Mo@@	12725
oul@@	12726
主管人员	12727
势	12728
历届	12729
吉隆坡	12730
实际意义	12731
宿@@	12732
无助于	12733
橡胶	12734
洪@@	12735
罪恶	12736
508	12737
522	12738
WP	12739
eng	12740
上调	12741
包机	12742
小麦	12743
特种	12744
计算机化	12745
评判	12746
辨认	12747
逃@@	12748
里昂	12749
魁北克	12750
495	12751
527	12752
uk	12753
务虚会	12754
居留证	12755
情报部门	12756
核心内容	12757
法院院长	12758
泡沫	12759
1390	12760
č	12761
亿至	12762
化肥	12763
效仿	12764
星@@	12765
租@@	12766
阿齐兹	12767
830	12768
ado	12769
伤害力	12770
凭单	12771
受制于	12772
安全套	12773
捐赠者	12774
灌输	12775
破裂	12776
讯	12777
证据不足	12778
账	12779
马普托	12780
严重不足	12781
会同	12782
华	12783
听讯	12784
处理@@	12785
平均工资	12786
征兵	12787
服务局	12788
朝鲜半岛	12789
狱中	12790
相互间	12791
纳克	12792
贸易条件	12793
首领	12794
30.@@	12795
人事管理	12796
凡@@	12797
列述	12798
输出	12799
过后	12800
AT@@	12801
万吨	12802
万英镑	12803
债	12804
全体成员	12805
审计师	12806
日报	12807
服务部	12808
遏止	12809
推动者	12810
描绘	12811
条所载	12812
物理学	12813
礼宾	12814
首位	12815
548	12816
ODP	12817
勤	12818
年青人	12819
独一无二	12820
第二十三条	12821
速	12822
陆路	12823
531	12824
CA	12825
enn@@	12826
城市居民	12827
短语	12828
纽约市	12829
而来	12830
脚@@	12831
该市	12832
供餐	12833
平权	12834
油田	12835
营养状况	12836
1959	12837
546	12838
Tall	12839
Um@@	12840
北欧国家	12841
坐标	12842
法律责任	12843
玉米	12844
第十二	12845
遣送	12846
CRP.4	12847
公务人员	12848
备有	12849
威	12850
接轨	12851
横@@	12852
缓刑	12853
观@@	12854
观看	12855
规程	12856
醇	12857
he@@	12858
发展前景	12859
名新	12860
就业人口	12861
巴厘岛	12862
急@@	12863
总付	12864
戴	12865
榴弹	12866
硫	12867
6.7	12868
一面	12869
伊斯兰共和国	12870
很差	12871
总署	12872
感激	12873
既@@	12874
昂	12875
短链	12876
980	12877
动产	12878
历史@@	12879
各有	12880
回报率	12881
惟一	12882
意见分歧	12883
生态旅游	12884
穿越	12885
第二季度	12886
股权	12887
能以	12888
随即	12889
驳斥	12890
692	12891
Add.12	12892
人员配备	12893
劣势	12894
雨季	12895
令@@	12896
叙利亚人	12897
叙级	12898
微波	12899
敌国	12900
数以百万计	12901
机枪	12902
治罪	12903
进攻性	12904
量刑	12905
Bas@@	12906
ant	12907
少将	12908
弹头	12909
扬@@	12910
更是	12911
联络人	12912
还同	12913
遇	12914
75%	12915
767	12916
内地	12917
图书	12918
巨@@	12919
彼此之间	12920
按规定	12921
控制@@	12922
望远镜	12923
第十@@	12924
薄弱环节	12925
采伐	12926
13%	12927
HSP	12928
SI@@	12929
Shar@@	12930
XXVI	12931
ert@@	12932
sa	12933
下级	12934
人命	12935
充@@	12936
喜欢	12937
格拉	12938
行文	12939
499	12940
551	12941
743	12942
交换所	12943
瑟	12944
结壳	12945
讲台	12946
附加条件	12947
940	12948
Del@@	12949
不太可能	12950
地以	12951
慈善机构	12952
无误	12953
西班牙政府	12954
746	12955
三届	12956
各点	12957
建和办	12958
经验丰富	12959
Kr@@	12960
已为	12961
布拉	12962
接收国	12963
星球	12964
确有	12965
纪念碑	12966
赎金	12967
霍姆斯	12968
517	12969
IC	12970
ua	12971
乙@@	12972
出生率	12973
北南	12974
拉丹	12975
更能	12976
术	12977
纪要	12978
缓减	12979
能见度	12980
表达意见	12981
铺平	12982
为首	12983
余	12984
协同效应	12985
商标	12986
工程@@	12987
影	12988
扎伊尔	12989
残害	12990
膳食	12991
Ol@@	12992
刑事法	12993
士@@	12994
政治性	12995
新能源	12996
森@@	12997
穿	12998
边远	12999
这应	13000
逐出	13001
错	13002
516	13003
低碳	13004
信息@@	13005
平民百姓	13006
支出额	13007
服务@@	13008
标的	13009
梦想	13010
自下而上	13011
须@@	13012
饱受	13013
459	13014
Bak@@	13015
De	13016
Kor@@	13017
决策权	13018
各异	13019
生物资源	13020
领海	13021
人员培训	13022
划@@	13023
咨询组	13024
品牌	13025
快速增长	13026
抚养费	13027
雷斯	13028
575	13029
L.52	13030
are	13031
告@@	13032
奋斗	13033
德国马克	13034
控制中心	13035
止	13036
渔管	13037
第十三	13038
585	13039
IPBES	13040
Mag@@	13041
ki	13042
哀悼	13043
孤身	13044
密	13045
尽可能减少	13046
心理学	13047
抬头	13048
耐心	13049
适应能力	13050
482	13051
496	13052
奥马尔	13053
学术@@	13054
完全同意	13055
截获	13056
更进一步	13057
第四十@@	13058
罗斯	13059
获利	13060
行进	13061
重大意义	13062
零星	13063
462	13064
Co	13065
NO@@	13066
人口总数	13067
判@@	13068
增派	13069
实习生	13070
应用软件	13071
授@@	13072
数百名	13073
最低水平	13074
枯竭	13075
武断	13076
牧师	13077
电视会议	13078
真实性	13079
矩阵	13080
程	13081
首尔	13082
马丁	13083
552	13084
占多数	13085
口号	13086
建模	13087
心态	13088
执行官	13089
推	13090
策	13091
被遗弃	13092
谈@@	13093
辆车	13094
阿族	13095
非常高兴	13096
龙	13097
乱伦	13098
偏高	13099
农用	13100
基督徒	13101
师资	13102
当初	13103
掌管	13104
程序@@	13105
补偿金	13106
贸易@@	13107
共同行动	13108
契机	13109
搞	13110
een	13111
任地	13112
众@@	13113
呆	13114
地方法院	13115
尔德	13116
托马斯	13117
撞击	13118
犯罪现场	13119
相吻合	13120
精心	13121
这届	13122
马伊	13123
优越	13124
埃塞俄比亚政府	13125
慎重	13126
收藏	13127
欠发达	13128
氟化铀	13129
行李	13130
警力	13131
预支	13132
1952	13133
Met@@	13134
Mohammad	13135
XVI	13136
滥用职权	13137
稻米	13138
终@@	13139
贫@@	13140
迁	13141
ain@@	13142
ti	13143
uri	13144
不详	13145
参与权	13146
过长	13147
Go@@	13148
IV@@	13149
Im@@	13150
亚美尼亚人	13151
保密性	13152
具体来说	13153
渊源	13154
财政@@	13155
519	13156
536	13157
哈里里	13158
奈	13159
手法	13160
控	13161
教学@@	13162
施用	13163
暴乱	13164
极易	13165
海水	13166
第三份	13167
第二十七条	13168
财务处	13169
DNA	13170
Ser@@	13171
各种类型	13172
呈文	13173
战略重点	13174
育龄妇女	13175
钥匙	13176
1284	13177
960	13178
Pro.@@	13179
Rad@@	13180
举证	13181
司令部	13182
并列	13183
当地政府	13184
待定	13185
截@@	13186
死因	13187
没@@	13188
硬@@	13189
笔@@	13190
繁琐	13191
级@@	13192
高额	13193
IR@@	13194
北朝鲜	13195
国会议员	13196
在技术上	13197
扫除	13198
放到	13199
示@@	13200
立陶宛共和国	13201
野@@	13202
464	13203
556	13204
AS@@	13205
SB	13206
以利	13207
压缩	13208
发电厂	13209
受托	13210
国应	13211
地产	13212
地方性	13213
循序渐进	13214
德里	13215
第五@@	13216
而异	13217
退伍军人	13218
494	13219
不易	13220
兴建	13221
可喜	13222
吉塞	13223
图象	13224
失误	13225
孔	13226
ath@@	13227
刑@@	13228
卡比拉	13229
宵禁	13230
择@@	13231
民族主义	13232
犯罪率	13233
足球	13234
48@@	13235
L.51	13236
ge	13237
内政部长	13238
回收率	13239
家庭环境	13240
权责	13241
查尔斯	13242
消费品	13243
漏@@	13244
致辞	13245
重心	13246
489	13247
538	13248
Ass@@	13249
Maria	13250
传给	13251
婚姻法	13252
放慢	13253
敌视	13254
社会科学	13255
维和部队	13256
胎	13257
虽@@	13258
重新启动	13259
748	13260
864	13261
Naqurah	13262
SG	13263
ood	13264
几	13265
城市贫民	13266
相差	13267
第一种	13268
良知	13269
车臣	13270
进去	13271
Han@@	13272
Ro@@	13273
eva	13274
ment	13275
中转	13276
之久	13277
价格@@	13278
便@@	13279
南美	13280
卷宗	13281
大洲	13282
纸	13283
饭店	13284
571	13285
917	13286
公共汽车	13287
可受	13288
婚姻关系	13289
而论	13290
裁@@	13291
订有	13292
辩论会	13293
逐年	13294
1747	13295
佩林	13296
大米	13297
定购	13298
望	13299
母国	13300
略微	13301
磅	13302
等到	13303
493	13304
582	13305
Hal@@	13306
专案	13307
丝	13308
何塞	13309
呼吸道	13310
基尔库克	13311
巴勒莫	13312
必@@	13313
温和	13314
犯罪案件	13315
阿拉	13316
Ne@@	13317
amm@@	13318
ora	13319
丝毫	13320
伯利恒	13321
向本	13322
埃尔@@	13323
府	13324
武	13325
比上	13326
现金流量	13327
联系国	13328
583	13329
世界@@	13330
中间商	13331
剧	13332
加德满都	13333
社会变革	13334
西北部	13335
遭@@	13336
AM@@	13337
Van	13338
WFP	13339
XXV	13340
for@@	13341
二是	13342
倒@@	13343
决策人员	13344
夺走	13345
犯@@	13346
用意	13347
赖	13348
106.@@	13349
604	13350
ut	13351
中央@@	13352
候审	13353
坎	13354
岛@@	13355
第十七次	13356
还须	13357
阿拉法特	13358
gh@@	13359
ley	13360
回家	13361
录@@	13362
忍受	13363
手枪	13364
普里	13365
极高	13366
瑞典政府	13367
落实工作	13368
谨此	13369
长期有效	13370
esa	13371
偷@@	13372
前夕	13373
厘米	13374
器材	13375
射@@	13376
愤怒	13377
括号	13378
石油换	13379
肆意	13380
非加太	13381
Raj@@	13382
SAICM	13383
con@@	13384
挨饿	13385
辱	13386
音像	13387
了@@	13388
军事基地	13389
演示	13390
竭力	13391
课@@	13392
违宪	13393
退学	13394
遗骸	13395
马库	13396
｟16｠	13397
9.2	13398
Pet@@	13399
XVIII	13400
XX@@	13401
mann	13402
八项	13403
发掘	13404
坐@@	13405
复查	13406
失调	13407
河谷	13408
葡语	13409
art@@	13410
值@@	13411
军民	13412
各处	13413
戒毒	13414
渔业资源	13415
渔具	13416
米纳	13417
负荷	13418
银行业	13419
539	13420
Aw@@	13421
Dj@@	13422
aga	13423
les	13424
van	13425
一如既往	13426
尤	13427
沿用	13428
选拔	13429
5.8	13430
9.3	13431
人性	13432
创	13433
叶@@	13434
城@@	13435
婚@@	13436
应负	13437
流感	13438
1888	13439
San	13440
区域化	13441
发明	13442
合同规定	13443
扼要	13444
签订合同	13445
运河	13446
雅典	13447
非军事区	13448
领导者	13449
下于	13450
值得称赞	13451
床位	13452
第五个	13453
肯尼亚政府	13454
银河	13455
002	13456
Ex@@	13457
ji	13458
山脉	13459
所负	13460
热烈欢迎	13461
管制系统	13462
能源需求	13463
自该	13464
AN	13465
优良	13466
北欧	13467
干旱地区	13468
投保	13469
日间	13470
柬	13471
满@@	13472
狭窄	13473
生态@@	13474
纳粹	13475
辅助性	13476
573	13477
婴幼儿	13478
突发	13479
赞助者	13480
高级顾问	13481
601	13482
Alma	13483
Col@@	13484
Hg	13485
ade	13486
中学生	13487
中曾	13488
协调性	13489
大片	13490
并会	13491
技术创新	13492
相互依赖	13493
近几年	13494
逃脱	13495
降解	13496
591	13497
8.5	13498
COM.2	13499
与此相关	13500
家族	13501
巴里	13502
恰恰	13503
氯@@	13504
深深	13505
珊瑚	13506
疏@@	13507
组和	13508
自主性	13509
陪	13510
顶@@	13511
533	13512
634	13513
不用说	13514
农村居民	13515
可预见性	13516
安大略省	13517
待审	13518
薪@@	13519
表二	13520
资质	13521
走出	13522
飞往	13523
马上	13524
12%	13525
乌兹别克	13526
多位	13527
多家	13528
昆@@	13529
核军备	13530
算@@	13531
缩@@	13532
金融工具	13533
me	13534
中华人民共和国	13535
任一	13536
使用量	13537
口服	13538
装卸	13539
销@@	13540
性保健	13541
成份	13542
新机制	13543
派系	13544
研究组	13545
荒漠	13546
598	13547
810	13548
举例说明	13549
家用	13550
意味	13551
测	13552
激@@	13553
迫在眉睫	13554
逃往	13555
际	13556
隔@@	13557
｟4｠	13558
CC@@	13559
Luis	13560
制定方案	13561
友	13562
标示	13563
535	13564
COP.9	13565
ä	13566
名女	13567
听力	13568
听询	13569
打造	13570
氯氟烃	13571
甚高频	13572
益@@	13573
纵容	13574
耕地	13575
课堂	13576
｟37｠	13577
两套	13578
域	13579
学龄前	13580
性病	13581
母乳	13582
私法	13583
称道	13584
第十三次	13585
脑@@	13586
雅温得	13587
零票	13588
＝	13589
1483	13590
COP.1	13591
一员	13592
代行	13593
共谋	13594
有悖于	13595
能源技术	13596
衡量标准	13597
长期性	13598
｟19｠	13599
568	13600
不复存在	13601
伽利略	13602
官方语言	13603
干净	13604
拟出	13605
账单	13606
Kab@@	13607
其余部分	13608
加之	13609
备抵	13610
未必	13611
相处	13612
米歇尔	13613
若干年	13614
轻罪	13615
配	13616
ence	13617
ers@@	13618
应同	13619
第比利斯	13620
船队	13621
领导职务	13622
Com@@	13623
GA	13624
L.54	13625
为数不多	13626
八名	13627
共向	13628
座@@	13629
推选	13630
杀@@	13631
社会学	13632
诺夫	13633
616	13634
oo	13635
价@@	13636
国际航空	13637
姓	13638
消耗量	13639
现成	13640
眼光	13641
移居	13642
请参阅	13643
选择地	13644
99.@@	13645
aj	13646
ull@@	13647
再生	13648
安全形势	13649
维尔	13650
这起	13651
逐一	13652
饲料	13653
高地	13654
523	13655
乌萨马	13656
劳	13657
含糊	13658
帕拉	13659
总的说来	13660
讲坛	13661
逆向	13662
ard@@	13663
书面材料	13664
努美阿	13665
协约	13666
土耳其政府	13667
担当	13668
拉马拉	13669
盐类	13670
艾德	13671
销售@@	13672
sch@@	13673
保留地	13674
前列	13675
咨询中心	13676
填补空缺	13677
威德	13678
画	13679
阿巴斯	13680
544	13681
与日俱增	13682
东北亚	13683
产品@@	13684
双方同意	13685
哈德	13686
圆@@	13687
巴基斯坦政府	13688
报废	13689
生活状况	13690
祸患	13691
话题	13692
配量	13693
｟5｠	13694
35%	13695
L.55	13696
冻结资产	13697
利纳	13698
散	13699
文化背景	13700
磷	13701
约束性	13702
纪念日	13703
虫害	13704
递增	13705
麻烦	13706
080	13707
4.9	13708
反抗	13709
埋设	13710
监测中心	13711
社会阶层	13712
该党	13713
调控	13714
贴现率	13715
足	13716
龙@@	13717
zi	13718
保证金	13719
前次	13720
手续费	13721
撒@@	13722
校舍	13723
短期投资	13724
社发	13725
管理条例	13726
通信卫星	13727
Add.13	13728
人应	13729
园@@	13730
天文学	13731
孔@@	13732
战后	13733
拉尔	13734
男女比例	13735
第六@@	13736
运营商	13737
金戈	13738
547	13739
579	13740
592	13741
637	13742
827	13743
TRAC	13744
举动	13745
乔	13746
五大	13747
保持警惕	13748
另据	13749
围@@	13750
国际私法	13751
开发@@	13752
数据系统	13753
格外	13754
院@@	13755
隐@@	13756
541	13757
564	13758
Gonz	13759
ski	13760
yan	13761
供应量	13762
公用	13763
废水处理	13764
房租	13765
报名	13766
拥护	13767
改装	13768
新举措	13769
邻居	13770
鲨鱼	13771
549	13772
572	13773
乡镇	13774
仍为	13775
生意	13776
登记簿	13777
科威特政府	13778
语音	13779
030	13780
Carlos	13781
代码	13782
号案	13783
吉尔吉斯共和国	13784
命名	13785
土地@@	13786
埃尔	13787
或愿	13788
柬埔寨政府	13789
｟14｠	13790
809	13791
Cas@@	13792
外交@@	13793
月球	13794
氯丁二烯	13795
第二十一条	13796
管理费	13797
｟2｠	13798
68@@	13799
之家	13800
佩	13801
奉献	13802
扎齐	13803
更快	13804
残留	13805
阿根廷政府	13806
｟28｠	13807
Hab@@	13808
Sah@@	13809
Ter@@	13810
卡洛斯	13811
英里	13812
连任	13813
香港特区	13814
584	13815
731	13816
DLDD	13817
MI	13818
二十世纪	13819
他国	13820
偷渡	13821
军事顾问	13822
北大西洋公约组织	13823
潘@@	13824
真的	13825
1947	13826
Ob@@	13827
丹@@	13828
从属	13829
四条	13830
塞米	13831
存活	13832
平稳	13833
界面	13834
第十八次	13835
财物	13836
道歉	13837
｟17｠	13838
566	13839
Gl@@	13840
tr@@	13841
从业	13842
供应方	13843
倘若	13844
团体之间	13845
增值税	13846
据信	13847
数千名	13848
样	13849
法证	13850
继而	13851
肉体	13852
裁量权	13853
镍	13854
雅	13855
701	13856
Ge@@	13857
分机	13858
县@@	13859
损毁	13860
欺凌	13861
积	13862
第一手	13863
进口商	13864
｟40｠	13865
643	13866
L.57	13867
亦可	13868
人身自由	13869
公设辩护	13870
功@@	13871
工时	13872
心理学家	13873
罚	13874
联几建	13875
诚挚	13876
阈值	13877
驱逐令	13878
561	13879
OS	13880
ndez	13881
主页	13882
十分复杂	13883
卜拉希米	13884
呼@@	13885
固然	13886
性交	13887
服贸	13888
极有	13889
秒	13890
粉@@	13891
紧	13892
资金短缺	13893
迷@@	13894
遗@@	13895
采购计划	13896
错@@	13897
隔绝	13898
｟6｠	13899
ich	13900
不成	13901
公诉	13902
助	13903
华沙	13904
妨害	13905
市议会	13906
拜@@	13907
无记名	13908
殿下	13909
液@@	13910
558	13911
846	13912
Ban@@	13913
Muh@@	13914
iri	13915
伙伴国	13916
带头作用	13917
法学	13918
父	13919
示	13920
示威游行	13921
论@@	13922
｟8｠	13923
AB@@	13924
L.56	13925
Na@@	13926
代表处	13927
伊斯兰堡	13928
全都	13929
公路网	13930
剧烈	13931
弃	13932
摩洛哥王国	13933
无证	13934
正好	13935
照看	13936
百分之@@	13937
职业生涯	13938
贸易商	13939
做些	13940
奥巴马	13941
牵连	13942
订购	13943
该名	13944
7.6	13945
BWC	13946
RI@@	13947
写@@	13948
居住者	13949
州长	13950
数项	13951
林业部门	13952
纸张	13953
自称	13954
蒙巴萨	13955
视觉	13956
781	13957
不大	13958
人员伤亡	13959
兴@@	13960
出自	13961
南非政府	13962
场@@	13963
坏	13964
延	13965
癌	13966
砍伐森林	13967
金矿	13968
之日	13969
外籍人	13970
安大略	13971
翁	13972
562	13973
688	13974
815	13975
Ha@@	13976
下落不明	13977
古老	13978
可再生	13979
少年儿童	13980
班级	13981
甚微	13982
肉	13983
贷	13984
达累斯萨拉姆	13985
钟	13986
｟27｠	13987
｟38｠	13988
608	13989
Fr@@	13990
IN	13991
Mus@@	13992
Vi@@	13993
ec	13994
乐	13995
众	13996
可得性	13997
晚@@	13998
楼房	13999
物力	14000
精英	14001
诱拐	14002
趋向	14003
｟44｠	14004
HA@@	14005
XII	14006
不驱	14007
学说	14008
戈兰高地	14009
搬运	14010
星期六	14011
每份	14012
泰国政府	14013
煤	14014
物件	14015
降雨	14016
页数	14017
｟p50｠	14018
060	14019
Af@@	14020
XI	14021
uh@@	14022
ust@@	14023
不好	14024
东方省	14025
中亚国家	14026
国务	14027
射入	14028
托雷斯	14029
择	14030
排减	14031
浮@@	14032
盈利	14033
盛@@	14034
确凿	14035
耳@@	14036
迹	14037
酸@@	14038
1160	14039
553	14040
689	14041
一间	14042
九名	14043
卡特	14044
基本@@	14045
学到	14046
残	14047
诞生	14048
象@@	14049
辩	14050
酬金	14051
骄傲	14052
｟18｠	14053
｟36｠	14054
645	14055
871	14056
亏损	14057
五位	14058
元@@	14059
其他费用	14060
基层组织	14061
惨@@	14062
明显改善	14063
是不是	14064
辈	14065
559	14066
563	14067
632	14068
727	14069
不宜	14070
名叫	14071
母	14072
特里	14073
生产@@	14074
见面	14075
识	14076
负@@	14077
饲养	14078
｟13｠	14079
XIX	14080
克罗地亚共和国	14081
化验	14082
尔格	14083
录取	14084
拮据	14085
效	14086
有过	14087
第二十三	14088
缴获	14089
耽搁	14090
贴@@	14091
这一@@	14092
阿尔	14093
需在	14094
HS	14095
RS	14096
与此相反	14097
分类账	14098
前后一致	14099
商业部门	14100
应急行动	14101
抵@@	14102
服务公司	14103
殖民统治	14104
第八@@	14105
简编	14106
联危	14107
集束炸弹	14108
29.@@	14109
CMP	14110
ance	14111
han	14112
安东尼奥	14113
理所当然	14114
筒	14115
营养素	14116
透明性	14117
重新@@	14118
高技术	14119
578	14120
Nas@@	14121
上市	14122
买受人	14123
坚戈	14124
戴@@	14125
日到	14126
矿区	14127
符合国家	14128
简述	14129
视野	14130
豪@@	14131
镜	14132
｟26｠	14133
Dar@@	14134
三十年	14135
出任	14136
切入点	14137
左@@	14138
氮	14139
Abdul	14140
ler	14141
乃是	14142
海洋污染	14143
穆萨	14144
老师	14145
议@@	14146
说服力	14147
赞@@	14148
防止出现	14149
高标准	14150
｟15｠	14151
706	14152
Ir@@	14153
Mut@@	14154
guez	14155
债务国	14156
塔什干	14157
大自然	14158
控制区	14159
火山	14160
热点	14161
疑似	14162
硫@@	14163
第三季度	14164
管理机制	14165
金斯克	14166
｟41｠	14167
Av@@	14168
uss@@	14169
勾结	14170
哺乳动物	14171
基辅	14172
开具	14173
执业	14174
详细分析	14175
遍布	14176
长处	14177
骨@@	14178
｟33｠	14179
｟7｠	14180
ve	14181
丙@@	14182
几起	14183
大意	14184
束缚	14185
爱国者	14186
玛伊	14187
裁武	14188
11@@	14189
ami	14190
关系法	14191
喂养	14192
有增无减	14193
狩猎	14194
职业病	14195
胡安	14196
｟11｠	14197
542	14198
609	14199
Abdul@@	14200
May@@	14201
偏袒	14202
内部事务	14203
出生日期	14204
年幼	14205
德语	14206
油价	14207
波及	14208
约合	14209
这家	14210
集中力量	14211
非全时	14212
｟12｠	14213
｟43｠	14214
1803	14215
Gal@@	14216
KO@@	14217
亲人	14218
减债	14219
地处	14220
玛丽	14221
耶夫	14222
金边	14223
｟48｠	14224
｟49｠	14225
｟9｠	14226
è	14227
三周	14228
十大	14229
强加于	14230
捕	14231
摆@@	14232
数枚	14233
浸@@	14234
瓦拉	14235
生活费用	14236
稍@@	14237
｟1｠	14238
｟20｠	14239
543	14240
Gre@@	14241
He@@	14242
Tal@@	14243
慢性病	14244
无知	14245
环境因素	14246
装甲运兵车	14247
警戒	14248
该地	14249
赔款	14250
128.@@	14251
704	14252
Bor@@	14253
CRP.5	14254
DTIE	14255
Jab@@	14256
Paul	14257
age	14258
决议案	14259
十二@@	14260
发送给	14261
大概	14262
容@@	14263
683	14264
LE@@	14265
ank@@	14266
写信给	14267
司法独立	14268
评分	14269
钢@@	14270
领事馆	14271
RA	14272
为时过早	14273
低廉	14274
司法权	14275
布设	14276
当地人	14277
很广	14278
材	14279
气温	14280
词@@	14281
足迹	14282
邪恶	14283
｟24｠	14284
524	14285
587	14286
626	14287
9.5	14288
Mahmoud	14289
ud	14290
上下	14291
佛教	14292
共同商定	14293
动向	14294
同酬	14295
周末	14296
床	14297
止@@	14298
经济区	14299
职业道德	14300
谋	14301
辛	14302
铺设	14303
｟21｠	14304
528	14305
594	14306
ond@@	14307
下一代	14308
加丹加	14309
国与国	14310
在座	14311
方都	14312
环经	14313
畜牧	14314
瞄准	14315
附于	14316
69@@	14317
俄@@	14318
单项	14319
历年	14320
叫	14321
喀@@	14322
想到	14323
烧@@	14324
细致	14325
阿片	14326
｟45｠	14327
759	14328
XIV	14329
半干旱	14330
反坦克	14331
尼察	14332
炸伤	14333
自上	14334
重审	14335
阿拉伯联盟	14336
｟30｠	14337
｟39｠	14338
615	14339
646	14340
Ind@@	14341
世代	14342
储量	14343
公诉人	14344
出口@@	14345
展览会	14346
带领	14347
强烈建议	14348
徒	14349
海岸线	14350
｟35｠	14351
｟47｠	14352
CP.16	14353
af	14354
一如	14355
各有不同	14356
复合	14357
实用性	14358
有害物质	14359
检讨	14360
法律条文	14361
纳税	14362
赡养	14363
IP@@	14364
复国主义	14365
庭@@	14366
录	14367
方案设计	14368
灾	14369
灾民	14370
码	14371
｟n51｠	14372
586	14373
642	14374
AK	14375
Mak@@	14376
iii	14377
伤员	14378
别国	14379
处方	14380
多功能	14381
衷心	14382
该分	14383
银	14384
附庸	14385
Bah@@	14386
Kat@@	14387
东方	14388
写信	14389
协调局	14390
原型	14391
哥	14392
喜@@	14393
型号	14394
实证	14395
布里	14396
滋生	14397
石块	14398
童	14399
账务	14400
通则	14401
集体@@	14402
Mb@@	14403
Saf@@	14404
ona	14405
ult@@	14406
住@@	14407
兰特	14408
发言稿	14409
受限	14410
善@@	14411
岸	14412
第十四	14413
逐案	14414
阿根廷共和国	14415
｟31｠	14416
Wal@@	14417
air@@	14418
erv@@	14419
保持沉默	14420
兆	14421
公平性	14422
合资	14423
或经	14424
时要	14425
电视@@	14426
盘点	14427
租约	14428
荷属	14429
高速公路	14430
CI@@	14431
D1	14432
La@@	14433
上课	14434
事务股	14435
催化	14436
取证	14437
建国	14438
强奸案	14439
新颖	14440
林地	14441
监	14442
经济秩序	14443
维斯	14444
道义上	14445
....	14446
PO@@	14447
yn@@	14448
仍感	14449
可得	14450
吞并	14451
坚实基础	14452
士气	14453
扎伊	14454
精神@@	14455
腾出	14456
自尊	14457
译文	14458
财政困难	14459
阿特拉斯	14460
非成员国	14461
鲜@@	14462
｟32｠	14463
｟42｠	14464
Med@@	14465
亲戚	14466
埃米尔	14467
广播公司	14468
异性	14469
油漆	14470
而成	14471
贫血	14472
问及	14473
龄	14474
3.9	14475
589	14476
758	14477
INF.1	14478
事物	14479
官僚	14480
岌岌可危	14481
挂图	14482
捐献	14483
散播	14484
日及	14485
有酬	14486
牵涉	14487
给付	14488
阻@@	14489
｟10｠	14490
020	14491
782	14492
乱@@	14493
加倍	14494
卡利	14495
原件	14496
受到破坏	14497
吸取经验	14498
大厦	14499
帐款	14500
政治危机	14501
案卷	14502
游牧	14503
瑞郎	14504
596	14505
8.4	14506
930	14507
Rob@@	14508
Ver@@	14509
ales	14510
兆瓦	14511
国家有关	14512
局域网	14513
广播@@	14514
曾@@	14515
耗@@	14516
｟25｠	14517
97.@@	14518
bi	14519
index	14520
oa	14521
乘	14522
二次	14523
印刷品	14524
小节	14525
布拉格	14526
新闻媒介	14527
版@@	14528
皮肤	14529
直属	14530
碳氢化合物	14531
磺	14532
联营	14533
自我@@	14534
谋杀罪	14535
遗漏	14536
采行	14537
阿斯马拉	14538
554	14539
Mou@@	14540
erg@@	14541
och@@	14542
两部	14543
侵占	14544
口岸	14545
地步	14546
定点	14547
礼品	14548
第十二章	14549
贮存	14550
赡养费	14551
避免出现	14552
顾	14553
驻外	14554
And@@	14555
BC	14556
会计@@	14557
借用	14558
合伙人	14559
囊括	14560
土地法	14561
待决	14562
罗安达	14563
CN@@	14564
不分青红皂白	14565
如对	14566
排挤	14567
着陆	14568
贷记	14569
间@@	14570
576	14571
611	14572
624	14573
Mer@@	14574
ile	14575
land	14576
sk@@	14577
保险法	14578
刑事管辖	14579
卫士	14580
埃拉	14581
工地	14582
布干维尔	14583
带走	14584
摊	14585
用户@@	14586
绝	14587
触@@	14588
阿鲁巴	14589
628	14590
任满	14591
几类	14592
发扬	14593
建筑@@	14594
最受	14595
来函	14596
神经	14597
票数	14598
财政管理	14599
这三项	14600
静@@	14601
AR	14602
XXVII	14603
举例来说	14604
充分行使	14605
函@@	14606
同胞	14607
技@@	14608
教育者	14609
炉	14610
监测员	14611
职业者	14612
阿联酋	14613
｟23｠	14614
0.1	14615
De@@	14616
ement	14617
不断更新	14618
习@@	14619
从纳	14620
减低	14621
券	14622
圣战	14623
多元性	14624
季@@	14625
张@@	14626
懂	14627
片剂	14628
的@@	14629
第七十届	14630
美援	14631
问卷调查	14632
Cam@@	14633
POPRC	14634
以新	14635
取用	14636
学士	14637
德科	14638
抗旱	14639
泛非	14640
租	14641
第二批	14642
肥料	14643
｟34｠	14644
970	14645
Os@@	14646
ag	14647
二十	14648
变数	14649
失	14650
寻常	14651
浮动	14652
湄公河	14653
诠释	14654
食用	14655
OL	14656
Salman	14657
十国集团	14658
周年纪念	14659
妥	14660
宏伟	14661
横田	14662
积极分子	14663
饮料	14664
COP.8	14665
互不	14666
交火	14667
南方共同市场	14668
吃	14669
挑起	14670
探测器	14671
明文	14672
监督员	14673
科伦坡	14674
股在	14675
调出	14676
金融@@	14677
釜山	14678
非全日制	14679
852	14680
Mir@@	14681
依循	14682
办为	14683
卜@@	14684
双边关系	14685
太多	14686
总而言之	14687
无法@@	14688
比亚	14689
盘@@	14690
立即行动	14691
线索	14692
露天	14693
1882	14694
Michael	14695
关键时刻	14696
堆	14697
平均收入	14698
弃@@	14699
或者说	14700
有违	14701
浏览	14702
特拉	14703
科尔	14704
联系人	14705
财务科	14706
鲜明	14707
648	14708
Add.15	14709
不道德	14710
专有	14711
以西	14712
剧@@	14713
宇航	14714
毫无意义	14715
理会	14716
社会关系	14717
第三类	14718
签@@	14719
联手	14720
邮寄	14721
销	14722
593	14723
636	14724
专门从事	14725
两期	14726
临时政府	14727
国有企业	14728
楼@@	14729
盗@@	14730
第十九次	14731
罪责	14732
观众	14733
道路交通	14734
602	14735
757	14736
Ni@@	14737
abi	14738
一中	14739
同位素	14740
序列	14741
很强	14742
心血管	14743
成瘾	14744
撤退	14745
易卜拉欣	14746
气旋	14747
水量	14748
率高	14749
现役	14750
电讯	14751
该所	14752
银行@@	14753
｟0｠	14754
613	14755
697	14756
ner	14757
ons	14758
伊朗政府	14759
升值	14760
困苦	14761
数据资料	14762
欧洲法院	14763
煤炭	14764
现时	14765
经济犯罪	14766
通风	14767
铁路网	14768
595	14769
Gi@@	14770
idi	14771
史无前例	14772
员@@	14773
大地	14774
截然不同	14775
换算	14776
第五十	14777
造	14778
重男轻女	14779
599	14780
Id@@	14781
Tor@@	14782
巴伦西亚	14783
并存	14784
渔@@	14785
突发事件	14786
罕见	14787
阵	14788
59@@	14789
Kl@@	14790
uri@@	14791
加以改进	14792
地面站	14793
抗议者	14794
携带者	14795
机动车辆	14796
还于	14797
阴影	14798
｟22｠	14799
AWG	14800
omb@@	14801
ris	14802
万公顷	14803
两所	14804
人种	14805
复议	14806
打下	14807
报称	14808
电力供应	14809
脚	14810
致敬	14811
违@@	14812
送入	14813
阿尔巴尼亚族	14814
707	14815
89.@@	14816
ere	14817
中继器	14818
产儿	14819
净收入	14820
刚果人	14821
属地	14822
志	14823
拨@@	14824
普选	14825
毫无@@	14826
王@@	14827
蒙古国	14828
遗体	14829
音	14830
驱动力	14831
569	14832
Bri@@	14833
CP@@	14834
Pa@@	14835
─	14836
倾弃	14837
同伙	14838
技术设备	14839
极具	14840
瓦解	14841
计及	14842
Antonio	14843
Rights	14844
以东	14845
哈拉	14846
境遇	14847
孤儿院	14848
巴尔@@	14849
市场机制	14850
皮埃尔	14851
鼓动	14852
CT@@	14853
Ra@@	14854
十一大	14855
各条	14856
同该	14857
夜	14858
尽责	14859
常设机构	14860
竣工	14861
透@@	14862
577	14863
665	14864
705	14865
AG@@	14866
ene	14867
enko	14868
交互	14869
令人发指	14870
兵@@	14871
参与度	14872
国际舞台	14873
多氯	14874
干练	14875
年收入	14876
循环基金	14877
果@@	14878
稳妥	14879
都灵	14880
｟46｠	14881
Bay@@	14882
ht@@	14883
弄清	14884
护	14885
样板	14886
稳健	14887
联合国国际贸易法委员会	14888
身处	14889
非官方	14890
非常复杂	14891
领先	14892
XXIII	14893
ish	14894
po	14895
ë	14896
专业技能	14897
促	14898
接受者	14899
时段	14900
码头	14901
订阅	14902
遍及	14903
｟29｠	14904
040	14905
CP.17	14906
三边	14907
上周	14908
于本	14909
供养	14910
停火协议	14911
分解	14912
前述	14913
只应	14914
承担义务	14915
盛	14916
芬	14917
010	14918
574	14919
693	14920
Le	14921
est	14922
克尔	14923
全面实现	14924
公共资源	14925
分局	14926
卡扎菲	14927
后处理	14928
哪@@	14929
国际联盟	14930
巴德	14931
玻璃	14932
舱	14933
过渡阶段	14934
题	14935
不堪	14936
主教	14937
停火线	14938
另一人	14939
平稳过渡	14940
新闻简报	14941
木炭	14942
沙姆沙伊赫	14943
环礁	14944
肩负	14945
莱州	14946
｟3｠	14947
990	14948
一两年	14949
伤亡人数	14950
似@@	14951
八条	14952
公有	14953
奥尔@@	14954
心脏病	14955
放心	14956
痛@@	14957
聘	14958
Nt@@	14959
不切实际	14960
中共	14961
双向	14962
坎大哈	14963
对以	14964
总长	14965
教唆	14966
登录	14967
索要	14968
INC	14969
IT	14970
MISC.@@	14971
Mun@@	14972
WG.1	14973
丰@@	14974
为的是	14975
乌姆	14976
交涉	14977
伊拉	14978
供资@@	14979
困难重重	14980
孕期	14981
星期日	14982
违法者	14983
通向	14984
丹麦政府	14985
仍应	14986
内乱	14987
制成	14988
南半球	14989
投资额	14990
极好	14991
矿石	14992
签约	14993
舞台	14994
震@@	14995
默示	14996
651	14997
775	14998
Fl@@	14999
Ma	15000
ect	15001
下调	15002
不久前	15003
全方位	15004
合资企业	15005
复印件	15006
嫁妆	15007
已作	15008
林丹	15009
正视	15010
炮	15011
租房	15012
考量	15013
验@@	15014
L.58	15015
任意性	15016
利伯维尔	15017
妇幼保健	15018
实实在在	15019
授标	15020
文档	15021
法律@@	15022
稳	15023
第二十二条	15024
筹办	15025
重大事件	15026
钢	15027
阿姆	15028
588	15029
606	15030
725	15031
elle	15032
ess	15033
si	15034
伊黎	15035
喷洒	15036
年数	15037
消耗品	15038
首选	15039
Int@@	15040
Zh@@	15041
以补	15042
供水系统	15043
养活	15044
发运	15045
哈马	15046
成文法	15047
执勤	15048
电话会议	15049
筹@@	15050
管制法	15051
纪念@@	15052
联塔	15053
随之而来	15054
641	15055
685	15056
A.1	15057
Mont@@	15058
一例	15059
乳@@	15060
十八	15061
卫生部长	15062
工业生产	15063
斯塔	15064
汉	15065
萨格勒布	15066
靠@@	15067
麻@@	15068
745	15069
921	15070
Ta@@	15071
ly	15072
体验	15073
夜@@	15074
如果说	15075
尼日利亚政府	15076
微小	15077
改写	15078
机械化	15079
秘鲁政府	15080
苏丹共和国	15081
蓝@@	15082
观测站	15083
1455	15084
723	15085
737	15086
MISC.1	15087
ations	15088
ff@@	15089
军事力量	15090
军控	15091
卸任	15092
基多	15093
外派	15094
多出	15095
巴西利亚	15096
强奸罪	15097
拒@@	15098
既定目标	15099
日益加剧	15100
早孕	15101
气象卫星	15102
现值	15103
知@@	15104
能源价格	15105
蒙得维的亚	15106
访客	15107
调查局	15108
贫困地区	15109
这比	15110
619	15111
672	15112
Silva	15113
ide	15114
亚美尼亚共和国	15115
传	15116
兼容性	15117
国家标准	15118
实质问题	15119
并不认为	15120
应付款	15121
无酬	15122
演说	15123
精神病院	15124
股将	15125
逐个	15126
635	15127
887	15128
Ev@@	15129
Khal@@	15130
eo	15131
基斯马尤	15132
外交代表	15133
欧元区	15134
硬	15135
统法	15136
钦	15137
Kan@@	15138
以色列国	15139
克里	15140
党员	15141
国际水域	15142
定论	15143
廉政	15144
扎根	15145
玛丽亚	15146
生活@@	15147
突@@	15148
胜诉	15149
653	15150
ico	15151
宁@@	15152
帮@@	15153
投资@@	15154
欧统局	15155
痕迹	15156
竞@@	15157
考	15158
街区	15159
退款	15160
韩元	15161
712	15162
90@@	15163
und	15164
优于	15165
基尔	15166
安哥拉政府	15167
家乡	15168
布瓦凯	15169
打印	15170
有幸	15171
环发	15172
现金余额	15173
珍视	15174
艾	15175
警察署	15176
蹂躏	15177
辅导员	15178
621	15179
一站式	15180
代顿	15181
充分说明	15182
先驱	15183
接获	15184
涅@@	15185
烃	15186
相适应	15187
私营化	15188
签定	15189
类集	15190
雅克	15191
AWGLCA	15192
All@@	15193
CN.10	15194
Sw@@	15195
port	15196
rig@@	15197
专科	15198
何人	15199
分离主义	15200
前向	15201
各节	15202
合同条款	15203
吉尔吉斯斯坦共和国	15204
固定资产	15205
开普敦	15206
擅自	15207
民事责任	15208
牵@@	15209
节日	15210
辞	15211
up@@	15212
二中	15213
信赖	15214
其向	15215
加拿大人	15216
女法官	15217
植树造林	15218
第三十一条	15219
锰	15220
783	15221
art	15222
ker	15223
五种	15224
创新型	15225
国与	15226
夏	15227
巡@@	15228
影@@	15229
探照灯	15230
文件系统	15231
欣@@	15232
纯@@	15233
5.9	15234
607	15235
Moh@@	15236
eda	15237
ite	15238
一分	15239
乏	15240
树@@	15241
水中	15242
衣	15243
钱@@	15244
闯入	15245
721	15246
EN@@	15247
IS3.@@	15248
REDD	15249
下一阶段	15250
两国之间	15251
借款人	15252
回籍	15253
孟加拉	15254
希腊政府	15255
摘录	15256
文化教育	15257
游击队	15258
瘘	15259
请洽	15260
超	15261
都柏林	15262
雇工	15263
默认	15264
100.@@	15265
Maz@@	15266
ga	15267
世界旅游组织	15268
伊特	15269
同级	15270
愿@@	15271
拖网	15272
汉堡	15273
海面	15274
点击	15275
逃跑	15276
预算赤字	15277
L.62	15278
ula	15279
分处	15280
国民收入	15281
完全一致	15282
废旧	15283
战略意义	15284
挑@@	15285
毫不含糊	15286
磁@@	15287
第二十四	15288
第十五	15289
581	15290
647	15291
CFSP	15292
Haj@@	15293
人案	15294
供选择	15295
历时	15296
妇@@	15297
开业	15298
抢@@	15299
拿@@	15300
污辱	15301
痛惜	15302
资源@@	15303
载人	15304
近年	15305
644	15306
779	15307
95%	15308
Shah@@	15309
不断加强	15310
伏	15311
其于	15312
同谋	15313
墓地	15314
捕@@	15315
边界线	15316
页面	15317
领导权	15318
默	15319
03@@	15320
675	15321
red@@	15322
Š	15323
二所列	15324
势@@	15325
平均年龄	15326
救济金	15327
组别	15328
联络员	15329
色彩	15330
英国政府	15331
通力合作	15332
首个	15333
676	15334
不加	15335
亚斯	15336
儿童性	15337
击@@	15338
双边协议	15339
合同法	15340
期初	15341
本金	15342
汶	15343
称职	15344
自有	15345
行政命令	15346
调派	15347
财政危机	15348
遗失	15349
阶级	15350
iro	15351
已同	15352
放款	15353
翻一番	15354
装甲	15355
西南	15356
迪拉姆	15357
雨	15358
1397	15359
Had@@	15360
Il@@	15361
乘@@	15362
催化作用	15363
具体内容	15364
可变	15365
处所	15366
应征	15367
必定	15368
查清	15369
法塔赫	15370
独特性	15371
礼@@	15372
粮价	15373
马尔维纳斯	15374
1889	15375
708	15376
744	15377
isa	15378
书面报告	15379
到处	15380
哪些方面	15381
浪潮	15382
租户	15383
贝卡	15384
邮袋	15385
806	15386
Hay@@	15387
umb@@	15388
兑	15389
入狱	15390
劫@@	15391
哈利法	15392
器@@	15393
工具箱	15394
底层	15395
教导	15396
移植	15397
邮票	15398
666	15399
679	15400
774	15401
Sk@@	15402
US	15403
ert	15404
iz	15405
oud	15406
上表	15407
世界遗产	15408
之手	15409
人生	15410
共达	15411
取自	15412
得当	15413
斯特拉斯堡	15414
犹太教	15415
画@@	15416
红树林	15417
运抵	15418
七条	15419
保险金	15420
可达	15421
地表水	15422
慰问	15423
挽回	15424
旗@@	15425
略高于	15426
罗伯特	15427
联络组	15428
陆港	15429
735	15430
ein	15431
op	15432
上诉人	15433
佛@@	15434
便宜	15435
停用	15436
回升	15437
真	15438
袭击者	15439
Mac@@	15440
中小	15441
制冷剂	15442
可悲	15443
圆满完成	15444
填埋	15445
扩@@	15446
智囊团	15447
焦虑	15448
环境标准	15449
第三期	15450
缉毒	15451
规模较	15452
辐照	15453
锥体	15454
顿@@	15455
22%	15456
58@@	15457
RO@@	15458
个性	15459
叶	15460
型@@	15461
埋@@	15462
外面	15463
应能	15464
时会	15465
演@@	15466
特别法	15467
第六十@@	15468
这就是说	15469
Kon@@	15470
PBC	15471
俄国	15472
基督教徒	15473
恐怖集团	15474
战场	15475
旅行社	15476
替	15477
禁核试条约	15478
维亚	15479
耗时	15480
议席	15481
该区	15482
诸位	15483
隔离区	15484
风能	15485
597	15486
677	15487
765	15488
910	15489
书目	15490
取而代之	15491
各大	15492
国际公法	15493
工资@@	15494
征集	15495
最迟在	15496
氏	15497
辅以	15498
696	15499
KPC	15500
Pe@@	15501
两辆	15502
出对	15503
出访	15504
卡塔尔国	15505
命@@	15506
好战	15507
强制措施	15508
扣	15509
极少数	15510
沉积	15511
片@@	15512
经济指标	15513
见于	15514
证言	15515
谱	15516
隐含	15517
非军事	15518
高涨	15519
793	15520
L.59	15521
临界	15522
公理	15523
军事法院	15524
剧院	15525
合力	15526
听说	15527
哈吉	15528
女性化	15529
婴	15530
孤@@	15531
局局长	15532
推测	15533
最高级	15534
校内	15535
泰米尔	15536
测验	15537
狭义	15538
盟	15539
看成	15540
评	15541
评议	15542
转折点	15543
预见到	15544
Cal@@	15545
NE@@	15546
一层	15547
业务费	15548
低级	15549
债权国	15550
儿童教育	15551
半数以上	15552
工伤	15553
建筑工程	15554
悲痛	15555
拉法	15556
生存能力	15557
相匹配	15558
聚焦	15559
访	15560
转拨	15561
非关税	15562
657	15563
AA	15564
Maj@@	15565
PE@@	15566
ens	15567
不尽相同	15568
之苦	15569
克利	15570
又称	15571
围墙	15572
在案	15573
宽松	15574
对外部	15575
拒绝给予	15576
电力@@	15577
电子版	15578
第一组	15579
许	15580
辛格	15581
Da@@	15582
EB	15583
ach	15584
que	15585
举报人	15586
卡莱	15587
合法利益	15588
密切注意	15589
并非如此	15590
港@@	15591
突击	15592
肯@@	15593
觉@@	15594
高等院校	15595
34.@@	15596
883	15597
从此	15598
儿科	15599
加入书	15600
太空	15601
审判程序	15602
对前	15603
抽样调查	15604
普尔	15605
杆	15606
泥@@	15607
源泉	15608
采	15609
革@@	15610
高空	15611
618	15612
622	15613
756	15614
AT	15615
Suppl	15616
st	15617
出口额	15618
募集	15619
厅应	15620
呈现出	15621
处理厂	15622
夺去	15623
引诱	15624
昂山	15625
正确方向	15626
省政府	15627
竞争能力	15628
运输工具	15629
这条	15630
785	15631
ET@@	15632
人文	15633
奎@@	15634
妇科	15635
抓获	15636
无线	15637
沿@@	15638
相邻	15639
碘	15640
赶@@	15641
限@@	15642
香蕉	15643
761	15644
B.@@	15645
TP	15646
中核	15647
保健@@	15648
办公楼	15649
后继	15650
外围地区	15651
季刊	15652
就诊	15653
怂恿	15654
抽@@	15655
旗舰	15656
盟友	15657
盲文	15658
童@@	15659
纪律处分	15660
统一性	15661
责@@	15662
663	15663
984	15664
IR	15665
berg	15666
oni	15667
va	15668
佐	15669
依旧	15670
失灵	15671
娱乐活动	15672
巨大贡献	15673
社会规范	15674
移至	15675
穷困	15676
蒂斯	15677
译	15678
齐心协力	15679
9.4	15680
分期	15681
未及	15682
诊	15683
试	15684
Abdel	15685
Est@@	15686
Nasiriyah	15687
illa	15688
不敢	15689
保费	15690
商谈	15691
堂	15692
小心	15693
礼	15694
纪录片	15695
能源部	15696
航线	15697
远程教育	15698
顾@@	15699
18%	15700
778	15701
Add.14	15702
Bh@@	15703
Lo@@	15704
OE@@	15705
los	15706
丝@@	15707
了结	15708
利益集团	15709
吸@@	15710
四份	15711
害@@	15712
捷克斯洛伐克	15713
改观	15714
斯坦	15715
祈祷	15716
精神疾病	15717
露@@	15718
6.8	15719
711	15720
X光	15721
ika	15722
不能不	15723
为性	15724
从速	15725
劳务市场	15726
国际会计	15727
期将	15728
检察署	15729
穷	15730
穿@@	15731
站@@	15732
菌	15733
请假	15734
过重	15735
CM@@	15736
net	15737
动摇	15738
勤@@	15739
始	15740
帐@@	15741
征	15742
数百@@	15743
智能	15744
条为	15745
查获	15746
纳税人	15747
要务	15748
阐释	15749
食品@@	15750
728	15751
ella	15752
pr@@	15753
住家	15754
增建	15755
对外贸易	15756
异构体	15757
恐怖行动	15758
懂得	15759
改编	15760
欠@@	15761
等值	15762
筹委会	15763
累@@	15764
苦	15765
迁至	15766
迟于	15767
11%	15768
752	15769
aba	15770
ho	15771
rah	15772
交易@@	15773
但据	15774
促@@	15775
参谋长	15776
哥伦比亚省	15777
衣@@	15778
谢	15779
预示	15780
617	15781
L.61	15782
不远	15783
制宪会议	15784
参选	15785
备份	15786
它于	15787
教学方法	15788
行者	15789
通奸	15790
Hel@@	15791
ier@@	15792
中东欧	15793
决策层	15794
巴萨	15795
抚养人	15796
曾多次	15797
核生化	15798
流出	15799
足@@	15800
681	15801
EM@@	15802
Thomas	15803
中所起	15804
住房条件	15805
分化	15806
大众传媒	15807
构成犯罪	15808
正直	15809
第四项	15810
经商	15811
自其	15812
部内	15813
656	15814
699	15815
L.60	15816
停职	15817
割@@	15818
千名	15819
历	15820
吉普赛人	15821
币	15822
折算	15823
援	15824
治愈	15825
灵@@	15826
炸毁	15827
琳	15828
警觉	15829
诈骗	15830
邻近地区	15831
682	15832
BE@@	15833
Pan@@	15834
ma@@	15835
休会期间	15836
凝聚	15837
划一	15838
刺@@	15839
卡尔@@	15840
改用	15841
犯法	15842
矿产资源	15843
考古	15844
联邦区	15845
668	15846
一颗	15847
争取和平	15848
周密	15849
垂直	15850
奏效	15851
它会	15852
战线	15853
打电话	15854
文号	15855
本戈亚	15856
杰宁	15857
气象@@	15858
石油@@	15859
粗@@	15860
经济核算	15861
贡	15862
遗忘	15863
80@@	15864
Company	15865
IL@@	15866
Nab@@	15867
Wadi	15868
bin	15869
候任	15870
刊载	15871
城区	15872
市场份额	15873
执政党	15874
提早	15875
氧化@@	15876
泵	15877
焦@@	15878
瓦德	15879
相互竞争	15880
经第	15881
预选	15882
623	15883
845	15884
Bi@@	15885
CN.18	15886
COP.5	15887
SR.2	15888
ole	15889
分队	15890
呈交	15891
复	15892
娅	15893
尔多	15894
布什总统	15895
控方	15896
枪杀	15897
每人每天	15898
物色	15899
范式	15900
658	15901
662	15902
702	15903
874	15904
Mos@@	15905
Ot@@	15906
SP@@	15907
下水道	15908
不曾	15909
企@@	15910
卫生工作者	15911
反击	15912
合作者	15913
天后	15914
头部	15915
当日	15916
总会	15917
执委会	15918
损耗	15919
撤@@	15920
未收	15921
棵	15922
流动资金	15923
获得者	15924
详细审查	15925
达标	15926
10.1	15927
Ari@@	15928
WP.1	15929
XIII	15930
上班	15931
个人资料	15932
中心@@	15933
全套	15934
勘查	15935
夏天	15936
或次	15937
手无寸铁	15938
桌面	15939
步兵营	15940
灾区	15941
烟	15942
预订	15943
高频	15944
APLC	15945
不许	15946
乘以	15947
会计制度	15948
停车场	15949
医	15950
品质	15951
外科	15952
攀升	15953
无形资产	15954
运输成本	15955
阅@@	15956
陷入僵局	15957
预警飞机	15958
Kas@@	15959
内所载	15960
双轨	15961
山地	15962
开放性	15963
心理咨询	15964
抗体	15965
特工	15966
维纳	15967
软禁	15968
.5	15969
667	15970
732	15971
奇科	15972
妇女运动	15973
座位	15974
执行程序	15975
整顿	15976
曾于	15977
水利	15978
罐	15979
还本付息	15980
Sil@@	15981
ire	15982
互信	15983
分配@@	15984
否	15985
宫颈癌	15986
家庭@@	15987
工业部	15988
施加影响	15989
日程表	15990
病原体	15991
第四阶段	15992
自由行动	15993
衰@@	15994
预	15995
122.@@	15996
638	15997
848	15998
CP.4	15999
Reg@@	16000
℃	16001
专业性	16002
决算	16003
宽恕	16004
尸@@	16005
建筑群	16006
新西兰政府	16007
本论坛	16008
消防@@	16009
演出	16010
虾	16011
Ap@@	16012
DCP	16013
Ju@@	16014
人口密度	16015
共同财产	16016
史@@	16017
国名	16018
外交事务	16019
恢复原状	16020
户@@	16021
扶助	16022
明显增加	16023
暗@@	16024
查谟	16025
格伦	16026
法尔	16027
生物圈	16028
逃亡	16029
14%	16030
614	16031
Pro	16032
ash	16033
五十	16034
人口统计	16035
光学	16036
别处	16037
协@@	16038
名下	16039
拉赫	16040
指向	16041
欣	16042
纺织	16043
航空@@	16044
转播	16045
降低成本	16046
686	16047
Ah@@	16048
Jam@@	16049
ato	16050
争@@	16051
保障人权	16052
总公司	16053
防范措施	16054
阿尔马	16055
691	16056
Jan@@	16057
偶然	16058
整	16059
浓	16060
空委	16061
肉@@	16062
若干个	16063
角@@	16064
遇@@	16065
附带条件	16066
evi	16067
便会	16068
信息学	16069
兴起	16070
实地调查	16071
未偿	16072
淡化	16073
米格尔	16074
著	16075
跑道	16076
过大	16077
Rom@@	16078
ise	16079
业者	16080
分裂主义	16081
加在一起	16082
匀支	16083
十分必要	16084
尼克	16085
构造	16086
污水处理	16087
筹供	16088
简历	16089
育@@	16090
若有	16091
西区	16092
起步	16093
迈克尔	16094
.....	16095
Hum@@	16096
交纳	16097
偏好	16098
原产	16099
国际妇女节	16100
碎	16101
频@@	16102
070	16103
38@@	16104
955	16105
SR@@	16106
awi	16107
uz@@	16108
书写	16109
全面@@	16110
凌虐	16111
午餐	16112
多万美元	16113
密不可分	16114
激光	16115
甲型	16116
盐@@	16117
礼堂	16118
超级	16119
102.@@	16120
mar@@	16121
人事@@	16122
仓	16123
助手	16124
后天免疫	16125
大道	16126
展望未来	16127
敬@@	16128
气象学	16129
济	16130
现行政策	16131
科技@@	16132
纵@@	16133
贸	16134
躲避	16135
连接起来	16136
DA	16137
sky	16138
不可抗力	16139
不断改进	16140
串通	16141
人则	16142
共产党	16143
出价	16144
出口量	16145
启@@	16146
哥@@	16147
奥运会	16148
布加勒斯特	16149
战略@@	16150
改成	16151
无限	16152
有趣	16153
法律委员会	16154
繁@@	16155
经济繁荣	16156
谢意	16157
首要任务	16158
Ts@@	16159
oma	16160
人民代表	16161
今@@	16162
全日	16163
公司法	16164
化学物质	16165
南盟	16166
向上	16167
味	16168
志@@	16169
武库	16170
残留物	16171
瓜拉尼	16172
福林	16173
给@@	16174
迈	16175
664	16176
90.@@	16177
Bad@@	16178
一第	16179
交易商	16180
人民党	16181
估量	16182
分辨率	16183
创始人	16184
博览会	16185
原则立场	16186
参赞	16187
开邦	16188
手工艺	16189
手铐	16190
政局	16191
涉@@	16192
疑@@	16193
疲软	16194
退	16195
配给	16196
652	16197
722	16198
777	16199
DO@@	16200
Tam@@	16201
oy	16202
从总体上	16203
位数	16204
侧	16205
便捷	16206
因在	16207
国立大学	16208
如图	16209
强力	16210
教程	16211
未向	16212
盒	16213
穿过	16214
胆@@	16215
虽说	16216
规律	16217
调查过程	16218
转介	16219
这支	16220
通讯@@	16221
669	16222
703	16223
Rumaysh	16224
WG.6	16225
aut	16226
佐@@	16227
创纪录	16228
四倍	16229
工作团	16230
工程项目	16231
度过	16232
新鲜	16233
永@@	16234
池中	16235
源@@	16236
督察	16237
表一	16238
锌	16239
难于	16240
ord@@	16241
wan	16242
含糊不清	16243
圣何塞	16244
对手	16245
挫败	16246
斯基	16247
概率	16248
自杀式	16249
苏呼米	16250
荒@@	16251
观察哨	16252
顺@@	16253
首份	16254
709	16255
724	16256
875	16257
COP.6	16258
emb@@	16259
付清	16260
传票	16261
低水平	16262
势必	16263
患@@	16264
拿到	16265
挤@@	16266
沾染	16267
泛亚	16268
第一天	16269
答应	16270
请愿书	16271
货币联盟	16272
转录	16273
mi	16274
x365	16275
业务管理	16276
各份	16277
同化	16278
国境	16279
底薪	16280
快捷	16281
普遍化	16282
期终	16283
第一百	16284
顺利完成	16285
事由	16286
交流中心	16287
储@@	16288
医学@@	16289
复杂程度	16290
审计长	16291
对经	16292
广岛	16293
总监	16294
推理	16295
明确要求	16296
来访者	16297
核电站	16298
立宪	16299
结构化	16300
补	16301
长者	16302
首届	16303
629	16304
㈧	16305
万亿美元	16306
专题研究	16307
二读	16308
再也	16309
加薪	16310
台风	16311
售@@	16312
增加收入	16313
存取	16314
定出	16315
巴尔	16316
忙	16317
澳门特区	16318
现为	16319
知情权	16320
639	16321
659	16322
CP.8	16323
ush@@	16324
可不	16325
密码	16326
投放	16327
汇兑	16328
独有	16329
私	16330
纳斯	16331
贫民	16332
贬低	16333
过来	16334
颗粒	16335
风气	16336
｟d52｠	16337
1930	16338
716	16339
Mel@@	16340
PV.4@@	16341
一代人	16342
丘@@	16343
中来	16344
倍增	16345
呈上升	16346
布拉柴维尔	16347
幸运	16348
当家作主	16349
成本计算	16350
施压	16351
真理	16352
计划@@	16353
还给	16354
银行帐户	16355
695	16356
825	16357
833	16358
保安人员	16359
国务院	16360
始终如一	16361
式@@	16362
机械@@	16363
污@@	16364
瑞@@	16365
福利制度	16366
缺勤	16367
罹患	16368
肆虐	16369
赖@@	16370
里面	16371
.6	16372
612	16373
678	16374
7.7	16375
ick@@	16376
一则	16377
一大部分	16378
四国	16379
安定	16380
滚动	16381
牙医	16382
电脑@@	16383
疼痛	16384
10.2	16385
8.6	16386
858	16387
Joseph	16388
org@@	16389
⑶	16390
兑换率	16391
勘测	16392
县级	16393
基督	16394
大法官	16395
常务	16396
拆@@	16397
挣扎	16398
未受	16399
纳尔	16400
营业额	16401
警察局长	16402
集中营	16403
1333	16404
853	16405
BDE	16406
But@@	16407
中称	16408
之声	16409
代之以	16410
价款	16411
停车	16412
前一天	16413
发射场	16414
横滨	16415
正文	16416
派任	16417
测试@@	16418
缴@@	16419
贪污腐败	16420
驱@@	16421
17%	16422
以有	16423
克林顿	16424
前为	16425
医护人员	16426
外加	16427
审结	16428
改名	16429
最合适	16430
氧化	16431
油井	16432
蓄@@	16433
郡	16434
655	16435
Ang@@	16436
IDB.36	16437
严酷	16438
主机	16439
事前	16440
会为	16441
停产	16442
停止使用	16443
刊	16444
危地马拉政府	16445
和平时期	16446
四人	16447
安宁	16448
密封	16449
旺@@	16450
显现	16451
服用	16452
电脑化	16453
童年	16454
项目表	16455
1502	16456
755	16457
Rah@@	16458
ie@@	16459
乐于	16460
人未	16461
大面积	16462
奇怪	16463
损	16464
新法	16465
更佳	16466
瓦斯	16467
相互配合	16468
眼下	16469
贺卡	16470
迁@@	16471
鲍@@	16472
FS	16473
ori	16474
中立性	16475
保护局	16476
唯有	16477
外交界	16478
扎勒	16479
执行者	16480
正由	16481
海区	16482
烧	16483
特别感谢	16484
直播	16485
记账	16486
零售商	16487
餐馆	16488
747	16489
CLCS	16490
严	16491
决策程序	16492
地貌	16493
大鼠	16494
属人	16495
平方英尺	16496
应可	16497
提示	16498
标准@@	16499
矿床	16500
祖先	16501
肥沃	16502
脱节	16503
自信	16504
遥控	16505
16%	16506
763	16507
Fre@@	16508
HR	16509
ien	16510
互动关系	16511
净化	16512
厂房	16513
层@@	16514
库尔德人	16515
拆解	16516
格雷	16517
正值	16518
水下	16519
泽斯	16520
澳大利亚人	16521
牧@@	16522
论处	16523
调查队	16524
餐饮	16525
驱散	16526
766	16527
CE	16528
Cab@@	16529
Martin	16530
Omar	16531
Sch	16532
ele	16533
ito	16534
六周	16535
几支	16536
天线	16537
帐务	16538
灵	16539
炼油厂	16540
而后	16541
CH	16542
ical	16543
主要职责	16544
仍须	16545
利害相关	16546
相冲突	16547
老化	16548
萎缩	16549
认真对待	16550
餐厅	16551
马尔	16552
高血压	16553
45%	16554
MA	16555
Qal	16556
ink@@	16557
人造	16558
公民自由	16559
出路	16560
加工业	16561
司法警察	16562
吊销	16563
和世卫	16564
国家银行	16565
多所	16566
奥地利政府	16567
姆巴	16568
娃	16569
浅	16570
海法	16571
较弱	16572
鸟类	16573
New	16574
一宗	16575
以至于	16576
以较	16577
儿@@	16578
取向	16579
失踪案	16580
如期	16581
察@@	16582
应受	16583
数据管理	16584
文具	16585
菌@@	16586
身体健康	16587
通缉	16588
654	16589
726	16590
804	16591
Mart@@	16592
ock	16593
与此有关	16594
卫@@	16595
哪怕	16596
地区性	16597
密克罗尼西亚	16598
望@@	16599
机密性	16600
每当	16601
申请表	16602
空气质量	16603
詹姆斯	16604
674	16605
Development	16606
Hy@@	16607
Samawah	16608
亚尔	16609
取暖	16610
因其	16611
大火	16612
审理案件	16613
工会组织	16614
已达成	16615
掩护	16616
旗	16617
明晰	16618
纳赛尔	16619
经济基础	16620
陶@@	16621
Human	16622
eed	16623
ias	16624
pe	16625
不可否认	16626
人手	16627
做时	16628
国务卿	16629
屋@@	16630
殖民化	16631
深层	16632
甘	16633
联合国教科文组织	16634
舰	16635
良@@	16636
通讯设备	16637
部应	16638
马西	16639
骨	16640
黑	16641
0.0@@	16642
CON@@	16643
Convention	16644
SAP	16645
Sy@@	16646
inc@@	16647
使用@@	16648
兄弟姐妹	16649
凭@@	16650
反洗钱法	16651
埋	16652
奖项	16653
就医	16654
悬殊	16655
新兵	16656
条是	16657
死伤	16658
电离层	16659
竞选活动	16660
衡算	16661
Fran@@	16662
ni	16663
不错	16664
五国	16665
前身	16666
千万	16667
年版	16668
扎实	16669
旁	16670
期盼	16671
正当性	16672
比较@@	16673
溶剂	16674
用量	16675
穷@@	16676
若能	16677
计算机@@	16678
753	16679
CT	16680
EM	16681
乱	16682
促销	16683
公共事业	16684
北大西洋	16685
发来	16686
各章	16687
圣多明各	16688
女同性恋	16689
实绩	16690
实际收入	16691
居于	16692
峰值	16693
应向	16694
教义	16695
数为	16696
瓜	16697
田@@	16698
相符合	16699
藏匿	16700
逼供	16701
Fer@@	16702
上来	16703
依次	16704
受难者	16705
变性人	16706
大得多	16707
开幕词	16708
拉德	16709
权重	16710
电视广播	16711
该词	16712
转口	16713
酰氟	16714
零散	16715
Abdullah	16716
Bon@@	16717
CRPD	16718
esh	16719
一日	16720
不稳定性	16721
东南非	16722
位居	16723
可追溯	16724
审判庭	16725
客户关系	16726
提出诉讼	16727
清查	16728
缘故	16729
联合公报	16730
超额	16731
转售	16732
适龄	16733
773	16734
85%	16735
二十五	16736
产值	16737
加尔@@	16738
售	16739
完美	16740
急	16741
总能	16742
救生	16743
机组人员	16744
特委会	16745
狱政	16746
生物体	16747
科斯	16748
还称	16749
酒@@	16750
重启	16751
青年@@	16752
76.@@	16753
IDB.21	16754
Kim	16755
MS	16756
含铅	16757
土耳其共和国	16758
密切配合	16759
德文	16760
悠久	16761
有效载荷	16762
烈士	16763
碎@@	16764
能源危机	16765
自此	16766
调任	16767
高分辨率	16768
762	16769
822	16770
兼任	16771
在此之后	16772
夸@@	16773
批量	16774
探望	16775
构思	16776
泊车	16777
继承人	16778
自来水	16779
荷@@	16780
融@@	16781
趋同	16782
金斯敦	16783
090	16784
627	16785
Abd	16786
bo	16787
ovic	16788
两地	16789
中列明	16790
可用资金	16791
大地测量	16792
年长	16793
片面	16794
眼睛	16795
矿工	16796
舍@@	16797
AF@@	16798
GC.13	16799
ID	16800
Str@@	16801
一俟	16802
不迟于	16803
噪音	16804
地上	16805
妓院	16806
开发部	16807
德罗	16808
持械	16809
教学材料	16810
新来	16811
牛@@	16812
睦邻关系	16813
第七节	16814
颁布法律	16815
673	16816
742	16817
EL@@	16818
Pat@@	16819
云@@	16820
哺乳期	16821
就业部	16822
就绪	16823
广度	16824
库尔德斯坦	16825
录用	16826
得益	16827
成败	16828
拖	16829
欠佳	16830
毫无保留	16831
海滩	16832
深远影响	16833
禁用	16834
端@@	16835
紧密联系	16836
美国国会	16837
辛基	16838
通过审查	16839
销售额	16840
难道	16841
预咨	16842
马拉卡	16843
高素质	16844
２	16845
684	16846
741	16847
ne@@	16848
par@@	16849
主人翁	16850
加仑	16851
塔吉克	16852
多半	16853
屡次	16854
支离破碎	16855
数字@@	16856
核可@@	16857
案头	16858
福尔	16859
篮子	16860
贸易部	16861
遵@@	16862
10.3	16863
1925	16864
Tom@@	16865
lo	16866
交还	16867
倾@@	16868
公路运输	16869
具@@	16870
办公房	16871
受其	16872
各界	16873
手工业	16874
捷@@	16875
推土机	16876
每升	16877
素@@	16878
编第	16879
！	16880
003	16881
5000@@	16882
一栏	16883
上个月	16884
乌兰巴托	16885
俗@@	16886
可兑换	16887
回来	16888
妇幼	16889
政策方针	16890
水泵	16891
深为	16892
漂@@	16893
逃税	16894
1343	16895
亚齐	16896
席@@	16897
戴维	16898
批发	16899
氢@@	16900
涂料	16901
球@@	16902
私人生活	16903
胶@@	16904
非常低	16905
首府	16906
799	16907
Bat@@	16908
din	16909
pa	16910
什叶派	16911
哥伦比亚人	16912
审判权	16913
巴希尔	16914
并经	16915
摩托车	16916
新一轮	16917
未登记	16918
洪	16919
纽埃	16920
莫托科	16921
1515	16922
671	16923
801	16924
Dav@@	16925
ema	16926
向下	16927
唱名	16928
政界	16929
竟然	16930
胜	16931
1860	16932
649	16933
811	16934
L.63	16935
So@@	16936
XXVIII	16937
enz@@	16938
不良后果	16939
介@@	16940
储备基金	16941
出生证	16942
办公设备	16943
控@@	16944
援助国	16945
服务水平	16946
滥@@	16947
牛奶	16948
科多里	16949
米兰	16950
联预	16951
胚胎	16952
舞@@	16953
讽刺	16954
谢里夫	16955
身亡	16956
非洲金融共同体法郎	16957
734	16958
AM	16959
aci	16960
业务@@	16961
减税	16962
刀	16963
台站	16964
国库	16965
对峙	16966
尖端	16967
展期	16968
庚	16969
普雷	16970
灾@@	16971
粗	16972
自然@@	16973
自相矛盾	16974
计算机系统	16975
闪@@	16976
顾虑	16977
黎	16978
Bir@@	16979
Des@@	16980
TI@@	16981
We@@	16982
以下几点	16983
利弊	16984
古巴人	16985
完全相同	16986
岗	16987
征服	16988
战事	16989
投降	16990
有鉴于	16991
求得	16992
看管	16993
研拟	16994
碰到	16995
脂	16996
萨阿布	16997
816	16998
FO@@	16999
Nat@@	17000
Od@@	17001
ery	17002
eta	17003
iza	17004
中校	17005
军阀	17006
分节	17007
半天	17008
古拉	17009
因人	17010
塞克	17011
委托人	17012
己	17013
技术手段	17014
步行	17015
每星期	17016
膝上型	17017
过量	17018
途	17019
823	17020
Dh@@	17021
Om@@	17022
何	17023
兽医	17024
可见度	17025
承租人	17026
拖车	17027
整体性	17028
景	17029
植根于	17030
职业指导	17031
莱特	17032
蛋白质	17033
D.@@	17034
Ky@@	17035
Robert	17036
ics	17037
不能容忍	17038
丽@@	17039
争执	17040
做饭	17041
印第安	17042
大宗	17043
客户服务	17044
怀着	17045
担负起	17046
曼德拉	17047
法则	17048
渔获量	17049
祖传	17050
职业技能	17051
解放@@	17052
资本主义	17053
过滤	17054
逆差	17055
重开	17056
银行贷款	17057
805	17058
Ben	17059
WG.2	17060
iv	17061
大不相同	17062
忧@@	17063
急剧下降	17064
未知	17065
查封	17066
示例	17067
竞争者	17068
纳戈尔	17069
西帝	17070
采取相应	17071
31.@@	17072
COM.3	17073
SR	17074
不然	17075
仲裁条款	17076
优先发展	17077
侵略者	17078
儒瓦内	17079
入手	17080
娱乐@@	17081
守	17082
就座	17083
深思熟虑	17084
精神创伤	17085
调用	17086
轮椅	17087
近身	17088
采样	17089
难以确定	17090
项所	17091
预备会议	17092
33%	17093
TP@@	17094
gr@@	17095
分配原则	17096
利亚@@	17097
吻合	17098
四天	17099
园区	17100
技术顾问	17101
抓	17102
斯坦@@	17103
斯雷	17104
暂	17105
极低	17106
株	17107
汇报工作	17108
经过培训	17109
编队	17110
肿瘤	17111
行星	17112
694	17113
军事@@	17114
尺寸	17115
属实	17116
帮	17117
录像带	17118
折中	17119
收缩	17120
有效途径	17121
灭@@	17122
稳步增长	17123
管理所	17124
言语	17125
贵	17126
资本化	17127
近期内	17128
高层次	17129
CP.10	17130
Sl@@	17131
完成学业	17132
小孩	17133
所报	17134
执	17135
技术革新	17136
抛@@	17137
招生	17138
斯科	17139
环境污染	17140
第一副	17141
第一号	17142
纽@@	17143
荷	17144
风力	17145
麦	17146
115.@@	17147
2100	17148
788	17149
HR@@	17150
Ib@@	17151
iq	17152
oli	17153
乡@@	17154
兹罗提	17155
分析方法	17156
半衰期	17157
奥斯@@	17158
惠	17159
所含	17160
推向	17161
无薪	17162
格利	17163
正轨	17164
浮标	17165
稳定局势	17166
纯属	17167
防火	17168
露	17169
No.@@	17170
Sc@@	17171
XXX	17172
仅靠	17173
共和军	17174
双重国籍	17175
埃及政府	17176
客车	17177
尼奥斯	17178
强国	17179
收成	17180
服务设施	17181
歌@@	17182
电子设备	17183
粉	17184
组装	17185
通胀	17186
逼@@	17187
2021	17188
33.@@	17189
911	17190
CL@@	17191
Sur@@	17192
arb@@	17193
ayo	17194
du	17195
一夫多妻	17196
一门	17197
中国@@	17198
任职期间	17199
司空见惯	17200
搬	17201
教官	17202
无异议	17203
莎	17204
虚@@	17205
觉	17206
订定	17207
顺利进行	17208
2C	17209
738	17210
769	17211
812	17212
东道主	17213
严谨	17214
伊尔	17215
何地	17216
克莱	17217
提供商	17218
津	17219
犯罪学	17220
电子签名	17221
真主	17222
研究@@	17223
肉类	17224
舞蹈	17225
误差	17226
诺言	17227
贸@@	17228
迟延	17229
饭	17230
uma	17231
una	17232
个人财产	17233
偏差	17234
出口品	17235
困@@	17236
大厅	17237
女婴	17238
存续	17239
幼儿教育	17240
百分之百	17241
第二代	17242
纳布卢斯	17243
绿线	17244
背井离乡	17245
见证人	17246
警察所	17247
调到	17248
财政收入	17249
配件	17250
风俗	17251
1533	17252
AC.198	17253
Jal@@	17254
L.64	17255
Sou@@	17256
三家	17257
不上	17258
不分性别	17259
不合	17260
保护@@	17261
倾斜	17262
停	17263
儿童@@	17264
公共关系	17265
博客	17266
它@@	17267
常住	17268
废	17269
末@@	17270
烹饪	17271
狂@@	17272
甲基苯丙胺	17273
简洁	17274
腿	17275
被关	17276
该表	17277
钻井	17278
飞地	17279
005	17280
2A	17281
841	17282
MISC.2	17283
On@@	17284
主宰	17285
交织	17286
先知	17287
力所能及	17288
哈拉雷	17289
数名	17290
柏@@	17291
比绍	17292
而设	17293
访问量	17294
贝都	17295
1863	17296
795	17297
一片	17298
办案	17299
国际竞争	17300
尼亚@@	17301
抽查	17302
极限	17303
毫无例外	17304
相联	17305
秒钟	17306
缓冲	17307
要说	17308
阿拉伯@@	17309
714	17310
SU@@	17311
Say@@	17312
乙烷	17313
低价	17314
保护者	17315
全员	17316
切尔	17317
右@@	17318
小行星	17319
应邀参加	17320
猛烈	17321
电话号码	17322
禁闭	17323
第十九	17324
署为	17325
防雷	17326
顺差	17327
Gro@@	17328
Mit@@	17329
ald	17330
九项	17331
内含	17332
决定权	17333
号令	17334
实用@@	17335
就象	17336
尼罗河	17337
无可@@	17338
法例	17339
注定	17340
涉案	17341
献身精神	17342
简言之	17343
粮安委	17344
耗尽	17345
重大成果	17346
阿塞拜疆人	17347
隧道	17348
L.65	17349
两枚	17350
主人	17351
乞讨	17352
人口数量	17353
仅以	17354
但本	17355
供求	17356
修女	17357
偿还债务	17358
先行	17359
兰德	17360
塔尼	17361
头衔	17362
最高层	17363
未指定	17364
油轮	17365
涂@@	17366
碍	17367
第九章	17368
经销商	17369
膜	17370
英国@@	17371
送给	17372
里斯	17373
铝	17374
限值	17375
韩国政府	17376
698	17377
784	17378
9.6	17379
Ast@@	17380
its	17381
专家团	17382
亚太经合组织	17383
偶@@	17384
出面	17385
分级	17386
劳动密集型	17387
卫生机构	17388
威廉	17389
安娜	17390
戒@@	17391
操@@	17392
林区	17393
毕竟	17394
电子媒体	17395
相继	17396
着@@	17397
祝	17398
科室	17399
魏斯	17400
792	17401
975	17402
C.19	17403
Dam@@	17404
azi	17405
kov	17406
不多	17407
中方	17408
人会	17409
代表制	17410
优惠条件	17411
会场	17412
住院治疗	17413
光明	17414
共犯	17415
各科	17416
效@@	17417
教育局	17418
替代物	17419
标定	17420
电报	17421
矿场	17422
社会化	17423
社会各界	17424
繁多	17425
航空运输	17426
行为@@	17427
贝拉	17428
针@@	17429
138.@@	17430
DI@@	17431
SER	17432
XXIV	17433
上年	17434
严格@@	17435
二恶英	17436
优	17437
出生地	17438
切合	17439
医疗@@	17440
客运	17441
微量	17442
忠于	17443
或分	17444
招贴画	17445
有的放矢	17446
检察厅	17447
水文学	17448
涉	17449
窒息	17450
首当其冲	17451
12.7	17452
OP	17453
Rab@@	17454
伏击	17455
减员	17456
实情	17457
容	17458
寻@@	17459
总统府	17460
愉快	17461
杠杆	17462
水陆	17463
电子产品	17464
确证	17465
符号	17466
自由主义	17467
货款	17468
跳@@	17469
问答	17470
隐蔽	17471
INFCIRC	17472
Ra	17473
Sand@@	17474
Tu@@	17475
Wat@@	17476
World	17477
再者	17478
前方	17479
受邀	17480
囚室	17481
市中心	17482
弗朗索瓦	17483
振@@	17484
敦	17485
有的是	17486
济@@	17487
灾祸	17488
票价	17489
第十六	17490
艺术@@	17491
说成	17492
财政赤字	17493
913	17494
INF.2	17495
Marc@@	17496
优素福	17497
债@@	17498
妻	17499
少校	17500
扶轮社	17501
承保	17502
投资总额	17503
武器化	17504
法罗群岛	17505
简况	17506
迁出	17507
选择权	17508
重演	17509
降排	17510
颇@@	17511
0.8	17512
一等	17513
养老	17514
圆	17515
大会党	17516
小口径	17517
恋童	17518
拥有权	17519
提炼	17520
根基	17521
植物检疫	17522
独裁	17523
穆尔	17524
英亩	17525
菲利普	17526
街@@	17527
表示决心	17528
贫穷线	17529
Bet@@	17530
CRP.6	17531
Garc	17532
Hussein	17533
sson	17534
二个	17535
供述	17536
停机坪	17537
口供	17538
够	17539
工作力度	17540
应付账款	17541
思想@@	17542
投保人	17543
收录	17544
时起	17545
核国家	17546
概@@	17547
模@@	17548
洲	17549
适切	17550
797	17551
AH@@	17552
Juan	17553
RP@@	17554
五人	17555
刚@@	17556
加固	17557
历@@	17558
执行主席	17559
电气化	17560
电离辐射	17561
肆无忌惮	17562
虑	17563
行政诉讼	17564
辩护人	17565
释@@	17566
713	17567
826	17568
DS	17569
Hasan	17570
Sa	17571
几十@@	17572
加强监督	17573
受聘	17574
奥林匹克运动会	17575
水管	17576
聚	17577
这有	17578
Add.17	17579
CER	17580
anov	17581
oc	17582
pp@@	17583
世俗	17584
中国香港	17585
丹麦克朗	17586
书面通知	17587
体力	17588
关键词	17589
别克斯	17590
刻@@	17591
卫生局	17592
圣母	17593
增加数	17594
妇	17595
宗教仪式	17596
摄@@	17597
摇头丸	17598
简便	17599
职能部门	17600
聚集一堂	17601
队员	17602
颇为	17603
11.2	17604
GU@@	17605
一年一度	17606
传播媒介	17607
地表	17608
坐	17609
埋葬	17610
壮大	17611
外出	17612
大肆	17613
第五十@@	17614
调处	17615
轴	17616
道德@@	17617
7.8	17618
719	17619
729	17620
776	17621
94.@@	17622
go	17623
不清	17624
专门化	17625
世行	17626
临@@	17627
交易法	17628
名词	17629
地球物理	17630
微薄	17631
期里	17632
本周	17633
某国	17634
法律承认	17635
约翰逊	17636
近距离	17637
迪奥	17638
764	17639
789	17640
Du@@	17641
Lar@@	17642
No@@	17643
isi	17644
sk	17645
一大批	17646
一对	17647
七次	17648
关系@@	17649
利用@@	17650
加工@@	17651
反之	17652
合作性	17653
培训者	17654
岩@@	17655
或性	17656
李@@	17657
点名	17658
环保局	17659
纳米技术	17660
视像	17661
马先生	17662
814	17663
901	17664
Li@@	17665
Oliv@@	17666
arm@@	17667
olo	17668
oto	17669
下个	17670
两段	17671
中南部	17672
公安	17673
助处	17674
家庭保健	17675
战地	17676
润滑剂	17677
第三年	17678
西藏	17679
错误@@	17680
124.@@	17681
1541	17682
F3	17683
me@@	17684
不便	17685
十分困难	17686
发射@@	17687
可查	17688
大军	17689
始@@	17690
宜@@	17691
日才	17692
油气	17693
社会制度	17694
统计学	17695
蓄水	17696
881	17697
L.66	17698
不及	17699
不服	17700
个性化	17701
人能	17702
优待	17703
会长	17704
危@@	17705
大大降低	17706
家禽	17707
法律界	17708
疆界	17709
癖	17710
看不到	17711
票@@	17712
第十七	17713
降幅	17714
1844	17715
东区	17716
中拨出	17717
休养	17718
各族	17719
吸收能力	17720
安纳波利斯	17721
居住权	17722
战区	17723
折	17724
拉布	17725
教育体制	17726
更名	17727
样@@	17728
核威胁	17729
正等待	17730
毒打	17731
罐体	17732
聆听	17733
迪亚	17734
铺	17735
难以实现	17736
黎巴嫩人	17737
专制	17738
其有	17739
坚强	17740
多月	17741
如为	17742
富人	17743
年纪	17744
智利政府	17745
暨	17746
格尔	17747
检查@@	17748
氧化物	17749
液化	17750
电话@@	17751
莱德	17752
行车	17753
衣物	17754
阿德	17755
768	17756
8.7	17757
COM	17758
Intern@@	17759
Ker@@	17760
Khane	17761
Muk@@	17762
My@@	17763
劳役	17764
多处	17765
尾	17766
岁者	17767
工作站	17768
环境@@	17769
病症	17770
短期内	17771
神	17772
科纳克里	17773
空间规划	17774
翻	17775
脱钩	17776
部为	17777
重金属	17778
004	17779
749	17780
E2	17781
HIV	17782
ter@@	17783
丧@@	17784
书面声明	17785
亦@@	17786
以备	17787
可耕地	17788
国务部长	17789
本书	17790
染@@	17791
相悖	17792
科将	17793
若干@@	17794
表扬	17795
警署	17796
遗嘱	17797
Ze@@	17798
yi	17799
不相容	17800
储金	17801
公司@@	17802
再三	17803
凶手	17804
大幅提高	17805
希腊@@	17806
拼@@	17807
持平	17808
敏@@	17809
数以百计	17810
柱	17811
矿产品	17812
窑	17813
美洲狮	17814
苏莱曼	17815
解职	17816
返@@	17817
述@@	17818
832	17819
CMW	17820
Prog.@@	17821
Tan@@	17822
aza	17823
下限	17824
亲王	17825
估计值	17826
农业工人	17827
准时	17828
创造财富	17829
动因	17830
基本概念	17831
增量	17832
屏障	17833
帕斯	17834
拉罗	17835
挖@@	17836
有条理	17837
枢密院	17838
欢@@	17839
水稻	17840
电台节目	17841
盟国	17842
礼物	17843
章@@	17844
第二十次	17845
繁殖	17846
西奥	17847
谎言	17848
间或	17849
驱赶	17850
齐全	17851
717	17852
754	17853
je	17854
ran	17855
不知	17856
刺	17857
国际标准化组织	17858
对准	17859
局在	17860
开工	17861
怀	17862
恰恰相反	17863
族@@	17864
本世纪	17865
桩	17866
税法	17867
第四款	17868
紫外线	17869
财团	17870
转基因	17871
里克	17872
错失	17873
雇	17874
8.8	17875
Cap@@	17876
L.69	17877
Pop@@	17878
agh@@	17879
la@@	17880
为名	17881
内斯	17882
单靠	17883
基因组	17884
壮@@	17885
归根结底	17886
法医学	17887
班子	17888
琼	17889
看见	17890
钻探	17891
阻挡	17892
阿拉@@	17893
音频	17894
Si@@	17895
no	17896
一年级	17897
介绍所	17898
作出评价	17899
关在	17900
医疗队	17901
十字路口	17902
嫁给	17903
寡@@	17904
布托	17905
排他性	17906
撤军	17907
收货人	17908
泄露	17909
瓶	17910
长足进展	17911
阿布扎比	17912
27%	17913
6.9	17914
786	17915
946	17916
Zah@@	17917
ions	17918
分拨	17919
发展潜力	17920
国际货物	17921
奉献精神	17922
完成率	17923
未用尽	17924
桑给巴尔	17925
欣赏	17926
注释	17927
活着	17928
源头	17929
灭失	17930
红	17931
艺	17932
讲解	17933
诱@@	17934
诱惑	17935
首席法官	17936
aire	17937
写明	17938
十分@@	17939
奋@@	17940
德意志联邦共和国	17941
托运	17942
欺@@	17943
比什凯克	17944
演进	17945
狂热	17946
立法会	17947
紧迫感	17948
行驶	17949
言辞	17950
贝格	17951
阿盟	17952
雷先生	17953
Lib@@	17954
NG@@	17955
add@@	17956
万到	17957
丛书	17958
供应者	17959
供货	17960
对罗姆人	17961
抽象	17962
流入量	17963
秘	17964
第二组	17965
签字国	17966
纵火	17967
行贿	17968
钱财	17969
非常感谢	17970
非法交易	17971
非营利性	17972
飞来	17973
Artawi	17974
Dan@@	17975
举足轻重	17976
买主	17977
俄罗斯联邦政府	17978
再次出现	17979
十年间	17980
十氯酮	17981
厨房	17982
吃@@	17983
合乎逻辑	17984
固定@@	17985
宾	17986
小队	17987
尚需	17988
屋顶	17989
应请	17990
技	17991
月工资	17992
机密信息	17993
海上运输	17994
澳门特别行政区	17995
燃@@	17996
硕士学位	17997
科威特国	17998
立案	17999
艺术品	18000
雪	18001
0.2	18002
A.2	18003
EX@@	18004
F4	18005
NA	18006
eka	18007
ili	18008
off@@	18009
osh@@	18010
冒@@	18011
净水	18012
几家	18013
副手	18014
吉斯	18015
吕@@	18016
呈报	18017
唯@@	18018
坡	18019
大学@@	18020
崇高目标	18021
成像	18022
探雷	18023
沙特阿拉伯王国	18024
激起	18025
雇佣兵	18026
霍尔	18027
803	18028
817	18029
Agu@@	18030
DE	18031
Kw@@	18032
借助于	18033
克里米亚	18034
公法	18035
劝阻	18036
商法	18037
地同	18038
地球科学	18039
备受	18040
审校	18041
挪@@	18042
栏目	18043
母体	18044
火炮	18045
禽流感	18046
经营@@	18047
讲演	18048
贡@@	18049
贱民	18050
集思广益	18051
7.9	18052
866	18053
Tah@@	18054
一线	18055
三角洲	18056
下图	18057
从现在起	18058
保持平衡	18059
内部@@	18060
前哨	18061
外溢	18062
宰@@	18063
开放市场	18064
开立	18065
得力	18066
抗御	18067
收留	18068
父@@	18069
目击	18070
说明性	18071
闻	18072
131.@@	18073
802	18074
Fa@@	18075
IDB.30	18076
Kur@@	18077
alo	18078
信使	18079
冤情	18080
创新能力	18081
发薪	18082
和免	18083
宪兵队	18084
怀有	18085
新西兰元	18086
服务社	18087
服务行业	18088
着落	18089
纷纷	18090
诊治	18091
该镇	18092
银@@	18093
问责@@	18094
难得	18095
CRP.7	18096
IDB.27	18097
Jalibah	18098
Tak@@	18099
cl@@	18100
nez	18101
ven@@	18102
上市公司	18103
中非国家	18104
公国	18105
公开@@	18106
冒险	18107
司令	18108
名古屋	18109
围产期	18110
图谋	18111
摄入	18112
攻势	18113
生命科学	18114
男女生	18115
看看	18116
维修费	18117
良好基础	18118
萧条	18119
赔	18120
赶走	18121
项目组	18122
馆@@	18123
101.@@	18124
L.67	18125
互操作性	18126
仲裁法	18127
农耕	18128
减为	18129
凶杀	18130
出血	18131
分析@@	18132
副司长	18133
包裹	18134
厅@@	18135
取得联系	18136
四级	18137
国共	18138
控制程序	18139
模糊不清	18140
滑@@	18141
滕	18142
省议会	18143
第三批	18144
该团	18145
除此以外	18146
2.10	18147
79.@@	18148
895	18149
ines	18150
企业主	18151
八次	18152
在历史上	18153
夺	18154
如该	18155
已久	18156
患病率	18157
捣毁	18158
普惠	18159
财务司	18160
转帐	18161
长足	18162
906	18163
Richard	18164
ans	18165
三起	18166
两点	18167
入门	18168
出入境	18169
南朝鲜	18170
印度教	18171
器械	18172
学习成绩	18173
它同	18174
新闻社	18175
明知	18176
明确提出	18177
有点	18178
英雄	18179
迁入	18180
马哈茂德	18181
３	18182
10.4	18183
65%	18184
Dec@@	18185
UR@@	18186
伪@@	18187
全民公决	18188
具体方法	18189
准@@	18190
加奥	18191
卡里	18192
季奇	18193
学术研究	18194
巴斯	18195
悬@@	18196
所能	18197
接种率	18198
敏感度	18199
整整	18200
有意识	18201
条所列	18202
牢	18203
知识分子	18204
私人机构	18205
第@@	18206
统一指挥	18207
羊@@	18208
职业@@	18209
茨@@	18210
解放党	18211
计划外	18212
设计阶段	18213
香港特别行政区	18214
马里@@	18215
19%	18216
1953	18217
787	18218
Comm@@	18219
DI	18220
GN@@	18221
IDB.39	18222
Sin@@	18223
Sum@@	18224
ette	18225
九条	18226
亚历山大	18227
产业政策	18228
伊万	18229
伊斯	18230
公立医院	18231
夜班	18232
帝国	18233
年青	18234
把@@	18235
拉克	18236
搭建	18237
武装@@	18238
民阵	18239
离散	18240
给与	18241
逊	18242
钦@@	18243
驾驶员	18244
高原	18245
1199	18246
Dor@@	18247
Rod@@	18248
不计	18249
冒犯	18250
司法@@	18251
地理分布	18252
年薪	18253
建房	18254
开关	18255
挂	18256
栏中	18257
灭	18258
猛增	18259
监察局	18260
社区@@	18261
血腥	18262
避开	18263
阻力	18264
非苏	18265
807	18266
Basrah	18267
Fin@@	18268
Net@@	18269
arov	18270
dis@@	18271
ej@@	18272
enc@@	18273
专家建议	18274
冰川	18275
园艺	18276
在建	18277
塔纳	18278
暂缓	18279
泛@@	18280
盘问	18281
禁忌	18282
纠@@	18283
红色高棉	18284
级联	18285
荒谬	18286
财@@	18287
费时	18288
资金分配	18289
重中之重	18290
88.@@	18291
AH	18292
COP.7	18293
Mis@@	18294
PRO@@	18295
Tel@@	18296
cont@@	18297
ern	18298
ret@@	18299
ys@@	18300
不言而喻	18301
分包商	18302
剧增	18303
可选	18304
四类	18305
土壤@@	18306
外币	18307
太阳@@	18308
守法	18309
居民点	18310
布基	18311
序号	18312
应否	18313
本分	18314
物价	18315
直	18316
英尺	18317
诱杀	18318
软件@@	18319
逝世	18320
降雨量	18321
青蒿素	18322
麦克	18323
49@@	18324
808	18325
855	18326
IF@@	18327
aye	18328
ons@@	18329
中介机构	18330
交付给	18331
动荡不安	18332
宣布独立	18333
无所@@	18334
核事故	18335
皈依	18336
相互交织	18337
绕过	18338
节制	18339
麦克@@	18340
798	18341
〕	18342
一股	18343
两组	18344
乙型	18345
佩雷斯	18346
充裕	18347
剩余时间	18348
卡帕	18349
培训教材	18350
基调	18351
增高	18352
大主教	18353
康	18354
易燃	18355
栏@@	18356
硬拷贝	18357
编印	18358
误	18359
辨明	18360
退职	18361
野	18362
铅@@	18363
闭@@	18364
阿布@@	18365
随机	18366
马德@@	18367
C1	18368
SH@@	18369
Sm@@	18370
TA	18371
交替	18372
仍会	18373
其同	18374
同等待遇	18375
商议	18376
导师	18377
排外	18378
架@@	18379
直接对话	18380
第二位	18381
致以	18382
裁员	18383
882	18384
Pri@@	18385
als	18386
lin	18387
oor	18388
oss@@	18389
不定期	18390
亚穆苏克罗	18391
佩戴	18392
处理程序	18393
态	18394
护理人员	18395
掩饰	18396
搜救	18397
斥	18398
是非曲直	18399
纸质	18400
致词	18401
被劫持	18402
运输业	18403
这些年来	18404
这样一来	18405
阿尔巴尼亚人	18406
123.@@	18407
26%	18408
Kir@@	18409
Nah@@	18410
ect@@	18411
一和二	18412
专款	18413
中所@@	18414
互助会	18415
印巴	18416
奶	18417
工伤事故	18418
废墟	18419
房客	18420
抗药性	18421
消费@@	18422
渣	18423
生命统计	18424
迈尔	18425
运动会	18426
里拉	18427
838	18428
915	18429
93.@@	18430
Shin	18431
ford	18432
一切权利	18433
乎	18434
伸出	18435
住宅区	18436
侵袭	18437
叛@@	18438
哲@@	18439
四位	18440
察觉	18441
对水	18442
恩塔	18443
所有制	18444
承受能力	18445
条及	18446
来文@@	18447
染上	18448
第二十一次	18449
适得其反	18450
里夫	18451
重返家园	18452
916	18453
COP.10	18454
eri	18455
ist	18456
li@@	18457
居留权	18458
情愿	18459
排水	18460
政治派别	18461
更趋	18462
杜尚别	18463
校准	18464
破	18465
箱@@	18466
蓬勃发展	18467
袭	18468
赶出	18469
较之	18470
阿姆斯特丹	18471
阿拉伯地区	18472
饥馑	18473
1556	18474
21%	18475
aev	18476
las	18477
三者	18478
产前检查	18479
体积	18480
保护权	18481
具体实施	18482
即到	18483
受命	18484
可使	18485
复印	18486
对养	18487
幻@@	18488
形容	18489
心脏	18490
护堤	18491
构件	18492
海床	18493
直线	18494
联军	18495
23%	18496
CP.1	18497
Ri@@	18498
Techn@@	18499
世界秩序	18500
从不	18501
充分体现	18502
勉强	18503
吸食	18504
咨询@@	18505
塔吉克斯坦共和国	18506
奴	18507
安的列斯群岛	18508
布局	18509
性生活	18510
无一例外	18511
档案@@	18512
正为	18513
甘达	18514
税收制度	18515
结尾	18516
育	18517
访查	18518
贷方	18519
逆@@	18520
遗留下来	18521
面粉	18522
颁@@	18523
24%	18524
CM	18525
Coll	18526
KA	18527
Ou@@	18528
Rodr	18529
亚马逊	18530
半球	18531
吉尔吉斯	18532
填埋场	18533
拷打	18534
收益率	18535
有利可图	18536
校外	18537
民权	18538
第十一部分	18539
维派	18540
途经	18541
逼婚	18542
.8	18543
771	18544
Charles	18545
Dev@@	18546
Rev@@	18547
ashi	18548
ative	18549
ign@@	18550
uj@@	18551
下均	18552
亏	18553
伊萨	18554
公投	18555
内多	18556
内尔	18557
区块	18558
参半	18559
夸大	18560
定期检查	18561
宝@@	18562
宾@@	18563
展现出	18564
简而言之	18565
膳宿	18566
解运	18567
许许多多	18568
边防@@	18569
陷阱	18570
12.5	18571
199@@	18572
794	18573
Bab@@	18574
GC.10	18575
L.68	18576
LI@@	18577
三至	18578
佐夫	18579
免责	18580
军法	18581
几百@@	18582
右翼	18583
和约	18584
国都	18585
塞尔@@	18586
报警	18587
督导	18588
科夫	18589
脊髓灰质炎	18590
训@@	18591
设保	18592
赫拉特	18593
赶上	18594
遮@@	18595
阿斯	18596
音乐会	18597
预想	18598
驱使	18599
Jac@@	18600
OU@@	18601
ija	18602
中除	18603
九十年代	18604
公开性	18605
厚@@	18606
如其	18607
家畜	18608
平均@@	18609
征召	18610
恢复@@	18611
欧洲@@	18612
注册@@	18613
牛津	18614
电信服务	18615
直接费用	18616
组群	18617
维系	18618
职级	18619
脉	18620
非盈利	18621
Lab@@	18622
Mul@@	18623
人格尊严	18624
像@@	18625
取得成效	18626
属@@	18627
帮佣	18628
并称	18629
无辜者	18630
民主运动	18631
灰@@	18632
特大	18633
自行决定	18634
观察所	18635
计票	18636
铁路运输	18637
109.@@	18638
GC.7	18639
SV@@	18640
ase	18641
上应	18642
东加勒比元	18643
之水	18644
信用卡	18645
创业者	18646
单单	18647
参考@@	18648
双亲	18649
圆满结束	18650
悉	18651
技师	18652
拉迪奇	18653
核能力	18654
模范	18655
生物质	18656
缩写	18657
考察团	18658
裁决书	18659
资金流	18660
还愿	18661
避@@	18662
0.3	18663
ABB	18664
Fat@@	18665
General	18666
Ka@@	18667
MD@@	18668
SR.3	18669
Tur@@	18670
uba	18671
不全	18672
不算	18673
专业@@	18674
专利@@	18675
中层	18676
互为补充	18677
侨汇	18678
共和	18679
关系密切	18680
刘@@	18681
利斯	18682
挂@@	18683
指纹	18684
收受	18685
文莱	18686
斯洛文尼亚共和国	18687
理查德	18688
积存	18689
网络空间	18690
营业@@	18691
责令	18692
836	18693
837	18694
Canal	18695
IPSAS	18696
TE	18697
aff@@	18698
ente	18699
ogo	18700
ris@@	18701
公证	18702
增加值	18703
多用途	18704
妇女@@	18705
巴勒斯坦解放组织	18706
意见书	18707
格拉@@	18708
氧@@	18709
犯罪预防	18710
生动	18711
终端用户	18712
解放后	18713
随附	18714
雪@@	18715
918	18716
CP.9	18717
Fel@@	18718
GC.@@	18719
able	18720
不容许	18721
先锋	18722
公共设施	18723
友善	18724
变动表	18725
可供使用	18726
幌子	18727
弘扬	18728
截肢	18729
游民	18730
管制中心	18731
设计@@	18732
话@@	18733
赔偿@@	18734
赫尔	18735
逾越	18736
针	18737
集成	18738
AG	18739
KNPC	18740
Limited	18741
Yam@@	18742
be	18743
中型企业	18744
二人	18745
亮	18746
多万名	18747
抢掠	18748
拉萨	18749
收复	18750
最能	18751
格查尔	18752
梅尔	18753
河内	18754
第四批	18755
诚然	18756
贮器	18757
过低	18758
阿斯塔纳	18759
739	18760
ONUB	18761
ye	18762
不经	18763
乙醇	18764
公债	18765
分期付款	18766
卫星@@	18767
危难	18768
合在一起	18769
唆使	18770
回忆	18771
塑料@@	18772
外汇储备	18773
孕	18774
审计处	18775
方应	18776
是@@	18777
活动中心	18778
社会秩序	18779
练习	18780
芬兰政府	18781
集中管理	18782
预谋	18783
2.5%	18784
CP.3	18785
Ray@@	18786
rey	18787
一大步	18788
仁@@	18789
传统@@	18790
我于	18791
毗连	18792
流血	18793
病房	18794
看似	18795
纳米材料	18796
统计人员	18797
虫病	18798
避孕措施	18799
马恩岛	18800
2094	18801
796	18802
819	18803
Add.21	18804
Char@@	18805
Lin@@	18806
Luk@@	18807
ando	18808
oth@@	18809
ze	18810
假想	18811
充分准备	18812
净值	18813
办公@@	18814
加拉	18815
加里	18816
医护	18817
即该	18818
呼叫	18819
塞拉	18820
处死	18821
复制件	18822
多国公司	18823
捏造	18824
斯克	18825
海地人	18826
渡@@	18827
现将	18828
纪事	18829
至关紧要	18830
薪给	18831
藉此	18832
解决目前	18833
转化成	18834
辨@@	18835
重要文件	18836
非凡	18837
12.3	18838
Hor@@	18839
Sad@@	18840
WG.@@	18841
ilo	18842
ono	18843
〔	18844
别无选择	18845
单方	18846
后方	18847
国内安全	18848
增减	18849
大幅度提高	18850
宏大	18851
巫术	18852
弱小	18853
当期	18854
拉尼	18855
最差	18856
格里@@	18857
流网	18858
物质条件	18859
第三种	18860
继承法	18861
羊	18862
过份	18863
非但	18864
CP.13	18865
ap	18866
ill	18867
od	18868
上载	18869
为数众多	18870
人事司	18871
会前	18872
传承	18873
其新	18874
审阅	18875
易懂	18876
梅洛	18877
穆德	18878
莉@@	18879
错过	18880
862	18881
POPR@@	18882
Smith	18883
unt@@	18884
亚行	18885
代号	18886
仰光	18887
具体@@	18888
刑事法律	18889
勘察	18890
十四条	18891
商品@@	18892
多语种	18893
拦@@	18894
斗	18895
无可	18896
日程安排	18897
本函	18898
素季	18899
联络网	18900
自然科学	18901
诸项	18902
这句	18903
非常规	18904
９	18905
136.@@	18906
891	18907
Jul@@	18908
eli	18909
会因	18910
刀@@	18911
分界线	18912
制衡	18913
卡塔	18914
发援	18915
四次会议	18916
安全感	18917
尾@@	18918
岁月	18919
忘	18920
斥@@	18921
牌照	18922
第五款	18923
粗略	18924
红色	18925
统	18926
说话	18927
遥感技术	18928
邦@@	18929
长效	18930
静态	18931
1A	18932
849	18933
Jar@@	18934
Ur@@	18935
eira	18936
og	18937
丢弃	18938
人心	18939
全国@@	18940
医学院	18941
坏@@	18942
差错	18943
己@@	18944
幸存	18945
揭@@	18946
数据保护	18947
特尔	18948
相互协作	18949
空中交通	18950
管理权	18951
缓	18952
胺	18953
苛刻	18954
那法索	18955
醚	18956
高峰期	18957
12.2	18958
818	18959
824	18960
868	18961
Mach@@	18962
Majdal	18963
Zafatah	18964
一连串	18965
书状	18966
事务@@	18967
供应科	18968
健@@	18969
受访	18970
天文	18971
委内瑞拉政府	18972
拔@@	18973
摊@@	18974
救	18975
本可	18976
本手册	18977
机动车	18978
格里	18979
死去	18980
泽西岛	18981
略低于	18982
站不住脚	18983
行使权力	18984
装入	18985
许多年	18986
退席	18987
静	18988
118.@@	18989
Engineering	18990
Ja@@	18991
Sec@@	18992
五分	18993
十五年	18994
各组	18995
导航系统	18996
新军	18997
明确性	18998
最重	18999
生命危险	19000
留守	19001
监督@@	19002
相互影响	19003
私刑	19004
管理体系	19005
结存	19006
联合@@	19007
肥胖	19008
胡图	19009
腐蚀	19010
赶	19011
里程	19012
铺@@	19013
Mustafa	19014
两院	19015
令人瞩目	19016
公安@@	19017
共为	19018
其以	19019
农业用地	19020
出口商品	19021
原理	19022
地质@@	19023
宁愿	19024
并不@@	19025
悼念	19026
授	19027
教练	19028
日趋严重	19029
普拉	19030
染	19031
模块化	19032
法律手段	19033
特殊@@	19034
生命线	19035
租让	19036
突袭	19037
第一段	19038
第十章	19039
美国联邦	19040
配方	19041
险@@	19042
高温	19043
Vol@@	19044
ins	19045
下应	19046
严格控制	19047
二年	19048
内以	19049
农业投入	19050
准备就绪	19051
利用生物	19052
剪@@	19053
哈尔格萨	19054
幸免	19055
意外事故	19056
战祸	19057
持发	19058
洛朗	19059
渗漏	19060
溢出	19061
猎@@	19062
议事日程	19063
酮	19064
锁定	19065
1153	19066
1904	19067
Hol@@	19068
Naj@@	19069
XXII	19070
ique	19071
七天	19072
侦@@	19073
充满希望	19074
各族人民	19075
契@@	19076
宣@@	19077
将予	19078
成因	19079
无故	19080
本批	19081
死囚	19082
洛斯	19083
浅@@	19084
爱德华	19085
盟军	19086
联邦制	19087
肺炎	19088
致命性	19089
良机	19090
行政责任	19091
装配	19092
解救	19093
识@@	19094
财务数据	19095
通讯员	19096
除贫	19097
非常@@	19098
para	19099
与会国	19100
几内亚湾	19101
初级产品	19102
塞浦路斯人	19103
婚前	19104
对案	19105
布鲁@@	19106
排污	19107
斯卡	19108
暴发	19109
没能	19110
滑坡	19111
澳新	19112
生物物理	19113
答@@	19114
读书	19115
迅猛	19116
长官	19117
集中@@	19118
0.15%	19119
006	19120
11.1	19121
Ach@@	19122
BO@@	19123
COP.2	19124
Rep@@	19125
Santa	19126
amba	19127
dh@@	19128
ith	19129
ush	19130
两侧	19131
二审	19132
份量	19133
伯尔尼	19134
六位	19135
内涵	19136
厂场	19137
同盟军	19138
填	19139
拉希德	19140
操作员	19141
无端	19142
极小	19143
潮@@	19144
相对而言	19145
维多利亚	19146
腊	19147
航海	19148
贸易量	19149
阿贝歇	19150
震荡	19151
高度集中	19152
$	19153
201@@	19154
Kaz@@	19155
Saleh	19156
UNA@@	19157
chi	19158
eni	19159
ig	19160
二条	19161
从那时起	19162
传统观念	19163
各市	19164
太高	19165
实体法	19166
帝国主义	19167
招	19168
旅游@@	19169
汉城	19170
留有	19171
病床	19172
科学部	19173
第十八	19174
紊乱	19175
被申请人	19176
谋杀案	19177
路易@@	19178
载体	19179
迈阿密	19180
821	19181
CP.2	19182
Sel@@	19183
St	19184
osa	19185
伯特	19186
加拉加斯	19187
坊	19188
夫斯基	19189
姆贝基	19190
布罗德	19191
总务科	19192
损失赔偿	19193
次日	19194
毫不@@	19195
水污染	19196
瓦尼	19197
磨@@	19198
科军	19199
第八节	19200
谱@@	19201
频	19202
933	19203
Gor@@	19204
Hir@@	19205
Vit@@	19206
人才库	19207
人诉	19208
受到重视	19209
可言	19210
哈里	19211
国营企业	19212
地籍	19213
尼尔	19214
工兵	19215
平原	19216
并购	19217
推论	19218
放行	19219
有待于	19220
核发	19221
渔	19222
现代@@	19223
罐@@	19224
美国国务院	19225
翼	19226
联合国安理会	19227
良好@@	19228
范	19229
萨利姆	19230
该节	19231
财产权利	19232
赖以	19233
赛义德	19234
这座	19235
进口量	19236
1.25	19237
835	19238
Dis@@	19239
Nav@@	19240
Raf@@	19241
TF	19242
per@@	19243
不为过	19244
不至于	19245
以该	19246
保障@@	19247
偏僻	19248
弱@@	19249
效率高	19250
教皇	19251
未有	19252
权是	19253
核电	19254
炉灶	19255
留待	19256
社会保障部	19257
系统实施	19258
绝食	19259
统计员	19260
聘@@	19261
若要	19262
解答	19263
谨@@	19264
阿尔法	19265
025	19266
952	19267
EM.@@	19268
ame	19269
oro	19270
一刀切	19271
两国间	19272
中要	19273
值班	19274
内分泌	19275
加工区	19276
帕克	19277
心理@@	19278
恶性	19279
文摘	19280
欧佩克	19281
水体	19282
海鸟	19283
略为	19284
盖拉	19285
确诊	19286
管治	19287
繁忙	19288
纸面	19289
自毁	19290
荡	19291
辞去	19292
CF@@	19293
EP	19294
Group	19295
Ok@@	19296
PP@@	19297
SR.1	19298
ska	19299
之大	19300
以待	19301
企业@@	19302
军事训练	19303
去掉	19304
恩里克	19305
更少	19306
最先	19307
老年@@	19308
肠@@	19309
至上	19310
警卫人员	19311
赢	19312
Add.16	19313
Lasaf	19314
Rev.@@	19315
che	19316
enti@@	19317
mo	19318
乌克兰政府	19319
候	19320
发性	19321
同值	19322
城市@@	19323
大致相同	19324
孙@@	19325
尼特	19326
店@@	19327
开创性	19328
才@@	19329
暴雨	19330
此类情况	19331
民事案件	19332
生物医学	19333
盖茨	19334
福音	19335
调来	19336
起首	19337
身份证明	19338
追随者	19339
雄@@	19340
顺	19341
黑暗	19342
1546	19343
839	19344
BUR	19345
Singh	19346
下以	19347
不以	19348
书中	19349
交界	19350
储存库	19351
军用物资	19352
卫生状况	19353
可据	19354
国家所有	19355
对来文	19356
常务委员会	19357
床@@	19358
延缓	19359
德士古	19360
教区	19361
整治	19362
极端重要	19363
植物保护	19364
法院系统	19365
溶@@	19366
特例	19367
特困	19368
石油部门	19369
第二段	19370
粮食作物	19371
1894	19372
843	19373
Te@@	19374
ath	19375
ž	19376
划署	19377
周边国家	19378
备案	19379
多起	19380
建筑师	19381
担保人	19382
斯拉夫	19383
治安@@	19384
深感不安	19385
渗入	19386
犹@@	19387
瓦希德	19388
窗户	19389
绘画	19390
领馆	19391
828	19392
COM@@	19393
Dal@@	19394
之地	19395
互联互通	19396
古兰经	19397
可耻	19398
呼吸	19399
善后	19400
埃塞俄比亚人	19401
头巾	19402
巡逻艇	19403
幕	19404
幸@@	19405
徒劳	19406
无保留	19407
无阻	19408
时所作	19409
曲线	19410
有助	19411
有章可循	19412
民生	19413
污蔑	19414
男同性恋	19415
砍刀	19416
罗列	19417
自筹资金	19418
艺@@	19419
蔓延到	19420
赞	19421
辜负	19422
那不勒斯	19423
问询	19424
904	19425
95.@@	19426
BA@@	19427
COM.1	19428
Inc	19429
Kou@@	19430
esh@@	19431
不分	19432
中途	19433
五份	19434
低工资	19435
佛	19436
先发制人	19437
国将	19438
年龄结构	19439
心理治疗	19440
拉各斯	19441
招待费	19442
显	19443
板@@	19444
民营	19445
涉足	19446
瑞士联邦	19447
生产方式	19448
衷心感谢	19449
论者	19450
设于	19451
过分拥挤	19452
镉	19453
香@@	19454
0.5%	19455
1.5%	19456
36%	19457
Don@@	19458
OPAC	19459
Sheikh	19460
bert	19461
iev	19462
ois	19463
ui	19464
中其	19465
伸@@	19466
依托	19467
办公用品	19468
岩	19469
微粒	19470
所在区域	19471
抗拒	19472
无情	19473
欧洲航天局	19474
溴化	19475
热液	19476
熟知	19477
病患	19478
群落	19479
贷@@	19480
跌@@	19481
返乡	19482
重整	19483
0.6	19484
Dr@@	19485
It@@	19486
MT@@	19487
asi	19488
出租人	19489
刻	19490
午@@	19491
按期	19492
挑衅性	19493
无所作为	19494
每桶	19495
泉	19496
爆炸@@	19497
礁	19498
绌	19499
美国公司	19500
自给	19501
速率	19502
重度	19503
阿扎	19504
驻苏	19505
851	19506
867	19507
884	19508
888	19509
92.@@	19510
ER	19511
IO@@	19512
伊格尔	19513
偷	19514
冷冻	19515
出行	19516
南极洲	19517
可接受性	19518
吊@@	19519
工人党	19520
希奇	19521
总成本	19522
惩	19523
无线电通信	19524
普世	19525
有机@@	19526
棉@@	19527
波段	19528
热爱	19529
童子军	19530
第二级	19531
请设	19532
贝尼	19533
贫乏	19534
资料@@	19535
赞许	19536
闭路电视	19537
12.1	19538
2758	19539
857	19540
863	19541
992	19542
CLP	19543
Khalil	19544
L.70	19545
Mar	19546
ais	19547
der@@	19548
下定义	19549
以至	19550
伊始	19551
其核	19552
冲	19553
即以	19554
即刻	19555
合算	19556
土库曼	19557
多伦多	19558
好坏	19559
宝石	19560
小幅	19561
尚存	19562
工业区	19563
开出	19564
强硬	19565
成问题	19566
投票率	19567
捐@@	19568
月刊	19569
档案管理	19570
海洋@@	19571
现金管理	19572
紧接着	19573
纳粹主义	19574
艇	19575
诀窍	19576
译@@	19577
贝尔纳	19578
98%	19579
Pierre	19580
University	19581
way@@	19582
佩尔	19583
关照	19584
军事设施	19585
分数	19586
别名	19587
危急情况	19588
同届	19589
基期	19590
婚约	19591
安放	19592
接战	19593
接手	19594
旁@@	19595
正确@@	19596
氟@@	19597
法定年龄	19598
粒子	19599
粮@@	19600
精	19601
组应	19602
让@@	19603
评析	19604
鲁滨逊	19605
10.5	19606
1526	19607
2.11	19608
GC.11	19609
Has@@	19610
__	19611
so	19612
二号	19613
到访	19614
卫	19615
厄瓜多尔政府	19616
原子弹	19617
向北飞	19618
坐在	19619
小区	19620
年降	19621
广域网	19622
库马	19623
役@@	19624
德利	19625
普通@@	19626
有条不紊	19627
毒物	19628
沉重负担	19629
洋	19630
理顺	19631
瑟@@	19632
社署	19633
简要地	19634
肥	19635
萨姆	19636
覆@@	19637
较晚	19638
边界问题	19639
还款	19640
ï	19641
五条	19642
以性	19643
信贷@@	19644
关键在于	19645
内务	19646
出处	19647
半月	19648
尔塔	19649
招致	19650
控罪	19651
携@@	19652
施虐	19653
气候系统	19654
电子信息	19655
经常出现	19656
结构图	19657
自治权	19658
著@@	19659
规划者	19660
购买者	19661
资本@@	19662
采金	19663
865	19664
Cro@@	19665
Geneva	19666
ND	19667
Pav@@	19668
Tab@@	19669
iba	19670
ty	19671
件@@	19672
允诺	19673
协办	19674
多层次	19675
实际操作	19676
布里@@	19677
序	19678
弗朗西斯	19679
所要	19680
押@@	19681
抽取	19682
放射性核素	19683
敲诈	19684
牟利	19685
白喉	19686
被保险人	19687
认真@@	19688
009	19689
119.@@	19690
791	19691
COP@@	19692
Daniel	19693
Pedro	19694
以巴	19695
修订稿	19696
候补委员	19697
假肢	19698
几百万	19699
单列	19700
原教旨主义	19701
哥伦比亚大学	19702
妇产科	19703
实事求是	19704
忆	19705
抓@@	19706
抱负	19707
渎职	19708
申请加入	19709
类中	19710
芝加哥	19711
觉悟	19712
诚@@	19713
选中	19714
马里政府	19715
骗@@	19716
A1	19717
HA	19718
edo	19719
ix	19720
亡	19721
人才外流	19722
催@@	19723
十分之一	19724
叙@@	19725
多党	19726
扔	19727
新兴国家	19728
时能	19729
有步骤	19730
栅栏	19731
核大国	19732
核战争	19733
桥@@	19734
正以	19735
流离	19736
流行性	19737
涉贸	19738
登出	19739
短片	19740
科研@@	19741
编写@@	19742
自动@@	19743
谈判者	19744
陈旧观念	19745
４	19746
1596	19747
4.10	19748
Bos@@	19749
Mass@@	19750
Nik@@	19751
Sujud	19752
kin	19753
reg@@	19754
中所提	19755
六十周年	19756
医保	19757
协作关系	19758
喀	19759
困惑	19760
外交大臣	19761
工作日内	19762
总产量	19763
洞@@	19764
科托	19765
节约@@	19766
询	19767
该城	19768
跑	19769
较强	19770
辑	19771
这要	19772
追捕	19773
71.@@	19774
COP.4	19775
iko	19776
专为	19777
仅次于	19778
分行	19779
合作部	19780
吞@@	19781
响	19782
备用金	19783
已予	19784
摩	19785
暗淡	19786
核威慑	19787
概念性	19788
漫@@	19789
牙@@	19790
简明扼要	19791
籽	19792
粒	19793
联普	19794
贝尔@@	19795
项新	19796
｟d53｠	19797
38%	19798
55%	19799
954	19800
987	19801
Ant@@	19802
IDB.26	19803
ime	19804
之路	19805
供暖	19806
兵营	19807
反弹	19808
吉卜赛人	19809
地块	19810
就业者	19811
尼奥	19812
并不需要	19813
漠视	19814
猛@@	19815
率低	19816
疑	19817
社区活动	19818
簿	19819
纳德	19820
绿化	19821
胜@@	19822
舒适	19823
转业	19824
2022	19825
999	19826
New@@	19827
ger	19828
intern@@	19829
令人担心	19830
值得一提	19831
典礼	19832
双赢	19833
响@@	19834
嘉宾	19835
尖锐	19836
攻读	19837
暂时性	19838
暖@@	19839
本部	19840
热切	19841
现今	19842
矿藏	19843
积极响应	19844
第三十@@	19845
粪便	19846
纳尔逊	19847
获胜	19848
行程	19849
裂@@	19850
预发	19851
高潮	19852
844	19853
POPRC.@@	19854
两处	19855
凶@@	19856
南联盟	19857
卷@@	19858
取水	19859
名人	19860
四架	19861
抹@@	19862
斜@@	19863
无从	19864
无助	19865
潜艇	19866
熔@@	19867
电视频道	19868
第一任	19869
第四十六	19870
精密	19871
纪	19872
绑	19873
统筹兼顾	19874
血清	19875
防污	19876
阿尤恩	19877
零增长	19878
129.@@	19879
28%	19880
Manuel	19881
Rum@@	19882
SNA	19883
ean	19884
iti	19885
rou@@	19886
一岁	19887
供认	19888
冈萨雷斯	19889
十天	19890
单是	19891
占该	19892
友@@	19893
商品生产	19894
大型项目	19895
带入	19896
指导性	19897
柜	19898
树脂	19899
桌@@	19900
污染源	19901
测量@@	19902
现行制度	19903
第十一章	19904
纬度	19905
行政官员	19906
该州	19907
调至	19908
赫尔姆斯	19909
轨迹	19910
输出国	19911
野心	19912
附则	19913
障	19914
顺序排列	19915
５	19916
Cons@@	19917
DC2	19918
Pin@@	19919
Riv@@	19920
TS	19921
lan	19922
ory	19923
一九九@@	19924
一些则	19925
不端	19926
世界观	19927
个市	19928
五十年	19929
千人	19930
双管齐下	19931
增资	19932
好评	19933
学士学位	19934
已到	19935
拨供	19936
插@@	19937
摄入量	19938
效忠	19939
数十万	19940
料@@	19941
新娘	19942
朱	19943
湿@@	19944
珍@@	19945
登记注册	19946
窄	19947
第三十三条	19948
粘@@	19949
组织科	19950
编目	19951
麻风病	19952
889	19953
CORE	19954
ESA	19955
ODS	19956
三十	19957
书面资料	19958
伯顿法	19959
公文	19960
六条	19961
军事演习	19962
农地	19963
坦率地	19964
基亚	19965
夹	19966
年续	19967
打下基础	19968
技转	19969
探亲	19970
接待@@	19971
更难	19972
曼努埃尔	19973
涅	19974
火车	19975
特拉维夫	19976
特种部队	19977
议院	19978
逊尼派	19979
铝@@	19980
VA	19981
ista	19982
东京国际	19983
亨特	19984
传译	19985
伦理学	19986
出勤	19987
北纬	19988
后经	19989
基因@@	19990
审判@@	19991
带宽	19992
平息	19993
抽签	19994
拆	19995
拉夫	19996
有薪	19997
涌现	19998
监测数据	19999
葬	20000
试办	20001
近一半	20002
间谍	20003
雨@@	20004
1674	20005
D2	20006
allah	20007
rah@@	20008
ves	20009
亚松森	20010
人受	20011
伸张	20012
充斥	20013
各县	20014
商船	20015
国非	20016
土壤退化	20017
多亿美元	20018
微乎其微	20019
招待	20020
提高质量	20021
摩洛	20022
最深	20023
沙龙	20024
潮流	20025
炼油	20026
独角兽	20027
第五十五	20028
联叙	20029
股本	20030
葡萄牙文	20031
谈一谈	20032
越南政府	20033
避难者	20034
领头	20035
32%	20036
903	20037
985	20038
EG@@	20039
ation@@	20040
els	20041
ick	20042
人口减少	20043
作一	20044
全天	20045
写作	20046
农工	20047
准将	20048
危害性	20049
多报	20050
托存	20051
浪	20052
留级	20053
百分之	20054
社会教育	20055
秉持	20056
聋人	20057
购单	20058
近乎	20059
远大	20060
879	20061
997	20062
MI@@	20063
mon@@	20064
交接	20065
佣金	20066
养殖业	20067
出兵	20068
刑事@@	20069
将视	20070
尼泊尔共产党	20071
彭@@	20072
抗反	20073
款所列	20074
法拉	20075
津@@	20076
焚化	20077
益	20078
省市	20079
石化	20080
碘@@	20081
职称	20082
被称作	20083
迪尔	20084
通讯社	20085
面貌	20086
高级@@	20087
861	20088
Dom@@	20089
F.@@	20090
L.72	20091
Wor@@	20092
ello	20093
三重	20094
互动性	20095
占有权	20096
声望	20097
学龄	20098
惠@@	20099
意外开支	20100
打断	20101
技术部	20102
拉里	20103
拐骗	20104
数周	20105
民兵组织	20106
游	20107
演练	20108
炎	20109
狱@@	20110
王子	20111
赢利	20112
越发	20113
陆续	20114
813	20115
869	20116
878	20117
Add.20	20118
Ann@@	20119
II@@	20120
Vill@@	20121
War@@	20122
ities	20123
中亚地区	20124
内应	20125
卫生法	20126
外援	20127
奥胡斯	20128
安全检查	20129
执行公务	20130
治外法权	20131
炮@@	20132
生命力	20133
确凿证据	20134
罩	20135
自行车	20136
节点	20137
西尔	20138
规管	20139
辱骂	20140
过错	20141
遗留问题	20142
食堂	20143
骇人听闻	20144
3.23	20145
834	20146
899	20147
907	20148
CONF.192	20149
JS@@	20150
Lee	20151
Part@@	20152
air	20153
eth	20154
一般说来	20155
两场	20156
二十四	20157
劳动合同	20158
卡斯	20159
卫生设备	20160
另类	20161
国际争端	20162
学习班	20163
家事	20164
息息相关	20165
扶@@	20166
海图	20167
行使主权	20168
贸易额	20169
AD	20170
Arm@@	20171
Fal@@	20172
eau	20173
ian@@	20174
oud@@	20175
serv@@	20176
˙	20177
代用品	20178
其前	20179
单兵	20180
和平@@	20181
地段	20182
平流层	20183
彼此间	20184
径	20185
恩哥克	20186
手工艺品	20187
文所	20188
暴	20189
治外	20190
第二十	20191
第十个	20192
纳比	20193
罗夫	20194
脸@@	20195
萨拉姆	20196
蒙古政府	20197
西岛	20198
足球@@	20199
迭	20200
金库	20201
1864	20202
2.0	20203
2024	20204
DM	20205
⑷	20206
人权宣言	20207
分册	20208
加西亚	20209
增长幅度	20210
多变	20211
展出	20212
巴尔干地区	20213
斯科@@	20214
曲@@	20215
道德行为	20216
雷公	20217
897	20218
Kap@@	20219
Naz@@	20220
SG@@	20221
ega	20222
law	20223
ous	20224
上尉	20225
东斯	20226
中等学校	20227
京	20228
农林	20229
地国	20230
多亿	20231
廉@@	20232
影子	20233
排出	20234
斯科普里	20235
框@@	20236
混合@@	20237
淹没	20238
照明弹	20239
组将	20240
英文版	20241
览	20242
计分卡	20243
飞行员	20244
957	20245
979	20246
GCSS	20247
SR.7	20248
alla	20249
ff	20250
ts@@	20251
上星期	20252
专门性	20253
修道院	20254
出版@@	20255
力行	20256
勋章	20257
压载	20258
古迹	20259
年于	20260
弊端	20261
弗里@@	20262
愈演愈烈	20263
抉择	20264
改善服务	20265
断然	20266
相威胁	20267
社工	20268
秘密@@	20269
航道	20270
蒙特	20271
越狱	20272
运出	20273
通话	20274
魁北克省	20275
麻醉	20276
34@@	20277
872	20278
CS	20279
Land@@	20280
William	20281
eer	20282
old	20283
乐意	20284
人口稠密	20285
使之能	20286
具体办法	20287
军事援助	20288
功能性	20289
博士学位	20290
各自为政	20291
吴@@	20292
宣讲	20293
抵减	20294
摩苏尔	20295
敌对行为	20296
斯托	20297
来临	20298
污染者	20299
用法	20300
第四十条	20301
船运	20302
蒂尔	20303
转换成	20304
轻松	20305
较广	20306
辨别	20307
避税	20308
部已	20309
鸟	20310
842	20311
959	20312
Ov@@	20313
PV@@	20314
今天下午	20315
变异	20316
向南	20317
圭@@	20318
多枚	20319
大增	20320
巴尼亚	20321
幼	20322
戊	20323
毒理学	20324
演讲人	20325
第二十二次	20326
索赔案	20327
该章	20328
读写	20329
调阅	20330
逼	20331
908	20332
Bis@@	20333
Comp@@	20334
Nic@@	20335
Salih	20336
Tel	20337
ram	20338
一环	20339
二世	20340
人身攻击	20341
仿@@	20342
伤势	20343
加尔	20344
压倒性	20345
司法公正	20346
吸取教训	20347
因而是	20348
大有@@	20349
所作所为	20350
扫@@	20351
批次	20352
接通	20353
日时	20354
朴	20355
正对	20356
稍微	20357
篡改	20358
联森	20359
被害	20360
西北地区	20361
运入	20362
项是	20363
896	20364
Mam@@	20365
Tre@@	20366
ios	20367
rim@@	20368
中点	20369
争斗	20370
会籍	20371
四所	20372
宣誓就职	20373
总结经验	20374
惠给	20375
想象力	20376
放权	20377
智	20378
有误	20379
期初余额	20380
祖	20381
种植者	20382
纪@@	20383
耗	20384
药草	20385
贫铀	20386
驶@@	20387
Alexander	20388
Busayyah	20389
Dah@@	20390
FA	20391
PF@@	20392
Wh@@	20393
ecti@@	20394
ip	20395
ub	20396
一任	20397
不变价格	20398
习	20399
办向	20400
加以分析	20401
卡西	20402
唤起	20403
圣彼得堡	20404
年老	20405
库存量	20406
物价指数	20407
生产成本	20408
谢贝利	20409
贫富	20410
追溯到	20411
郎	20412
黎@@	20413
Adam	20414
CI	20415
CONF.183	20416
international	20417
oki	20418
rel@@	20419
丽	20420
人口老化	20421
供职	20422
凌驾于	20423
几代人	20424
奥贝德	20425
委在	20426
山岳	20427
布朗	20428
希布伦	20429
幢	20430
念	20431
急迫	20432
恐慌	20433
撤走	20434
攻击行为	20435
文件@@	20436
文本处理	20437
残废	20438
童兵	20439
肯尼迪	20440
调整@@	20441
财产@@	20442
路段	20443
遗孀	20444
金属@@	20445
锁	20446
1.0	20447
31%	20448
42%	20449
856	20450
Nam@@	20451
SM@@	20452
ZA	20453
nd@@	20454
uw@@	20455
三省	20456
不同之处	20457
人际关系	20458
令人吃惊	20459
余名	20460
关头	20461
包租	20462
厂商	20463
可偿还	20464
商营	20465
多种不同	20466
并分	20467
想起	20468
报告会	20469
搞@@	20470
消费国	20471
温得和克	20472
热量	20473
煤@@	20474
病情	20475
皮革	20476
苯	20477
训练@@	20478
1643	20479
829	20480
CP.5	20481
Gen@@	20482
一一	20483
乳房	20484
体在	20485
勃@@	20486
卡拉@@	20487
召@@	20488
周刊	20489
国际惯例	20490
女囚	20491
徒步	20492
探究	20493
提单	20494
政客	20495
日本@@	20496
权属	20497
查证	20498
水库	20499
法定人数	20500
玛雅	20501
监测站	20502
立特	20503
索尔	20504
联合阵线	20505
芒	20506
远景规划	20507
频谱	20508
1493	20509
5000	20510
77.@@	20511
925	20512
995	20513
IA	20514
ICC	20515
Inter@@	20516
LL	20517
ota	20518
ps	20519
人工@@	20520
博爱	20521
哨@@	20522
市场需求	20523
常年	20524
战火	20525
新政	20526
每半年	20527
毫无道理	20528
灌溉系统	20529
用词	20530
由本	20531
第三级	20532
维生	20533
贝特	20534
连续不断	20535
骨干	20536
831	20537
Andre@@	20538
Fil@@	20539
Prog@@	20540
___	20541
yl@@	20542
为重	20543
会议主题	20544
划入	20545
前言	20546
告示	20547
商业机会	20548
崛起	20549
工匠	20550
广播电视	20551
彩@@	20552
戈马派	20553
手持	20554
更有意义	20555
未结	20556
汤@@	20557
洗	20558
疗@@	20559
第十三章	20560
订购单	20561
记录@@	20562
详@@	20563
费尔南德斯	20564
资源配置	20565
边界争端	20566
015	20567
876	20568
912	20569
LO@@	20570
人员名单	20571
关贸总协定	20572
切除	20573
加密	20574
北约组织	20575
区域@@	20576
卢卡	20577
各邦	20578
合法权益	20579
国所	20580
基拉	20581
复印机	20582
孜@@	20583
年产量	20584
并肩	20585
拥@@	20586
摘自	20587
本月	20588
比利时政府	20589
混凝土	20590
游轮	20591
独家	20592
盾	20593
符合标准	20594
练	20595
终点	20596
经审查	20597
绕@@	20598
货车	20599
遗传@@	20600
Gustafik	20601
ett	20602
pol@@	20603
偷盗	20604
冰	20605
千美元	20606
地毯	20607
均匀	20608
埃利亚	20609
堂@@	20610
增速	20611
夏威夷	20612
多付	20613
担@@	20614
撞	20615
极地	20616
核电厂	20617
法理	20618
畅通无阻	20619
科威特人	20620
米斯	20621
紧要	20622
育空	20623
舱位	20624
计算机辅助	20625
负增长	20626
载运	20627
这时	20628
酯	20629
重大@@	20630
铸	20631
阵列	20632
除去	20633
007	20634
29%	20635
96.@@	20636
CH4	20637
Mark@@	20638
Merc@@	20639
Santos	20640
ange	20641
wor@@	20642
军事冲突	20643
军舰	20644
化学剂	20645
发展@@	20646
妄@@	20647
广为人知	20648
应答	20649
恒@@	20650
提要	20651
播	20652
无私	20653
条向	20654
游牧民	20655
犹太@@	20656
独立@@	20657
生存@@	20658
生涯	20659
知识经济	20660
研究者	20661
经销	20662
蓬	20663
貌	20664
通加	20665
阴道	20666
阿姆@@	20667
霸权	20668
风格	20669
高发	20670
高技能	20671
黑山共和国	20672
9.7	20673
977	20674
981	20675
CONF.189	20676
IB@@	20677
MS@@	20678
RD	20679
oz	20680
万国邮联	20681
不实	20682
中位	20683
中受	20684
休战	20685
优异	20686
六月	20687
兵员	20688
农场主	20689
况	20690
勾@@	20691
原第	20692
四十@@	20693
外部环境	20694
扼杀	20695
新途径	20696
早期教育	20697
模棱两可	20698
灯@@	20699
甘蔗	20700
缅@@	20701
访问者	20702
该信	20703
请购	20704
达到目标	20705
1807	20706
32.@@	20707
Hil@@	20708
Lam@@	20709
Lotus	20710
ake	20711
ein@@	20712
fr@@	20713
ongo	20714
中列	20715
主办@@	20716
互联	20717
何为	20718
供作	20719
克莱@@	20720
关键@@	20721
出入证	20722
前进方向	20723
北区	20724
印度@@	20725
受贿	20726
国民@@	20727
孟买	20728
彩	20729
律师@@	20730
德南	20731
或仅	20732
手头	20733
推进剂	20734
教师@@	20735
氯乙烯	20736
沟	20737
珍惜	20738
监管者	20739
相近	20740
窝藏	20741
肢	20742
脑膜炎	20743
谋取	20744
阿萨德	20745
非技术	20746
首期	20747
847	20748
898	20749
Ayn	20750
Can@@	20751
Ek@@	20752
Ul@@	20753
ings	20754
一只	20755
不需	20756
专题@@	20757
之列	20758
交流活动	20759
养人	20760
军机	20761
出动	20762
半个	20763
同心协力	20764
四处	20765
塞雷卡	20766
巨大变化	20767
愤慨	20768
推展	20769
攻@@	20770
旋风式	20771
杜阿尔特	20772
水务	20773
水电@@	20774
父母亲	20775
理智	20776
硬墙	20777
突出@@	20778
竞合	20779
罪化	20780
罪状	20781
课税	20782
钻@@	20783
院内	20784
雇@@	20785
鼓舞人心	20786
909	20787
935	20788
938	20789
Africa	20790
C.18	20791
James	20792
Jorge	20793
SW@@	20794
acc@@	20795
mez	20796
ont@@	20797
uti@@	20798
一概	20799
人民币	20800
人类学	20801
从本	20802
办驻	20803
努尔	20804
化验室	20805
司为	20806
商业利益	20807
多种语言	20808
希伯伦	20809
平日	20810
幼童	20811
拳@@	20812
斯塔尔	20813
状况不佳	20814
白色	20815
百姓	20816
紧急事件	20817
药管署	20818
视而不见	20819
诉讼案	20820
质询	20821
高度评价	20822
104.@@	20823
Cont@@	20824
Et@@	20825
Ismail	20826
Mays	20827
OP@@	20828
ava	20829
azz@@	20830
两轮	20831
丧偶	20832
享	20833
亲善大使	20834
伯格	20835
写法	20836
农牧业	20837
几条	20838
受托人	20839
块@@	20840
娶	20841
宗派	20842
届@@	20843
师@@	20844
律@@	20845
性伴侣	20846
整体而言	20847
无能为力	20848
母公司	20849
河州	20850
经济部	20851
统计分析	20852
美化	20853
美好生活	20854
脱	20855
892	20856
958	20857
Sor@@	20858
㈨	20859
之四	20860
争议性	20861
二苯	20862
冲突法	20863
北亚	20864
发送@@	20865
嘉@@	20866
域名	20867
失检	20868
总需求	20869
文表	20870
无损	20871
末期	20872
本国货币	20873
槽	20874
沿岸国	20875
洞	20876
热线电话	20877
瘤	20878
科医生	20879
符合要求	20880
米亚	20881
聋@@	20882
肥@@	20883
自上而下	20884
芬@@	20885
角落	20886
迪亚洛	20887
1203	20888
1539	20889
1933	20890
976	20891
Hen@@	20892
MX	20893
Vel@@	20894
ido	20895
ros	20896
yo	20897
再生资源	20898
写道	20899
农林业	20900
堆@@	20901
外向	20902
弃置	20903
所应	20904
拉大	20905
无休止	20906
毕业@@	20907
法轮功	20908
考核	20909
臭名昭著	20910
财政负担	20911
迫切性	20912
那儿	20913
937	20914
G.@@	20915
IDB.29	20916
ae	20917
asa	20918
ass	20919
den	20920
不合@@	20921
中华民国	20922
临界值	20923
书面发言	20924
互	20925
今年年底	20926
侮辱性	20927
充分@@	20928
全程	20929
关键步骤	20930
分立	20931
召开大会	20932
哈利勒	20933
哈马德	20934
境内外	20935
害虫	20936
封闭式	20937
射程	20938
幼儿期	20939
患上	20940
战备	20941
摸@@	20942
文化交流	20943
普罗@@	20944
普遍@@	20945
正向	20946
渔场	20947
直径	20948
第五十二	20949
编外人员	20950
萨达姆	20951
计算中心	20952
酶	20953
重重	20954
隔开	20955
873	20956
885	20957
Corr.2	20958
不仅如此	20959
共市	20960
大湖地区	20961
妥善处理	20962
宣传册	20963
小岛	20964
应灾	20965
扩增	20966
摘取	20967
放大	20968
桑戈	20969
汽车@@	20970
消毒	20971
激励机制	20972
特拉@@	20973
痛心	20974
相配合	20975
简表	20976
糖@@	20977
自我管理	20978
行政官	20979
警察法	20980
订出	20981
身边	20982
雄心	20983
高效益	20984
1B	20985
877	20986
956	20987
Notes	20988
XL@@	20989
iga	20990
iw@@	20991
mg	20992
上层	20993
不设	20994
先质	20995
减到	20996
台湾省	20997
实验性	20998
工程部	20999
形形色色	21000
忠@@	21001
文稿	21002
时以	21003
明文禁止	21004
波萨达	21005
活动@@	21006
海龟	21007
睡	21008
祖父母	21009
突出重点	21010
英国广播公司	21011
薄	21012
调查科	21013
贸易组织	21014
辩护权	21015
递给	21016
重犯	21017
马约	21018
驻守	21019
905	21020
939	21021
Gran@@	21022
RT@@	21023
ario	21024
先遣	21025
刊@@	21026
判给	21027
制度性	21028
加工厂	21029
发现自己	21030
周转金	21031
塞尔吉奥	21032
失明	21033
安的列斯	21034
寄	21035
幻想	21036
录制	21037
援助者	21038
摧残	21039
方将	21040
明智地	21041
普惠性	21042
机器人	21043
柴	21044
江	21045
物理@@	21046
百日咳	21047
置之不理	21048
脂肪	21049
航天中心	21050
训练员	21051
说出	21052
豆	21053
货运@@	21054
迫	21055
陪审员	21056
1920	21057
EC@@	21058
人体器官	21059
优质服务	21060
公共建筑	21061
再婚	21062
军保	21063
冠@@	21064
凌晨	21065
创下	21066
囚徒	21067
国防@@	21068
城镇@@	21069
外交部门	21070
失职	21071
姊妹	21072
布拉@@	21073
帕尔@@	21074
收件人	21075
救治	21076
新世纪	21077
暴动	21078
析	21079
民主改革	21080
滞	21081
演	21082
灰	21083
相容	21084
稀@@	21085
类人	21086
纽伦堡	21087
贫化铀	21088
赋	21089
里特	21090
铜@@	21091
黑塞哥	21092
Bag@@	21093
Bank	21094
Som@@	21095
ams	21096
val@@	21097
vi	21098
个人电脑	21099
五倍	21100
以非	21101
伴	21102
全心全意	21103
剔除	21104
协调组	21105
各分	21106
场外	21107
天然@@	21108
州级	21109
心智	21110
心理压力	21111
操作程序	21112
更易	21113
本会	21114
深重	21115
清晰度	21116
炮火	21117
疲@@	21118
缝纫	21119
臂	21120
言词	21121
雷险	21122
17A.@@	21123
8.9	21124
Abb@@	21125
Hash@@	21126
Schilling	21127
Shal@@	21128
Victor	21129
Ya	21130
ih	21131
pres@@	21132
rom@@	21133
严重@@	21134
保障法	21135
公开招标	21136
勇@@	21137
印刷@@	21138
参保	21139
各党派	21140
国及	21141
塔雷	21142
怎@@	21143
折合	21144
推特	21145
支持系统	21146
未说明	21147
绑架者	21148
编订	21149
耶和华	21150
膨胀	21151
蔽	21152
记分卡	21153
败@@	21154
酝酿	21155
金融中心	21156
949	21157
EEC	21158
Mik@@	21159
Pap@@	21160
ack	21161
ail	21162
世旅	21163
之高	21164
伏安	21165
公证人	21166
利奥	21167
国际货币基金	21168
好像	21169
带来不利	21170
戈斯	21171
战前	21172
步兵	21173
混杂	21174
百分率	21175
私生活	21176
西南部	21177
诺维奇	21178
辐射源	21179
造就	21180
酷@@	21181
锻炼	21182
阿摩	21183
隐性	21184
高度赞扬	21185
008	21186
951	21187
CONF.94	21188
Serg@@	21189
elo	21190
ham	21191
kar@@	21192
umba	21193
zh@@	21194
仅能	21195
休息时间	21196
众议员	21197
充分证明	21198
农作	21199
厚	21200
外科手术	21201
库法	21202
徒@@	21203
投向	21204
挡	21205
支用	21206
敕令	21207
热能	21208
街上	21209
配额制	21210
CS@@	21211
Franc@@	21212
Francisco	21213
Hou@@	21214
IP	21215
ington	21216
严重困难	21217
二等	21218
互换	21219
协同工作	21220
卡瓦	21221
可塑	21222
名列	21223
听从	21224
地质学	21225
大湖	21226
宇航员	21227
实践经验	21228
巴士	21229
挺	21230
政治经济	21231
标书	21232
民族语言	21233
特遣部队	21234
知识型	21235
社保	21236
第二十五次	21237
耕@@	21238
良	21239
花园	21240
解放组织	21241
辞@@	21242
雪上加霜	21243
雷尔	21244
食宿	21245
IG@@	21246
Lah@@	21247
SR.4	21248
俗	21249
做会	21250
历经	21251
受惠者	21252
向来	21253
岸外	21254
归还给	21255
新案	21256
格林	21257
洗劫	21258
特兰	21259
禁雷	21260
米奇	21261
维修服务	21262
贩	21263
贪污@@	21264
阿卜杜	21265
35.@@	21266
945	21267
948	21268
Ras@@	21269
业务部门	21270
二字	21271
亿吨	21272
偷走	21273
分从纳	21274
博尔@@	21275
发展署	21276
古巴共和国	21277
大事	21278
履行合同	21279
操作系统	21280
无益	21281
时间推移	21282
景@@	21283
更深	21284
有意思	21285
服务者	21286
期批款	21287
机动性	21288
校正	21289
横跨	21290
求学	21291
环球	21292
福岛	21293
窗	21294
联非	21295
能源消耗	21296
船主	21297
草原	21298
遗迹	21299
鼠	21300
PIC	21301
XLVIII	21302
mer	21303
伊朗人	21304
僵化	21305
免予	21306
厨@@	21307
名声	21308
喷口	21309
姑@@	21310
小生产者	21311
扰动	21312
核反应堆	21313
清洁@@	21314
湖@@	21315
溢@@	21316
牙买加政府	21317
禁核试	21318
科隆	21319
空洞	21320
第三者	21321
继任者	21322
萨拉@@	21323
行不通	21324
行凶	21325
行政主管	21326
贯@@	21327
部副	21328
间隙	21329
饮用	21330
37@@	21331
931	21332
982	21333
983	21334
Rahman	21335
Tou@@	21336
ci	21337
全球@@	21338
军区	21339
卑@@	21340
告终	21341
唱@@	21342
室@@	21343
帕特里克	21344
幸	21345
愈加	21346
拐卖	21347
来之不易	21348
氯碱	21349
灰色	21350
现职	21351
珠宝	21352
电击	21353
百草	21354
砷	21355
确	21356
离心机	21357
移栖	21358
第三十二条	21359
第五十一条	21360
米洛舍维奇	21361
结婚@@	21362
缩	21363
能源@@	21364
至高无上	21365
行人	21366
郑重	21367
非婚生子	21368
105.@@	21369
114.@@	21370
37%	21371
886	21372
914	21373
IDB.23	21374
Kol@@	21375
Ram	21376
pez	21377
专用@@	21378
临时工	21379
伊里	21380
作案	21381
冰箱	21382
基斯	21383
应视	21384
待处理	21385
总则	21386
政界人士	21387
梅拉	21388
欠发达国家	21389
毁@@	21390
水力发电	21391
烈@@	21392
特此	21393
状@@	21394
碱	21395
神父	21396
离不开	21397
离家	21398
维多利亚州	21399
请批	21400
财年	21401
返	21402
重要途径	21403
阿塔	21404
骑@@	21405
18A.@@	21406
28E	21407
34%	21408
894	21409
943	21410
COP.3	21411
L.71	21412
Sect@@	21413
Torres	21414
oo@@	21415
专项资金	21416
事实根据	21417
人阵	21418
人降	21419
付诸实践	21420
保管人	21421
入境签证	21422
冷却	21423
劳动保护	21424
反垄断	21425
吉尔@@	21426
和平区	21427
失窃	21428
实际困难	21429
宿	21430
库纳	21431
掸邦	21432
摄氏度	21433
斯塔@@	21434
死灰复燃	21435
海山	21436
潘	21437
烟雾	21438
甚远	21439
电源	21440
电话线	21441
积聚	21442
腹@@	21443
金融监管	21444
927	21445
942	21446
Sub@@	21447
Vic@@	21448
~	21449
严重危害	21450
交换@@	21451
人民阵线	21452
伴@@	21453
保险业	21454
修改意见	21455
储备@@	21456
公务员法	21457
再作	21458
凡有	21459
包件	21460
咸海	21461
市价	21462
带给	21463
廉洁	21464
探	21465
摄影@@	21466
无纸	21467
着眼	21468
第三段	21469
细	21470
结构@@	21471
覆	21472
警示	21473
讨价还价	21474
诚	21475
负起	21476
食物链	21477
1534	21478
66.@@	21479
941	21480
Beit	21481
Nak@@	21482
PM@@	21483
oko	21484
oon	21485
个体@@	21486
人文@@	21487
偿@@	21488
元件	21489
受灾地区	21490
吉大港	21491
同声	21492
实际@@	21493
工资水平	21494
开赛	21495
拉斯@@	21496
松散	21497
植树	21498
残余物	21499
激活	21500
经济体制	21501
自律	21502
蜂@@	21503
起草者	21504
阵@@	21505
项目@@	21506
1132	21507
22@@	21508
50.@@	21509
Baalbek	21510
OPSC	21511
Tyre	21512
Yah@@	21513
yn	21514
一书	21515
冗余	21516
反对者	21517
合同@@	21518
国务委员会	21519
多万@@	21520
多巴哥	21521
对裁	21522
就是说	21523
恳请	21524
执行@@	21525
捉@@	21526
查禁	21527
灵活@@	21528
环境友好	21529
男女双方	21530
股为	21531
自由市场	21532
行动@@	21533
逐	21534
重新配置	21535
隔	21536
56%	21537
974	21538
EN	21539
IDB.33	21540
Rub@@	21541
Salim	21542
ration	21543
下为	21544
先是	21545
公平合理	21546
出庭作证	21547
向外	21548
国际劳工局	21549
堪称	21550
尾声	21551
帐单	21552
庆@@	21553
情理	21554
振动	21555
放入	21556
民事法庭	21557
灌	21558
火力	21559
瓦米	21560
美利坚合众国政府	21561
腐化	21562
苏丹人	21563
荷兰语	21564
营房	21565
营救	21566
订明	21567
谷@@	21568
超重	21569
转发器	21570
逐项	21571
逼迫	21572
需非	21573
027	21574
70.@@	21575
923	21576
965	21577
996	21578
Bro@@	21579
Fed@@	21580
TO@@	21581
ese	21582
nchez	21583
养分	21584
十名	21585
卡拉奇	21586
另一家	21587
呼吸系统	21588
国际形势	21589
地中海地区	21590
地拉那	21591
塞尔维亚人	21592
增益	21593
属下	21594
方与	21595
木柴	21596
献@@	21597
空中巡逻	21598
第二十九条	21599
纷争	21600
背	21601
腐	21602
计量@@	21603
资金@@	21604
队@@	21605
马拉@@	21606
高加索地区	21607
高等@@	21608
3000	21609
83.@@	21610
AE@@	21611
Aj@@	21612
Bass@@	21613
CCM	21614
Ke@@	21615
Nz@@	21616
Sham@@	21617
ohchr	21618
三中	21619
不属	21620
中产阶级	21621
之道	21622
作此	21623
供需	21624
做过	21625
其受	21626
出其	21627
十亿	21628
反响	21629
变相	21630
图格里克	21631
性价比	21632
拉尼亚	21633
提案人	21634
束	21635
根本无法	21636
氯仿	21637
沃尔@@	21638
沼气	21639
瑞	21640
畸形	21641
芬兰@@	21642
詹	21643
货包	21644
迄今已有	21645
这块	21646
重力	21647
黄麻	21648
998	21649
Amarah	21650
Bol@@	21651
George	21652
MIN@@	21653
Mart	21654
ardo	21655
avi	21656
tor@@	21657
wa@@	21658
乐施会	21659
乔治@@	21660
亚马孙	21661
全局	21662
动作	21663
博尔	21664
同比	21665
头寸	21666
尔巴	21667
工龄	21668
巧	21669
彼得@@	21670
总经理	21671
既成事实	21672
梯	21673
民间@@	21674
温哥华	21675
碱@@	21676
立法权	21677
荷兰盾	21678
萨巴赫	21679
计数	21680
贫困@@	21681
赫拉	21682
追究其	21683
遥@@	21684
鉴@@	21685
６	21686
0.4	21687
127.@@	21688
1940	21689
Cent@@	21690
GC.9	21691
Kad@@	21692
port@@	21693
sal@@	21694
不下	21695
世人	21696
亟须	21697
入住	21698
具有活力	21699
分公司	21700
功率	21701
反恐怖	21702
四十年	21703
尺	21704
履历	21705
工种	21706
开明	21707
数百人	21708
案人	21709
波兰@@	21710
班加罗尔	21711
绝不会	21712
语言@@	21713
账面	21714
资助者	21715
轻度	21716
通胀率	21717
011	21718
4B	21719
902	21720
Esc@@	21721
Iv@@	21722
Jan	21723
To@@	21724
下定决心	21725
不合规定	21726
个续	21727
亡@@	21728
叛国罪	21729
国有@@	21730
图尔	21731
审计@@	21732
客观@@	21733
岗@@	21734
峰	21735
希奥	21736
年气	21737
彰显	21738
抵	21739
推介	21740
摆着	21741
毒瘾	21742
爆@@	21743
狗	21744
盲	21745
税务局	21746
第一周	21747
[...]
