<unk>	0
<blank>	1
<s>	2
</s>	3
the	4
,	5
of	6
and	7
.	8
to	9
in	10
for	11
a	12
)	13
(	14
on	15
that	16
The	17
/	18
by	19
with	20
as	21
is	22
be	23
;	24
its	25
was	26
&quot;	27
from	28
at	29
or	30
are	31
United	32
:	33
an	34
which	35
their	36
Nations	37
&apos;s	38
In	39
have	40
has	41
not	42
Committee	43
international	44
all	45
it	46
had	47
also	48
were	49
development	50
States	51
been	52
countries	53
other	54
this	55
A	56
will	57
women	58
including	59
rights	60
should	61
report	62
resolution	63
support	64
national	65
would	66
such	67
under	68
Council	69
human	70
information	71
work	72
implementation	73
1	74
It	75
activities	76
more	77
State	78
Convention	79
through	80
against	81
General	82
Government	83
Assembly	84
between	85
those	86
into	87
made	88
children	89
2	90
new	91
$	92
measures	93
Commission	94
programme	95
security	96
organizations	97
resources	98
-	99
system	100
law	101
session	102
country	103
regional	104
International	105
cooperation	106
efforts	107
services	108
issues	109
well	110
meeting	111
one	112
assistance	113
provide	114
draft	115
social	116
number	117
Secretary-General	118
economic	119
Development	120
3	121
they	122
management	123
financial	124
programmes	125
these	126
ensure	127
areas	128
provided	129
any	130
people	131
process	132
than	133
out	134
developing	135
use	136
paragraph	137
period	138
further	139
Conference	140
health	141
Mr.	142
his	143
some	144
staff	145
education	146
Security	147
order	148
could	149
training	150
during	151
public	152
article	153
I	154
need	155
level	156
within	157
but	158
Group	159
persons	160
This	161
two	162
particular	163
may	164
there	165
who	166
relevant	167
can	168
access	169
held	170
over	171
4	172
b	173
policy	174
only	175
5	176
review	177
members	178
adopted	179
Rights	180
legal	181
Special	182
10	183
years	184
protection	185
political	186
them	187
Office	188
no	189
per	190
global	191
violence	192
Republic	193
about	194
action	195
related	196
must	197
As	198
6	199
party	200
Human	201
among	202
budget	203
decision	204
effective	205
At	206
right	207
regard	208
progress	209
time	210
technical	211
recommendations	212
being	213
&apos;	214
community	215
we	216
established	217
role	218
reports	219
important	220
most	221
Programme	222
continue	223
gender	224
Africa	225
take	226
year	227
both	228
policies	229
7	230
following	231
taken	232
first	233
parties	234
increase	235
cases	236
special	237
groups	238
institutions	239
Member	240
local	241
our	242
data	243
where	244
up	245
working	246
15	247
respect	248
capacity	249
situation	250
12	251
part	252
many	253
noted	254
world	255
sustainable	256
National	257
Board	258
since	259
developed	260
2005	261
c	262
framework	263
peace	264
needs	265
include	266
We	267
proposed	268
so	269
Parties	270
total	271
2010	272
based	273
accordance	274
30	275
poverty	276
society	277
8	278
trade	279
11	280
appropriate	281
project	282
sector	283
three	284
basis	285
Organization	286
see	287
agenda	288
World	289
2009	290
view	291
while	292
particularly	293
meetings	294
projects	295
2008	296
requirements	297
necessary	298
if	299
levels	300
2006	301
set	302
million	303
14	304
On	305
provisions	306
address	307
--	308
general	309
promote	310
specific	311
area	312
African	313
9	314
available	315
13	316
before	317
region	318
account	319
without	320
he	321
same	322
when	323
continued	324
participation	325
population	326
civil	327
2004	328
additional	329
d	330
humanitarian	331
group	332
operations	333
increased	334
Social	335
considered	336
addition	337
2011	338
said	339
make	340
2007	341
20	342
required	343
various	344
current	345
concerned	346
To	347
present	348
reporting	349
Action	350
Fund	351
issue	352
possible	353
case	354
Economic	355
plan	356
military	357
full	358
agencies	359
approach	360
field	361
used	362
2000	363
each	364
16	365
impact	366
18	367
President	368
authorities	369
importance	370
Governments	371
However	372
child	373
consideration	374
Women	375
bodies	376
resolutions	377
Working	378
shall	379
2003	380
monitoring	381
Act	382
delegation	383
2012	384
2002	385
submitted	386
systems	387
costs	388
police	389
nuclear	390
towards	391
conflict	392
agreed	393
discrimination	394
major	395
private	396
document	397
context	398
requested	399
place	400
future	401
item	402
Court	403
practices	404
legislation	405
%	406
European	407
2001	408
domestic	409
control	410
Secretariat	411
31	412
mechanisms	413
cent	414
conditions	415
17	416
existing	417
June	418
December	419
change	420
E	421
challenges	422
provision	423
mandate	424
For	425
end	426
comprehensive	427
personnel	428
No.	429
especially	430
coordination	431
Protocol	432
upon	433
amount	434
concern	435
technology	436
&#91;	437
after	438
received	439
contained	440
New	441
included	442
weapons	443
Mission	444
strengthen	445
organization	446
key	447
Department	448
19	449
reported	450
UNDP	451
&#93;	452
Law	453
do	454
implement	455
providing	456
justice	457
establishment	458
improve	459
indigenous	460
Rapporteur	461
Declaration	462
para	463
environmental	464
standards	465
relating	466
21	467
1999	468
procedures	469
HIV	470
Article	471
note	472
S	473
given	474
status	475
funds	476
environment	477
risk	478
initiatives	479
response	480
therefore	481
result	482
Union	483
25	484
biennium	485
assessment	486
above	487
concerning	488
armed	489
funding	490
growth	491
food	492
expressed	493
different	494
regarding	495
peacekeeping	496
victims	497
entitled	498
family	499
water	500
He	501
care	502
provides	503
representatives	504
2013	505
terms	506
significant	507
member	508
strategy	509
July	510
consider	511
whether	512
develop	513
several	514
strengthening	515
criminal	516
planning	517
employment	518
means	519
attention	520
Advisory	521
her	522
fully	523
e	524
service	525
rate	526
trafficking	527
obligations	528
sexual	529
equality	530
missions	531
22	532
contributions	533
There	534
force	535
While	536
24	537
1998	538
partners	539
example	540
high	541
now	542
due	543
prevention	544
results	545
principles	546
lack	547
23	548
request	549
Service	550
still	551
These	552
second	553
least	554
responsibility	555
men	556
Executive	557
reduction	558
because	559
taking	560
strategies	561
did	562
commitment	563
AIDS	564
operational	565
way	566
focus	567
secretariat	568
government	569
South	570
communities	571
adoption	572
how	573
land	574
research	575
i	576
With	577
production	578
II	579
girls	580
recent	581
decisions	582
Palestinian	583
investment	584
organized	585
supported	586
agreement	587
common	588
actions	589
mission	590
Millennium	591
dialogue	592
small	593
strategic	594
posts	595
life	596
cultural	597
Report	598
60	599
recommended	600
reform	601
equipment	602
subject	603
regular	604
needed	605
implementing	606
main	607
26	608
treatment	609
very	610
help	611
age	612
disarmament	613
estimated	614
consultations	615
annual	616
establish	617
They	618
Ms.	619
priority	620
four	621
representative	622
approved	623
administrative	624
promoting	625
notes	626
implemented	627
rules	628
violations	629
agreements	630
rural	631
peoples	632
analysis	633
application	634
evaluation	635
27	636
previous	637
non-governmental	638
five	639
performance	640
During	641
offices	642
affected	643
energy	644
plans	645
crime	646
aimed	647
problems	648
Arab	649
practice	650
processes	651
cost	652
section	653
achieve	654
joint	655
laws	656
terrorism	657
better	658
Affairs	659
income	660
opportunities	661
28	662
-@@	663
Ministry	664
Global	665
living	666
objectives	667
knowledge	668
potential	669
enhance	670
greater	671
expected	672
C	673
prevent	674
forms	675
adequate	676
addressed	677
already	678
facilitate	679
documents	680
Panel	681
climate	682
however	683
workers	684
author	685
fact	686
Centre	687
basic	688
promotion	689
own	690
question	691
Plan	692
ensuring	693
annex	694
facilities	695
forces	696
quality	697
instruments	698
decided	699
increasing	700
29	701
currently	702
space	703
meet	704
financing	705
individual	706
involved	707
statement	708
goals	709
awareness	710
guidelines	711
arms	712
informed	713
might	714
best	715
Iraq	716
labour	717
committed	718
acts	719
stated	720
recommendation	721
business	722
does	723
benefits	724
Israel	725
requests	726
All	727
50	728
infrastructure	729
even	730
certain	731
property	732
together	733
good	734
market	735
third	736
integrated	737
experts	738
able	739
limited	740
arrangements	741
refugees	742
identified	743
commitments	744
undertaken	745
discussion	746
essential	747
mechanism	748
overall	749
study	750
UNICEF	751
57	752
conducted	753
building	754
40	755
foreign	756
serious	757
treaty	758
steps	759
responsible	760
individuals	761
May	762
communication	763
September	764
Division	765
assist	766
proposals	767
understanding	768
stakeholders	769
early	770
what	771
rule	772
1997	773
Code	774
often	775
America	776
past	777
carried	778
entities	779
matters	780
concerns	781
Information	782
position	783
independent	784
resource	785
UNCTAD	786
capacity-building	787
institutional	788
crisis	789
office	790
October	791
November	792
58	793
recognized	794
my	795
called	796
crimes	797
Support	798
governance	799
communications	800
form	801
59	802
Asia	803
person	804
clear	805
line	806
March	807
protect	808
officials	809
official	810
contribute	811
contribution	812
took	813
Bank	814
non-@@	815
remains	816
Covenant	817
follow-up	818
55	819
conduct	820
January	821
detention	822
equal	823
pursuant	824
Other	825
interest	826
become	827
61	828
presented	829
medical	830
natural	831
articles	832
regions	833
reduce	834
aspects	835
Criminal	836
Goals	837
issued	838
exchange	839
multilateral	840
centres	841
Representative	842
China	843
transfer	844
UNEP	845
Forum	846
thus	847
school	848
65	849
Management	850
free	851
below	852
value	853
principle	854
proposal	855
62	856
Central	857
others	858
indicated	859
High	860
primary	861
Treaty	862
last	863
functions	864
negotiations	865
ongoing	866
prepared	867
another	868
changes	869
months	870
large	871
64	872
integration	873
enforcement	874
Israeli	875
remain	876
Tribunal	877
statements	878
media	879
families	880
higher	881
indicators	882
found	883
S@@	884
nature	885
less	886
paragraphs	887
sectors	888
purpose	889
revised	890
achieved	891
informal	892
63	893
One	894
experience	895
2014	896
priorities	897
That	898
improving	899
delegations	900
52	901
rates	902
An	903
guidance	904
April	905
53	906
compliance	907
UNHCR	908
effectively	909
54	910
share	911
young	912
Sudan	913
Review	914
Since	915
B@@	916
evidence	917
East	918
making	919
internal	920
claims	921
authority	922
vulnerable	923
Constitution	924
56	925
disabilities	926
Some	927
positive	928
A@@	929
every	930
critical	931
direct	932
next	933
Regional	934
displaced	935
problem	936
sessions	937
six	938
preparation	939
like	940
According	941
officers	942
recommends	943
opportunity	944
behalf	945
referred	946
Summit	947
un@@	948
re@@	949
addressing	950
combat	951
inter	952
Geneva	953
judicial	954
light	955
B	956
substantive	957
date	958
matter	959
collaboration	960
alia	961
P@@	962
Unit	963
welcomed	964
participants	965
safety	966
schools	967
abuse	968
de	969
enable	970
initiative	971
Canada	972
III	973
manner	974
outcome	975
Director	976
using	977
discussions	978
procedure	979
fundamental	980
throughout	981
drug	982
economy	983
compared	984
approximately	985
conference	986
35	987
achieving	988
days	989
Implementation	990
situations	991
sources	992
improved	993
reference	994
active	995
objective	996
Agreement	997
technologies	998
effect	999
civilian	1000
poor	1001
includes	1002
66	1003
items	1004
elements	1005
yet	1006
effects	1007
effectiveness	1008
list	1009
intergovernmental	1010
having	1011
us	1012
freedom	1013
introduced	1014
hours	1015
positions	1016
assets	1017
range	1018
32	1019
G@@	1020
34	1021
Health	1022
court	1023
supporting	1024
*	1025
benefit	1026
expert	1027
Trade	1028
delivery	1029
views	1030
led	1031
transport	1032
Meeting	1033
give	1034
until	1035
torture	1036
require	1037
1996	1038
material	1039
33	1040
body	1041
legislative	1042
identify	1043
Federation	1044
regulations	1045
forward	1046
aid	1047
partnership	1048
materials	1049
N@@	1050
administration	1051
Furthermore	1052
former	1053
Japan	1054
around	1055
allow	1056
actors	1057
Crime	1058
D@@	1059
universal	1060
housing	1061
67	1062
final	1063
purposes	1064
average	1065
maintenance	1066
associated	1067
expenditure	1068
partnerships	1069
she	1070
connection	1071
Russian	1072
proceedings	1073
travel	1074
balance	1075
lead	1076
urban	1077
activity	1078
36	1079
Cooperation	1080
1995	1081
Justice	1082
accountability	1083
August	1084
remained	1085
UNFPA	1086
debt	1087
exercise	1088
establishing	1089
point	1090
scope	1091
51	1092
f	1093
ways	1094
post	1095
continues	1096
Section	1097
table	1098
Afghanistan	1099
45	1100
Commissioner	1101
responsibilities	1102
Minister	1103
circumstances	1104
voluntary	1105
developments	1106
effort	1107
submit	1108
Protection	1109
territory	1110
products	1111
Such	1112
events	1113
India	1114
capital	1115
L@@	1116
o	1117
s	1118
religious	1119
37	1120
procurement	1121
transition	1122
relation	1123
Children	1124
elections	1125
periodic	1126
Europe	1127
February	1128
core	1129
Kingdom	1130
strong	1131
according	1132
then	1133
youth	1134
act	1135
F@@	1136
long-term	1137
team	1138
K@@	1139
state	1140
across	1141
questions	1142
female	1143
terrorist	1144
M@@	1145
cannot	1146
Sustainable	1147
Agency	1148
T@@	1149
E@@	1150
38	1151
Force	1152
prior	1153
methods	1154
68	1155
done	1156
claim	1157
Institute	1158
focused	1159
encouraged	1160
operation	1161
39	1162
return	1163
applied	1164
completed	1165
continuing	1166
day	1167
close	1168
text	1169
Charter	1170
capacities	1171
UNIDO	1172
Services	1173
Although	1174
participate	1175
create	1176
physical	1177
recovery	1178
York	1179
build	1180
NGOs	1181
economies	1182
resulting	1183
term	1184
educational	1185
initial	1186
encourage	1187
much	1188
His	1189
put	1190
Chairman	1191
emergency	1192
Public	1193
reflected	1194
directly	1195
war	1196
Political	1197
approaches	1198
comments	1199
g	1200
course	1201
open	1202
?	1203
48	1204
statistics	1205
efficiency	1206
although	1207
compensation	1208
met	1209
central	1210
By	1211
Education	1212
creation	1213
Joint	1214
citizens	1215
external	1216
41	1217
factors	1218
consultation	1219
Headquarters	1220
workshops	1221
Pacific	1222
44	1223
temporary	1224
units	1225
traditional	1226
far	1227
similar	1228
structure	1229
exploitation	1230
goods	1231
challenge	1232
whose	1233
tools	1234
subregional	1235
in@@	1236
49	1237
bilateral	1238
distribution	1239
play	1240
She	1241
Under	1242
treaties	1243
Environment	1244
Recalling	1245
fund	1246
Civil	1247
detailed	1248
net	1249
42	1250
extent	1251
If	1252
advice	1253
agricultural	1254
target	1255
interests	1256
donors	1257
Mexico	1258
consensus	1259
discussed	1260
investigation	1261
k@@	1262
points	1263
involving	1264
practical	1265
rather	1266
receive	1267
9@@	1268
leadership	1269
Caribbean	1270
jurisdiction	1271
C@@	1272
applicable	1273
Annex	1274
Also	1275
Democratic	1276
death	1277
launched	1278
46	1279
courts	1280
monitor	1281
implications	1282
supply	1283
ethnic	1284
Add.1	1285
low	1286
apply	1287
power	1288
contract	1289
outside	1290
Agenda	1291
2015	1292
specialized	1293
owing	1294
beyond	1295
relations	1296
reached	1297
vote	1298
adopt	1299
Peace	1300
H@@	1301
skills	1302
dated	1303
8@@	1304
construction	1305
obligation	1306
operating	1307
conferences	1308
47	1309
difficult	1310
studies	1311
Draft	1312
language	1313
stability	1314
paid	1315
goal	1316
reduced	1317
leaders	1318
covered	1319
decision-making	1320
wish	1321
him	1322
43	1323
requires	1324
respective	1325
sufficient	1326
threat	1327
raised	1328
itself	1329
Child	1330
deployment	1331
Cuba	1332
demand	1333
Brazil	1334
Moreover	1335
standard	1336
Australia	1337
regime	1338
network	1339
criteria	1340
signed	1341
transparency	1342
violation	1343
assessments	1344
achievement	1345
states	1346
concluded	1347
R@@	1348
illicit	1349
successful	1350
just	1351
scientific	1352
ability	1353
audit	1354
illegal	1355
call	1356
bring	1357
designed	1358
Optional	1359
debate	1360
Administrative	1361
themselves	1362
100	1363
long	1364
judges	1365
disaster	1366
civilians	1367
Syrian	1368
consistent	1369
stressed	1370
France	1371
migration	1372
er	1373
OHCHR	1374
Strategy	1375
Operations	1376
cover	1377
maintain	1378
destruction	1379
suggested	1380
enhancing	1381
Persons	1382
created	1383
culture	1384
aim	1385
finance	1386
expertise	1387
companies	1388
source	1389
either	1390
pay	1391
loss	1392
estimates	1393
growing	1394
workshop	1395
recruitment	1396
peaceful	1397
Latin	1398
enhanced	1399
mainly	1400
Vienna	1401
majority	1402
Countries	1403
lower	1404
West	1405
reducing	1406
Pakistan	1407
reflect	1408
planned	1409
markets	1410
Lebanon	1411
s@@	1412
improvement	1413
Germany	1414
few	1415
submission	1416
mentioned	1417
paper	1418
conflicts	1419
timely	1420
great	1421
observations	1422
seek	1423
IV	1424
Somalia	1425
mandates	1426
calls	1427
complete	1428
recently	1429
air	1430
parts	1431
minimum	1432
Prevention	1433
W@@	1434
p.m.	1435
Gender	1436
risks	1437
Officer	1438
Administration	1439
formal	1440
instrument	1441
highlighted	1442
Kosovo	1443
professional	1444
Discrimination	1445
presence	1446
Permanent	1447
Police	1448
sanctions	1449
rehabilitation	1450
dollars	1451
students	1452
targets	1453
today	1454
consequences	1455
efficient	1456
Coordination	1457
O@@	1458
combating	1459
despite	1460
appreciation	1461
respectively	1462
whole	1463
forest	1464
brought	1465
reach	1466
alternative	1467
reasons	1468
permanent	1469
export	1470
strengthened	1471
design	1472
live	1473
participated	1474
clearly	1475
paras	1476
border	1477
coordinated	1478
refugee	1479
involvement	1480
task	1481
Disarmament	1482
Further	1483
Labour	1484
emphasized	1485
1994	1486
high-level	1487
Congo	1488
serve	1489
reviewed	1490
Policy	1491
es	1492
options	1493
A.	1494
phase	1495
plenary	1496
commercial	1497
definition	1498
resulted	1499
shared	1500
2@@	1501
attacks	1502
Peacekeeping	1503
emerging	1504
gross	1505
offences	1506
Framework	1507
follows	1508
contributed	1509
prison	1510
COP	1511
t	1512
invited	1513
First	1514
model	1515
industry	1516
collection	1517
senior	1518
movement	1519
real	1520
inclusion	1521
migrants	1522
representation	1523
defined	1524
Field	1525
recognition	1526
Kuwait	1527
conventions	1528
closely	1529
assess	1530
internally	1531
69	1532
donor	1533
remaining	1534
you	1535
intended	1536
inclusive	1537
networks	1538
trial	1539
settlement	1540
solutions	1541
outcomes	1542
negative	1543
forced	1544
B.	1545
Party	1546
ing	1547
concept	1548
asked	1549
funded	1550
component	1551
electronic	1552
ground	1553
UNODC	1554
generally	1555
carry	1556
concrete	1557
relief	1558
Second	1559
leave	1560
applications	1561
absence	1562
Rules	1563
relationship	1564
respond	1565
prepare	1566
headquarters	1567
appeal	1568
difficulties	1569
racial	1570
reintegration	1571
broad	1572
agriculture	1573
Assistance	1574
face	1575
threats	1576
Technical	1577
independence	1578
half	1579
event	1580
responses	1581
described	1582
internationally	1583
aircraft	1584
Islamic	1585
urged	1586
duty	1587
reproductive	1588
useful	1589
Federal	1590
77	1591
sharing	1592
actual	1593
almost	1594
safe	1595
accounts	1596
measure	1597
success	1598
70	1599
Chair	1600
Liberia	1601
specifically	1602
lives	1603
contracts	1604
extended	1605
consumption	1606
leading	1607
committee	1608
occupation	1609
represented	1610
J@@	1611
survey	1612
1990	1613
undertake	1614
scale	1615
registration	1616
deal	1617
3@@	1618
urgent	1619
along	1620
sex	1621
host	1622
Indonesia	1623
increasingly	1624
approval	1625
fight	1626
step	1627
y@@	1628
centre	1629
complex	1630
subsequent	1631
opinion	1632
namely	1633
Many	1634
summary	1635
expenditures	1636
h	1637
types	1638
thematic	1639
origin	1640
payment	1641
emissions	1642
welcomes	1643
again	1644
solution	1645
Legal	1646
occupied	1647
Korea	1648
democratic	1649
mortality	1650
letter	1651
Norway	1652
cash	1653
Internet	1654
corruption	1655
insurance	1656
Iran	1657
causes	1658
documentation	1659
conclusions	1660
crucial	1661
targeted	1662
hold	1663
Switzerland	1664
down	1665
actively	1666
Darfur	1667
fourth	1668
trends	1669
followed	1670
times	1671
Community	1672
series	1673
industrial	1674
statistical	1675
possibility	1676
Technology	1677
stage	1678
frameworks	1679
minorities	1680
perspective	1681
provisional	1682
Room	1683
category	1684
collective	1685
ad	1686
home	1687
Gaza	1688
Turkey	1689
engaged	1690
single	1691
decrease	1692
entry	1693
caused	1694
immediate	1695
mass	1696
Training	1697
ii	1698
grounds	1699
5@@	1700
personal	1701
raise	1702
organizational	1703
mainstreaming	1704
avoid	1705
Egypt	1706
No	1707
populations	1708
courses	1709
conclusion	1710
published	1711
al	1712
investigations	1713
empowerment	1714
trust	1715
Sierra	1716
e@@	1717
availability	1718
System	1719
once	1720
languages	1721
D	1722
Table	1723
Authority	1724
American	1725
significantly	1726
likely	1727
dealing	1728
Spain	1729
Ireland	1730
competition	1731
reforms	1732
registered	1733
shown	1734
findings	1735
seven	1736
4@@	1737
faced	1738
People	1739
produced	1740
advance	1741
Association	1742
Italy	1743
forum	1744
placed	1745
discuss	1746
eliminate	1747
elected	1748
later	1749
believe	1750
Those	1751
Financial	1752
structures	1753
fair	1754
function	1755
determine	1756
Elimination	1757
engagement	1758
sanitation	1759
lessons	1760
80	1761
Netherlands	1762
creating	1763
participating	1764
visits	1765
10@@	1766
V@@	1767
constitute	1768
visit	1769
7@@	1770
worldwide	1771
ICT	1772
alleged	1773
authorized	1774
6@@	1775
ILO	1776
beginning	1777
requirement	1778
Chief	1779
emphasis	1780
membership	1781
island	1782
coverage	1783
campaign	1784
Rwanda	1785
categories	1786
Cultural	1787
Territory	1788
wide	1789
marine	1790
oil	1791
damage	1792
allegations	1793
art	1794
ate	1795
imposed	1796
Initiative	1797
accounting	1798
Secretary	1799
subprogramme	1800
billion	1801
recorded	1802
Colombia	1803
Despite	1804
road	1805
waste	1806
CN.4	1807
experiences	1808
Argentina	1809
Leone	1810
Zealand	1811
disability	1812
tool	1813
base	1814
Of	1815
sustainability	1816
allocated	1817
Following	1818
identification	1819
components	1820
norms	1821
diseases	1822
fuel	1823
highest	1824
mutual	1825
enabling	1826
punishment	1827
percentage	1828
ratification	1829
UN	1830
advisory	1831
secondary	1832
seen	1833
separate	1834
accepted	1835
oversight	1836
sought	1837
an@@	1838
IAEA	1839
outstanding	1840
known	1841
amended	1842
preventing	1843
OIOS	1844
engage	1845
endorsed	1846
encourages	1847
added	1848
regulatory	1849
sound	1850
primarily	1851
Several	1852
al@@	1853
Euro@@	1854
Experts	1855
enterprises	1856
freedoms	1857
adaptation	1858
1993	1859
University	1860
territories	1861
North	1862
learned	1863
completion	1864
t@@	1865
Nigeria	1866
science	1867
substantial	1868
n@@	1869
values	1870
i@@	1871
impacts	1872
k	1873
dissemination	1874
am	1875
ratified	1876
C.2	1877
observed	1878
secure	1879
electoral	1880
updated	1881
Bureau	1882
indicate	1883
complaints	1884
Parliament	1885
cause	1886
find	1887
affect	1888
flows	1889
Space	1890
minority	1891
sites	1892
fields	1893
unit	1894
words	1895
teams	1896
Foreign	1897
75	1898
Another	1899
Cyprus	1900
governments	1901
eight	1902
hope	1903
guarantee	1904
1991	1905
From	1906
French	1907
religion	1908
advocacy	1909
vehicles	1910
sent	1911
Indigenous	1912
listed	1913
amounts	1914
candidates	1915
I@@	1916
tasks	1917
c@@	1918
learning	1919
Kenya	1920
1@@	1921
Monitoring	1922
linked	1923
C.	1924
e.g.	1925
Asian	1926
Weapons	1927
cooperate	1928
contains	1929
disasters	1930
Financing	1931
h@@	1932
non-proliferation	1933
initiated	1934
u	1935
amendments	1936
appointed	1937
Sweden	1938
V	1939
site	1940
aims	1941
Morocco	1942
determined	1943
UNESCO	1944
ownership	1945
previously	1946
FAO	1947
marriage	1948
US	1949
.@@	1950
y	1951
investments	1952
ating	1953
Ethiopia	1954
records	1955
sustained	1956
concluding	1957
defence	1958
offer	1959
d@@	1960
ed	1961
Palestine	1962
U@@	1963
come	1964
Humanitarian	1965
g@@	1966
eradication	1967
z@@	1968
formulation	1969
Lebanese	1970
facilitating	1971
equitable	1972
proportion	1973
racism	1974
content	1975
considerable	1976
Requests	1977
allocation	1978
democracy	1979
1992	1980
always	1981
granted	1982
website	1983
Principles	1984
prices	1985
C.3	1986
setting	1987
j@@	1988
drugs	1989
productive	1990
declaration	1991
90	1992
ers	1993
takes	1994
theme	1995
Haiti	1996
database	1997
type	1998
Research	1999
selected	2000
supplies	2001
Assistant	2002
identifying	2003
diversity	2004
R	2005
CEDAW	2006
welcome	2007
containing	2008
vital	2009
transparent	2010
written	2011
arising	2012
LDCs	2013
considers	2014
chapter	2015
Bosnia	2016
reconciliation	2017
contributing	2018
considering	2019
parents	2020
restrictions	2021
whom	2022
systematic	2023
allowed	2024
p@@	2025
globalization	2026
Chile	2027
payments	2028
recognize	2029
functioning	2030
election	2031
supports	2032
credit	2033
longer	2034
Middle	2035
NPT	2036
observers	2037
stations	2038
Ukraine	2039
Western	2040
cycle	2041
incidents	2042
thereby	2043
highly	2044
urges	2045
Herzegovina	2046
departments	2047
employees	2048
losses	2049
inform	2050
Islands	2051
constitutional	2052
facing	2053
dis@@	2054
reviews	2055
follow	2056
b@@	2057
me	2058
assessed	2059
Its	2060
offered	2061
topic	2062
prosecution	2063
budgetary	2064
interpretation	2065
rise	2066
maintained	2067
campaigns	2068
o@@	2069
innovative	2070
fulfil	2071
a@@	2072
commissions	2073
drafting	2074
integrity	2075
Third	2076
attended	2077
Staff	2078
Thus	2079
gaps	2080
seeking	2081
Burundi	2082
affairs	2083
HRC	2084
Thailand	2085
reservations	2086
WHO	2087
encouraging	2088
Uganda	2089
&apos;Ivoire	2090
executive	2091
u@@	2092
offence	2093
18@@	2094
extend	2095
existence	2096
Internal	2097
Trust	2098
maternal	2099
m@@	2100
Côte	2101
entered	2102
month	2103
w@@	2104
More	2105
off	2106
affecting	2107
recalled	2108
your	2109
0@@	2110
After	2111
elimination	2112
72	2113
users	2114
holding	2115
failure	2116
numerous	2117
migrant	2118
UNOPS	2119
protected	2120
nationality	2121
Professional	2122
mind	2123
presentation	2124
pointed	2125
introduction	2126
expansion	2127
earlier	2128
Ministers	2129
Project	2130
...	2131
improvements	2132
f@@	2133
noting	2134
staffing	2135
Austria	2136
entire	2137
job	2138
l@@	2139
amounted	2140
Partnership	2141
expression	2142
convention	2143
Governing	2144
l	2145
Strategic	2146
a.m.	2147
nor	2148
Violence	2149
projected	2150
unemployment	2151
side	2152
reiterated	2153
Deputy	2154
binding	2155
victim	2156
Bangladesh	2157
Nuclear	2158
73	2159
Chamber	2160
substances	2161
representing	2162
fifth	2163
preparing	2164
Control	2165
maintaining	2166
focal	2167
EU	2168
confirmed	2169
pilot	2170
publications	2171
constraints	2172
too	2173
company	2174
vulnerability	2175
chemicals	2176
Philippines	2177
move	2178
Azerbaijan	2179
Family	2180
exports	2181
socio-economic	2182
protecting	2183
South-South	2184
contact	2185
coordinate	2186
transit	2187
Y@@	2188
Population	2189
show	2190
older	2191
governing	2192
obstacles	2193
interventions	2194
Algeria	2195
consent	2196
Fifth	2197
press	2198
committees	2199
publication	2200
settlements	2201
verification	2202
Peru	2203
strongly	2204
pending	2205
teachers	2206
places	2207
instance	2208
covering	2209
71	2210
UNRWA	2211
jobs	2212
El	2213
m	2214
Members	2215
perpetrators	2216
F	2217
Fourth	2218
factor	2219
Guinea	2220
mandated	2221
hand	2222
processing	2223
reason	2224
17@@	2225
12@@	2226
seminars	2227
expanded	2228
obtain	2229
al-@@	2230
regulation	2231
expenses	2232
produce	2233
receiving	2234
coherence	2235
institution	2236
comply	2237
entity	2238
release	2239
Drugs	2240
gap	2241
impunity	2242
P-3	2243
Subcommittee	2244
When	2245
direction	2246
tax	2247
Resources	2248
delivered	2249
remedies	2250
safeguards	2251
competent	2252
identity	2253
uses	2254
capabilities	2255
C.5	2256
VI	2257
i.e.	2258
achievements	2259
et	2260
nearly	2261
price	2262
jointly	2263
broader	2264
preliminary	2265
locations	2266
ated	2267
P-4	2268
shows	2269
Malaysia	2270
mobilization	2271
76	2272
13@@	2273
transactions	2274
arrest	2275
proper	2276
OF	2277
roles	2278
exist	2279
killed	2280
trained	2281
governmental	2282
chemical	2283
Finally	2284
Northern	2285
outlined	2286
Network	2287
realization	2288
Myanmar	2289
left	2290
amendment	2291
rapid	2292
element	2293
focusing	2294
worked	2295
prisoners	2296
14@@	2297
immediately	2298
programming	2299
Developing	2300
74	2301
ting	2302
Decides	2303
THE	2304
prostitution	2305
Status	2306
express	2307
Please	2308
delay	2309
Finland	2310
aware	2311
numbers	2312
Therefore	2313
enjoyment	2314
budgets	2315
record	2316
Z@@	2317
Food	2318
e-@@	2319
Equality	2320
deaths	2321
represent	2322
daily	2323
associations	2324
widely	2325
Task	2326
NGO	2327
raising	2328
troops	2329
reconstruction	2330
Questions	2331
Mechanism	2332
Guatemala	2333
managers	2334
C.1	2335
back	2336
latter	2337
diplomatic	2338
interim	2339
soon	2340
Most	2341
ts	2342
accused	2343
Comprehensive	2344
maximum	2345
Jordan	2346
guarantees	2347
regularly	2348
ar@@	2349
geographical	2350
Expert	2351
Rev.1	2352
trend	2353
extensive	2354
camps	2355
judiciary	2356
played	2357
preventive	2358
sea	2359
Decade	2360
enterprise	2361
outreach	2362
p	2363
combined	2364
designated	2365
15@@	2366
methodology	2367
tourism	2368
organs	2369
78	2370
nations	2371
deployed	2372
imprisonment	2373
spoke	2374
controls	2375
households	2376
link	2377
mines	2378
liability	2379
differences	2380
largest	2381
Given	2382
closed	2383
etc	2384
violated	2385
increases	2386
Saudi	2387
consultative	2388
subsidiary	2389
Accordingly	2390
short	2391
extreme	2392
favour	2393
guide	2394
agency	2395
Two	2396
reaffirmed	2397
interested	2398
inter-agency	2399
peacebuilding	2400
product	2401
appointment	2402
links	2403
ation	2404
coordinating	2405
occurred	2406
Prosecutor	2407
technological	2408
arrested	2409
partner	2410
figure	2411
1,@@	2412
Supreme	2413
modalities	2414
go	2415
represents	2416
Regulations	2417
detained	2418
Statistics	2419
failed	2420
read	2421
convened	2422
en@@	2423
Ecuador	2424
n	2425
&apos;@@	2426
nine	2427
birth	2428
Ministerial	2429
mine	2430
subsequently	2431
joined	2432
Nairobi	2433
update	2434
rape	2435
er@@	2436
Torture	2437
limit	2438
Belarus	2439
Climate	2440
relevance	2441
expand	2442
announced	2443
assisting	2444
territorial	2445
bringing	2446
start	2447
examples	2448
SBI	2449
makes	2450
reflects	2451
satisfaction	2452
Integrated	2453
Belgium	2454
200	2455
aged	2456
preparatory	2457
post-conflict	2458
carrying	2459
00	2460
en	2461
recognizes	2462
Eritrea	2463
M	2464
ch@@	2465
Nepal	2466
79	2467
employed	2468
gas	2469
Coordinator	2470
savings	2471
Croatia	2472
grant	2473
pursue	2474
corporate	2475
16@@	2476
figures	2477
manage	2478
monthly	2479
complainant	2480
Their	2481
iii	2482
Forces	2483
But	2484
honour	2485
Poland	2486
heard	2487
constructive	2488
Scientific	2489
Platform	2490
largely	2491
dignity	2492
Re@@	2493
alone	2494
Great	2495
resolve	2496
sovereignty	2497
welfare	2498
structural	2499
Southern	2500
85	2501
barriers	2502
High-level	2503
My	2504
giving	2505
hoc	2506
Peacebuilding	2507
mitigation	2508
acquisition	2509
charges	2510
on@@	2511
Beijing	2512
mental	2513
Ambassador	2514
L.@@	2515
insufficient	2516
20@@	2517
humanity	2518
confidence	2519
option	2520
indicates	2521
foster	2522
Foundation	2523
Local	2524
Part	2525
unless	2526
legally	2527
SBSTA	2528
Sri	2529
cities	2530
1.@@	2531
Czech	2532
sections	2533
began	2534
multiple	2535
unable	2536
Georgia	2537
selection	2538
topics	2539
late	2540
degradation	2541
arbitrary	2542
Jerusalem	2543
asset	2544
English	2545
examine	2546
legitimate	2547
sentence	2548
otherwise	2549
details	2550
gender-based	2551
GEF	2552
forums	2553
obtained	2554
Al@@	2555
See	2556
determination	2557
envisaged	2558
transportation	2559
extension	2560
know	2561
woman	2562
commission	2563
societies	2564
Forms	2565
periods	2566
scheduled	2567
examination	2568
explained	2569
demonstrated	2570
Independent	2571
speaking	2572
Over	2573
satellite	2574
boys	2575
81	2576
believes	2577
98	2578
crises	2579
82	2580
distributed	2581
Denmark	2582
asylum	2583
duties	2584
vision	2585
Trafficking	2586
attack	2587
old	2588
v.	2589
2008-2009	2590
though	2591
Statute	2592
round	2593
vacancy	2594
Model	2595
83	2596
little	2597
Noting	2598
declared	2599
heads	2600
Kyoto	2601
Note	2602
customs	2603
panel	2604
ended	2605
D.	2606
specified	2607
CRC	2608
released	2609
Under-Secretary-General	2610
started	2611
why	2612
discriminatory	2613
acknowledged	2614
contain	2615
demobilization	2616
solidarity	2617
19@@	2618
inadequate	2619
biodiversity	2620
integrate	2621
Additional	2622
transferred	2623
intention	2624
attributable	2625
located	2626
kind	2627
accessible	2628
Costa	2629
95	2630
WFP	2631
pension	2632
background	2633
penalty	2634
keep	2635
burden	2636
involve	2637
2.@@	2638
week	2639
works	2640
history	2641
transnational	2642
Roma	2643
it@@	2644
examined	2645
degree	2646
reasonable	2647
relatively	2648
fisheries	2649
formed	2650
transmitted	2651
zone	2652
near	2653
witnesses	2654
inventory	2655
comprising	2656
changing	2657
charge	2658
helped	2659
posed	2660
Palestinians	2661
deliberations	2662
managed	2663
Operation	2664
Doha	2665
｟d11｠	2666
｟d37｠	2667
detainees	2668
disease	2669
Corr.1	2670
Safety	2671
Refugees	2672
Lanka	2673
Afghan	2674
｟d49｠	2675
Guidelines	2676
investigate	2677
disputes	2678
｟d39｠	2679
Budget	2680
Serbia	2681
｟d18｠	2682
vocational	2683
Senegal	2684
incorporated	2685
MDGs	2686
directed	2687
ministries	2688
mercury	2689
WTO	2690
sale	2691
｟d38｠	2692
ar	2693
decade	2694
｟d35｠	2695
conformity	2696
authors	2697
never	2698
professionals	2699
｟d12｠	2700
suffering	2701
｟d21｠	2702
agree	2703
｟d27｠	2704
conducting	2705
balanced	2706
｟d31｠	2707
｟d8｠	2708
｟d29｠	2709
ad@@	2710
｟d36｠	2711
assigned	2712
｟d41｠	2713
Iraqi	2714
Planning	2715
dedicated	2716
Year	2717
｟d20｠	2718
prohibited	2719
SR.@@	2720
｟d32｠	2721
hoped	2722
2010-2011	2723
disabled	2724
principal	2725
refer	2726
dispute	2727
｟d48｠	2728
intolerance	2729
widespread	2730
｟d47｠	2731
Energy	2732
｟d17｠	2733
｟d46｠	2734
｟d10｠	2735
nationals	2736
Yugoslavia	2737
Spanish	2738
Paris	2739
Territories	2740
87	2741
｟d9｠	2742
Congress	2743
annually	2744
｟d30｠	2745
｟d43｠	2746
Budgetary	2747
｟d14｠	2748
｟d33｠	2749
promoted	2750
｟d6｠	2751
｟d16｠	2752
utilization	2753
Employment	2754
｟d23｠	2755
overcome	2756
conservation	2757
lines	2758
latest	2759
｟d22｠	2760
｟d44｠	2761
Through	2762
N	2763
｟d34｠	2764
｟d45｠	2765
coming	2766
fiscal	2767
seeks	2768
evaluations	2769
Change	2770
Prime	2771
proliferation	2772
trading	2773
｟d15｠	2774
｟d28｠	2775
bank	2776
allowance	2777
｟d42｠	2778
cluster	2779
grave	2780
｟d13｠	2781
｟d24｠	2782
UN-Habitat	2783
subjected	2784
airspace	2785
assisted	2786
opening	2787
spirit	2788
x	2789
｟d7｠	2790
｟d26｠	2791
adopting	2792
ates	2793
｟d19｠	2794
｟d25｠	2795
｟d40｠	2796
turn	2797
sixth	2798
P	2799
ODA	2800
99	2801
financed	2802
fishing	2803
awareness-raising	2804
reservation	2805
equity	2806
banks	2807
｟d5｠	2808
sets	2809
In@@	2810
Romania	2811
Our	2812
seminar	2813
86	2814
resident	2815
｟d4｠	2816
modern	2817
92	2818
am@@	2819
84	2820
wider	2821
premises	2822
launch	2823
FCCC	2824
experienced	2825
97	2826
well-being	2827
money	2828
pressure	2829
regards	2830
reaching	2831
Chairperson	2832
forests	2833
radio	2834
Ghana	2835
commended	2836
｟d3｠	2837
decline	2838
weeks	2839
grants	2840
enjoy	2841
2,@@	2842
outputs	2843
Based	2844
Assessment	2845
displacement	2846
Mali	2847
91	2848
Team	2849
severe	2850
v@@	2851
biological	2852
93	2853
size	2854
adequately	2855
96	2856
influence	2857
Turkish	2858
Portugal	2859
Day	2860
undertaking	2861
drawn	2862
speakers	2863
Uruguay	2864
homes	2865
Pursuant	2866
serving	2867
Rica	2868
Increased	2869
equivalent	2870
reflecting	2871
biennial	2872
Eastern	2873
decide	2874
linkages	2875
UNCITRAL	2876
soldiers	2877
Activities	2878
appeals	2879
unique	2880
reportedly	2881
facilitation	2882
transfers	2883
Venezuela	2884
Measures	2885
except	2886
Promotion	2887
name	2888
suffered	2889
generation	2890
variety	2891
at@@	2892
draw	2893
original	2894
88	2895
male	2896
Al-@@	2897
sponsors	2898
adverse	2899
disposal	2900
facility	2901
Total	2902
productivity	2903
requiring	2904
｟d2｠	2905
innovation	2906
leaving	2907
Movement	2908
covers	2909
opened	2910
resumed	2911
helping	2912
Nevertheless	2913
el@@	2914
stable	2915
advanced	2916
2006-2007	2917
enter	2918
Cambodia	2919
Strengthening	2920
farmers	2921
platform	2922
surveys	2923
permit	2924
adjustment	2925
acceptance	2926
tons	2927
facilitated	2928
Intergovernmental	2929
federal	2930
300	2931
considerations	2932
remote	2933
lost	2934
became	2935
advantage	2936
L	2937
Angola	2938
unilateral	2939
+	2940
harassment	2941
Small	2942
here	2943
recognizing	2944
valuable	2945
begin	2946
demands	2947
T	2948
Armenia	2949
1,000	2950
Work	2951
deliver	2952
association	2953
｟d1｠	2954
served	2955
extrabudgetary	2956
Reduction	2957
performed	2958
online	2959
Kazakhstan	2960
away	2961
mining	2962
consolidated	2963
successfully	2964
ESCAP	2965
dealt	2966
reviewing	2967
showed	2968
consultants	2969
reiterates	2970
salary	2971
89	2972
de@@	2973
3.@@	2974
comment	2975
Preparatory	2976
location	2977
papers	2978
Conventions	2979
Peoples	2980
newly	2981
constitutes	2982
re-@@	2983
Greece	2984
claimed	2985
Organized	2986
Youth	2987
repatriation	2988
Bolivia	2989
Hungary	2990
ri@@	2991
IPSAS	2992
hunger	2993
operate	2994
substance	2995
system-wide	2996
self-determination	2997
race	2998
volume	2999
traffic	3000
flexibility	3001
Among	3002
Tunisia	3003
Society	3004
Ad	3005
G	3006
sensitive	3007
household	3008
ag@@	3009
Penal	3010
keeping	3011
believed	3012
Procurement	3013
What	3014
forth	3015
allegedly	3016
providers	3017
stocks	3018
gains	3019
revision	3020
judge	3021
movements	3022
AND	3023
perform	3024
94	3025
coherent	3026
vehicle	3027
500	3028
Armed	3029
Regarding	3030
2012-2013	3031
r	3032
belonging	3033
southern	3034
outer	3035
alternatives	3036
assessing	3037
Similarly	3038
academic	3039
district	3040
returned	3041
observer	3042
allowing	3043
submissions	3044
FDI	3045
Recognizing	3046
defenders	3047
intervention	3048
doing	3049
Any	3050
city	3051
visited	3052
ted	3053
requesting	3054
hazardous	3055
functional	3056
adjustments	3057
schemes	3058
advancement	3059
CN.9	3060
reliable	3061
preparations	3062
CD	3063
notably	3064
fall	3065
OECD	3066
self-@@	3067
complaint	3068
decreased	3069
pre-@@	3070
beneficiaries	3071
organize	3072
&amp;	3073
extradition	3074
inputs	3075
ever	3076
inequality	3077
qualified	3078
I.	3079
literacy	3080
is@@	3081
spread	3082
explosive	3083
Paragraph	3084
limits	3085
belief	3086
guaranteed	3087
Arabia	3088
exclusion	3089
acting	3090
Treatment	3091
scheme	3092
gave	3093
procedural	3094
r@@	3095
revenue	3096
Oversight	3097
or@@	3098
stages	3099
Between	3100
reserve	3101
embargo	3102
behaviour	3103
test	3104
im@@	3105
ministerial	3106
Slovenia	3107
ac@@	3108
customary	3109
Military	3110
Taking	3111
man	3112
appear	3113
competence	3114
deep	3115
constituted	3116
accept	3117
introduce	3118
borders	3119
coastal	3120
becoming	3121
patterns	3122
Rio	3123
Guide	3124
contractual	3125
powers	3126
IN@@	3127
estimate	3128
xenophobia	3129
Universal	3130
interaction	3131
Poverty	3132
Use	3133
floor	3134
controlled	3135
sense	3136
residence	3137
journalists	3138
balances	3139
prohibition	3140
remedy	3141
Building	3142
explore	3143
recalls	3144
environmentally	3145
flexible	3146
ending	3147
abroad	3148
Tanzania	3149
Issues	3150
continuous	3151
counter-terrorism	3152
Finance	3153
seriously	3154
wished	3155
ideas	3156
look	3157
testing	3158
techniques	3159
ations	3160
overview	3161
ti@@	3162
accountable	3163
psychological	3164
desertification	3165
Mauritius	3166
Sea	3167
charged	3168
corresponding	3169
Evaluation	3170
web	3171
VII	3172
counsel	3173
Resolution	3174
2004-2005	3175
loans	3176
storage	3177
decades	3178
attached	3179
Salvador	3180
briefing	3181
ammunition	3182
conjunction	3183
Habitat	3184
Process	3185
segment	3186
transitional	3187
ul@@	3188
century	3189
sometimes	3190
understand	3191
negotiation	3192
analytical	3193
pertaining	3194
offset	3195
contrary	3196
ic@@	3197
Goal	3198
intellectual	3199
larger	3200
delays	3201
municipal	3202
harmonization	3203
rejected	3204
ou@@	3205
Singapore	3206
room	3207
Each	3208
input	3209
UNAMID	3210
extremely	3211
lawyers	3212
es@@	3213
incorporate	3214
import	3215
custody	3216
Procedure	3217
demonstrate	3218
integral	3219
fighting	3220
instances	3221
Auditors	3222
expanding	3223
wishes	3224
Chad	3225
devoted	3226
Cameroon	3227
Representatives	3228
determining	3229
dimensions	3230
｟d0｠	3231
generated	3232
nutrition	3233
neighbouring	3234
relate	3235
managing	3236
Power	3237
strength	3238
officer	3239
Rome	3240
ready	3241
evaluate	3242
la	3243
enforced	3244
condition	3245
Investment	3246
renewable	3247
commodity	3248
attempt	3249
software	3250
liberty	3251
Developed	3252
anticipated	3253
Number	3254
incurred	3255
UNIFEM	3256
di@@	3257
built	3258
Decision	3259
incentives	3260
landlocked	3261
Libyan	3262
instead	3263
j	3264
ago	3265
offers	3266
head	3267
rest	3268
Qatar	3269
Her	3270
Hoc	3271
mobility	3272
Basel	3273
ab@@	3274
fees	3275
Nicaragua	3276
consolidation	3277
join	3278
UNIFIL	3279
counselling	3280
health-care	3281
ill-treatment	3282
Nam	3283
targeting	3284
O	3285
mothers	3286
fire	3287
logistical	3288
zones	3289
responded	3290
UN-Women	3291
acceptable	3292
th@@	3293
orders	3294
Viet	3295
bearing	3296
Bulgaria	3297
pleased	3298
equally	3299
search	3300
warning	3301
Slovakia	3302
agents	3303
run	3304
employers	3305
denied	3306
came	3307
liabilities	3308
Within	3309
format	3310
renewed	3311
facts	3312
protocol	3313
wastes	3314
board	3315
120	3316
pollution	3317
sectoral	3318
Communications	3319
Burkina	3320
NEPAD	3321
om@@	3322
treated	3323
opposition	3324
Faso	3325
generate	3326
accounted	3327
Science	3328
P-5	3329
responding	3330
Occupied	3331
Yemen	3332
Notes	3333
mobile	3334
above-mentioned	3335
Earth	3336
usually	3337
reductions	3338
Chapter	3339
execution	3340
formulated	3341
true	3342
composition	3343
prisons	3344
v	3345
MONUC	3346
stock	3347
version	3348
Britain	3349
IC@@	3350
Adviser	3351
introducing	3352
ones	3353
sh@@	3354
Environmental	3355
mobilize	3356
abuses	3357
citizenship	3358
package	3359
Calls	3360
exception	3361
tolerance	3362
northern	3363
sub@@	3364
Montreal	3365
collected	3366
harm	3367
regardless	3368
Constitutional	3369
wage	3370
Document	3371
purchase	3372
organizing	3373
Timor-Leste	3374
recommend	3375
withdrawal	3376
as@@	3377
ra@@	3378
post-@@	3379
st@@	3380
insecurity	3381
industries	3382
ic	3383
Transnational	3384
drew	3385
UNMIK	3386
Protocols	3387
Zambia	3388
mandatory	3389
Progress	3390
removal	3391
Montenegro	3392
competitive	3393
Observer	3394
co@@	3395
accommodation	3396
Decree	3397
properly	3398
relationships	3399
malaria	3400
Indeed	3401
mostly	3402
station	3403
code	3404
methodologies	3405
terrorists	3406
Official	3407
ratio	3408
em@@	3409
buildings	3410
presidential	3411
GDP	3412
Lithuania	3413
refers	3414
models	3415
secured	3416
seventh	3417
adolescents	3418
carbon	3419
applying	3420
conventional	3421
filed	3422
names	3423
Water	3424
accession	3425
liaison	3426
Terrorism	3427
3,@@	3428
Migration	3429
enough	3430
results-based	3431
Transitional	3432
An@@	3433
UNMIL	3434
urge	3435
amounting	3436
reality	3437
prevalence	3438
thank	3439
harmful	3440
oral	3441
lands	3442
neither	3443
Mar@@	3444
destroyed	3445
expresses	3446
lists	3447
quarter	3448
define	3449
provinces	3450
co-@@	3451
conclude	3452
pregnancy	3453
firm	3454
indeed	3455
cooperative	3456
map	3457
Counter-Terrorism	3458
relative	3459
phenomenon	3460
appropriation	3461
Facility	3462
Emergency	3463
over@@	3464
inspection	3465
Both	3466
historical	3467
disadvantaged	3468
inter@@	3469
spent	3470
method	3471
E.	3472
Encourages	3473
limitations	3474
Audit	3475
arbitration	3476
teaching	3477
Provision	3478
businesses	3479
-based	3480
a-@@	3481
frequently	3482
changed	3483
eligible	3484
negotiating	3485
Lastly	3486
genocide	3487
violent	3488
medium-term	3489
devices	3490
Agriculture	3491
meaningful	3492
Jamaica	3493
prosecutors	3494
orally	3495
Standing	3496
Racial	3497
themes	3498
Defence	3499
disseminate	3500
arrangement	3501
op@@	3502
understood	3503
track	3504
ia	3505
liberalization	3506
Annual	3507
macroeconomic	3508
maritime	3509
flow	3510
occur	3511
villages	3512
ak@@	3513
duration	3514
village	3515
.1	3516
ecosystems	3517
allows	3518
participatory	3519
finding	3520
Albania	3521
Where	3522
ro@@	3523
pregnant	3524
Officers	3525
ent	3526
RE@@	3527
Committees	3528
letters	3529
starting	3530
short-term	3531
Friday	3532
Guinea-Bissau	3533
inhuman	3534
via	3535
interactive	3536
declined	3537
Mongolia	3538
juvenile	3539
degrading	3540
supplementary	3541
replace	3542
finds	3543
declarations	3544
schedule	3545
distinction	3546
tenth	3547
attend	3548
ban	3549
complement	3550
diverse	3551
provincial	3552
deprived	3553
z	3554
rapidly	3555
born	3556
hospitals	3557
chap	3558
choice	3559
Having	3560
Open-ended	3561
appears	3562
felt	3563
0.@@	3564
Ombudsman	3565
lasting	3566
television	3567
Least	3568
dependent	3569
pursued	3570
advances	3571
commit	3572
105	3573
marginalized	3574
underlying	3575
begun	3576
ant	3577
passed	3578
Consequently	3579
suggestions	3580
Appeals	3581
dimension	3582
concepts	3583
arts	3584
relates	3585
anniversary	3586
adults	3587
behind	3588
ap@@	3589
non-discrimination	3590
dangerous	3591
ratify	3592
underlined	3593
integrating	3594
UNOCI	3595
regimes	3596
Settlements	3597
troop-contributing	3598
persistent	3599
ha@@	3600
applies	3601
cross-border	3602
ine	3603
Malta	3604
budgeted	3605
stress	3606
accelerate	3607
heavy	3608
simply	3609
budgeting	3610
characteristics	3611
el	3612
subparagraph	3613
fraud	3614
150	3615
Acting	3616
British	3617
writing	3618
Business	3619
formulate	3620
Durban	3621
invitation	3622
ol@@	3623
synergies	3624
observation	3625
Drug	3626
benefited	3627
Strip	3628
word	3629
issuance	3630
Benin	3631
ages	3632
accomplishments	3633
attitudes	3634
machinery	3635
subregion	3636
le@@	3637
eliminating	3638
salaries	3639
parliamentary	3640
Senior	3641
Monday	3642
Uzbekistan	3643
clean	3644
say	3645
livelihoods	3646
Transport	3647
marked	3648
thousands	3649
logistics	3650
400	3651
universities	3652
Item	3653
output	3654
Dialogue	3655
res	3656
hearing	3657
Provisional	3658
post-2015	3659
focuses	3660
master	3661
29@@	3662
accordingly	3663
judgement	3664
Arms	3665
award	3666
hosted	3667
compulsory	3668
continuation	3669
greatly	3670
invasion	3671
sub-@@	3672
Follow-up	3673
supervision	3674
continent	3675
27@@	3676
standing	3677
sect	3678
subsidies	3679
derived	3680
V.	3681
accurate	3682
Participants	3683
Informal	3684
2002-2003	3685
mutually	3686
orientation	3687
il@@	3688
sovereign	3689
Panama	3690
firms	3691
stresses	3692
composed	3693
clarify	3694
4,@@	3695
X	3696
enrolment	3697
competitiveness	3698
protocols	3699
Ensure	3700
Heads	3701
be@@	3702
Macedonia	3703
suitable	3704
producing	3705
son	3706
difference	3707
addresses	3708
1990s	3709
1988	3710
injured	3711
foundation	3712
recruited	3713
votes	3714
os	3715
le	3716
detail	3717
incident	3718
Zimbabwe	3719
Sixth	3720
capita	3721
decides	3722
indicator	3723
Combat	3724
house	3725
births	3726
spending	3727
decent	3728
Biological	3729
perspectives	3730
Only	3731
owned	3732
confidence-building	3733
.4	3734
1989	3735
Even	3736
Sector	3737
inhabitants	3738
briefings	3739
exposure	3740
Access	3741
shelter	3742
stronger	3743
101	3744
Logistics	3745
Latvia	3746
clearance	3747
objects	3748
sufficiently	3749
Mozambique	3750
commodities	3751
emergencies	3752
currency	3753
mainstream	3754
meaning	3755
aggression	3756
drawing	3757
rising	3758
signing	3759
drinking	3760
Inter-Agency	3761
replacement	3762
attempts	3763
delayed	3764
proceed	3765
102	3766
digital	3767
complementary	3768
Luxembourg	3769
Stockholm	3770
things	3771
camp	3772
eradicate	3773
28@@	3774
resolved	3775
Data	3776
Director-General	3777
reinforce	3778
aspect	3779
iv	3780
deemed	3781
parallel	3782
transmission	3783
separation	3784
Alliance	3785
square	3786
counter	3787
cross-cutting	3788
IMF	3789
Monterrey	3790
mother	3791
_	3792
residents	3793
non@@	3794
capability	3795
elaboration	3796
notice	3797
whereas	3798
DP	3799
accompanied	3800
nation	3801
immigration	3802
.2	3803
Ch@@	3804
proceeds	3805
Estonia	3806
systematically	3807
penalties	3808
restricted	3809
tables	3810
Thursday	3811
ally	3812
H	3813
genuine	3814
mediation	3815
restructuring	3816
Con@@	3817
tangible	3818
actually	3819
collect	3820
250	3821
EC	3822
us@@	3823
Conduct	3824
ans	3825
2020	3826
Welcomes	3827
eighth	3828
translation	3829
object	3830
replies	3831
sponsored	3832
questionnaire	3833
clarification	3834
comparison	3835
replaced	3836
cultures	3837
Yugoslav	3838
Inspection	3839
notification	3840
Survey	3841
excluded	3842
si@@	3843
career	3844
Interim	3845
Reports	3846
Session	3847
conducive	3848
prospects	3849
respected	3850
forthcoming	3851
reserves	3852
reply	3853
greatest	3854
prejudice	3855
unions	3856
110	3857
contractors	3858
Q@@	3859
cruel	3860
electricity	3861
Volunteers	3862
Urges	3863
top	3864
thereto	3865
trials	3866
affordable	3867
103	3868
enabled	3869
occupying	3870
111	3871
fish	3872
Saint	3873
Electoral	3874
programs	3875
money-laundering	3876
monitored	3877
character	3878
expulsion	3879
preparedness	3880
acquired	3881
600	3882
danger	3883
Add.2	3884
analyse	3885
Efforts	3886
UNCCD	3887
San	3888
claimant	3889
Asia-Pacific	3890
mitigate	3891
drought	3892
4.@@	3893
Summary	3894
Standards	3895
ah	3896
5,000	3897
Punishment	3898
green	3899
gain	3900
want	3901
Moldova	3902
army	3903
5.@@	3904
credible	3905
Statement	3906
se	3907
convicted	3908
mid-@@	3909
intelligence	3910
Educational	3911
convening	3912
strict	3913
add	3914
Right	3915
closer	3916
Land	3917
emphasize	3918
normal	3919
suspected	3920
sign	3921
104	3922
suffer	3923
1st	3924
Country	3925
facto	3926
finalized	3927
sentenced	3928
arise	3929
heritage	3930
nuclear-weapon	3931
page	3932
subsistence	3933
killing	3934
in-depth	3935
accessibility	3936
consisting	3937
Recommendation	3938
poorest	3939
unlawful	3940
UN@@	3941
twenty-first	3942
Today	3943
ninth	3944
capable	3945
Dominican	3946
deeply	3947
mean	3948
coordinator	3949
surveillance	3950
municipalities	3951
.3	3952
y-@@	3953
comparative	3954
Upon	3955
kept	3956
favourable	3957
gives	3958
undermine	3959
worth	3960
moving	3961
prosecute	3962
contacts	3963
manufacturing	3964
whereby	3965
Indian	3966
é	3967
emphasizes	3968
Wednesday	3969
subjects	3970
.5	3971
Add.@@	3972
involves	3973
disaggregated	3974
-related	3975
idea	3976
Liechtenstein	3977
reimbursement	3978
Island	3979
2nd	3980
consistently	3981
holders	3982
establishes	3983
fulfilment	3984
summit	3985
operative	3986
inside	3987
emission	3988
Equal	3989
um@@	3990
maternity	3991
sub-Saharan	3992
Statistical	3993
Consensus	3994
Namibia	3995
so-called	3996
Directorate	3997
concerted	3998
normative	3999
presentations	4000
presents	4001
certification	4002
transaction	4003
5,@@	4004
Red	4005
Industrial	4006
everyone	4007
root	4008
engaging	4009
highlight	4010
fell	4011
transmitting	4012
breach	4013
shift	4014
Corruption	4015
fostering	4016
enshrined	4017
handling	4018
tackle	4019
excessive	4020
explicitly	4021
mis@@	4022
Non-Proliferation	4023
Basic	4024
fear	4025
1967	4026
expectations	4027
workplace	4028
Articles	4029
Honduras	4030
elderly	4031
Disaster	4032
des	4033
City	4034
exists	4035
predictable	4036
anti-@@	4037
Rule	4038
explanation	4039
missing	4040
obtaining	4041
IS@@	4042
message	4043
guided	4044
sides	4045
credibility	4046
entering	4047
Excellency	4048
duplication	4049
indicating	4050
memorandum	4051
servicing	4052
é@@	4053
Tajikistan	4054
minors	4055
rose	4056
granting	4057
Iceland	4058
sub-item	4059
register	4060
districts	4061
enemy	4062
moral	4063
Paraguay	4064
indirect	4065
suggest	4066
Pension	4067
headed	4068
conviction	4069
Regulation	4070
ecosystem	4071
2000-2001	4072
durable	4073
consumer	4074
U	4075
comprises	4076
bill	4077
greenhouse	4078
inequalities	4079
Resource	4080
hospital	4081
ECA	4082
ya	4083
Ar@@	4084
disclosure	4085
manual	4086
regrets	4087
6,@@	4088
23@@	4089
weak	4090
Against	4091
unemployed	4092
viable	4093
depend	4094
thereon	4095
laid	4096
Three	4097
Tuesday	4098
species	4099
engineering	4100
1373	4101
als	4102
necessity	4103
tions	4104
St@@	4105
calling	4106
substantially	4107
Man@@	4108
107	4109
consolidate	4110
pornography	4111
eastern	4112
gained	4113
Supplement	4114
exchanges	4115
dynamic	4116
potentially	4117
Somali	4118
redress	4119
enhancement	4120
texts	4121
Sub-Commission	4122
threatened	4123
analyses	4124
District	4125
severely	4126
Un@@	4127
updating	4128
formation	4129
ibid	4130
therein	4131
Participation	4132
consists	4133
prevented	4134
Jamahiriya	4135
munitions	4136
stereotypes	4137
2,000	4138
citizen	4139
Legislative	4140
heading	4141
intensify	4142
Related	4143
imports	4144
assumed	4145
proved	4146
workload	4147
firearms	4148
Army	4149
108	4150
troop	4151
auspices	4152
beings	4153
receipt	4154
multi-year	4155
os@@	4156
106	4157
convinced	4158
witness	4159
explain	4160
combatants	4161
possession	4162
Region	4163
ECOWAS	4164
German	4165
insolvency	4166
redeployment	4167
ahead	4168
UNMIS	4169
contingent	4170
regarded	4171
instructions	4172
north	4173
transformation	4174
ensured	4175
upgrading	4176
UNDCP	4177
2014-2015	4178
appointments	4179
Area	4180
8,@@	4181
consequence	4182
Recommendations	4183
drafted	4184
Libya	4185
momentum	4186
112	4187
tribunal	4188
driven	4189
PA@@	4190
command	4191
Consideration	4192
pose	4193
incidence	4194
millions	4195
115	4196
medium	4197
UNAIDS	4198
30@@	4199
Johannesburg	4200
ter	4201
Kyrgyzstan	4202
plant	4203
Consultative	4204
continuity	4205
south	4206
retained	4207
permitted	4208
voting	4209
malnutrition	4210
enacted	4211
S-@@	4212
exceed	4213
tion	4214
features	4215
De@@	4216
Letter	4217
disappearance	4218
Currently	4219
injury	4220
bi@@	4221
promotes	4222
Outer	4223
definitions	4224
ESCWA	4225
abortion	4226
contributes	4227
fissile	4228
ST	4229
deadline	4230
AMISOM	4231
Invites	4232
houses	4233
title	4234
Property	4235
SA@@	4236
propose	4237
Organizations	4238
remove	4239
bear	4240
globally	4241
invites	4242
disciplinary	4243
Sexual	4244
te@@	4245
telephone	4246
occasion	4247
delegates	4248
List	4249
Conflict	4250
cited	4251
appeared	4252
Workshop	4253
inflation	4254
minor	4255
Bill	4256
pillars	4257
seized	4258
VIII	4259
progressive	4260
university	4261
community-based	4262
occupational	4263
6.@@	4264
combination	4265
complexity	4266
Concerning	4267
Communication	4268
suppliers	4269
Bahrain	4270
ex@@	4271
sentences	4272
consistency	4273
permits	4274
Takes	4275
114	4276
｟n37｠	4277
talks	4278
signature	4279
Head	4280
initiate	4281
absolute	4282
Togo	4283
speak	4284
smuggling	4285
ministers	4286
Niger	4287
valid	4288
necessarily	4289
preserve	4290
submits	4291
compilation	4292
113	4293
open-ended	4294
tensions	4295
baseline	4296
impartial	4297
｟n11｠	4298
id@@	4299
manufacture	4300
ships	4301
makers	4302
reiterate	4303
Djibouti	4304
authorization	4305
Kuwaiti	4306
aviation	4307
defining	4308
pledges	4309
formulating	4310
soil	4311
Reaffirming	4312
116	4313
http	4314
convene	4315
te	4316
Prohibition	4317
ed@@	4318
prompt	4319
cost-effective	4320
summits	4321
Ad@@	4322
MINUSTAH	4323
exceptional	4324
partially	4325
｟n12｠	4326
OSCE	4327
closure	4328
｟n27｠	4329
Chinese	4330
reaffirm	4331
offering	4332
intensive	4333
advancing	4334
ageing	4335
se@@	4336
K	4337
｟n16｠	4338
bound	4339
JIU	4340
wages	4341
chaired	4342
healthy	4343
｟n4｠	4344
Aid	4345
bl@@	4346
Promoting	4347
revenues	4348
｟n15｠	4349
Domestic	4350
hard	4351
euros	4352
pledged	4353
totalling	4354
｟n22｠	4355
Canadian	4356
double	4357
tracking	4358
Customs	4359
Syria	4360
abstentions	4361
｟n36｠	4362
109	4363
documented	4364
Outcome	4365
Ma@@	4366
fewer	4367
Al	4368
freely	4369
policymakers	4370
Base	4371
twentieth	4372
vessels	4373
CO	4374
fired	4375
Disabilities	4376
executions	4377
｟n25｠	4378
Mo@@	4379
｟n32｠	4380
pre@@	4381
ous	4382
School	4383
Branch	4384
harmonized	4385
｟n17｠	4386
chain	4387
｟n45｠	4388
｟n47｠	4389
channels	4390
｟n5｠	4391
division	4392
negotiated	4393
130	4394
x@@	4395
｟n20｠	4396
.9	4397
collaborative	4398
allocations	4399
ASEAN	4400
Cuban	4401
he@@	4402
Continue	4403
IA@@	4404
Institutions	4405
maintains	4406
｟n26｠	4407
non-State	4408
｟n28｠	4409
INF	4410
｟n23｠	4411
registry	4412
｟n34｠	4413
RA@@	4414
me@@	4415
7,@@	4416
significance	4417
｟n31｠	4418
Relations	4419
｟n46｠	4420
foundations	4421
offenders	4422
constant	4423
｟n49｠	4424
databases	4425
ings	4426
outline	4427
CAT	4428
Chemical	4429
｟n24｠	4430
lawyer	4431
Reform	4432
｟n19｠	4433
｟n21｠	4434
considerably	4435
｟n41｠	4436
9,@@	4437
｟n33｠	4438
benchmarks	4439
corporations	4440
encountered	4441
impose	4442
｟n9｠	4443
｟n10｠	4444
adult	4445
And	4446
enforce	4447
slow	4448
｟n35｠	4449
ordinary	4450
revealed	4451
Fiji	4452
assurances	4453
approve	4454
realize	4455
producers	4456
prohibit	4457
union	4458
C.4	4459
retain	4460
｟n44｠	4461
｟n39｠	4462
Inter@@	4463
networking	4464
suggests	4465
｟n38｠	4466
genital	4467
｟n7｠	4468
｟n48｠	4469
curricula	4470
｟n42｠	4471
Malawi	4472
anti-personnel	4473
closing	4474
｟n29｠	4475
dates	4476
｟n6｠	4477
circulated	4478
｟n30｠	4479
connected	4480
｟n14｠	4481
da	4482
roads	4483
www.@@	4484
went	4485
admissibility	4486
contracting	4487
tried	4488
utilized	4489
Establishment	4490
｟n43｠	4491
mobilizing	4492
deprivation	4493
killings	4494
ship	4495
｟n18｠	4496
Effective	4497
Congolese	4498
out@@	4499
unpaid	4500
Australian	4501
122	4502
fixed	4503
stipulated	4504
Main	4505
｟n8｠	4506
acquire	4507
800	4508
117	4509
characterized	4510
going	4511
port	4512
formally	4513
｟n40｠	4514
prevailing	4515
sustain	4516
adjusted	4517
immunity	4518
ra	4519
termination	4520
remuneration	4521
highlights	4522
computer	4523
depending	4524
CERD	4525
assume	4526
Diversity	4527
undertook	4528
pattern	4529
tenure	4530
opinions	4531
possibilities	4532
initially	4533
urgently	4534
ECE	4535
low-income	4536
｟n13｠	4537
investigated	4538
awarded	4539
stop	4540
elsewhere	4541
reaffirms	4542
census	4543
ka	4544
meant	4545
118	4546
removed	4547
Common	4548
imperative	4549
rental	4550
Non-@@	4551
classification	4552
practitioners	4553
epidemic	4554
environments	4555
Voluntary	4556
faith	4557
exploration	4558
robust	4559
Programmes	4560
X@@	4561
kilometres	4562
department	4563
merely	4564
welcoming	4565
Air	4566
guiding	4567
Source	4568
administered	4569
Yet	4570
clients	4571
solid	4572
program	4573
RC	4574
detection	4575
advisers	4576
TD	4577
consult	4578
large-scale	4579
｟n2｠	4580
contingent-owned	4581
ment	4582
ators	4583
demographic	4584
frame	4585
seats	4586
Bangkok	4587
stay	4588
ceasefire	4589
instability	4590
Botswana	4591
curriculum	4592
emerged	4593
,0@@	4594
minimize	4595
stood	4596
husband	4597
intends	4598
banking	4599
con@@	4600
24@@	4601
speaker	4602
｟n3｠	4603
feasible	4604
mutilation	4605
pursuing	4606
amend	4607
Sahara	4608
train	4609
Round	4610
conversion	4611
140	4612
decentralization	4613
SMEs	4614
carefully	4615
ren@@	4616
existed	4617
referring	4618
ot@@	4619
resilience	4620
exclusively	4621
Emirates	4622
Overall	4623
exposed	4624
SE@@	4625
religions	4626
merits	4627
investors	4628
=	4629
War	4630
Mauritania	4631
Forests	4632
Order	4633
assurance	4634
safeguard	4635
securing	4636
debates	4637
appreciated	4638
holistic	4639
willingness	4640
brief	4641
seems	4642
119	4643
Manual	4644
calculated	4645
sales	4646
Subsequently	4647
partly	4648
rely	4649
fulfilling	4650
justified	4651
nongovernmental	4652
nuclear-weapon-free	4653
causing	4654
thereof	4655
codes	4656
economically	4657
ism	4658
readiness	4659
ethics	4660
middle-income	4661
Timor	4662
refused	4663
vast	4664
girl	4665
slavery	4666
get	4667
resettlement	4668
telecommunications	4669
contemporary	4670
excluding	4671
ly	4672
Hague	4673
recall	4674
1-@@	4675
injuries	4676
pace	4677
allocate	4678
comparable	4679
town	4680
oriented	4681
Relief	4682
struggle	4683
26@@	4684
easily	4685
realized	4686
submitting	4687
3,000	4688
path	4689
restoration	4690
125	4691
stand	4692
administering	4693
1,0@@	4694
none	4695
patients	4696
regulated	4697
Medical	4698
invite	4699
underscored	4700
mention	4701
workforce	4702
ec@@	4703
Taliban	4704
disparities	4705
voice	4706
Racism	4707
CO@@	4708
Commonwealth	4709
Former	4710
Ab@@	4711
P-2	4712
ur@@	4713
W	4714
Arabic	4715
length	4716
hostilities	4717
servants	4718
promptly	4719
user	4720
25@@	4721
launching	4722
phases	4723
organisations	4724
flight	4725
looked	4726
ultimately	4727
3rd	4728
forestry	4729
rights-based	4730
Greek	4731
Rural	4732
architecture	4733
Center	4734
Desertification	4735
ari@@	4736
Analysis	4737
employer	4738
repeated	4739
Housing	4740
advantages	4741
branch	4742
friendly	4743
CDM	4744
assembly	4745
legitimacy	4746
Production	4747
feedback	4748
generations	4749
Mine	4750
difficulty	4751
rich	4752
ir@@	4753
assignment	4754
inquiry	4755
Madagascar	4756
extending	4757
incorporating	4758
elaborated	4759
1540	4760
121	4761
affects	4762
try	4763
unprecedented	4764
monetary	4765
123	4766
audits	4767
700	4768
jurisdictions	4769
nevertheless	4770
transboundary	4771
supportive	4772
entrusted	4773
damages	4774
died	4775
Illicit	4776
tribunals	4777
Advancement	4778
reinforcing	4779
fill	4780
survival	4781
let	4782
tonnes	4783
bis	4784
occasions	4785
evolving	4786
maximize	4787
Account	4788
wealth	4789
Welcoming	4790
CA@@	4791
External	4792
thought	4793
F.	4794
thorough	4795
Golan	4796
UNFCCC	4797
moved	4798
metres	4799
province	4800
inter-@@	4801
Increase	4802
ten	4803
um	4804
programmatic	4805
recipient	4806
Multilateral	4807
unity	4808
Judicial	4809
delivering	4810
fine	4811
cultivation	4812
news	4813
Victims	4814
09	4815
remarks	4816
adherence	4817
elaborate	4818
perceived	4819
simple	4820
opposed	4821
Su@@	4822
settings	4823
strictly	4824
circled	4825
ha	4826
En@@	4827
adapt	4828
urgency	4829
1998-1999	4830
autonomy	4831
quickly	4832
objection	4833
publicly	4834
Delegations	4835
ies	4836
suspended	4837
thanks	4838
Additionally	4839
attendance	4840
ensures	4841
proposes	4842
est	4843
suggestion	4844
Samoa	4845
Di@@	4846
Studies	4847
nationally	4848
｟n1｠	4849
Judge	4850
Responsible	4851
geographic	4852
WP.@@	4853
references	4854
CEB	4855
Sh@@	4856
depends	4857
portfolio	4858
firmly	4859
NLB	4860
Let	4861
video	4862
Pro@@	4863
Welfare	4864
Russia	4865
description	4866
completely	4867
diversification	4868
atmosphere	4869
militia	4870
intersessional	4871
transmit	4872
contingency	4873
serves	4874
Turkmenistan	4875
li@@	4876
learn	4877
London	4878
pages	4879
attract	4880
Inhuman	4881
kg	4882
Tribunals	4883
allowances	4884
Degrading	4885
medicines	4886
Statements	4887
referendum	4888
interviews	4889
impossible	4890
Brussels	4891
Response	4892
endeavour	4893
think	4894
Bolivarian	4895
NA@@	4896
ties	4897
appoint	4898
182	4899
av@@	4900
operated	4901
feasibility	4902
prosperity	4903
ina	4904
married	4905
ECLAC	4906
0	4907
secretariats	4908
regulate	4909
retention	4910
124	4911
Appeal	4912
condemned	4913
comprise	4914
Maldives	4915
sum	4916
rendered	4917
statute	4918
wording	4919
viewed	4920
Provide	4921
Violations	4922
Case	4923
Barbados	4924
managerial	4925
smaller	4926
trans@@	4927
How	4928
stipulates	4929
class	4930
212	4931
138	4932
tu@@	4933
unacceptable	4934
Envoy	4935
pl@@	4936
challenging	4937
choose	4938
translated	4939
executed	4940
C.@@	4941
IX	4942
statutory	4943
restore	4944
4th	4945
appraisal	4946
assumption	4947
jurisprudence	4948
plants	4949
profile	4950
Program	4951
Umoja	4952
historic	4953
normally	4954
saw	4955
extrajudicial	4956
briefed	4957
ay@@	4958
classified	4959
coordinators	4960
sports	4961
dollar	4962
lived	4963
compromise	4964
debris	4965
Because	4966
destination	4967
five-year	4968
Guyana	4969
vi@@	4970
4,000	4971
inadmissible	4972
ocean	4973
1980	4974
po@@	4975
copies	4976
performing	4977
discharge	4978
non-compliance	4979
expressing	4980
in-@@	4981
Car@@	4982
exercises	4983
ana	4984
grow	4985
indispensable	4986
proactive	4987
locally	4988
qu@@	4989
showing	4990
generating	4991
pupils	4992
Haitian	4993
inspections	4994
frequent	4995
Without	4996
murder	4997
file	4998
solely	4999
infant	5000
resolving	5001
entrepreneurship	5002
ranging	5003
Introduction	5004
distinct	5005
measured	5006
gathering	5007
limitation	5008
retirement	5009
descent	5010
investigative	5011
satisfactory	5012
proceeding	5013
partial	5014
employee	5015
Muslim	5016
aw@@	5017
o-@@	5018
modified	5019
organic	5020
pursuit	5021
Woods	5022
investigating	5023
weekly	5024
alization	5025
hatred	5026
AP@@	5027
disseminated	5028
League	5029
intimidation	5030
summarized	5031
PRST	5032
ta	5033
well-@@	5034
Prosecution	5035
guideline	5036
deficit	5037
argued	5038
marketing	5039
ding	5040
grade	5041
01	5042
divisions	5043
manifestations	5044
Bretton	5045
heavily	5046
piracy	5047
Ocean	5048
survivors	5049
weapon	5050
interference	5051
s-@@	5052
tests	5053
crops	5054
Cruel	5055
excess	5056
client	5057
doubt	5058
quite	5059
perhaps	5060
separately	5061
1.2	5062
GM	5063
Cape	5064
placement	5065
SS	5066
irrespective	5067
prohibits	5068
Major	5069
5th	5070
134	5071
Contributions	5072
patrol	5073
earmarked	5074
exclusive	5075
sponsoring	5076
IMO	5077
Take	5078
commentary	5079
examining	5080
realistic	5081
desire	5082
oceans	5083
proof	5084
IDPs	5085
Cypriot	5086
D-1	5087
interpreted	5088
spite	5089
realities	5090
exceeded	5091
livelihood	5092
Se@@	5093
slightly	5094
ordered	5095
divided	5096
structured	5097
inherent	5098
Bar@@	5099
40@@	5100
clarified	5101
efficiently	5102
sixtieth	5103
portion	5104
loan	5105
ba	5106
wife	5107
Governance	5108
180	5109
returnees	5110
governed	5111
returns	5112
af@@	5113
ratifying	5114
repeatedly	5115
calendar	5116
countering	5117
fulfilled	5118
oc@@	5119
surplus	5120
pro@@	5121
Promote	5122
ST@@	5123
2.1	5124
MA@@	5125
Suppression	5126
ir	5127
Th@@	5128
specialists	5129
truly	5130
126	5131
appropriately	5132
Interior	5133
et@@	5134
CCW	5135
ne@@	5136
send	5137
waters	5138
spare	5139
proven	5140
Contracting	5141
commerce	5142
measurement	5143
obliged	5144
ep@@	5145
Trial	5146
ma@@	5147
128	5148
2.2	5149
attributed	5150
parameters	5151
wall	5152
massive	5153
arbitral	5154
Serious	5155
evaluating	5156
seem	5157
confidential	5158
creditors	5159
releases	5160
7.@@	5161
becomes	5162
multi-@@	5163
traditions	5164
decree	5165
excellent	5166
equipped	5167
Operational	5168
Standard	5169
infections	5170
Proposed	5171
6,000	5172
clause	5173
Bhutan	5174
Capital	5175
Narcotic	5176
correct	5177
man@@	5178
Culture	5179
SecretaryGeneral	5180
evident	5181
ence	5182
exceeding	5183
hopes	5184
willing	5185
HR	5186
gradually	5187
la@@	5188
street	5189
falling	5190
females	5191
qualifications	5192
ov@@	5193
Co@@	5194
Swiss	5195
Urban	5196
3-@@	5197
Mu@@	5198
ter@@	5199
Istanbul	5200
creditor	5201
contractor	5202
Steering	5203
Vice-President	5204
shares	5205
6th	5206
fragile	5207
refrain	5208
Workers	5209
tive	5210
ters	5211
advise	5212
misconduct	5213
valued	5214
ical	5215
50@@	5216
Final	5217
Adoption	5218
EC@@	5219
paying	5220
Par@@	5221
plays	5222
enormous	5223
prohibiting	5224
analysed	5225
parental	5226
Develop	5227
hear	5228
confirm	5229
entirely	5230
UNCDF	5231
concentrated	5232
skilled	5233
Y	5234
commenced	5235
taxes	5236
aspirations	5237
seas	5238
landmines	5239
prosecuted	5240
explicit	5241
certificates	5242
three-year	5243
twice	5244
penal	5245
valuation	5246
USD	5247
incorporation	5248
t-@@	5249
workplan	5250
ator	5251
CMP	5252
contrast	5253
index	5254
organ	5255
ors	5256
arrived	5257
upcoming	5258
preservation	5259
ov	5260
preceding	5261
135	5262
hi@@	5263
extraordinary	5264
Sub.2	5265
minutes	5266
Freedom	5267
empower	5268
weight	5269
169	5270
stabilization	5271
patrols	5272
buyer	5273
Al-Qaida	5274
sphere	5275
counterparts	5276
exceptions	5277
pensions	5278
100,000	5279
C.6	5280
powerful	5281
od@@	5282
mon@@	5283
collecting	5284
1986	5285
quantity	5286
cargo	5287
ary	5288
optional	5289
Sudanese	5290
incitement	5291
screening	5292
sexually	5293
ment@@	5294
prove	5295
duly	5296
originally	5297
recalling	5298
frequency	5299
vacancies	5300
Non-Self-Governing	5301
beneficial	5302
129	5303
putting	5304
133	5305
suspension	5306
indirectly	5307
ality	5308
possibly	5309
stands	5310
Arbitration	5311
ay	5312
Agricultural	5313
leads	5314
Hong	5315
ITC	5316
prescribed	5317
ist	5318
preambular	5319
Qu@@	5320
reading	5321
advocate	5322
Dis@@	5323
standardized	5324
constitution	5325
ev@@	5326
Certain	5327
160	5328
evaluated	5329
anti-corruption	5330
aligned	5331
Before	5332
km	5333
132	5334
acceded	5335
AC.109	5336
observance	5337
justify	5338
Administrator	5339
surrounding	5340
bases	5341
leader	5342
satisfied	5343
Mrs.	5344
certificate	5345
disappearances	5346
returning	5347
Rotterdam	5348
analysing	5349
repair	5350
1.1	5351
A.@@	5352
Madrid	5353
127	5354
intensified	5355
pool	5356
08	5357
accidents	5358
Kong	5359
listing	5360
Question	5361
unencumbered	5362
Accounting	5363
justification	5364
900	5365
Care	5366
guaranteeing	5367
Recent	5368
hosting	5369
Reaffirms	5370
radiation	5371
outset	5372
threshold	5373
uncertainty	5374
denial	5375
fertility	5376
per@@	5377
era	5378
tend	5379
Liberian	5380
accorded	5381
towns	5382
MO@@	5383
non-post	5384
withdrawn	5385
lay	5386
chosen	5387
hearings	5388
shelters	5389
corporal	5390
Study	5391
instruction	5392
ma	5393
Copenhagen	5394
under@@	5395
UNDAF	5396
accommodate	5397
contexts	5398
comprised	5399
ph@@	5400
Amendment	5401
sole	5402
Rwandan	5403
linking	5404
projections	5405
Maritime	5406
policymaking	5407
Lesotho	5408
messages	5409
Monaco	5410
feature	5411
nothing	5412
processed	5413
thanked	5414
surface	5415
00@@	5416
aforementioned	5417
stating	5418
3.1	5419
Systems	5420
separated	5421
instalment	5422
responsive	5423
broadly	5424
153	5425
Conferences	5426
GA	5427
modules	5428
Monetary	5429
essentially	5430
indication	5431
gathered	5432
Ali	5433
Unfortunately	5434
Bi@@	5435
IN	5436
Prevent	5437
assure	5438
Mogadishu	5439
plus	5440
apparent	5441
ing@@	5442
attainment	5443
peacekeepers	5444
Cross	5445
measuring	5446
reinforced	5447
copy	5448
Personal	5449
UNAMA	5450
awards	5451
re	5452
airport	5453
7th	5454
Once	5455
disseminating	5456
pa@@	5457
evolution	5458
candidate	5459
Coordinating	5460
hectares	5461
.6	5462
developmental	5463
punishable	5464
microfinance	5465
05	5466
claimants	5467
unified	5468
CRIC	5469
Ordinance	5470
Reporting	5471
Washington	5472
racist	5473
Ex@@	5474
peer	5475
ethical	5476
CST	5477
141	5478
attending	5479
illiteracy	5480
G.	5481
Target	5482
tuberculosis	5483
H.E.	5484
asylum-seekers	5485
ge@@	5486
SC	5487
acute	5488
designing	5489
su@@	5490
ID@@	5491
precise	5492
relocation	5493
Le@@	5494
Parliamentary	5495
witnessed	5496
small-scale	5497
highlighting	5498
impartiality	5499
presenting	5500
updates	5501
IT@@	5502
8,000	5503
Add.3	5504
father	5505
affirmed	5506
weaknesses	5507
payable	5508
liquidation	5509
UNITAR	5510
unanimously	5511
desirable	5512
IT	5513
chronic	5514
ard	5515
1985	5516
motivated	5517
uniform	5518
Q	5519
speech	5520
notion	5521
enquiry	5522
ity	5523
Recognizes	5524
acknowledge	5525
perpetrated	5526
punish	5527
ons	5528
CE@@	5529
eg@@	5530
invest	5531
picture	5532
discipline	5533
Specific	5534
Matters	5535
truth	5536
resort	5537
obstacle	5538
red	5539
lo@@	5540
hundreds	5541
utilize	5542
res@@	5543
casualties	5544
spouses	5545
supplement	5546
alleviation	5547
rations	5548
damaged	5549
shortcomings	5550
Baghdad	5551
eleventh	5552
accelerated	5553
AN@@	5554
131	5555
10,000	5556
1.5	5557
withdraw	5558
Mediterranean	5559
looking	5560
regulating	5561
AR@@	5562
cooperating	5563
House	5564
2016	5565
diamonds	5566
attempted	5567
enjoyed	5568
Private	5569
negotiate	5570
par@@	5571
to@@	5572
ultimate	5573
139	5574
alized	5575
assault	5576
dropped	5577
1987	5578
adversely	5579
deleted	5580
adolescent	5581
1325	5582
explosives	5583
institutes	5584
MI@@	5585
2-@@	5586
RES	5587
phrase	5588
du@@	5589
Gabon	5590
inventories	5591
branches	5592
pressing	5593
appropriations	5594
officially	5595
parliamentarians	5596
IP@@	5597
Regular	5598
Library	5599
lowest	5600
debtor	5601
socially	5602
councils	5603
consumers	5604
decentralized	5605
infection	5606
Records	5607
Improved	5608
South-East	5609
XI	5610
appealed	5611
irregular	5612
Lao	5613
ance	5614
entrepreneurs	5615
CONF.@@	5616
Resident	5617
2.5	5618
Views	5619
harmonize	5620
continuously	5621
UNFICYP	5622
cross-@@	5623
systemic	5624
validity	5625
Four	5626
ambitious	5627
ology	5628
immigrants	5629
verify	5630
Iranian	5631
consulted	5632
4-@@	5633
comes	5634
easy	5635
ge	5636
radioactive	5637
ICRC	5638
gender-sensitive	5639
annexes	5640
ten@@	5641
5-@@	5642
Ethics	5643
Opportunities	5644
Not	5645
Genocide	5646
clarity	5647
discussing	5648
violate	5649
marriages	5650
AI	5651
receivable	5652
adapted	5653
grown	5654
respondents	5655
Strengthen	5656
presidency	5657
33@@	5658
Nuclear-Test-Ban	5659
assumptions	5660
0,000	5661
scenario	5662
abolition	5663
lies	5664
Integration	5665
limiting	5666
145	5667
avoiding	5668
participant	5669
ve	5670
Combating	5671
hands	5672
ci@@	5673
spheres	5674
concentration	5675
Sa@@	5676
cancer	5677
on-@@	5678
alignment	5679
Capacity	5680
urbanization	5681
az@@	5682
weather	5683
143	5684
Addis	5685
methodological	5686
IMIS	5687
concludes	5688
kinds	5689
volunteers	5690
TO	5691
｟a23｠	5692
142	5693
Ivorian	5694
guilty	5695
nationwide	5696
ruling	5697
residential	5698
bo@@	5699
ise	5700
eventually	5701
reparation	5702
parent	5703
refusal	5704
pertinent	5705
exercised	5706
socioeconomic	5707
parliament	5708
ks	5709
owners	5710
Ababa	5711
scientists	5712
Mandate	5713
｟a20｠	5714
MINURSO	5715
2.3	5716
Committed	5717
Radio	5718
amending	5719
placing	5720
1973	5721
Province	5722
relatives	5723
.org	5724
MONUSCO	5725
ized	5726
.7	5727
remittances	5728
Bo@@	5729
foreigners	5730
gu@@	5731
infected	5732
FA@@	5733
books	5734
pillar	5735
platforms	5736
｟a48｠	5737
recording	5738
classes	5739
Registry	5740
sport	5741
attain	5742
｟a13｠	5743
｟a34｠	5744
finally	5745
Trinidad	5746
privacy	5747
au@@	5748
declining	5749
mark	5750
signs	5751
universality	5752
Atomic	5753
testimony	5754
｟a24｠	5755
9th	5756
Com@@	5757
｟a40｠	5758
Aviation	5759
｟a37｠	5760
155	5761
contingents	5762
vary	5763
genetic	5764
trying	5765
Body	5766
high-@@	5767
acted	5768
please	5769
｟a44｠	5770
7,000	5771
SC@@	5772
｟a41｠	5773
ling	5774
told	5775
communicate	5776
gh@@	5777
innocent	5778
Every	5779
iz@@	5780
boards	5781
｟a22｠	5782
136	5783
｟a11｠	5784
crossing	5785
decolonization	5786
revisions	5787
clinics	5788
licensing	5789
GHG	5790
qualitative	5791
Mon@@	5792
1978	5793
islands	5794
｟a6｠	5795
｟a39｠	5796
｟a43｠	5797
Cabinet	5798
argument	5799
ill	5800
137	5801
mapping	5802
｟a19｠	5803
｟a3｠	5804
whenever	5805
｟a14｠	5806
｟a38｠	5807
acknowledges	5808
air@@	5809
non-discriminatory	5810
8th	5811
defines	5812
exercising	5813
childhood	5814
certainly	5815
inception	5816
｟a28｠	5817
｟a7｠	5818
｟a9｠	5819
imposition	5820
thereafter	5821
Mal@@	5822
｟a36｠	5823
｟a29｠	5824
Meetings	5825
orbit	5826
10,@@	5827
｟a35｠	5828
Tobago	5829
162	5830
Guiding	5831
Immigration	5832
corrections	5833
ai	5834
｟a33｠	5835
147	5836
Secondly	5837
｟a42｠	5838
marginalization	5839
wondered	5840
｟a46｠	5841
｟n0｠	5842
rapporteurs	5843
Practice	5844
｟a4｠	5845
benefiting	5846
｟a10｠	5847
｟a45｠	5848
satellites	5849
advised	5850
freeze	5851
methyl	5852
｟a5｠	5853
MDG	5854
farming	5855
｟a17｠	5856
protective	5857
Investigation	5858
e-mail	5859
Dr.	5860
deals	5861
ani	5862
｟a15｠	5863
｟a30｠	5864
｟a32｠	5865
Reconciliation	5866
entail	5867
｟a47｠	5868
｟a49｠	5869
｟a8｠	5870
mixed	5871
owed	5872
｟a21｠	5873
Abyei	5874
litres	5875
breakdown	5876
CARICOM	5877
Key	5878
｟a31｠	5879
observe	5880
Enhanced	5881
inconsistent	5882
Bonn	5883
Meanwhile	5884
der	5885
｟a2｠	5886
emphasizing	5887
reverse	5888
Improving	5889
confiscation	5890
fifty-eighth	5891
1982	5892
collectively	5893
deterioration	5894
ask	5895
fifty-ninth	5896
fail	5897
｟a25｠	5898
expressly	5899
tested	5900
borne	5901
Stresses	5902
36@@	5903
ton	5904
144	5905
｟a18｠	5906
｟a27｠	5907
Kivu	5908
Gu@@	5909
adding	5910
notwithstanding	5911
ati@@	5912
strike	5913
ments	5914
242	5915
06	5916
deficiencies	5917
explored	5918
｟a12｠	5919
22@@	5920
Marine	5921
car@@	5922
low-@@	5923
Ag@@	5924
｟a26｠	5925
Policies	5926
complemented	5927
totalled	5928
Chemicals	5929
Destruction	5930
hazards	5931
multi@@	5932
ob@@	5933
operators	5934
Coalition	5935
arguments	5936
bridge	5937
expedite	5938
ses	5939
missiles	5940
phased	5941
utmost	5942
bu@@	5943
trainers	5944
revise	5945
consolidating	5946
J	5947
1,4@@	5948
cut	5949
cooperatives	5950
liable	5951
accreditation	5952
｟a16｠	5953
variance	5954
Agreements	5955
for@@	5956
q@@	5957
earnings	5958
monitors	5959
sixty-first	5960
146	5961
Bu@@	5962
Inter-American	5963
demonstration	5964
indicative	5965
lacking	5966
restrictive	5967
pe@@	5968
id	5969
seemed	5970
politics	5971
quota	5972
threaten	5973
posted	5974
Presidential	5975
208	5976
248	5977
installation	5978
ass@@	5979
appreciate	5980
UNU	5981
8.@@	5982
choices	5983
licence	5984
crop	5985
francs	5986
IR@@	5987
LA@@	5988
consequently	5989
helps	5990
promulgated	5991
enables	5992
151	5993
Partnerships	5994
punished	5995
quantitative	5996
izing	5997
Non-Aligned	5998
ports	5999
assured	6000
incompatible	6001
Aspects	6002
SADC	6003
Providing	6004
í@@	6005
commencement	6006
country-specific	6007
entitlements	6008
pandemic	6009
quarterly	6010
no@@	6011
respecting	6012
multi-stakeholder	6013
traditionally	6014
6-@@	6015
capture	6016
trafficked	6017
EN@@	6018
Abu	6019
Commercial	6020
tor	6021
departure	6022
properties	6023
Cairo	6024
Risk	6025
agendas	6026
applicant	6027
1981	6028
nominated	6029
dependence	6030
Acts	6031
linguistic	6032
segments	6033
student	6034
eligibility	6035
Oman	6036
conceptual	6037
Accounts	6038
persistence	6039
apportionment	6040
ying	6041
accessing	6042
UNV	6043
resume	6044
zero	6045
PR@@	6046
end@@	6047
Transfer	6048
arrears	6049
dismissed	6050
｟a1｠	6051
FARDC	6052
exemptions	6053
3.2	6054
front	6055
incumbent	6056
king	6057
Gambia	6058
ud@@	6059
diversion	6060
hardship	6061
SA	6062
arrival	6063
visibility	6064
settlers	6065
com@@	6066
timetable	6067
So	6068
rotation	6069
Free	6070
non	6071
night	6072
Bali	6073
typically	6074
western	6075
201	6076
childcare	6077
grew	6078
ordnance	6079
annexed	6080
confidentiality	6081
fl@@	6082
Aboriginal	6083
Verde	6084
ow@@	6085
politically	6086
Democracy	6087
careful	6088
visible	6089
ically	6090
Personnel	6091
Lu@@	6092
heart	6093
medicine	6094
34@@	6095
tension	6096
ent@@	6097
DE@@	6098
feel	6099
il	6100
M.	6101
prolonged	6102
moment	6103
hence	6104
P.@@	6105
contents	6106
Prison	6107
medium-sized	6108
multilateralism	6109
commented	6110
cancellation	6111
Centres	6112
ak	6113
arrests	6114
Insurance	6115
specify	6116
beliefs	6117
varied	6118
attacked	6119
Am@@	6120
module	6121
popular	6122
supplied	6123
th	6124
Refugee	6125
incomes	6126
Ensuring	6127
demining	6128
divorce	6129
flag	6130
helicopters	6131
ER@@	6132
Register	6133
certified	6134
align	6135
ecological	6136
interdependence	6137
roster	6138
ru@@	6139
earthquake	6140
policing	6141
1.3	6142
Minimum	6143
cease	6144
vendors	6145
brings	6146
morning	6147
Papua	6148
looks	6149
parity	6150
up@@	6151
endeavours	6152
ale	6153
alizing	6154
seller	6155
Five	6156
parliaments	6157
emergence	6158
ics	6159
worst	6160
ex	6161
prosecutor	6162
Americas	6163
ds	6164
handed	6165
recipients	6166
152	6167
9-@@	6168
chief	6169
describes	6170
fit	6171
receives	6172
tra@@	6173
spouse	6174
ative	6175
isolation	6176
166	6177
Har@@	6178
enactment	6179
Current	6180
invested	6181
recourse	6182
consist	6183
exploring	6184
156	6185
playing	6186
154	6187
ethnicity	6188
UNMISS	6189
answer	6190
ja	6191
autonomous	6192
decisive	6193
9.@@	6194
Royal	6195
deploy	6196
shipping	6197
objections	6198
unnecessary	6199
Eradication	6200
rec@@	6201
speed	6202
Approach	6203
inalienable	6204
Academy	6205
aliens	6206
accede	6207
argues	6208
himself	6209
thirds	6210
stimulate	6211
213	6212
mobilized	6213
quantities	6214
non-nuclear-weapon	6215
er-@@	6216
intent	6217
CC@@	6218
establishments	6219
forensic	6220
unknown	6221
L.1	6222
aiming	6223
public-private	6224
twenty-third	6225
60@@	6226
miscellaneous	6227
Industry	6228
ong	6229
Figure	6230
chains	6231
PO@@	6232
describe	6233
profits	6234
worker	6235
Role	6236
individually	6237
undermined	6238
Italian	6239
demonstrations	6240
intercultural	6241
hour	6242
strive	6243
Zone	6244
Compliance	6245
admission	6246
finalize	6247
identifies	6248
missile	6249
meets	6250
upgrade	6251
lending	6252
panels	6253
proceeded	6254
harmony	6255
all@@	6256
11,@@	6257
admitted	6258
eradicating	6259
NATO	6260
running	6261
installations	6262
false	6263
Bahamas	6264
UNDOF	6265
170	6266
streamlining	6267
CO2	6268
invoked	6269
doctors	6270
Income	6271
war@@	6272
males	6273
operates	6274
vulnerabilities	6275
37@@	6276
Anti-@@	6277
filled	6278
Disability	6279
risen	6280
subprogrammes	6281
270	6282
ization	6283
goes	6284
ian	6285
College	6286
gratitude	6287
Corporation	6288
TA@@	6289
UNMIT	6290
IF@@	6291
uphold	6292
aside	6293
prosecutions	6294
long-standing	6295
Situation	6296
aggregate	6297
so@@	6298
148	6299
Danish	6300
contributors	6301
high-quality	6302
ize	6303
tackling	6304
desired	6305
Minorities	6306
ala	6307
158	6308
faces	6309
UNMEE	6310
Kar@@	6311
UNDG	6312
Sub@@	6313
consultant	6314
149	6315
flights	6316
Mohamed	6317
civilizations	6318
ke	6319
CTBT	6320
UNAMI	6321
applicants	6322
Future	6323
Competition	6324
deferred	6325
est@@	6326
shocks	6327
Supply	6328
El@@	6329
laboratory	6330
ach@@	6331
marital	6332
157	6333
wrongful	6334
165	6335
Atlantic	6336
regret	6337
02	6338
As@@	6339
fifty-seventh	6340
researchers	6341
Performance	6342
enrolled	6343
peace-building	6344
computers	6345
tri@@	6346
211	6347
4.1	6348
collaborate	6349
files	6350
founded	6351
Company	6352
suspects	6353
after-service	6354
twelfth	6355
UNAMSIL	6356
Registrar	6357
sure	6358
gradual	6359
251	6360
specialist	6361
ch	6362
XV	6363
Swedish	6364
Impact	6365
Japanese	6366
independently	6367
seekers	6368
Groups	6369
interregional	6370
Establish	6371
ICC	6372
Election	6373
Hence	6374
confident	6375
wherever	6376
Approximately	6377
AL@@	6378
creative	6379
teacher	6380
Liaison	6381
Objective	6382
preferred	6383
restrict	6384
resumption	6385
routes	6386
competencies	6387
exemption	6388
toxic	6389
ES	6390
longer-term	6391
discretion	6392
translate	6393
examinations	6394
exclude	6395
8-@@	6396
connectivity	6397
0-@@	6398
Scheme	6399
divide	6400
River	6401
Seminar	6402
issuing	6403
Challenges	6404
Sha@@	6405
overarching	6406
ist@@	6407
warrant	6408
directors	6409
negatively	6410
7-@@	6411
appropriated	6412
expect	6413
Puerto	6414
neighbours	6415
ozone-depleting	6416
prominent	6417
civic	6418
schooling	6419
thirteenth	6420
161	6421
38@@	6422
210	6423
Korean	6424
awaiting	6425
prioritize	6426
IOM	6427
deforestation	6428
broadcast	6429
fifty-sixth	6430
07	6431
distance	6432
Belize	6433
colleagues	6434
alien	6435
mere	6436
preference	6437
Nonetheless	6438
simultaneously	6439
audited	6440
streamline	6441
Recovery	6442
About	6443
realizing	6444
whatever	6445
AC.105	6446
questioned	6447
10-year	6448
Brazilian	6449
committing	6450
deportation	6451
PV.@@	6452
completing	6453
secret	6454
country-level	6455
Advice	6456
Should	6457
WG@@	6458
breaches	6459
declare	6460
stressing	6461
Plenary	6462
defend	6463
micro@@	6464
stakeholder	6465
IM@@	6466
alleviate	6467
abolished	6468
steady	6469
Lakes	6470
judgements	6471
IFAD	6472
devastating	6473
Revised	6474
vis-à-vis	6475
Powers	6476
commence	6477
Life	6478
ang@@	6479
ig@@	6480
magnitude	6481
synergy	6482
holds	6483
Ba@@	6484
slum	6485
Maintenance	6486
Good	6487
Tokelau	6488
outlines	6489
sensing	6490
bromide	6491
reflection	6492
Practices	6493
Crimes	6494
navigation	6495
break	6496
draws	6497
les	6498
Compact	6499
industrialized	6500
mo@@	6501
Intolerance	6502
compatible	6503
neutral	6504
tr@@	6505
1980s	6506
39@@	6507
Ageing	6508
fifty-fifth	6509
reliance	6510
congratulate	6511
ists	6512
referral	6513
shortage	6514
Consider	6515
St.	6516
1,5@@	6517
accelerating	6518
ously	6519
positively	6520
ges	6521
modest	6522
poses	6523
CP	6524
Swaziland	6525
probably	6526
Capacity-building	6527
Young	6528
C-@@	6529
Construction	6530
investing	6531
Media	6532
Road	6533
Beirut	6534
03	6535
14,@@	6536
atory	6537
CCPR	6538
chapters	6539
commend	6540
attitude	6541
render	6542
overseas	6543
AC.@@	6544
occurring	6545
constantly	6546
ound@@	6547
motion	6548
packages	6549
smooth	6550
commonly	6551
der@@	6552
cl@@	6553
shells	6554
12.@@	6555
CR@@	6556
profound	6557
settled	6558
ves	6559
Web	6560
000	6561
book	6562
2050	6563
Reference	6564
Notwithstanding	6565
afford	6566
ering	6567
inability	6568
contaminated	6569
Various	6570
Vice-Chairman	6571
colonial	6572
restitution	6573
Percentage	6574
Tax	6575
CC	6576
timing	6577
anyone	6578
Considering	6579
violating	6580
35@@	6581
Natural	6582
Islam	6583
Tourism	6584
Together	6585
furniture	6586
prerequisite	6587
proposing	6588
Dispute	6589
investigators	6590
164	6591
underlines	6592
anti@@	6593
auditors	6594
SO@@	6595
communicated	6596
mu@@	6597
council	6598
voted	6599
associate	6600
huge	6601
220	6602
Cor@@	6603
scenarios	6604
OAU	6605
cell	6606
deliberate	6607
overcoming	6608
succession	6609
Empowerment	6610
ON	6611
sixty-second	6612
3.3	6613
AU	6614
Commander	6615
sed	6616
Sam@@	6617
159	6618
CIS	6619
Z	6620
clusters	6621
pretrial	6622
Im@@	6623
gases	6624
ko	6625
challenged	6626
NE@@	6627
Others	6628
ba@@	6629
east	6630
lacked	6631
gold	6632
12,@@	6633
helpful	6634
Per@@	6635
167	6636
1970	6637
Substantive	6638
part-time	6639
accuracy	6640
boundaries	6641
steadily	6642
reminded	6643
wood	6644
virtually	6645
cohesion	6646
deposits	6647
ICEF	6648
Rehabilitation	6649
obvious	6650
start-up	6651
16,@@	6652
4.2	6653
Enhancing	6654
nets	6655
sp@@	6656
exhausted	6657
Civilian	6658
reconnaissance	6659
Me@@	6660
coordinates	6661
Malaria	6662
commends	6663
credits	6664
vacant	6665
Electronic	6666
expectancy	6667
restriction	6668
interpretative	6669
XII	6670
exacerbated	6671
Bearing	6672
affirmative	6673
voluntarily	6674
Inter-@@	6675
dual	6676
48@@	6677
un	6678
cessation	6679
evacuation	6680
Owing	6681
drivers	6682
dangers	6683
tailored	6684
UNLB	6685
Blue	6686
agent	6687
full-time	6688
modernization	6689
stockpiles	6690
Stabilization	6691
2.4	6692
LE@@	6693
acknowledging	6694
distinguished	6695
Likewise	6696
accrued	6697
freight	6698
Green	6699
Andorra	6700
Adopted	6701
Prior	6702
installed	6703
persecution	6704
postponed	6705
vendor	6706
13,@@	6707
solve	6708
perception	6709
w	6710
treat	6711
creates	6712
Procedures	6713
remnants	6714
Conventional	6715
sample	6716
ur	6717
falls	6718
FOR	6719
nineteenth	6720
notified	6721
fifteenth	6722
measurable	6723
Expresses	6724
Decolonization	6725
Compensation	6726
Organizational	6727
eliminated	6728
dec@@	6729
two-year	6730
IPCC	6731
livestock	6732
1984	6733
hazard	6734
CISG	6735
residing	6736
Enforced	6737
privileges	6738
usage	6739
empowering	6740
227	6741
accredited	6742
175	6743
floods	6744
ite	6745
fuels	6746
ICCD	6747
pass	6748
preserving	6749
verified	6750
Be@@	6751
cope	6752
diligence	6753
Gibraltar	6754
fallen	6755
Gulf	6756
IC	6757
marking	6758
1.4	6759
multisectoral	6760
vol	6761
226	6762
Cities	6763
periodically	6764
FMCT	6765
varying	6766
signatories	6767
neglect	6768
revitalization	6769
Investigations	6770
opium	6771
ang	6772
stateless	6773
consulting	6774
q	6775
H.	6776
sensitization	6777
militias	6778
die	6779
recosting	6780
Treaties	6781
192	6782
ME@@	6783
Marino	6784
Provisions	6785
isolated	6786
suicide	6787
ation@@	6788
70@@	6789
Press	6790
Chambers	6791
possess	6792
seizures	6793
antiretroviral	6794
facilitates	6795
addendum	6796
expense	6797
Assistants	6798
Courts	6799
Decisions	6800
hygiene	6801
visiting	6802
Unity	6803
compiled	6804
dialogues	6805
189	6806
linkage	6807
gather	6808
ret@@	6809
min@@	6810
Detention	6811
Governmental	6812
Dec@@	6813
cumulative	6814
200@@	6815
activists	6816
thinking	6817
dynamics	6818
ver@@	6819
Funds	6820
1949	6821
243	6822
finalization	6823
TS	6824
degrees	6825
constructed	6826
inspectors	6827
ens	6828
Almaty	6829
IDF	6830
illness	6831
214	6832
regretted	6833
sold	6834
Due	6835
ars	6836
farm	6837
removing	6838
Forest	6839
detect	6840
illegally	6841
directives	6842
ised	6843
｟a0｠	6844
Judges	6845
demonstrates	6846
50,000	6847
172	6848
recurrent	6849
11@@	6850
Goods	6851
cycles	6852
websites	6853
CH@@	6854
aftermath	6855
oversee	6856
Presidents	6857
Recalls	6858
recovered	6859
Ra@@	6860
feeding	6861
licences	6862
usefulness	6863
criterion	6864
15,@@	6865
Projects	6866
diplomacy	6867
Suriname	6868
235	6869
drive	6870
hampered	6871
sixty-third	6872
shortly	6873
utility	6874
driving	6875
humankind	6876
pressures	6877
Moscow	6878
receivables	6879
depth	6880
and@@	6881
ane	6882
uranium	6883
tribal	6884
Light	6885
empowered	6886
20,000	6887
accident	6888
impetus	6889
elect	6890
actuarial	6891
1,500	6892
immunization	6893
im	6894
unlikely	6895
Border	6896
ry	6897
57@@	6898
narrow	6899
Early	6900
beneficiary	6901
solar	6902
to-@@	6903
save	6904
For@@	6905
non-expendable	6906
profit	6907
segregation	6908
voters	6909
convictions	6910
ourselves	6911
contracted	6912
183	6913
broaden	6914
channel	6915
authorize	6916
library	6917
04	6918
orphans	6919
Background	6920
sixty-fifth	6921
Conservation	6922
tariff	6923
visitors	6924
resistance	6925
ged	6926
information-sharing	6927
tor@@	6928
mm	6929
sixteenth	6930
accomplished	6931
ib@@	6932
ins	6933
rebel	6934
den@@	6935
expects	6936
foreseen	6937
disclosed	6938
preferential	6939
easier	6940
interface	6941
vi	6942
181	6943
complementarity	6944
Solomon	6945
adhere	6946
wishing	6947
printing	6948
Higher	6949
academia	6950
fairly	6951
fee	6952
profiles	6953
seventeenth	6954
163	6955
168	6956
206	6957
nominations	6958
1951	6959
References	6960
tors	6961
won	6962
cannabis	6963
Eritrean	6964
filing	6965
renew	6966
ICSC	6967
Albanian	6968
ex-combatants	6969
Add.4	6970
Sir	6971
ches	6972
49@@	6973
1,7@@	6974
residual	6975
controlling	6976
233	6977
Commitment	6978
Comoros	6979
implies	6980
5.1	6981
millennium	6982
introductory	6983
174	6984
Vanuatu	6985
tic	6986
unsustainable	6987
accomplishment	6988
innovations	6989
generic	6990
Mor@@	6991
avoided	6992
supplementing	6993
taxation	6994
ess@@	6995
clauses	6996
imported	6997
47@@	6998
privatization	6999
Muslims	7000
colour	7001
PA	7002
impede	7003
Enforcement	7004
17,@@	7005
advocated	7006
ah@@	7007
occurs	7008
scourge	7009
wanted	7010
procuring	7011
J.	7012
abduction	7013
coercive	7014
designation	7015
maps	7016
men@@	7017
print	7018
volatility	7019
Pe@@	7020
hit	7021
Independence	7022
Kabul	7023
inheritance	7024
reserved	7025
substitute	7026
recycling	7027
formula	7028
wounded	7029
1,6@@	7030
177	7031
Go@@	7032
consisted	7033
sur@@	7034
Contracts	7035
aries	7036
ozone	7037
rounds	7038
GA@@	7039
fiftieth	7040
Christian	7041
Mines	7042
Twenty-@@	7043
blockade	7044
image	7045
mitigating	7046
UPR	7047
ness	7048
quotas	7049
90@@	7050
ends	7051
tortured	7052
corrected	7053
verbale	7054
Ro@@	7055
171	7056
202	7057
endorsement	7058
Plurinational	7059
experiencing	7060
Citizens	7061
Towards	7062
disproportionate	7063
Examples	7064
incentive	7065
46@@	7066
commensurate	7067
temporarily	7068
ACC	7069
route	7070
190	7071
planet	7072
tobacco	7073
AP	7074
Communities	7075
volatile	7076
automatically	7077
10.@@	7078
acquiring	7079
reliability	7080
feed	7081
recover	7082
tribute	7083
differentiated	7084
sions	7085
utilizing	7086
Transparency	7087
Counsel	7088
LDC	7089
em	7090
informing	7091
requisite	7092
safeguarding	7093
year-old	7094
185	7095
grateful	7096
Verification	7097
fate	7098
CN@@	7099
assignments	7100
entitlement	7101
notable	7102
Norwegian	7103
Xenophobia	7104
interviewed	7105
Ps	7106
escalation	7107
186	7108
Ministries	7109
instrumental	7110
provider	7111
alize	7112
na	7113
abducted	7114
drop	7115
extremism	7116
DA@@	7117
han@@	7118
Line	7119
notifications	7120
succeed	7121
230	7122
Khartoum	7123
Adaptation	7124
confirmation	7125
satisfy	7126
ari	7127
portal	7128
laboratories	7129
police-contributing	7130
chairmanship	7131
optimal	7132
260	7133
percent	7134
IA	7135
Is	7136
Organic	7137
dr@@	7138
voter	7139
broadcasting	7140
inmates	7141
Kimberley	7142
Tokyo	7143
Ber@@	7144
Atlas	7145
threatening	7146
sing	7147
unequal	7148
237	7149
sending	7150
173	7151
59@@	7152
multidimensional	7153
succeeded	7154
205	7155
Intelligence	7156
calculation	7157
interrelated	7158
middle	7159
178	7160
visa	7161
imposing	7162
IS	7163
enacting	7164
undermining	7165
1979	7166
Gra@@	7167
mar@@	7168
POPS	7169
up-to-date	7170
Enterprise	7171
Fundamental	7172
redeployed	7173
Inspectors	7174
218	7175
respects	7176
fifty-third	7177
halt	7178
carrier	7179
infrastructures	7180
coupled	7181
handled	7182
I.@@	7183
logical	7184
Growth	7185
supplemented	7186
UK	7187
cost-sharing	7188
renewal	7189
1,8@@	7190
backlog	7191
circulation	7192
Globalization	7193
und@@	7194
toward	7195
CT@@	7196
administrations	7197
Engineering	7198
supervisory	7199
unchanged	7200
Application	7201
ore	7202
phase-out	7203
libraries	7204
progressively	7205
5.2	7206
asserted	7207
240	7208
unclear	7209
ai@@	7210
Min@@	7211
Ethiopian	7212
unexploded	7213
attaining	7214
Institutional	7215
chair	7216
CRP.@@	7217
Liberation	7218
loc@@	7219
bulk	7220
diamond	7221
illustrated	7222
psychosocial	7223
replied	7224
ish@@	7225
Equatorial	7226
cards	7227
instituted	7228
agrees	7229
supplier	7230
yield	7231
Commerce	7232
Sal@@	7233
lease	7234
D-2	7235
the@@	7236
countermeasures	7237
fleet	7238
therapy	7239
sixty-fourth	7240
annum	7241
boost	7242
misuse	7243
universally	7244
Campaign	7245
flying	7246
publish	7247
allegation	7248
multidisciplinary	7249
194	7250
successes	7251
GS	7252
expeditiously	7253
applicability	7254
entails	7255
readily	7256
C.12	7257
archives	7258
ps	7259
studied	7260
Greater	7261
Kinshasa	7262
ys	7263
Lack	7264
centred	7265
holder	7266
somewhat	7267
Men	7268
L.2	7269
boundary	7270
lawful	7271
publishing	7272
2,500	7273
184	7274
OIC	7275
tsunami	7276
191	7277
Addressing	7278
MINURCAT	7279
187	7280
eighteenth	7281
renovation	7282
seizure	7283
Throughout	7284
automatic	7285
269	7286
Accra	7287
RA	7288
deadlines	7289
@	7290
OP@@	7291
CP@@	7292
criminalization	7293
immunities	7294
Dec.@@	7295
purchasing	7296
1.15	7297
At@@	7298
departmental	7299
Lucia	7300
amongst	7301
generators	7302
ble	7303
col@@	7304
permission	7305
directions	7306
moratorium	7307
que	7308
1975	7309
Registration	7310
IL@@	7311
INSTRAW	7312
Supplementary	7313
promising	7314
estate	7315
ING	7316
Reintegration	7317
know-how	7318
traffickers	7319
disproportionately	7320
dry	7321
80@@	7322
HR@@	7323
RO@@	7324
Accord	7325
ders	7326
Jewish	7327
io	7328
virtue	7329
10-@@	7330
10th	7331
Rs	7332
mountain	7333
fairness	7334
images	7335
Governor	7336
del	7337
Funding	7338
inappropriate	7339
Holy	7340
rent	7341
ty	7342
266	7343
fluctuations	7344
ica	7345
pledge	7346
1267	7347
LRA	7348
Solidarity	7349
car	7350
gaining	7351
financially	7352
rooms	7353
207	7354
tin@@	7355
ded	7356
tradition	7357
manager	7358
exploited	7359
ran@@	7360
Pre@@	7361
predictability	7362
CI	7363
ants	7364
players	7365
GE@@	7366
clothing	7367
midterm	7368
spectrum	7369
228	7370
phenomena	7371
Similar	7372
Market	7373
desk	7374
Instead	7375
Stockpiling	7376
contamination	7377
afforded	7378
self-sustainment	7379
350	7380
geared	7381
1961	7382
176	7383
fresh	7384
pollutants	7385
extremist	7386
protracted	7387
No@@	7388
vessel	7389
1974	7390
PC	7391
deny	7392
ful	7393
Applications	7394
cells	7395
222	7396
thousand	7397
doctrine	7398
Reiterates	7399
imbalances	7400
Si@@	7401
Fisheries	7402
st	7403
aya	7404
steering	7405
shipment	7406
ICTs	7407
sponsor	7408
rationale	7409
203	7410
241	7411
fifty-fourth	7412
scholarships	7413
&apos;a	7414
handle	7415
ERP	7416
Volunteer	7417
acceding	7418
communiqué	7419
kits	7420
rejection	7421
tion@@	7422
253	7423
Brunei	7424
differential	7425
Tuvalu	7426
checks	7427
coalition	7428
188	7429
Du@@	7430
commissioned	7431
225	7432
José	7433
Sch@@	7434
reaffirming	7435
cooperated	7436
suspicious	7437
chance	7438
di	7439
ms	7440
Cluster	7441
ol	7442
disappeared	7443
remainder	7444
tendency	7445
textbooks	7446
58@@	7447
costly	7448
terror	7449
select	7450
Level	7451
19,@@	7452
advocates	7453
correspondence	7454
profession	7455
reclassification	7456
SP	7457
endorse	7458
Supporting	7459
helicopter	7460
non-core	7461
CN.7	7462
checkpoints	7463
faster	7464
grass-roots	7465
236	7466
Travel	7467
clashes	7468
in-house	7469
raises	7470
Paper	7471
ensuing	7472
legacy	7473
John	7474
sc@@	7475
2030	7476
221	7477
Eight	7478
an-@@	7479
modifications	7480
settle	7481
Implementing	7482
ou	7483
Rec@@	7484
mercenaries	7485
demonstrating	7486
doubled	7487
educate	7488
sixty-sixth	7489
za	7490
triangular	7491
Professor	7492
embodied	7493
manuals	7494
microcredit	7495
CON@@	7496
nutritional	7497
Executives	7498
legality	7499
coast	7500
d-@@	7501
earned	7502
ease	7503
formerly	7504
alarming	7505
UNSOA	7506
destroy	7507
do@@	7508
ked	7509
sustaining	7510
turned	7511
mat@@	7512
minimal	7513
Abuse	7514
Guam	7515
promise	7516
roughly	7517
complicated	7518
Ne@@	7519
interview	7520
Ahmed	7521
Areas	7522
-level	7523
Much	7524
tanks	7525
Hu@@	7526
Significant	7527
adi	7528
benchmark	7529
1977	7530
are@@	7531
qualification	7532
179	7533
abortions	7534
attained	7535
conscience	7536
encompass	7537
indiscriminate	7538
remind	7539
Abidjan	7540
UNOMIG	7541
Serbian	7542
defendant	7543
fourteenth	7544
gone	7545
shape	7546
blood	7547
au	7548
claiming	7549
reaction	7550
Georgian	7551
childbirth	7552
convey	7553
designate	7554
unauthorized	7555
Especially	7556
Exchange	7557
cuts	7558
enact	7559
3.5	7560
Date	7561
Strategies	7562
erosion	7563
ESA	7564
Evidence	7565
laundering	7566
Actions	7567
abandoned	7568
alongside	7569
Directive	7570
Ta@@	7571
ara	7572
56@@	7573
fund-raising	7574
impediments	7575
HIPC	7576
centralized	7577
Understanding	7578
ascertain	7579
discriminate	7580
leverage	7581
int@@	7582
bar@@	7583
incomplete	7584
sensitivity	7585
La@@	7586
Brindisi	7587
ratios	7588
shot	7589
Moroccan	7590
PS	7591
complied	7592
ice	7593
tragic	7594
Consolidated	7595
timber	7596
18,@@	7597
accompanying	7598
ve@@	7599
Ozone	7600
UR@@	7601
199@@	7602
Seychelles	7603
merit	7604
undertakings	7605
Portuguese	7606
Signed	7607
non-Annex	7608
predecessor	7609
Ben@@	7610
Jo@@	7611
tracing	7612
passage	7613
Families	7614
failing	7615
routine	7616
multinational	7617
recruit	7618
observes	7619
terminology	7620
216	7621
Col@@	7622
II.@@	7623
broad-based	7624
shortfall	7625
GC	7626
arose	7627
rel@@	7628
artillery	7629
ging	7630
sincere	7631
43@@	7632
EUR	7633
ade	7634
continental	7635
str@@	7636
unfair	7637
276	7638
Knowledge	7639
Sanctions	7640
adjust	7641
clearing	7642
domain	7643
morbidity	7644
Periodic	7645
accumulated	7646
Annexes	7647
TE@@	7648
volunteer	7649
Open	7650
attracting	7651
purchased	7652
9,000	7653
factual	7654
judgment	7655
panellists	7656
shipments	7657
converted	7658
devote	7659
four-year	7660
Girls	7661
238	7662
ITU	7663
Presidency	7664
favoured	7665
stories	7666
Migrants	7667
hate	7668
raw	7669
synthesis	7670
ut@@	7671
2.6	7672
Net	7673
sion	7674
allocating	7675
Ottawa	7676
fact-finding	7677
ignored	7678
affiliated	7679
imply	7680
prioritized	7681
appreciates	7682
concessions	7683
2017	7684
undue	7685
named	7686
unaccompanied	7687
norm	7688
our@@	7689
Works	7690
cleared	7691
215	7692
ably	7693
third-party	7694
trade-related	7695
Ru@@	7696
CD@@	7697
owner	7698
persist	7699
199	7700
decreasing	7701
inflows	7702
ber	7703
totally	7704
Shi@@	7705
compile	7706
encumbered	7707
bur@@	7708
precisely	7709
Ban	7710
Egyptian	7711
Offices	7712
carries	7713
Substances	7714
hundred	7715
competing	7716
intend	7717
ish	7718
SubCommission	7719
confiscated	7720
tic@@	7721
1983	7722
admissible	7723
246	7724
249	7725
44@@	7726
Ban@@	7727
ill@@	7728
institute	7729
1996-1997	7730
Specifically	7731
Paragraphs	7732
evidence-based	7733
influenced	7734
verifiable	7735
2,0@@	7736
Arusha	7737
ceiling	7738
indications	7739
tional	7740
Vincent	7741
CN.15	7742
interesting	7743
groupings	7744
harmonizing	7745
pre-trial	7746
modify	7747
successive	7748
11.@@	7749
Reserve	7750
concentrate	7751
204	7752
Principal	7753
interactions	7754
modification	7755
perceptions	7756
viability	7757
Initial	7758
dependency	7759
spaces	7760
Claims	7761
joining	7762
exporting	7763
gen@@	7764
4.3	7765
Darussalam	7766
ki	7767
Ac@@	7768
usual	7769
deciding	7770
fe@@	7771
har@@	7772
overlap	7773
sixty-seventh	7774
258	7775
policy-making	7776
Peaceful	7777
hiring	7778
197	7779
á@@	7780
1.6	7781
Val@@	7782
guard	7783
&gt;	7784
appendix	7785
247	7786
Belgrade	7787
So@@	7788
ast@@	7789
self-defence	7790
payroll	7791
scaling	7792
substantiated	7793
Em@@	7794
fifty-second	7795
fighters	7796
explanations	7797
du	7798
og@@	7799
Ha@@	7800
Landlocked	7801
selective	7802
Subject	7803
Ham@@	7804
ali@@	7805
commanders	7806
emanating	7807
195	7808
244	7809
Guidance	7810
electrical	7811
Add.5	7812
Entity	7813
tasked	7814
successor	7815
tertiary	7816
265	7817
uneven	7818
deteriorating	7819
high-risk	7820
upheld	7821
we@@	7822
openness	7823
alism	7824
IP	7825
collaborating	7826
Facilitation	7827
apparently	7828
ran	7829
Hall	7830
La	7831
Migrant	7832
guards	7833
Friends	7834
employ	7835
forming	7836
Bel@@	7837
barrier	7838
Indicators	7839
conditional	7840
freezing	7841
nomination	7842
Organisation	7843
importantly	7844
cocaine	7845
safer	7846
1,3@@	7847
restoring	7848
fled	7849
Mat@@	7850
Satellite	7851
Kh@@	7852
peak	7853
studying	7854
217	7855
Antigua	7856
Journal	7857
contributor	7858
ID	7859
non-communicable	7860
replacing	7861
criminalize	7862
occurrence	7863
overcrowding	7864
pregnancies	7865
255	7866
executing	7867
west	7868
Ram@@	7869
terminated	7870
Dakar	7871
Elections	7872
ri	7873
Nations-@@	7874
Nos.	7875
Punish	7876
forecast	7877
Now	7878
ines	7879
mal@@	7880
Crisis	7881
NAP	7882
lu@@	7883
simplified	7884
streamlined	7885
193	7886
participates	7887
.8	7888
MS	7889
evolved	7890
grantor	7891
recruiting	7892
remarkable	7893
accord	7894
county	7895
DC	7896
L.	7897
rarely	7898
Sahel	7899
cor@@	7900
209	7901
Departments	7902
om	7903
accurately	7904
Church	7905
securities	7906
1971	7907
Poor	7908
shortages	7909
Pact	7910
Rather	7911
ler	7912
precursors	7913
theft	7914
work@@	7915
constituting	7916
scarce	7917
adds	7918
educated	7919
iv@@	7920
paramount	7921
Legislation	7922
Priority	7923
rigorous	7924
Emphasizes	7925
consultancy	7926
patient	7927
two-@@	7928
NO@@	7929
extensively	7930
under-@@	7931
Increasing	7932
Subsidiary	7933
exit	7934
cleaner	7935
Effects	7936
evidenced	7937
literature	7938
something	7939
alike	7940
Encourage	7941
Vice-Chair	7942
enforcing	7943
20,@@	7944
dramatic	7945
enti@@	7946
evictions	7947
one-@@	7948
petroleum	7949
Ibid	7950
pol@@	7951
quick-impact	7952
wa	7953
yearly	7954
Apart	7955
captured	7956
198	7957
confinement	7958
5.3	7959
finalizing	7960
WIPO	7961
euro	7962
Commissioners	7963
attempting	7964
confront	7965
recommending	7966
stigma	7967
Female	7968
ong@@	7969
1972	7970
Pol@@	7971
ip@@	7972
broken	7973
samples	7974
scales	7975
aggravated	7976
banning	7977
depended	7978
Cs	7979
KFOR	7980
att@@	7981
dismissal	7982
IV@@	7983
dead	7984
ours	7985
ICAO	7986
assuming	7987
block	7988
count	7989
fruitful	7990
eri@@	7991
lose	7992
cutting	7993
dioxide	7994
concentrations	7995
iti@@	7996
likewise	7997
68@@	7998
equ@@	7999
mineral	8000
land-use	8001
irrigation	8002
adequacy	8003
ash@@	8004
ISAF	8005
abused	8006
metric	8007
reparations	8008
289	8009
CA	8010
Fight	8011
Initiatives	8012
lengthy	8013
ement	8014
twenty-fourth	8015
Mexican	8016
announcement	8017
confined	8018
ni@@	8019
0.7	8020
govern	8021
ju@@	8022
15-@@	8023
Relevant	8024
column	8025
biotechnology	8026
schedules	8027
Co-@@	8028
XIII	8029
sis	8030
plight	8031
15,000	8032
versions	8033
ban@@	8034
relied	8035
saving	8036
1969	8037
ents	8038
thoroughly	8039
UNITA	8040
de-@@	8041
obstetric	8042
reunification	8043
Request	8044
signatory	8045
subregions	8046
tariffs	8047
Responsibility	8048
demanded	8049
TA	8050
Port	8051
hostile	8052
Exploitation	8053
Missions	8054
strengths	8055
Soviet	8056
Tu@@	8057
accumulation	8058
briefly	8059
comprehensively	8060
Subcommission	8061
ali	8062
dominant	8063
anc@@	8064
ano	8065
friends	8066
precarious	8067
196	8068
ODS	8069
suppression	8070
fa@@	8071
CRP.1	8072
ICPD	8073
occupations	8074
Physical	8075
condemn	8076
ner	8077
Ay@@	8078
mankind	8079
Ver@@	8080
SP@@	8081
proclaimed	8082
Grenada	8083
Os	8084
Her@@	8085
ata	8086
reveal	8087
summer	8088
1,9@@	8089
ev	8090
ama	8091
check	8092
elaborating	8093
compound	8094
DPKO	8095
extra	8096
lift	8097
4.5	8098
differ	8099
filling	8100
Address	8101
Thematic	8102
Tra@@	8103
perpetrator	8104
Commissions	8105
configuration	8106
ological	8107
sciences	8108
adviser	8109
advocating	8110
transform	8111
audience	8112
Narcotics	8113
ff@@	8114
excellence	8115
53@@	8116
Cal@@	8117
exported	8118
triennial	8119
Expressing	8120
extraterritorial	8121
lan@@	8122
ik@@	8123
spatial	8124
Cha@@	8125
Sales	8126
notify	8127
timeliness	8128
coexistence	8129
belong	8130
doubts	8131
narcotic	8132
283	8133
S.	8134
transferring	8135
quarters	8136
reasonably	8137
physically	8138
1,200	8139
Grenadines	8140
criminals	8141
hinder	8142
ranks	8143
Identification	8144
removals	8145
sharp	8146
Rev@@	8147
volumes	8148
wars	8149
232	8150
Turning	8151
ing-@@	8152
initiating	8153
Firearms	8154
assists	8155
ruled	8156
D.C.	8157
overdue	8158
passing	8159
Da@@	8160
TC	8161
1701	8162
1976	8163
Consultations	8164
prevail	8165
fashion	8166
0,@@	8167
Economy	8168
Armenian	8169
Suppress	8170
alternate	8171
conciliation	8172
subnational	8173
troop-	8174
underrepresented	8175
Establishing	8176
convergence	8177
detected	8178
expelled	8179
reforming	8180
264	8181
Out	8182
compensate	8183
infectious	8184
FDLR	8185
SU@@	8186
cost-effectiveness	8187
dwellers	8188
encouragement	8189
enriched	8190
societal	8191
rocket	8192
enrichment	8193
gender-@@	8194
printed	8195
spring	8196
254	8197
healthcare	8198
spend	8199
rescue	8200
197@@	8201
Associate	8202
223	8203
Watch	8204
bio@@	8205
bombs	8206
defer	8207
Timorese	8208
Vol	8209
sixty-eighth	8210
12-@@	8211
Barbuda	8212
TION	8213
questionnaires	8214
CTC	8215
clearer	8216
regrettable	8217
forwarded	8218
importing	8219
Religious	8220
ently	8221
complainants	8222
ji	8223
reject	8224
mail	8225
ce@@	8226
connections	8227
suspend	8228
Mc@@	8229
&lt;	8230
dramatically	8231
intensity	8232
LEG	8233
ales	8234
farms	8235
kidnapping	8236
lifting	8237
Indonesian	8238
K.	8239
passengers	8240
handbook	8241
338	8242
Embassy	8243
Estimate	8244
Ku@@	8245
heroin	8246
Primary	8247
Vi@@	8248
bed	8249
expensive	8250
69@@	8251
Almost	8252
Is@@	8253
beaten	8254
currencies	8255
robbery	8256
WMO	8257
Documentation	8258
IPU	8259
Intellectual	8260
MOP	8261
sexes	8262
High-Level	8263
Six	8264
231	8265
Gazette	8266
institution-building	8267
delegated	8268
disclose	8269
Controller	8270
Infrastructure	8271
retaining	8272
animal	8273
arranged	8274
Laws	8275
abide	8276
contraceptive	8277
eb@@	8278
inviting	8279
Austrian	8280
device	8281
disbursed	8282
ency	8283
scrutiny	8284
abilities	8285
3.4	8286
AF@@	8287
immigrant	8288
articulated	8289
ational	8290
fi@@	8291
Time	8292
presumption	8293
1960	8294
E-@@	8295
Until	8296
reg@@	8297
Ge@@	8298
debts	8299
deepen	8300
democratization	8301
refuse	8302
season	8303
Home	8304
skill	8305
Or@@	8306
Conclusions	8307
Tonga	8308
consular	8309
lie	8310
IO@@	8311
sick	8312
SS@@	8313
ceased	8314
coercion	8315
delegate	8316
hom@@	8317
219	8318
Overseas	8319
Ak@@	8320
ats	8321
Preparation	8322
WA@@	8323
eventual	8324
interdependent	8325
overwhelming	8326
remedial	8327
234	8328
Besides	8329
Limited	8330
bills	8331
Ri@@	8332
originating	8333
245	8334
Nu@@	8335
ie	8336
newspapers	8337
unliquidated	8338
ef@@	8339
overflew	8340
supporters	8341
Export	8342
meantime	8343
cornerstone	8344
day-to-day	8345
mix	8346
stemming	8347
Resolutions	8348
extends	8349
Non-Governmental	8350
abolish	8351
ca@@	8352
45@@	8353
detrimental	8354
tremendous	8355
nonetheless	8356
Serbs	8357
Srpska	8358
compatibility	8359
imbalance	8360
prosecuting	8361
urging	8362
encompassing	8363
manufactured	8364
validation	8365
COM@@	8366
customers	8367
fied	8368
rice	8369
collaborated	8370
hu@@	8371
unutilized	8372
waiting	8373
Point	8374
Sport	8375
els	8376
memory	8377
three-@@	8378
Hospital	8379
deposited	8380
ye	8381
apart	8382
Catholic	8383
river	8384
Ap@@	8385
Extension	8386
Republika	8387
preferences	8388
visas	8389
Ko@@	8390
escape	8391
ineffective	8392
reorganization	8393
irreversible	8394
confirms	8395
Series	8396
culturally	8397
problematic	8398
donations	8399
Cypriots	8400
Equipment	8401
director	8402
hereinafter	8403
Language	8404
distribute	8405
Memorandum	8406
ven@@	8407
accepting	8408
sk@@	8409
albeit	8410
materiel	8411
defamation	8412
San@@	8413
auditing	8414
combine	8415
Serb	8416
arises	8417
comm@@	8418
encompasses	8419
juveniles	8420
milestone	8421
pro-@@	8422
alcohol	8423
embarked	8424
marks	8425
mode	8426
virus	8427
2.7	8428
256	8429
AC@@	8430
FO@@	8431
varies	8432
12-month	8433
288	8434
dominated	8435
sen@@	8436
II@@	8437
Inquiry	8438
compounds	8439
ta@@	8440
Te@@	8441
den	8442
stopped	8443
consecutive	8444
industrialization	8445
outsourcing	8446
ISU	8447
afternoon	8448
confronting	8449
MSP	8450
defendants	8451
hi	8452
revolution	8453
Senate	8454
can@@	8455
PRO@@	8456
ely	8457
standardization	8458
259	8459
sell	8460
staffed	8461
ada	8462
emerge	8463
224	8464
exact	8465
ACABQ	8466
Rico	8467
i-@@	8468
discovered	8469
GNP	8470
ex-@@	8471
furthermore	8472
seat	8473
tly	8474
Argentine	8475
Debt	8476
Learning	8477
protest	8478
scene	8479
municipality	8480
stockpile	8481
offender	8482
Agencies	8483
Estimated	8484
box	8485
down@@	8486
ón	8487
ning	8488
rating	8489
4.4	8490
Conclusion	8491
alliances	8492
Biodiversity	8493
protests	8494
reception	8495
Ste@@	8496
approached	8497
compounded	8498
distinguish	8499
257	8500
Held	8501
ation-@@	8502
disciplines	8503
s.@@	8504
sophisticated	8505
Sar@@	8506
UNMOVIC	8507
error	8508
365	8509
fast	8510
unresolved	8511
Mohammed	8512
condemns	8513
conform	8514
customer	8515
subparagraphs	8516
brokering	8517
certainty	8518
destructive	8519
ber@@	8520
imprisoned	8521
initiation	8522
Index	8523
conducts	8524
summaries	8525
red@@	8526
younger	8527
Improve	8528
bin	8529
drawdown	8530
preamble	8531
saying	8532
cul@@	8533
Sect	8534
clarifying	8535
OD@@	8536
Sol@@	8537
fax	8538
Phase	8539
fails	8540
holdings	8541
tended	8542
Best	8543
amb@@	8544
answers	8545
cleansing	8546
expeditious	8547
imp@@	8548
ICTY	8549
driver	8550
ed-@@	8551
fo@@	8552
metal	8553
replenishment	8554
ED	8555
I-@@	8556
advertising	8557
inserted	8558
really	8559
500,000	8560
fin@@	8561
｟p27｠	8562
dem@@	8563
restraint	8564
275	8565
constructively	8566
far-reaching	8567
ministry	8568
undoubtedly	8569
Inspector	8570
tel	8571
attaches	8572
containers	8573
everything	8574
Disabled	8575
cold	8576
demanding	8577
her@@	8578
Colombian	8579
Delivering	8580
HA@@	8581
Age	8582
Mer@@	8583
demarcation	8584
predominantly	8585
quick	8586
°	8587
Allow	8588
Dutch	8589
incorporates	8590
INTERPOL	8591
Uses	8592
academics	8593
turnover	8594
Euro	8595
horizontal	8596
incremental	8597
sw@@	8598
thing	8599
gra@@	8600
match	8601
spiritual	8602
｟p17｠	8603
lubricants	8604
Plans	8605
Reconstruction	8606
L.3	8607
contraception	8608
inquiries	8609
solving	8610
Transit	8611
anthropogenic	8612
purely	8613
rebuilding	8614
diagnosis	8615
discriminated	8616
Front	8617
efficiencies	8618
invoices	8619
specifications	8620
subsidy	8621
｟p15｠	8622
｟p41｠	8623
Amnesty	8624
Offences	8625
UNIDIR	8626
edition	8627
petrol	8628
travelling	8629
Discussions	8630
surge	8631
deepening	8632
magistrates	8633
｟p47｠	8634
66@@	8635
gi@@	8636
litem	8637
matrix	8638
239	8639
arsenals	8640
fragmentation	8641
Hazardous	8642
262	8643
Thirdly	8644
frames	8645
pharmaceutical	8646
Delhi	8647
del@@	8648
time-bound	8649
55@@	8650
herewith	8651
prevalent	8652
sheets	8653
ratione	8654
umbrella	8655
｟p46｠	8656
Juvenile	8657
constrained	8658
Kal@@	8659
devise	8660
｟p19｠	8661
1.	8662
Census	8663
acclamation	8664
credentials	8665
travelled	8666
Mad@@	8667
SIDS	8668
｟p20｠	8669
DAC	8670
Instrument	8671
exporters	8672
Attorney	8673
adapting	8674
bulletin	8675
guides	8676
forcibly	8677
non-profit	8678
window	8679
229	8680
EL@@	8681
SPT	8682
bienniums	8683
counties	8684
gravity	8685
Quality	8686
exceeds	8687
Sim@@	8688
charter	8689
deposit	8690
identical	8691
-up	8692
22,@@	8693
anti-discrimination	8694
Art.	8695
PP@@	8696
revising	8697
Experience	8698
Frente	8699
Traffic	8700
ce	8701
ho@@	8702
lodged	8703
mentoring	8704
unsafe	8705
describing	8706
extradite	8707
sl@@	8708
｟p14｠	8709
ICCPR	8710
NAM	8711
Oslo	8712
doctor	8713
NG@@	8714
Pl@@	8715
delete	8716
mortar	8717
gl@@	8718
prioritization	8719
D-@@	8720
Last	8721
ple	8722
reproduced	8723
292	8724
6.2	8725
Cam@@	8726
discrepancies	8727
qualify	8728
｟p26｠	8729
def@@	8730
formats	8731
space-based	8732
interrogation	8733
｟p10｠	8734
｟p9｠	8735
Truth	8736
pro-poor	8737
ring	8738
He@@	8739
awa	8740
graduation	8741
｟p35｠	8742
｟p42｠	8743
Using	8744
bar	8745
credited	8746
economics	8747
liquidity	8748
offensive	8749
income-generating	8750
intermediate	8751
eth@@	8752
heightened	8753
presently	8754
｟p45｠	8755
GIS	8756
failures	8757
asserts	8758
bid	8759
fossil	8760
turning	8761
27,@@	8762
bonds	8763
｟p44｠	8764
｟p48｠	8765
272	8766
criminalized	8767
on-site	8768
Consultation	8769
rockets	8770
curb	8771
documentary	8772
expressions	8773
upper	8774
Israelis	8775
compensable	8776
determines	8777
Abuja	8778
Documents	8779
freshwater	8780
｟p3｠	8781
Like	8782
communal	8783
｟p23｠	8784
Full	8785
arrive	8786
ites	8787
｟p16｠	8788
FD@@	8789
TNCs	8790
explains	8791
foremost	8792
ke@@	8793
｟p37｠	8794
｟d50｠	8795
MENT	8796
compliant	8797
deputy	8798
insofar	8799
lot	8800
｟p34｠	8801
67@@	8802
repairs	8803
underline	8804
｟p32｠	8805
signatures	8806
symposium	8807
Bal@@	8808
OAS	8809
21st	8810
Cartagena	8811
big	8812
｟p24｠	8813
Rapporteurs	8814
broadening	8815
metals	8816
AC	8817
Janeiro	8818
val@@	8819
｟p29｠	8820
globe	8821
outbreak	8822
SGB	8823
cost-@@	8824
psychiatric	8825
versus	8826
Fish	8827
｟p18｠	8828
｟p5｠	8829
Adopt	8830
likelihood	8831
politicians	8832
án	8833
｟p49｠	8834
emotional	8835
｟p43｠	8836
SR@@	8837
hor@@	8838
cancelled	8839
e-based	8840
exploit	8841
｟p25｠	8842
alleges	8843
speedy	8844
｟p11｠	8845
strikes	8846
summarizes	8847
undergoing	8848
263	8849
UNISFA	8850
261	8851
TIONS	8852
generous	8853
tics	8854
｟p28｠	8855
｟p36｠	8856
Juba	8857
brackets	8858
｟p40｠	8859
chairpersons	8860
｟p39｠	8861
AM@@	8862
Diplomatic	8863
labor	8864
｟n50｠	8865
Claimant	8866
ew@@	8867
pricing	8868
｟p12｠	8869
King	8870
builds	8871
Near	8872
Persistent	8873
Units	8874
sentencing	8875
｟p8｠	8876
multifaceted	8877
｟p7｠	8878
Be	8879
DM	8880
Respect	8881
chart	8882
tropical	8883
variations	8884
｟p31｠	8885
23,@@	8886
technically	8887
Here	8888
getting	8889
modes	8890
nonproliferation	8891
Nations-owned	8892
Stressing	8893
pour	8894
Taiwan	8895
atrocities	8896
｟p4｠	8897
med	8898
sal@@	8899
seriousness	8900
temperature	8901
Co-Chairs	8902
accommodated	8903
earliest	8904
ti	8905
outlining	8906
quadrennial	8907
restored	8908
Acknowledging	8909
Del@@	8910
off@@	8911
1.7	8912
IB@@	8913
enn@@	8914
voices	8915
widening	8916
Far@@	8917
MYFF	8918
Ni@@	8919
minerals	8920
permanently	8921
｟p13｠	8922
Under@@	8923
united	8924
alist	8925
disadvantage	8926
Drafting	8927
Expenditure	8928
airports	8929
brother	8930
contends	8931
film	8932
｟p33｠	8933
leg@@	8934
Objectives	8935
action-oriented	8936
precautionary	8937
sen	8938
protects	8939
reprisals	8940
6.1	8941
exchanged	8942
case-by-case	8943
regionally	8944
go@@	8945
overtime	8946
30,000	8947
bottom	8948
cross-sectoral	8949
mg	8950
｟p38｠	8951
MA	8952
moreover	8953
posters	8954
refuge	8955
similarly	8956
Partners	8957
breaking	8958
Marriage	8959
Schedule	8960
ess	8961
｟p30｠	8962
200,000	8963
Caledonia	8964
employing	8965
passport	8966
precedent	8967
write	8968
Arctic	8969
ICTR	8970
elementary	8971
geospatial	8972
2.8	8973
Na@@	8974
br@@	8975
deter	8976
ballot	8977
utilities	8978
FPA	8979
cut-off	8980
mainstreamed	8981
L.4	8982
Requirements	8983
homeless	8984
interpreters	8985
istic	8986
over-@@	8987
struck	8988
IG@@	8989
breastfeeding	8990
errors	8991
wor@@	8992
450	8993
Af@@	8994
ash	8995
banned	8996
tes	8997
Settlement	8998
ard@@	8999
Directors	9000
290	9001
Crescent	9002
Er@@	9003
attainable	9004
governorates	9005
graduates	9006
Beyond	9007
North-South	9008
pu@@	9009
AC.26	9010
Cases	9011
GNSS	9012
OR@@	9013
lacks	9014
RIGHTS	9015
repercussions	9016
intense	9017
landscape	9018
Contract	9019
Freedoms	9020
approving	9021
hydro@@	9022
appointing	9023
passenger	9024
｟p2｠	9025
28,@@	9026
neutrality	9027
ell@@	9028
uncertainties	9029
ery	9030
imminent	9031
｟p6｠	9032
pres@@	9033
administer	9034
aerial	9035
dic@@	9036
ians	9037
ung	9038
long-@@	9039
venue	9040
vertical	9041
296	9042
Accountability	9043
Making	9044
Particularly	9045
codification	9046
criticism	9047
ide	9048
newspaper	9049
267	9050
condemnation	9051
unconditional	9052
｟p22｠	9053
Handbook	9054
Opinion	9055
SAICM	9056
accepts	9057
conflict-affected	9058
counter-@@	9059
dedication	9060
deficits	9061
memorandums	9062
stolen	9063
principally	9064
confrontation	9065
deeper	9066
indictment	9067
one-time	9068
impeded	9069
Temporary	9070
diffusion	9071
Preventing	9072
opposite	9073
signal	9074
Classification	9075
PE@@	9076
inflicted	9077
intervene	9078
Mutual	9079
capitals	9080
fines	9081
LO@@	9082
cu@@	9083
cr@@	9084
educators	9085
ee	9086
burdens	9087
offshore	9088
sa	9089
Hassan	9090
Quartet	9091
unforeseen	9092
｟p21｠	9093
complications	9094
lectures	9095
restricting	9096
virtual	9097
SAT	9098
advising	9099
combining	9100
fying	9101
insured	9102
narrative	9103
statutes	9104
warming	9105
Hotel	9106
ori@@	9107
web-based	9108
affirms	9109
regulates	9110
suggesting	9111
Camp	9112
Kam@@	9113
infants	9114
-to-@@	9115
bus	9116
attractive	9117
petition	9118
Entebbe	9119
Schools	9120
classifications	9121
confronted	9122
frozen	9123
organised	9124
pragmatic	9125
26,@@	9126
Ahmad	9127
selecting	9128
280	9129
Referring	9130
by-@@	9131
flagrant	9132
reconcile	9133
Lo@@	9134
Vision	9135
founding	9136
isation	9137
lin@@	9138
Arrangements	9139
ire	9140
private-sector	9141
withdrew	9142
furthering	9143
slight	9144
OCHA	9145
transported	9146
Virgin	9147
ker	9148
stored	9149
Master	9150
XIV	9151
1.8	9152
Tri@@	9153
fathers	9154
DS	9155
institutionalized	9156
expectation	9157
implements	9158
77@@	9159
Damascus	9160
Dar@@	9161
Polish	9162
Stocks	9163
deliberately	9164
uncertain	9165
Concluding	9166
backgrounds	9167
minimizing	9168
shortfalls	9169
unfortunately	9170
CM@@	9171
ces	9172
constituencies	9173
oo@@	9174
Particular	9175
Puntland	9176
Tuberculosis	9177
read@@	9178
963-@@	9179
poppy	9180
Reproductive	9181
Nauru	9182
Symposium	9183
uniformed	9184
ab	9185
assistant	9186
attach	9187
venture	9188
Pristina	9189
Tunis	9190
hub	9191
Includes	9192
Judiciary	9193
ley	9194
Emphasizing	9195
aquifer	9196
corrupt	9197
ne	9198
proud	9199
tw@@	9200
RI@@	9201
pat@@	9202
pieces	9203
wastewater	9204
USA	9205
legislature	9206
EX@@	9207
ain@@	9208
sti@@	9209
Ukrainian	9210
aut	9211
687	9212
News	9213
Nicosia	9214
PIC	9215
corrective	9216
285	9217
May@@	9218
Preliminary	9219
ances	9220
couples	9221
｟p1｠	9222
affirm	9223
directive	9224
disposition	9225
á	9226
suspect	9227
ile	9228
statelessness	9229
Globally	9230
berg	9231
BWC	9232
F-@@	9233
Speakers	9234
UNCT	9235
tragedy	9236
Relationship	9237
24,@@	9238
CFA	9239
universalization	9240
CB	9241
propaganda	9242
aka	9243
obsolete	9244
specially	9245
www.un.org	9246
tel@@	9247
Ombudsperson	9248
twenty-second	9249
Maternal	9250
slums	9251
Oil	9252
interact	9253
native	9254
earn	9255
pp.	9256
precursor	9257
3.6	9258
POPs	9259
prospect	9260
self-assessment	9261
Andean	9262
card	9263
hon@@	9264
nominal	9265
bribery	9266
ideal	9267
sexuality	9268
bureaux	9269
4.8	9270
Granting	9271
Hol@@	9272
Ju@@	9273
neglected	9274
ze	9275
CGE	9276
S.@@	9277
happened	9278
repatriated	9279
ities	9280
Technological	9281
ishing	9282
96@@	9283
Alternative	9284
machine	9285
Res@@	9286
liberation	9287
organisms	9288
1970s	9289
AS@@	9290
Ger@@	9291
chairs	9292
ping	9293
CPC	9294
Ltd	9295
Results	9296
gan@@	9297
promises	9298
contravention	9299
Defense	9300
land@@	9301
observing	9302
5.5	9303
fifty-first	9304
vaccines	9305
bureau	9306
ranges	9307
30,@@	9308
Associations	9309
diversified	9310
modality	9311
noteworthy	9312
Insolvency	9313
routinely	9314
Ph@@	9315
foreseeable	9316
knowledge-sharing	9317
seeds	9318
25,@@	9319
Bou@@	9320
upholding	9321
252	9322
Muhammad	9323
blocks	9324
simultaneous	9325
Hal@@	9326
TH	9327
confusion	9328
rebels	9329
tied	9330
constituent	9331
Prisoners	9332
ished	9333
moderate	9334
vaccination	9335
G-@@	9336
catalytic	9337
costing	9338
287	9339
twenty-fifth	9340
Marshall	9341
Naqurah	9342
Proposal	9343
cur@@	9344
wh@@	9345
Algiers	9346
Conditions	9347
deliveries	9348
eh	9349
Po@@	9350
biggest	9351
grades	9352
mes	9353
unregulated	9354
D.@@	9355
conveyed	9356
Airport	9357
We@@	9358
envisages	9359
fixed-wing	9360
migratory	9361
sign@@	9362
ts@@	9363
STA@@	9364
arm@@	9365
maximizing	9366
ss@@	9367
Li@@	9368
Observation	9369
essence	9370
undertakes	9371
Bur@@	9372
Bor@@	9373
announcements	9374
ration	9375
subsidized	9376
279	9377
attracted	9378
purchases	9379
Interpol	9380
disparity	9381
polymetallic	9382
protections	9383
MD@@	9384
end-of-service	9385
footing	9386
implied	9387
decreases	9388
destroying	9389
han	9390
no-@@	9391
tripartite	9392
Cost	9393
impacted	9394
Literacy	9395
RS	9396
Tar@@	9397
mer@@	9398
promotional	9399
GNI	9400
Mus@@	9401
ear@@	9402
gender-related	9403
seize	9404
surveyed	9405
theory	9406
4.6	9407
CE	9408
TH@@	9409
UN-SPIDER	9410
rated	9411
268	9412
bel@@	9413
1244	9414
Contact	9415
adjacent	9416
des@@	9417
disbursement	9418
first-@@	9419
illustrate	9420
BE@@	9421
differing	9422
Improvement	9423
finances	9424
hired	9425
organisation	9426
Auditor	9427
Gar@@	9428
armaments	9429
undermines	9430
cre@@	9431
mined	9432
reversed	9433
ric@@	9434
ü@@	9435
1948	9436
5.4	9437
Croatian	9438
Olympic	9439
armoured	9440
11th	9441
316	9442
deserve	9443
Subregional	9444
correctional	9445
diplomats	9446
Sub-@@	9447
cap@@	9448
complying	9449
305	9450
centers	9451
ening	9452
transformed	9453
veto	9454
286	9455
Post	9456
U.S.	9457
titles	9458
Donor	9459
Drought	9460
Rel@@	9461
instructed	9462
2,8@@	9463
Chernobyl	9464
array	9465
nursing	9466
stringent	9467
Distribution	9468
e-related	9469
runs	9470
Sports	9471
bias	9472
catalyst	9473
dra@@	9474
Bar	9475
fy	9476
premature	9477
cast	9478
ought	9479
prospective	9480
suit	9481
vo@@	9482
ial	9483
mentally	9484
modelling	9485
Ca@@	9486
SME	9487
assistants	9488
co-sponsored	9489
trees	9490
accomplish	9491
ined	9492
ini	9493
worse	9494
DA	9495
reformed	9496
trauma	9497
12th	9498
Santiago	9499
extraction	9500
negotiable	9501
Algerian	9502
ant@@	9503
footnote	9504
publicity	9505
underscore	9506
invaluable	9507
Concern	9508
Demobilization	9509
Mak@@	9510
R.	9511
disbursements	9512
impressive	9513
taught	9514
Possible	9515
examines	9516
exhaustive	9517
ratifications	9518
ack@@	9519
ching	9520
detainee	9521
intra-@@	9522
self-government	9523
29,@@	9524
3.7	9525
exchanging	9526
of@@	9527
paramilitary	9528
Palau	9529
har	9530
professions	9531
CP.7	9532
Mas@@	9533
Treasury	9534
ums	9535
Combined	9536
Effectiveness	9537
agreeing	9538
groundwater	9539
profiling	9540
warplanes	9541
Bas@@	9542
KP	9543
Trends	9544
ple@@	9545
sees	9546
54@@	9547
Jordanian	9548
audiences	9549
ty@@	9550
backed	9551
ira	9552
Though	9553
ther@@	9554
tion-@@	9555
Provincial	9556
Trans@@	9557
bro@@	9558
pivotal	9559
yl@@	9560
sanitary	9561
suspicion	9562
assi@@	9563
diversify	9564
tro@@	9565
SNA	9566
disorders	9567
crossings	9568
incommunicado	9569
permitting	9570
poorly	9571
quest	9572
preventable	9573
prevents	9574
procured	9575
sheet	9576
Changes	9577
Heritage	9578
Ibrahim	9579
commendable	9580
general-purpose	9581
paradigm	9582
amnesty	9583
sixty-ninth	9584
spreading	9585
upgraded	9586
asking	9587
fruit	9588
rooted	9589
Agreed	9590
OPCW	9591
everywhere	9592
respondent	9593
Az@@	9594
administrators	9595
checklist	9596
criminality	9597
undergo	9598
Facilities	9599
Ter@@	9600
shaping	9601
IE@@	9602
Ituri	9603
UNOWA	9604
hindered	9605
induction	9606
CFCs	9607
Hamas	9608
enc@@	9609
hamper	9610
lesser	9611
sewage	9612
Core	9613
Outreach	9614
nurses	9615
pain	9616
proximity	9617
arbitrarily	9618
disruption	9619
ila	9620
78@@	9621
fed	9622
objectivity	9623
Somaliland	9624
controversial	9625
enforceable	9626
ga	9627
scarcity	9628
64@@	9629
simplification	9630
affiliation	9631
avenues	9632
disadvantages	9633
hel@@	9634
violates	9635
Annan	9636
Dag	9637
Hammarskjöld	9638
Kampala	9639
M-@@	9640
TV	9641
Wal@@	9642
avoidance	9643
facilitator	9644
tur@@	9645
animals	9646
default	9647
illiterate	9648
1,600	9649
CB@@	9650
Citizenship	9651
criminalizing	9652
intentions	9653
CERs	9654
ova	9655
prompted	9656
rap@@	9657
Managing	9658
acy	9659
cross	9660
deploying	9661
L.7	9662
ida	9663
injustice	9664
personality	9665
2.45	9666
Colonial	9667
Leaders	9668
Options	9669
prosperous	9670
25,000	9671
Goma	9672
Nor@@	9673
litigation	9674
6.3	9675
rests	9676
white	9677
3,500	9678
IF	9679
reduces	9680
TO@@	9681
interlocutors	9682
optimize	9683
Bermuda	9684
pesticides	9685
prisoner	9686
Def@@	9687
Overview	9688
dual-use	9689
populated	9690
reside	9691
EULEX	9692
Existing	9693
refined	9694
reveals	9695
streets	9696
281	9697
Pollutants	9698
rough	9699
spoken	9700
biomass	9701
irregularities	9702
produces	9703
Aires	9704
Comment	9705
Estimates	9706
concession	9707
atmospheric	9708
clarifications	9709
coral	9710
rac@@	9711
widows	9712
distress	9713
familiar	9714
ited	9715
ris@@	9716
EA	9717
black	9718
contraceptives	9719
Buenos	9720
Restrictions	9721
recurring	9722
CESCR	9723
Unless	9724
Nor	9725
professionalism	9726
dismantling	9727
institutionalization	9728
leaves	9729
threatens	9730
ura	9731
Tenth	9732
congratulated	9733
dependants	9734
ić	9735
15.@@	9736
Amman	9737
happen	9738
responds	9739
single-@@	9740
retaliation	9741
5.6	9742
ela	9743
David	9744
arena	9745
incoming	9746
Ten	9747
Fa@@	9748
Transition	9749
bomb	9750
explaining	9751
EA@@	9752
Material	9753
bad	9754
mer	9755
EM@@	9756
add@@	9757
positioning	9758
suited	9759
2.9	9760
2018	9761
Paulo	9762
contested	9763
disturbing	9764
entrepreneurial	9765
Average	9766
L.6	9767
Dem@@	9768
preconditions	9769
reputation	9770
sive	9771
Ethnic	9772
absent	9773
pr@@	9774
registers	9775
Grand	9776
L.5	9777
absorb	9778
hal@@	9779
oring	9780
pen@@	9781
jo@@	9782
landing	9783
CSOs	9784
Vocational	9785
child-@@	9786
ingly	9787
Add	9788
Sheikh	9789
artistic	9790
un.org	9791
Peter	9792
pursuance	9793
consequent	9794
mid@@	9795
motivation	9796
Char@@	9797
2008-2011	9798
Transboundary	9799
margin	9800
occupy	9801
dumping	9802
18.@@	9803
2.	9804
diagnostic	9805
ek@@	9806
relies	9807
slave	9808
rightly	9809
Individual	9810
Lima	9811
peacefully	9812
phone	9813
row	9814
Azerbaijani	9815
WA	9816
calm	9817
ff	9818
rational	9819
wa@@	9820
Strengthened	9821
expiring	9822
13.@@	9823
rank	9824
sanction	9825
teenage	9826
Award	9827
Sciences	9828
aging	9829
ceremony	9830
ion	9831
operationalization	9832
retired	9833
back@@	9834
bargaining	9835
foregoing	9836
terminate	9837
underscores	9838
Comments	9839
Smuggling	9840
concurred	9841
ising	9842
12,000	9843
Authorities	9844
L.8	9845
Proposals	9846
Terrorist	9847
UNCLOS	9848
alisation	9849
FGM	9850
SPLA	9851
Sources	9852
Subprogramme	9853
destabilizing	9854
reaches	9855
ron@@	9856
FIR	9857
Set	9858
ac	9859
ann@@	9860
B.@@	9861
Des@@	9862
Minority	9863
correction	9864
fortieth	9865
insert	9866
JS1	9867
Whether	9868
Whole	9869
promised	9870
Boards	9871
IV.@@	9872
13-@@	9873
NC@@	9874
anything	9875
automation	9876
orderly	9877
pleasure	9878
van	9879
Expenditures	9880
crossed	9881
invitations	9882
semi-@@	9883
79@@	9884
Chairs	9885
Rem@@	9886
cybercrime	9887
engine	9888
76@@	9889
caring	9890
274	9891
Traditional	9892
assemblies	9893
confirming	9894
1.9	9895
198@@	9896
Fre@@	9897
promulgation	9898
relying	9899
tively	9900
Chi@@	9901
M23	9902
Municipal	9903
broadband	9904
tank	9905
undergone	9906
11-@@	9907
Amendments	9908
Are	9909
Credentials	9910
Lessons	9911
arisen	9912
eng@@	9913
facilitators	9914
gar@@	9915
narcotics	9916
UND@@	9917
bo	9918
colleges	9919
denying	9920
president	9921
jeopardize	9922
ot	9923
Civilizations	9924
SO	9925
pays	9926
tan@@	9927
crude	9928
fac@@	9929
borrowing	9930
buffer	9931
nationalities	9932
Reducing	9933
ord@@	9934
suppress	9935
ure	9936
Br@@	9937
FA	9938
Implement	9939
compelling	9940
18-@@	9941
popul@@	9942
wide-ranging	9943
Cooperative	9944
V.@@	9945
xenophobic	9946
PR	9947
soci@@	9948
st-@@	9949
295	9950
ERW	9951
P-@@	9952
neighbourhood	9953
ail@@	9954
clinical	9955
s-related	9956
Achieving	9957
HC@@	9958
absorbed	9959
19.@@	9960
278	9961
interpretations	9962
shifting	9963
Collaborative	9964
Laundering	9965
invoke	9966
rebuild	9967
stimulating	9968
entailed	9969
Mainstreaming	9970
Observers	9971
compete	9972
Mah@@	9973
Ouagadougou	9974
fullest	9975
preceded	9976
punitive	9977
Oceans	9978
cleaning	9979
2002-2005	9980
4.7	9981
detentions	9982
impediment	9983
lifted	9984
polio	9985
ranking	9986
warranted	9987
wrong	9988
Belgian	9989
ese	9990
jurisdictional	9991
privately	9992
reconsider	9993
Abkhazia	9994
cement	9995
provisionally	9996
Mediation	9997
Sanitation	9998
e-commerce	9999
forcing	10000
forest-related	10001
resilient	10002
compiling	10003
discourage	10004
emb@@	10005
timelines	10006
BiH	10007
closures	10008
OL	10009
discretionary	10010
indebted	10011
vested	10012
JI	10013
Recently	10014
extractive	10015
fold	10016
abolishment	10017
correspond	10018
dire	10019
responsiveness	10020
appearance	10021
ham@@	10022
stake	10023
Dominica	10024
P.	10025
precondition	10026
Al-Shabaab	10027
backstopping	10028
marginal	10029
whereabouts	10030
ION	10031
inc@@	10032
laying	10033
thirtieth	10034
Leadership	10035
Montserrat	10036
Pound@@	10037
UNPOS	10038
harsh	10039
273	10040
Fu@@	10041
depletion	10042
ham	10043
personally	10044
pos@@	10045
prioritizing	10046
Option	10047
persisted	10048
Arbitrary	10049
Mi@@	10050
commits	10051
micro-@@	10052
sor@@	10053
vii	10054
yesterday	10055
Bad@@	10056
Paul	10057
petitioner	10058
sha@@	10059
Tehran	10060
absolutely	10061
ired	10062
wake	10063
wrote	10064
Micronesia	10065
ame	10066
bidding	10067
channelled	10068
develops	10069
recreational	10070
SAR	10071
alert	10072
phones	10073
supposed	10074
variables	10075
ow	10076
reforestation	10077
rendering	10078
stimulants	10079
trips	10080
14-@@	10081
Officials	10082
forecasting	10083
rapporteur	10084
reads	10085
Add.1.	10086
retirees	10087
Technologies	10088
conceived	10089
Sami	10090
off-@@	10091
MINUSMA	10092
Turks	10093
wind	10094
Can@@	10095
Mil@@	10096
Ref@@	10097
post@@	10098
ECOSOC	10099
cons@@	10100
1612	10101
Africans	10102
Better	10103
layer	10104
20.@@	10105
ain	10106
non-formal	10107
silence	10108
Forestry	10109
carriers	10110
co-operation	10111
stigmatization	10112
super@@	10113
worship	10114
AS	10115
ns	10116
trucks	10117
twenty-sixth	10118
bas@@	10119
consensual	10120
fellowship	10121
globalized	10122
ranged	10123
2001-2010	10124
Afghans	10125
CCA	10126
hardware	10127
shorter	10128
3,0@@	10129
Ir@@	10130
L.9	10131
OC	10132
Pres@@	10133
XX@@	10134
disposed	10135
itation	10136
fraudulent	10137
k-@@	10138
Actual	10139
Mac@@	10140
bridging	10141
illustrates	10142
manufacturers	10143
reinforcement	10144
Disappearances	10145
Nile	10146
moves	10147
raped	10148
CMP.1	10149
Disappearance	10150
Park	10151
operator	10152
13th	10153
ography	10154
Arabs	10155
clandestine	10156
impeding	10157
Mag@@	10158
caution	10159
flooding	10160
naval	10161
ski	10162
CS@@	10163
evolve	10164
Discussion	10165
commencing	10166
ets	10167
Contribution	10168
deceased	10169
deletion	10170
low-	10171
prime	10172
prohibitions	10173
REP	10174
conscientious	10175
disregard	10176
preclude	10177
measurements	10178
Labor	10179
Pan@@	10180
1,800	10181
Anti-Corruption	10182
E.@@	10183
IGAD	10184
Pending	10185
situated	10186
supplements	10187
top@@	10188
Single	10189
identities	10190
overlapping	10191
ue	10192
clubs	10193
collapse	10194
ped	10195
prenatal	10196
sensitize	10197
Continued	10198
critically	10199
sinks	10200
preferably	10201
•	10202
Berlin	10203
www.un@@	10204
282	10205
Investments	10206
inevitably	10207
supervise	10208
uk@@	10209
40,@@	10210
Nationality	10211
shifts	10212
Recognition	10213
victimization	10214
99@@	10215
Membership	10216
derive	10217
pre-session	10218
web@@	10219
CF@@	10220
ES-10	10221
UNISPACE	10222
battalion	10223
bi	10224
low-cost	10225
polling	10226
20-@@	10227
E4	10228
aggressive	10229
poorer	10230
radiological	10231
unspent	10232
widest	10233
Have	10234
L.10	10235
all-@@	10236
diminished	10237
downward	10238
passports	10239
IFRS	10240
devised	10241
specifies	10242
ture	10243
Ceasefire	10244
Khan	10245
LA	10246
Money	10247
alities	10248
co-chairs	10249
pesos	10250
DDT	10251
Observatory	10252
Rad@@	10253
deteriorated	10254
timeline	10255
7.2	10256
Advocacy	10257
endorses	10258
es-@@	10259
damaging	10260
non-traditional	10261
container	10262
ey	10263
strongest	10264
visual	10265
rationalization	10266
Aliens	10267
DPI	10268
Direct	10269
Unlawful	10270
cal@@	10271
constraint	10272
forge	10273
multicultural	10274
ado	10275
landmark	10276
pretext	10277
UNTAET	10278
cha@@	10279
sun@@	10280
EU@@	10281
Eleventh	10282
Expected	10283
She@@	10284
counts	10285
14th	10286
Nearly	10287
commander	10288
gratis	10289
hand@@	10290
Ass@@	10291
Items	10292
Recruitment	10293
14.@@	10294
aquifers	10295
arm	10296
revitalize	10297
304	10298
Club	10299
honoured	10300
measles	10301
repeal	10302
PNTL	10303
#	10304
presiding	10305
vicinity	10306
30-@@	10307
AB@@	10308
Add.6	10309
sharply	10310
č@@	10311
Database	10312
ste@@	10313
authorizing	10314
comparability	10315
educating	10316
margins	10317
sts	10318
unrest	10319
15th	10320
in-kind	10321
outlook	10322
refine	10323
Ti@@	10324
achievable	10325
speci@@	10326
corporation	10327
repeat	10328
425	10329
health-related	10330
lah	10331
Ratification	10332
aff@@	10333
delimitation	10334
ga@@	10335
psychotropic	10336
sessional	10337
1,400	10338
201@@	10339
6.5	10340
UNA@@	10341
electric	10342
forty-sixth	10343
wave	10344
MT@@	10345
Commodities	10346
Monrovia	10347
approaching	10348
compelled	10349
63@@	10350
Confederation	10351
Havana	10352
condoms	10353
trip	10354
White	10355
automated	10356
bridges	10357
inspired	10358
16th	10359
M.@@	10360
Regrettably	10361
Slavery	10362
censuses	10363
demobilized	10364
disputed	10365
time-@@	10366
AD@@	10367
Seven	10368
diesel	10369
ft	10370
Equalization	10371
programmed	10372
unfortunate	10373
Burundian	10374
Fin@@	10375
argue	10376
boo@@	10377
tourist	10378
XVI	10379
conscious	10380
contemplated	10381
IDB.@@	10382
enjoys	10383
imposes	10384
void	10385
Generally	10386
Gross	10387
XVII	10388
alliance	10389
overseeing	10390
simplify	10391
3.8	10392
ONUB	10393
bombing	10394
tim@@	10395
271	10396
two-State	10397
ory	10398
ox@@	10399
enquired	10400
Councils	10401
ining	10402
prefer	10403
volunteerism	10404
Developments	10405
Fi@@	10406
Kitts	10407
Yearbook	10408
understands	10409
unlike	10410
Colonel	10411
ballistic	10412
checkpoint	10413
of-@@	10414
fragmented	10415
noble	10416
Sil@@	10417
oun@@	10418
round-table	10419
Ho@@	10420
Seventh	10421
Up	10422
sampling	10423
scheduling	10424
Acc@@	10425
Hyogo	10426
Mul@@	10427
Secondary	10428
ath	10429
depositary	10430
injecting	10431
rare	10432
Principle	10433
compact	10434
interpret	10435
presumed	10436
AG@@	10437
inclusiveness	10438
lend	10439
repression	10440
Union-United	10441
entries	10442
Bl@@	10443
assertion	10444
preferable	10445
Nevis	10446
Preventive	10447
co-financing	10448
forty-fourth	10449
induced	10450
ita	10451
isi@@	10452
non-permanent	10453
vaccine	10454
74@@	10455
NIS	10456
Responding	10457
defending	10458
discontinued	10459
surrender	10460
Mechanisms	10461
ö@@	10462
Hg	10463
Certification	10464
Economics	10465
LS	10466
stabilize	10467
workplans	10468
BA	10469
Seabed	10470
degraded	10471
queries	10472
stance	10473
upward	10474
yan@@	10475
Awareness	10476
Street	10477
Whereas	10478
op	10479
tends	10480
7.1	10481
aj@@	10482
fishery	10483
inconsistencies	10484
unhindered	10485
1990-@@	10486
Enhance	10487
Slovak	10488
exhaustion	10489
expired	10490
forty-ninth	10491
Inclusion	10492
che	10493
graduate	10494
recession	10495
HS	10496
burning	10497
co	10498
cotton	10499
kh@@	10500
reiterating	10501
sight	10502
yielded	10503
Ros@@	10504
milestones	10505
projection	10506
forefront	10507
ich@@	10508
unilaterally	10509
ER	10510
KPC	10511
Non-governmental	10512
distributing	10513
fires	10514
proportionality	10515
telecommunication	10516
NS@@	10517
Pal@@	10518
ays	10519
correctly	10520
Needs	10521
1958	10522
Hom@@	10523
Kofi	10524
display	10525
unreported	10526
voiced	10527
Benefits	10528
COP@@	10529
embedded	10530
tar@@	10531
LE	10532
break@@	10533
bs	10534
seed	10535
wells	10536
Design	10537
Older	10538
definitive	10539
journalist	10540
Abdel@@	10541
Caicos	10542
MTSP	10543
kill	10544
pan@@	10545
unanimous	10546
yan	10547
O-@@	10548
ca	10549
e-learning	10550
fu@@	10551
liaise	10552
substantiate	10553
Command	10554
char@@	10555
coping	10556
ind@@	10557
Self-@@	10558
kers	10559
tically	10560
Ser@@	10561
forty-fifth	10562
HUMAN	10563
Kigali	10564
ered	10565
ach	10566
tings	10567
1968	10568
BY	10569
CN.3	10570
Methods	10571
backdrop	10572
producer	10573
Anguilla	10574
NA	10575
RI	10576
impasse	10577
60,@@	10578
Collective	10579
HFCs	10580
erg@@	10581
pipeline	10582
warned	10583
declaring	10584
involuntary	10585
striving	10586
DPRK	10587
Ugandan	10588
nu@@	10589
pensionable	10590
311	10591
65@@	10592
UNO@@	10593
ming	10594
ster	10595
Disengagement	10596
accessed	10597
assert	10598
ls	10599
write-off	10600
17th	10601
twenty-seventh	10602
277	10603
SB@@	10604
deserves	10605
ignore	10606
registering	10607
sponsorship	10608
ths	10609
ures	10610
Bak@@	10611
Ou@@	10612
contacted	10613
gun	10614
warehouse	10615
303	10616
360	10617
Clearly	10618
Page	10619
firing	10620
mid-term	10621
Collaboration	10622
conflicting	10623
ine@@	10624
talk	10625
NAPs	10626
dental	10627
mother-to-child	10628
stereotyping	10629
｟p0｠	10630
RD	10631
VA	10632
ading	10633
aire	10634
1,300	10635
2,9@@	10636
Residual	10637
recruits	10638
recurrence	10639
behaviours	10640
zi	10641
75@@	10642
guns	10643
historically	10644
husbands	10645
theoretical	10646
warfare	10647
worthy	10648
L.11	10649
Living	10650
Lusaka	10651
18th	10652
L.13	10653
descriptions	10654
ez@@	10655
fistula	10656
Kan@@	10657
Practical	10658
co-sponsors	10659
Chadian	10660
End	10661
PL@@	10662
PRE@@	10663
caregivers	10664
deserved	10665
illnesses	10666
š@@	10667
20th	10668
Tan@@	10669
Thanks	10670
door	10671
sel@@	10672
88@@	10673
Cambodian	10674
Inter-Parliamentary	10675
Twelfth	10676
cat@@	10677
intentional	10678
nexus	10679
ro	10680
AMIS	10681
Revision	10682
fifty@@	10683
li	10684
losing	10685
low@@	10686
ment-@@	10687
waiver	10688
NHRIs	10689
choosing	10690
endemic	10691
licensed	10692
strides	10693
Safeguards	10694
TF	10695
impaired	10696
worsening	10697
yo	10698
301	10699
anda	10700
condemning	10701
experimental	10702
invalid	10703
jure	10704
terrestrial	10705
typical	10706
stem	10707
TR@@	10708
atic	10709
enhancements	10710
logging	10711
supervised	10712
MERCOSUR	10713
Societies	10714
selling	10715
ung@@	10716
87@@	10717
Carlos	10718
ITL	10719
registries	10720
DO@@	10721
diverted	10722
17.@@	10723
Credit	10724
Cu@@	10725
EM	10726
ately	10727
ium	10728
prudent	10729
pul@@	10730
purview	10731
twelve	10732
Mercury	10733
Ob@@	10734
PRESIDENT	10735
earth	10736
iss@@	10737
servers	10738
16-@@	10739
marry	10740
hostage	10741
seabed	10742
1966	10743
coal	10744
net@@	10745
ola	10746
Fair	10747
posting	10748
push	10749
Failure	10750
Falkland	10751
Joseph	10752
L.15	10753
RBM	10754
broadcasts	10755
eviction	10756
explosion	10757
gender-responsive	10758
traders	10759
Pre-@@	10760
Finnish	10761
Telecommunication	10762
circumstance	10763
practised	10764
severity	10765
Nutrition	10766
l-@@	10767
redouble	10768
ter-@@	10769
DFS	10770
SW@@	10771
practicable	10772
terminal	10773
Cash	10774
th-@@	10775
és	10776
,@@	10777
284	10778
Appointment	10779
chiefs	10780
Materials	10781
Neighbouring	10782
alter	10783
arrange	10784
indices	10785
trainees	10786
unequivocal	10787
Asset	10788
Bre@@	10789
don@@	10790
ez	10791
stra@@	10792
tender	10793
trigger	10794
Black	10795
pri@@	10796
INF.@@	10797
L.14	10798
ched	10799
exacerbate	10800
le-@@	10801
peacemaking	10802
precedence	10803
Cap@@	10804
Focus	10805
Helena	10806
Manager	10807
deriving	10808
miles	10809
1,700	10810
293	10811
4,500	10812
Inter-agency	10813
OA@@	10814
accusations	10815
ó@@	10816
Identify	10817
SD@@	10818
reminder	10819
six-month	10820
Numerous	10821
Ontario	10822
factions	10823
thrust	10824
Guard	10825
arrivals	10826
1000	10827
750	10828
Sao	10829
CM	10830
ix	10831
meteorological	10832
presences	10833
tre@@	10834
300,000	10835
Long-term	10836
STI	10837
results-oriented	10838
circular	10839
26.@@	10840
Negotiations	10841
age-@@	10842
ideals	10843
influx	10844
searches	10845
Malvinas	10846
State-@@	10847
Submission	10848
acknowledgement	10849
concessionaire	10850
crew	10851
toxicity	10852
transforming	10853
wisdom	10854
Karabakh	10855
Lower	10856
Opportunity	10857
ises	10858
praised	10859
scholars	10860
Au@@	10861
ICP	10862
bond	10863
commemoration	10864
decrees	10865
hardly	10866
ins@@	10867
trainings	10868
2.30	10869
73@@	10870
You	10871
adjournment	10872
continually	10873
heating	10874
CP.@@	10875
Comm@@	10876
chambers	10877
co-chaired	10878
outlets	10879
weakness	10880
L.18	10881
calculations	10882
Sk@@	10883
Sp@@	10884
TE	10885
arriving	10886
authoritative	10887
head@@	10888
minute	10889
∙	10890
Luis	10891
leveraging	10892
sake	10893
302	10894
Wall	10895
concise	10896
endanger	10897
guardian	10898
inspected	10899
manifest	10900
supplying	10901
EF	10902
IFF	10903
ally-@@	10904
impression	10905
preserved	10906
theatre	10907
ving	10908
radi@@	10909
template	10910
triggered	10911
colonialism	10912
outgoing	10913
sa@@	10914
sanctioned	10915
1,100	10916
Extradition	10917
Thai	10918
celebration	10919
happy	10920
mi@@	10921
sub-items	10922
trusts	10923
vigorously	10924
ideological	10925
slowly	10926
baselines	10927
NAPAs	10928
reproduction	10929
7,500	10930
Add.1-@@	10931
Ammunition	10932
prone	10933
second-@@	10934
tures	10935
Cayman	10936
Commitments	10937
Nation	10938
merger	10939
reluctant	10940
specifying	10941
Associated	10942
WG	10943
brutal	10944
communicating	10945
discourse	10946
hou@@	10947
permissible	10948
resourced	10949
treating	10950
Exploration	10951
GO@@	10952
deported	10953
inhumane	10954
CRP.2	10955
mindful	10956
withdrawing	10957
yah	10958
III.@@	10959
construct	10960
improvised	10961
mercenary	10962
warrants	10963
291	10964
L.16	10965
ul	10966
win	10967
Afro-@@	10968
Dou@@	10969
Monthly	10970
assign	10971
maturity	10972
asi@@	10973
fication	10974
one-year	10975
solved	10976
custom	10977
photographs	10978
wildlife	10979
Tom@@	10980
humane	10981
y-related	10982
1963	10983
25-@@	10984
Thomas	10985
prejudices	10986
330	10987
discusses	10988
CFC	10989
Innovation	10990
Just	10991
eminent	10992
forecasts	10993
milk	10994
GATS	10995
Mis@@	10996
breast	10997
deficiency	10998
fic@@	10999
hill	11000
intensifying	11001
motions	11002
puts	11003
hubs	11004
seventy-@@	11005
Daily	11006
ack	11007
boy	11008
restorative	11009
Abdul@@	11010
diminish	11011
Abdul	11012
GE	11013
convert	11014
immense	11015
proportionate	11016
prorated	11017
recreation	11018
Witnesses	11019
behavioural	11020
chances	11021
e.@@	11022
obviously	11023
technicians	11024
Abdullah	11025
Tal@@	11026
differently	11027
forward-looking	11028
299	11029
Attorney-General	11030
Nigerian	11031
ass	11032
grouped	11033
saved	11034
compromised	11035
penetrated	11036
5.7	11037
Nature	11038
lifetime	11039
risk-@@	11040
Corporate	11041
ISO	11042
Maori	11043
solitary	11044
tens	11045
CRPD	11046
Points	11047
civilization	11048
expendable	11049
17-@@	11050
1718	11051
307	11052
Approves	11053
Forced	11054
repository	11055
tactical	11056
19th	11057
Ash@@	11058
ek	11059
hol@@	11060
liquid	11061
6.4	11062
L.12	11063
stimulus	11064
Dissemination	11065
courage	11066
downsizing	11067
electronically	11068
non-citizens	11069
Abkhaz	11070
DDR	11071
ECCAS	11072
WP	11073
fundamentally	11074
in-country	11075
Multi-@@	11076
Bilateral	11077
humans	11078
passive	11079
rou@@	11080
seeing	11081
7.5	11082
OS	11083
confessions	11084
ew	11085
reassignment	11086
soldier	11087
undocumented	11088
16.@@	11089
294	11090
TRIPS	11091
amphetamine-type	11092
dissolution	11093
engineers	11094
pluralism	11095
sch@@	11096
Make	11097
Saharan	11098
if@@	11099
iri	11100
Mental	11101
fostered	11102
intermediaries	11103
long@@	11104
wan@@	11105
MAL	11106
Pat@@	11107
determinants	11108
exhaust	11109
investor	11110
tering	11111
São	11112
Waste	11113
begins	11114
chose	11115
openly	11116
Greenland	11117
Lord	11118
Mun@@	11119
Sen@@	11120
Wastes	11121
exempt	11122
exert	11123
extensions	11124
landmine	11125
outlying	11126
Disposal	11127
Do@@	11128
FNL	11129
50,@@	11130
Biennial	11131
Eradicate	11132
assignee	11133
positioned	11134
Unemployment	11135
junior	11136
quantified	11137
L.20	11138
bilingual	11139
cas@@	11140
ino	11141
entirety	11142
influencing	11143
interfere	11144
550	11145
Assets	11146
phasing	11147
weakened	11148
Tel	11149
interreligious	11150
receipts	11151
sk	11152
Equity	11153
climatic	11154
contempt	11155
looting	11156
proportions	11157
rail	11158
310	11159
Attention	11160
Aware	11161
Il@@	11162
practically	11163
sky	11164
Continuing	11165
abandonment	11166
bra@@	11167
broadened	11168
comp@@	11169
leaflets	11170
loading	11171
relocated	11172
98@@	11173
Harmonized	11174
criticized	11175
opposing	11176
Nordic	11177
alleviating	11178
connect	11179
County	11180
bly	11181
stat@@	11182
IOC	11183
2014-2017	11184
Call	11185
SH@@	11186
Southeast	11187
complained	11188
lethal	11189
packaging	11190
prostitutes	11191
973	11192
SLM	11193
deems	11194
evidentiary	11195
los	11196
pronounced	11197
execute	11198
featured	11199
ick	11200
organizes	11201
unsatisfactory	11202
Concerned	11203
Recommended	11204
Valley	11205
buyers	11206
pesticide	11207
1737	11208
5,500	11209
R.@@	11210
ena	11211
form@@	11212
rehabilitate	11213
Kab@@	11214
PBC.@@	11215
pointing	11216
Ninth	11217
ences	11218
quoted	11219
shelf	11220
....	11221
Bra@@	11222
Ongoing	11223
endangered	11224
translating	11225
izes	11226
settling	11227
AT@@	11228
Charles	11229
On@@	11230
conference-servicing	11231
diaspora	11232
domination	11233
indicted	11234
Dj@@	11235
Eliminate	11236
Hungarian	11237
Illegal	11238
JISC	11239
Outlook	11240
Wales	11241
deterrent	11242
proportional	11243
Appendix	11244
Telecommunications	11245
aggravating	11246
genuinely	11247
refusing	11248
shifted	11249
tually	11250
Federated	11251
Trustees	11252
barrels	11253
creativity	11254
effected	11255
ere	11256
inf@@	11257
motor	11258
ISAR	11259
L.17	11260
Problems	11261
ation-related	11262
unc@@	11263
Movements	11264
aids	11265
ast	11266
eye	11267
Sex	11268
harmonious	11269
2,400	11270
Fellowship	11271
sec@@	11272
tier	11273
Alma	11274
CS	11275
Consistent	11276
Encouraging	11277
Juan	11278
Philippine	11279
2,4@@	11280
Hybrid	11281
Populations	11282
Yes	11283
concessional	11284
therapeutic	11285
user-friendly	11286
CN.6	11287
adopts	11288
aligning	11289
gender-specific	11290
manages	11291
318	11292
regulators	11293
AWG-KP	11294
Sin@@	11295
devising	11296
explosions	11297
fixed-term	11298
pic@@	11299
security-related	11300
sou@@	11301
89@@	11302
ICT@@	11303
PFOS	11304
bold	11305
citing	11306
hy@@	11307
roots	11308
AN	11309
Consortium	11310
Pollution	11311
answered	11312
collateral	11313
endosulfan	11314
omission	11315
tackled	11316
Hel@@	11317
IDP	11318
Important	11319
Rev.1.	11320
320	11321
Columbia	11322
Mass	11323
VIII.@@	11324
hire	11325
Detailed	11326
Ed@@	11327
MENTS	11328
multi-ethnic	11329
stand-alone	11330
Bangui	11331
Costs	11332
acquisitions	11333
enhances	11334
onset	11335
oppose	11336
ora	11337
quo	11338
40,000	11339
G-8	11340
Gener@@	11341
OP	11342
and-@@	11343
detriment	11344
ries	11345
unjust	11346
Adequate	11347
HCFC	11348
L.19	11349
Television	11350
centrally	11351
expiration	11352
reimbursable	11353
rer	11354
whatsoever	11355
Transportation	11356
22nd	11357
Coordinators	11358
Dili	11359
Michael	11360
Neither	11361
Publications	11362
Threats	11363
hotel	11364
verifying	11365
ben@@	11366
encounter	11367
frank	11368
guardians	11369
spacecraft	11370
assignor	11371
cri@@	11372
medium-	11373
worrying	11374
Cell	11375
Port-au-Prince	11376
UNMIBH	11377
al-Sha	11378
eli@@	11379
toll	11380
ć	11381
Claim	11382
Fer@@	11383
Maria	11384
Socialist	11385
ación	11386
buy	11387
dropout	11388
298	11389
Had@@	11390
XXI	11391
brothers	11392
consensus-building	11393
forty-first	11394
SF	11395
matched	11396
music	11397
squ@@	11398
HRI	11399
IR	11400
The@@	11401
impairment	11402
machines	11403
ug@@	11404
IASC	11405
Nation@@	11406
caseload	11407
daughter	11408
forty-eighth	11409
Recommends	11410
else	11411
flood	11412
2025	11413
Che@@	11414
N.	11415
sized	11416
strengthens	11417
Malian	11418
vigorous	11419
Displaced	11420
TCDC	11421
boarding	11422
insights	11423
ni	11424
HCFCs	11425
PO	11426
alised	11427
je	11428
rem@@	11429
domestically	11430
equip	11431
gun@@	11432
2005-2006	11433
Displacement	11434
F-16	11435
abusive	11436
fellowships	11437
perpetuate	11438
sia	11439
silent	11440
Thirty-@@	11441
ema	11442
forty-seventh	11443
pervasive	11444
radical	11445
unusual	11446
3.	11447
306	11448
ATS	11449
Safe	11450
continents	11451
estimation	11452
talent	11453
Pi@@	11454
corresponds	11455
onwards	11456
retail	11457
19-@@	11458
Caucasus	11459
None	11460
actor	11461
conferred	11462
immunodeficiency	11463
0.5	11464
Donors	11465
Immediate	11466
consortium	11467
resignation	11468
underdevelopment	11469
vague	11470
5.8	11471
AWG-LCA	11472
Hussein	11473
Han@@	11474
Horn	11475
PP	11476
directing	11477
flagship	11478
government-@@	11479
jury	11480
XX	11481
fears	11482
1954	11483
afforestation	11484
water@@	11485
Add.7	11486
Cook	11487
Kafr	11488
Steps	11489
Oc@@	11490
expire	11491
PN@@	11492
clinic	11493
trusted	11494
well-known	11495
Transactions	11496
signals	11497
è@@	11498
Bay	11499
interlinked	11500
rev@@	11501
self-reliance	11502
Jan@@	11503
audio	11504
battle	11505
-wide	11506
announce	11507
iro	11508
validated	11509
Psychotropic	11510
discount	11511
railway	11512
self-employed	11513
Fifty-@@	11514
artisanal	11515
friendship	11516
holidays	11517
questioning	11518
CONA@@	11519
Proliferation	11520
assassination	11521
charitable	11522
litre	11523
ole	11524
Mobile	11525
Scope	11526
3,8@@	11527
Martínez	11528
ell	11529
forging	11530
ill-@@	11531
newborn	11532
soft	11533
store	11534
BA@@	11535
Mitrovica	11536
earning	11537
intervals	11538
lim@@	11539
Fs	11540
ey@@	11541
not@@	11542
1874	11543
Lib@@	11544
bears	11545
23rd	11546
ISBA	11547
Ren@@	11548
counter@@	11549
functionality	11550
high@@	11551
ick@@	11552
logic	11553
pounds	11554
shareholders	11555
stri@@	11556
associates	11557
unrestricted	11558
Gi@@	11559
Israeli-Palestinian	11560
Kiribati	11561
PM@@	11562
departed	11563
goodwill	11564
sister	11565
6.6	11566
97@@	11567
catch	11568
communicable	11569
favourably	11570
legislators	11571
sugar	11572
Albanians	11573
Category	11574
Suppl	11575
characteristic	11576
churches	11577
indefinite	11578
interconnected	11579
posing	11580
Liability	11581
deputies	11582
intensification	11583
reimbursements	11584
swift	11585
testimonies	11586
Individuals	11587
additions	11588
bing	11589
fil@@	11590
numbered	11591
ventures	11592
Equally	11593
NAPA	11594
Ur@@	11595
arid	11596
compensated	11597
forty-third	11598
petitioners	11599
ace@@	11600
attribution	11601
log	11602
Mother	11603
Proportion	11604
UNC@@	11605
arity	11606
FS	11607
Kyrgyz	11608
blind	11609
prevailed	11610
recognised	11611
sy@@	11612
Adolescents	11613
CL@@	11614
Martin	11615
Non@@	11616
couple	11617
enjoying	11618
ore@@	11619
school@@	11620
Facilitator	11621
Undertake	11622
habitats	11623
sickness	11624
slowdown	11625
wives	11626
asa	11627
publicize	11628
2,200	11629
Ah@@	11630
Boundary	11631
Bro@@	11632
grievances	11633
non-tariff	11634
portable	11635
UNMISET	11636
acid	11637
basically	11638
Kon@@	11639
aring	11640
at-@@	11641
fabric	11642
fies	11643
persists	11644
seasonal	11645
hidden	11646
homicide	11647
hostility	11648
insecure	11649
penitentiary	11650
PB@@	11651
alteration	11652
chamber	11653
dose	11654
exactly	11655
operationalize	11656
thirty-eighth	11657
ão	11658
Appropriate	11659
Discipline	11660
Mur@@	11661
avail	11662
bri@@	11663
gate	11664
DP@@	11665
noon	11666
pi@@	11667
ranked	11668
Antarctic	11669
RU@@	11670
Real	11671
XIX	11672
acc@@	11673
adhered	11674
drafts	11675
igh@@	11676
indivisible	11677
merchandise	11678
sid@@	11679
2,6@@	11680
Prostitution	11681
dispatched	11682
droughts	11683
intergenerational	11684
patriarchal	11685
standby	11686
system@@	11687
GGE	11688
desirability	11689
reactions	11690
solicitation	11691
Jakarta	11692
ides	11693
or-@@	11694
survive	11695
transporting	11696
Facilitating	11697
accompany	11698
real-time	11699
2004-2007	11700
Introducing	11701
PPPs	11702
celebrate	11703
higher-@@	11704
strategically	11705
Deeply	11706
basin	11707
abductions	11708
doctrines	11709
dwellings	11710
wise	11711
Opening	11712
boats	11713
cooperates	11714
guardianship	11715
reciprocal	11716
yl	11717
Signature	11718
fellow	11719
intangible	11720
jan	11721
roll-out	11722
DD@@	11723
depleted	11724
ens@@	11725
experiments	11726
expiry	11727
pass@@	11728
prerequisites	11729
Representation	11730
conflict-@@	11731
cooking	11732
forged	11733
1964	11734
Chan@@	11735
tical	11736
1950	11737
Clean	11738
Guarantee	11739
el-@@	11740
multiplier	11741
thirty-seventh	11742
dri@@	11743
ys@@	11744
24-@@	11745
309	11746
co-organized	11747
gendarmerie	11748
iron	11749
remand	11750
Represents	11751
accords	11752
editorial	11753
geological	11754
juridical	11755
massacre	11756
micro	11757
rejects	11758
caught	11759
coffee	11760
deadly	11761
land-based	11762
medication	11763
menting	11764
PRSP	11765
South-Eastern	11766
donated	11767
unwanted	11768
warheads	11769
Co	11770
Ke@@	11771
law@@	11772
mag@@	11773
2007-2008	11774
alive	11775
corridors	11776
geostationary	11777
striking	11778
variability	11779
Chairperson-Rapporteur	11780
Government-@@	11781
Mel@@	11782
democracies	11783
handover	11784
tribes	11785
25th	11786
harness	11787
rid@@	11788
tru@@	11789
Along	11790
Parts	11791
inter-sessional	11792
lifestyles	11793
multilingualism	11794
Ka@@	11795
ades	11796
grounded	11797
logistic	11798
matching	11799
polygamy	11800
unfounded	11801
Para	11802
Tor@@	11803
deb@@	11804
subordinate	11805
underlining	11806
variation	11807
Peer	11808
activated	11809
apportion	11810
Den@@	11811
abl@@	11812
erv@@	11813
interlinkages	11814
twenty-eighth	11815
variable	11816
forty-second	11817
modernize	11818
value-added	11819
7.3	11820
AC.51	11821
compare	11822
computing	11823
density	11824
mann	11825
yields	11826
Creating	11827
una	11828
2,5@@	11829
tric@@	11830
youths	11831
IM	11832
MN@@	11833
reserving	11834
ved	11835
380	11836
Bujumbura	11837
affiliates	11838
thirty-fourth	11839
MC	11840
Seoul	11841
ović	11842
297	11843
Resistance	11844
swiftly	11845
declines	11846
drylands	11847
pre-school	11848
story	11849
Mos@@	11850
Students	11851
artificial	11852
counting	11853
kit	11854
sterilization	11855
Amended	11856
Concerns	11857
Does	11858
Pr@@	11859
climate-@@	11860
development-related	11861
ket	11862
standpoint	11863
thirty-sixth	11864
Replace	11865
Rom@@	11866
non-United	11867
Inclusive	11868
Pu@@	11869
Sub	11870
beds	11871
tracks	11872
ams	11873
atively	11874
coca	11875
hierarchy	11876
magazine	11877
reimbursed	11878
static	11879
constructing	11880
jo	11881
minister	11882
stockpiling	11883
Dra@@	11884
FM@@	11885
PBC	11886
Sections	11887
UN-HABITAT	11888
stepped	11889
unmet	11890
workplaces	11891
Map	11892
stan@@	11893
23.@@	11894
Bon@@	11895
believing	11896
catering	11897
harvesting	11898
González	11899
Je@@	11900
Over@@	11901
engagements	11902
preschool	11903
Baltic	11904
UNDP-@@	11905
documenting	11906
governorate	11907
mor@@	11908
specificities	11909
stalemate	11910
1624	11911
Lawyers	11912
non-refoulement	11913
split	11914
Fo@@	11915
punishing	11916
eng	11917
fugitives	11918
intersectoral	11919
oph@@	11920
tours	11921
winter	11922
2000-@@	11923
Approved	11924
non-recurrent	11925
reciprocity	11926
water-@@	11927
Tunisian	11928
ati	11929
demolition	11930
embrace	11931
guilt	11932
inevitable	11933
inter-ministerial	11934
thirty-third	11935
312	11936
SB	11937
Stability	11938
Sul@@	11939
Unions	11940
Work@@	11941
band	11942
burg	11943
325	11944
abandon	11945
careers	11946
data-processing	11947
ene	11948
nation@@	11949
newsletter	11950
reefs	11951
shipped	11952
387	11953
L.22	11954
Mining	11955
ON@@	11956
capacitybuilding	11957
church	11958
harvest	11959
illa	11960
interdisciplinary	11961
6.7	11962
appropriateness	11963
neighbourhoods	11964
prepares	11965
short-	11966
Bamako	11967
Specialized	11968
Toxin	11969
run@@	11970
specialization	11971
unduly	11972
antenatal	11973
everyday	11974
obligatory	11975
unstable	11976
Geographical	11977
Pretoria	11978
Vice-Presidents	11979
aa	11980
corpus	11981
oppression	11982
self	11983
unreasonable	11984
SD	11985
diabetes	11986
esti@@	11987
revert	11988
tation	11989
1945	11990
22-@@	11991
administrator	11992
biofuels	11993
exhibition	11994
heat	11995
imagery	11996
Mahmoud	11997
VE@@	11998
affordability	11999
auditor	12000
domains	12001
judged	12002
tomorrow	12003
§	12004
Fuel	12005
Gen@@	12006
condolences	12007
epidemiological	12008
Kat@@	12009
complements	12010
lays	12011
nouvelles	12012
two-thirds	12013
ú@@	12014
Autonomous	12015
entrenched	12016
unused	12017
Antonio	12018
HRW	12019
alleging	12020
anti-terrorism	12021
brochures	12022
iyah	12023
ér@@	12024
debated	12025
secrecy	12026
herself	12027
nominate	12028
A-@@	12029
discovery	12030
empirical	12031
ota	12032
outward	12033
ush@@	12034
-year	12035
308	12036
Demographic	12037
Responses	12038
balancing	12039
declares	12040
monopoly	12041
reluctance	12042
Balkans	12043
Cas@@	12044
gam@@	12045
insisted	12046
multimedia	12047
De	12048
START	12049
advisable	12050
babies	12051
dou@@	12052
knew	12053
ko@@	12054
Tel@@	12055
Term	12056
efficacy	12057
gn@@	12058
informally	12059
lat@@	12060
rulings	12061
thirty-ninth	12062
calculating	12063
circulate	12064
juncture	12065
massacres	12066
650	12067
displayed	12068
·	12069
Indebted	12070
as-@@	12071
conver@@	12072
designs	12073
ith@@	12074
lowering	12075
underway	12076
unidentified	12077
Angolan	12078
Briefing	12079
Involuntary	12080
safely	12081
Governors	12082
Tur@@	12083
undernourished	12084
Dar	12085
Details	12086
Tome	12087
coll@@	12088
counted	12089
depreciation	12090
dispatch	12091
duplicate	12092
four-@@	12093
reinsertion	12094
underpin	12095
1820	12096
MISC.5	12097
Post-@@	12098
Update	12099
custodial	12100
shed	12101
155-mm	12102
328	12103
England	12104
assumes	12105
influential	12106
underground	12107
7.4	12108
Gal@@	12109
doses	12110
enumerated	12111
outdated	12112
AC.96	12113
Creation	12114
Offenders	12115
anywhere	12116
dispose	12117
23-@@	12118
INTERNATIONAL	12119
Town	12120
congratulations	12121
dé@@	12122
int	12123
stores	12124
tentative	12125
Co-Chair	12126
catalogue	12127
eco-@@	12128
370	12129
altered	12130
ich	12131
people-centred	12132
Aw@@	12133
DI	12134
Hab@@	12135
Innovative	12136
Munitions	12137
New@@	12138
Presentation	12139
ace	12140
improper	12141
load	12142
oning	12143
1999-@@	12144
40th	12145
dignified	12146
standard-setting	12147
poly@@	12148
thirty-second	12149
wards	12150
AB	12151
CAC	12152
KO@@	12153
Tam@@	12154
Tindouf	12155
avi@@	12156
ign@@	12157
manifested	12158
react	12159
&apos;b	12160
1353	12161
21-@@	12162
Us	12163
articulate	12164
comparisons	12165
compromising	12166
optimism	12167
346	12168
counterpart	12169
paternity	12170
remittance	12171
1962	12172
Again	12173
FM	12174
Lake	12175
experiment	12176
nodules	12177
privilege	12178
Kisangani	12179
CHW	12180
G-20	12181
destined	12182
etc.	12183
plaintiff	12184
reconvened	12185
remember	12186
2,7@@	12187
Century	12188
Perhaps	12189
ads	12190
fronts	12191
leisure	12192
injuring	12193
man-made	12194
organizers	12195
self-employment	12196
ser@@	12197
sustainably	12198
28th	12199
Dan@@	12200
Sec@@	12201
adjusting	12202
epidemics	12203
residency	12204
resource-@@	12205
tour	12206
transgender	12207
313	12208
Jean	12209
Monitor	12210
refurbishment	12211
F.@@	12212
Rev.2	12213
categorized	12214
composite	12215
envisage	12216
minim@@	12217
optimum	12218
post-crisis	12219
usable	12220
LD@@	12221
Principe	12222
SG	12223
discharged	12224
ink	12225
possessing	12226
postpone	12227
steel	12228
Acknowledges	12229
Box	12230
Endorses	12231
Jean-@@	12232
MOTAPM	12233
drug-related	12234
m2	12235
testify	12236
Preparations	12237
says	12238
2004-@@	12239
Gbagbo	12240
Manila	12241
Metohija	12242
8,500	12243
BO@@	12244
DLDD	12245
DR	12246
Land@@	12247
Repertory	12248
notices	12249
secondly	12250
tered	12251
314	12252
Barcelona	12253
Holocaust	12254
bail	12255
nearby	12256
tin	12257
Complaints	12258
Dubai	12259
L.24	12260
Subsequent	12261
Trusteeship	12262
bombings	12263
cautioned	12264
gravely	12265
jus	12266
ree	12267
Lar@@	12268
SI	12269
XVIII	12270
ambassadors	12271
artists	12272
bre@@	12273
debt-@@	12274
ids	12275
ination	12276
respiratory	12277
wait	12278
21.@@	12279
Maj@@	12280
Which	12281
X.	12282
connecting	12283
flee	12284
interpreting	12285
sex-disaggregated	12286
Bodies	12287
Speci@@	12288
commercially	12289
inefficient	12290
modifying	12291
986	12292
Proceedings	12293
ao	12294
desktop	12295
pling	12296
substitution	12297
RECOMMENDATIONS	12298
al.	12299
geographically	12300
underpinned	12301
va	12302
631	12303
CN.17	12304
DIS	12305
Es@@	12306
ains	12307
broadest	12308
complementarities	12309
deliverables	12310
graduated	12311
hospitality	12312
infringement	12313
meals	12314
319	12315
SAF	12316
Soci@@	12317
cars	12318
chan@@	12319
delicate	12320
editing	12321
explanatory	12322
teach	12323
45th	12324
Crown	12325
Different	12326
Med@@	12327
Tripoli	12328
complexities	12329
metadata	12330
percentages	12331
trace	12332
60,000	12333
aki	12334
ater@@	12335
costed	12336
foods	12337
ment-related	12338
Hy@@	12339
disagreement	12340
oma	12341
Brigade	12342
Positive	12343
competency	12344
informative	12345
90,@@	12346
95@@	12347
Has@@	12348
To@@	12349
arbitrator	12350
breached	12351
fundraising	12352
hungry	12353
reminds	12354
unjustified	12355
planted	12356
stream	12357
treatments	12358
exc@@	12359
localities	12360
mixture	12361
superior	12362
Completion	12363
computerized	12364
lic@@	12365
murders	12366
tongue	12367
Around	12368
Internally	12369
app@@	12370
atomic	12371
consumed	12372
ut	12373
vicious	12374
Disasters	12375
multilingual	12376
ounding	12377
possessed	12378
2006-@@	12379
contradiction	12380
thirty-fifth	12381
ust	12382
worsened	12383
Consumer	12384
spots	12385
2,600	12386
Kashmir	12387
Rican	12388
Riyadh	12389
besides	12390
chi	12391
discharging	12392
engages	12393
inland	12394
kin	12395
26th	12396
aquatic	12397
symbol	12398
3,600	12399
Asylum	12400
Pa@@	12401
cocoa	12402
3,200	12403
Operative	12404
PF	12405
acceleration	12406
ideology	12407
ier	12408
naturally	12409
rationalize	12410
sat	12411
Bol@@	12412
Jab@@	12413
Referendum	12414
WSIS	12415
collections	12416
space-related	12417
Mohammad	12418
Taylor	12419
disappointment	12420
exhibitions	12421
refining	12422
transferable	12423
326	12424
F-15	12425
year-end	12426
2,300	12427
70,@@	12428
Jews	12429
US@@	12430
expose	12431
fence	12432
intraregional	12433
wounding	12434
Do	12435
Sy@@	12436
Yu@@	12437
excludes	12438
shooting	12439
401	12440
Mindful	12441
friend	12442
ger	12443
half-@@	12444
needy	12445
ush	12446
L.21	12447
L.23	12448
Position	12449
foot	12450
sums	12451
6,500	12452
ISS	12453
Sab@@	12454
WMD	12455
scaled	12456
someone	12457
IDA	12458
JEM	12459
Ven@@	12460
abe@@	12461
circle	12462
315	12463
420	12464
correlation	12465
rah	12466
327	12467
4,0@@	12468
DE	12469
Jan	12470
Unlike	12471
convoy	12472
gear	12473
hn@@	12474
murdered	12475
Form	12476
Oceania	12477
biased	12478
classrooms	12479
cloning	12480
edi@@	12481
famine	12482
sli@@	12483
T-@@	12484
commemorate	12485
doc@@	12486
orphaned	12487
-1	12488
CERF	12489
Cl@@	12490
EUFOR	12491
TER@@	12492
centuries	12493
1,900	12494
2,700	12495
46th	12496
CWC	12497
incorrect	12498
safeguarded	12499
supervisors	12500
HKSAR	12501
L.29	12502
Macroeconomic	12503
ili@@	12504
manifestation	12505
multi-donor	12506
vetting	12507
1514	12508
1996-@@	12509
Definition	12510
Kas@@	12511
Need	12512
aches	12513
battalions	12514
ce-@@	12515
conflict-related	12516
duty-free	12517
indictments	12518
stewardship	12519
Operating	12520
PPP	12521
conc@@	12522
contest	12523
enlargement	12524
ishes	12525
medi@@	12526
restructured	12527
340	12528
Gran@@	12529
aqu@@	12530
ened	12531
market-based	12532
colleague	12533
contentious	12534
proactively	12535
retraining	12536
Rodríguez	12537
Submitted	12538
mentioning	12539
motherhood	12540
origins	12541
subjective	12542
til@@	12543
27th	12544
6.8	12545
Robert	12546
asbestos	12547
ous@@	12548
unfavourable	12549
uniforms	12550
Alfonso	12551
Don@@	12552
Eurostat	12553
Mountain	12554
Protecting	12555
blocked	12556
overlooked	12557
predeployment	12558
tireless	12559
11.30	12560
4.	12561
Navigation	12562
arized	12563
deployments	12564
detecting	12565
fir@@	12566
subsection	12567
El-@@	12568
Elements	12569
Manufacturing	12570
Pri@@	12571
Purpose	12572
SCO	12573
cop@@	12574
ent-@@	12575
smuggled	12576
trade-@@	12577
vigilance	12578
35,@@	12579
Nur@@	12580
Occupational	12581
altitude	12582
aquaculture	12583
complies	12584
patrolling	12585
stipulate	12586
Fac@@	12587
followup	12588
locate	12589
textiles	12590
Focal	12591
Shanghai	12592
educ@@	12593
30th	12594
Ali@@	12595
CRP.3	12596
Junior	12597
OR	12598
WCO	12599
WE@@	12600
na@@	12601
George	12602
Palais	12603
Strongly	12604
attributes	12605
az	12606
Länder	12607
replicated	12608
ICA	12609
Mari@@	12610
TED	12611
coup	12612
sub-regional	12613
Gali	12614
Still	12615
forcible	12616
insufficiently	12617
labelling	12618
precision	12619
Add.8	12620
JS@@	12621
curbing	12622
fications	12623
parking	12624
supreme	12625
Macao	12626
carriage	12627
embark	12628
eva	12629
four@@	12630
frustration	12631
reasoning	12632
recovering	12633
whilst	12634
Cab@@	12635
T.	12636
War@@	12637
ré@@	12638
CT	12639
Compared	12640
cia	12641
overhead	12642
Ankara	12643
Hon@@	12644
Industries	12645
SM@@	12646
assaults	12647
deadlock	12648
dozens	12649
serviced	12650
thresholds	12651
viii	12652
8.1	12653
Chairmen	12654
Coast	12655
Experiencing	12656
Guatemalan	12657
Heavily	12658
ICA@@	12659
Potential	12660
Sharing	12661
gay	12662
hereby	12663
predicted	12664
ula	12665
1559	12666
Inventory	12667
POLISARIO	12668
catastrophic	12669
reversing	12670
8.2	12671
Hunger	12672
Rapid	12673
anti-trafficking	12674
boat	12675
ony	12676
privileged	12677
sit	12678
verbal	12679
Tripartite	12680
wholly	12681
IPF	12682
Including	12683
JS2	12684
authorizes	12685
manifestly	12686
tenders	12687
weakening	12688
80,@@	12689
Upper	12690
Wor@@	12691
cont@@	12692
exhibit	12693
high-ranking	12694
refinement	12695
ç@@	12696
1946	12697
Payments	12698
interior	12699
unpredictable	12700
AT	12701
Supervision	12702
UN-@@	12703
Vice-Chairmen	12704
ail	12705
apartheid	12706
audio-visual	12707
formalized	12708
sporting	12709
two-day	12710
2,800	12711
Add.10	12712
Course	12713
Demand	12714
Emerging	12715
Games	12716
Sel@@	12717
bin@@	12718
tec@@	12719
2013-@@	12720
24th	12721
Workshops	12722
compendium	12723
gangs	12724
Banking	12725
Lisbon	12726
Str@@	12727
completeness	12728
disappointed	12729
short-@@	12730
vibrant	12731
42nd	12732
85@@	12733
CBD	12734
DF	12735
Ki@@	12736
Sustainability	12737
confession	12738
enduring	12739
petitions	12740
slum-dwellers	12741
ei@@	12742
expended	12743
judgments	12744
mayors	12745
self@@	12746
translators	12747
demonstrators	12748
evening	12749
outbreaks	12750
setbacks	12751
Convinced	12752
Katanga	12753
Observations	12754
Ga@@	12755
Iraqis	12756
Maternity	12757
culminated	12758
oned	12759
pay@@	12760
reconfiguration	12761
29th	12762
Irish	12763
Protect	12764
Somalis	12765
ñ@@	12766
150,000	12767
GEO	12768
intake	12769
Closed	12770
FC	12771
Has	12772
SR	12773
Vice-Chairperson	12774
bottlenecks	12775
neonatal	12776
Aircraft	12777
Fasher	12778
Fel@@	12779
Firstly	12780
TP@@	12781
lam@@	12782
omissions	12783
Reiterating	12784
ned	12785
ä@@	12786
Delegation	12787
Orthodox	12788
dly	12789
life-saving	12790
orbital	12791
Can	12792
field-based	12793
intern@@	12794
proving	12795
warnings	12796
Bri@@	12797
HA	12798
ample	12799
negligence	12800
4.30	12801
dered	12802
doubling	12803
fre@@	12804
piloted	12805
respectful	12806
ulation	12807
unlawfully	12808
09@@	12809
ascertained	12810
bore	12811
introduces	12812
tam@@	12813
tourists	12814
Assist	12815
Consent	12816
Forty-@@	12817
Pitcairn	12818
Prosecutors	12819
disorder	12820
366	12821
downturn	12822
hosts	12823
iya	12824
syndrome	12825
uncontrolled	12826
4,200	12827
Organs	12828
Publication	12829
SPLOS	12830
TRA@@	12831
assesses	12832
circum@@	12833
inter-State	12834
lifelong	12835
Tables	12836
expel	12837
forget	12838
gener@@	12839
keynote	12840
stabilizing	12841
44th	12842
averaged	12843
eda	12844
lag	12845
opted	12846
rifles	12847
Men@@	12848
estimating	12849
log@@	12850
old-age	12851
post-disaster	12852
Ecosystem	12853
Pra@@	12854
Prohibitions	12855
XL@@	12856
approves	12857
cubic	12858
development-oriented	12859
factory	12860
tactics	12861
Kenyan	12862
ards	12863
benchmarking	12864
375	12865
Regulatory	12866
constitutions	12867
end-@@	12868
philosophy	12869
FOR@@	12870
HIV-positive	12871
aba	12872
deterrence	12873
obligated	12874
Arts	12875
Sound	12876
labour-intensive	12877
Intranet	12878
Niño	12879
Omar	12880
exceptionally	12881
improves	12882
iring	12883
itting	12884
thirty-first	12885
Cel@@	12886
Dam@@	12887
ICJ	12888
Kordofan	12889
L.26	12890
Minsk	12891
collec@@	12892
excuse	12893
inherited	12894
lesson	12895
&apos;t	12896
bat@@	12897
eighty-@@	12898
importation	12899
stereotypical	12900
vice-@@	12901
Cat@@	12902
Reduced	12903
Vietnamese	12904
abusers	12905
ils	12906
uc@@	12907
Companies	12908
Disputes	12909
Loss	12910
deprive	12911
inter-committee	12912
motives	12913
86@@	12914
Event	12915
Exc@@	12916
RT@@	12917
Bio@@	12918
ICG	12919
Institution	12920
Renewable	12921
Week	12922
contradictory	12923
daunting	12924
officio	12925
pooled	12926
style	12927
317	12928
323	12929
349	12930
48th	12931
Damage	12932
Faculty	12933
Ratify	12934
Tribal	12935
eu@@	12936
misleading	12937
rainfall	12938
synthetic	12939
38,@@	12940
aching	12941
antly	12942
detailing	12943
interdepartmental	12944
Bat@@	12945
Close	12946
Coastal	12947
ath@@	12948
cantons	12949
fleeing	12950
ic-@@	12951
paths	12952
sol@@	12953
truck	12954
XXIX	12955
discrepancy	12956
much-needed	12957
unwilling	12958
Bissau	12959
DH	12960
Fiscal	12961
Meteorological	12962
System-wide	12963
ante	12964
ate-@@	12965
destinations	12966
inaction	12967
low-carbon	12968
traded	12969
Hum@@	12970
KWD	12971
equitably	12972
ik	12973
pirates	12974
prosecutorial	12975
swing	12976
Bulletin	12977
Cro@@	12978
Sw@@	12979
Torres	12980
bolster	12981
peninsula	12982
sort	12983
um-@@	12984
vouchers	12985
400,000	12986
49,@@	12987
Deployment	12988
Ms	12989
Worst	12990
insurgency	12991
AWG	12992
clim@@	12993
ité	12994
vic@@	12995
well-established	12996
Commun@@	12997
barracks	12998
belongs	12999
bon@@	13000
hotels	13001
keen	13002
tolerated	13003
underpinning	13004
2,100	13005
Bunia	13006
Harmonization	13007
L.25	13008
Plant	13009
UNE@@	13010
elec@@	13011
energies	13012
Available	13013
videoconferencing	13014
Pilot	13015
constituency	13016
hot	13017
hum@@	13018
lec@@	13019
497	13020
ity-@@	13021
mediators	13022
schoolchildren	13023
4.9	13024
Ara@@	13025
Facilitate	13026
Santa	13027
embargoes	13028
geography	13029
non-binding	13030
onto	13031
slowed	13032
GU@@	13033
Maoist	13034
RE	13035
rit@@	13036
Vol@@	13037
aria	13038
attachment	13039
avert	13040
en-@@	13041
sitting	13042
God	13043
L.27	13044
Reduce	13045
anga	13046
anticipation	13047
eds	13048
mar	13049
politicization	13050
repetition	13051
ud	13052
zz@@	13053
Anti@@	13054
dor@@	13055
eri	13056
ills	13057
inequities	13058
lex	13059
sudden	13060
Geographic	13061
Stat@@	13062
Ts	13063
bilaterally	13064
dispersed	13065
intentionally	13066
premise	13067
sit@@	13068
stricter	13069
333	13070
je@@	13071
life-@@	13072
toolkit	13073
1965	13074
520	13075
Belarusian	13076
Successful	13077
for-@@	13078
retro@@	13079
symbols	13080
vis@@	13081
CD-ROM	13082
a.@@	13083
addiction	13084
donation	13085
infantry	13086
uni@@	13087
volunteering	13088
absorption	13089
formulations	13090
&apos;at	13091
Gh@@	13092
insist	13093
unequivocally	13094
L.38	13095
RO	13096
Romanian	13097
beatings	13098
differed	13099
escalating	13100
innocence	13101
oms	13102
progressed	13103
5,200	13104
CFAF	13105
F-14	13106
Ny@@	13107
rhetoric	13108
ía	13109
Helsinki	13110
Ambassadors	13111
GENERAL	13112
affirming	13113
gre@@	13114
panellist	13115
precious	13116
402	13117
Eighth	13118
Shar@@	13119
scores	13120
si	13121
streams	13122
videos	13123
Peruvian	13124
cour@@	13125
labourers	13126
pave	13127
Component	13128
Pakistani	13129
Prince	13130
Strong	13131
Tlatelolco	13132
overly	13133
Diseases	13134
iled	13135
mentions	13136
path@@	13137
roll	13138
Emphasis	13139
Jal@@	13140
convincing	13141
mentation	13142
ordering	13143
repayment	13144
weaken	13145
ables	13146
mechanical	13147
non-staff	13148
spot	13149
Commissioner-General	13150
Corps	13151
Nacional	13152
cer@@	13153
headings	13154
irresponsible	13155
mi	13156
1572	13157
507	13158
awarding	13159
bureaucratic	13160
diminishing	13161
primacy	13162
re-establish	13163
Counter@@	13164
UNA0@@	13165
brokers	13166
corridor	13167
disrupt	13168
milit@@	13169
slower	13170
Awards	13171
Christians	13172
Dangerous	13173
asc@@	13174
institutionalize	13175
3,300	13176
41st	13177
Being	13178
Indicator	13179
PRSPs	13180
Sum@@	13181
UNIKOM	13182
Underlines	13183
belonged	13184
rosters	13185
yed	13186
1960s	13187
Disciplinary	13188
Inc	13189
Often	13190
distant	13191
insight	13192
lawfulness	13193
ratings	13194
Start	13195
easing	13196
federations	13197
ny	13198
shop	13199
ward	13200
324	13201
354	13202
CEO	13203
L.32	13204
UNFIP	13205
cross@@	13206
human-@@	13207
human@@	13208
lifestyle	13209
minefields	13210
non-existent	13211
policemen	13212
3,6@@	13213
B-@@	13214
Teaching	13215
occupancy	13216
yer	13217
Van	13218
appellate	13219
lasted	13220
mistreatment	13221
non-violent	13222
reconciling	13223
skin	13224
storms	13225
4,300	13226
Ol@@	13227
physicians	13228
representations	13229
stone	13230
Canal	13231
L.34	13232
Shab	13233
ket@@	13234
parks	13235
rers	13236
vein	13237
335	13238
Bir@@	13239
Ev@@	13240
inv@@	13241
real@@	13242
refrigeration	13243
sincerely	13244
3,700	13245
Francophonie	13246
bursts	13247
distinctive	13248
sson	13249
2003-@@	13250
Less	13251
Nuclear-Weapon-Free	13252
aboriginal	13253
aer@@	13254
pon@@	13255
Anti-Personnel	13256
EEC	13257
Ten@@	13258
Weekly	13259
ancestral	13260
dom@@	13261
feet	13262
midwives	13263
Prospects	13264
autumn	13265
human-rights	13266
ona	13267
optimistic	13268
widen	13269
Depending	13270
disrupted	13271
endorsing	13272
referrals	13273
symptoms	13274
2009-2010	13275
Abolition	13276
Gor@@	13277
Hampson	13278
Objects	13279
full-@@	13280
nan@@	13281
twenty-ninth	13282
ute	13283
Activity	13284
Buildings	13285
Tr@@	13286
Trading	13287
incursions	13288
seconded	13289
AL	13290
BC	13291
Enterprises	13292
Maz@@	13293
al-level	13294
apparatus	13295
drug-@@	13296
flu@@	13297
interrupted	13298
planting	13299
Cre@@	13300
Save	13301
basket	13302
briefs	13303
contention	13304
dismantle	13305
enters	13306
extortion	13307
trillion	13308
Active	13309
MOU	13310
ae	13311
comparing	13312
ever-@@	13313
reclassified	13314
smoking	13315
Grants	13316
Investing	13317
ODP-tonnes	13318
Regions	13319
fora	13320
originated	13321
Co-operation	13322
Covenants	13323
acquitted	13324
allies	13325
bodily	13326
chairman	13327
reconciled	13328
susceptible	13329
unimpeded	13330
LTTE	13331
Large	13332
SSC	13333
complementing	13334
end-users	13335
fauna	13336
revitalizing	13337
13,000	13338
322	13339
ly@@	13340
materiae	13341
resist	13342
siege	13343
250,000	13344
3,400	13345
Missing	13346
abolishing	13347
booklet	13348
construed	13349
heinous	13350
internet	13351
premium	13352
sediment	13353
terrible	13354
tetrachloride	13355
Reg@@	13356
eyes	13357
ombudsman	13358
wing	13359
22.@@	13360
UNIPSIL	13361
cholera	13362
habeas	13363
incur	13364
insertion	13365
launches	13366
resorting	13367
sum@@	13368
337	13369
Processing	13370
Rumaysh	13371
qualities	13372
tab@@	13373
26-@@	13374
Layer	13375
aga	13376
agro-@@	13377
arbitrators	13378
broke	13379
one-day	13380
prefabricated	13381
qualifying	13382
unconstitutional	13383
ACP	13384
Abbas	13385
Return	13386
alists	13387
bor@@	13388
commissioners	13389
patri@@	13390
warmly	13391
Established	13392
aci@@	13393
criminalizes	13394
incite	13395
practise	13396
settler	13397
43rd	13398
Childhood	13399
Missile	13400
celebrated	13401
fifty	13402
foodstuffs	13403
ious	13404
lar@@	13405
null	13406
situ	13407
7,800	13408
college	13409
daughters	13410
implicit	13411
lighting	13412
plane	13413
rolled	13414
EA-6B	13415
Gas	13416
child-friendly	13417
combustion	13418
cost-benefit	13419
harnessing	13420
m3	13421
postponement	13422
rejecting	13423
unintended	13424
zo	13425
Kir@@	13426
Sarajevo	13427
dinars	13428
gers	13429
inter-ethnic	13430
rey	13431
tom@@	13432
IONS	13433
Leg@@	13434
Victim	13435
economical	13436
ence-@@	13437
eous	13438
films	13439
ram@@	13440
39,@@	13441
AU@@	13442
Host	13443
finished	13444
irrelevant	13445
lower-@@	13446
precluded	13447
record-keeping	13448
-specific	13449
Decree-Law	13450
GN@@	13451
Interest	13452
MP	13453
authorizations	13454
geopolitical	13455
operationally	13456
smallholder	13457
translations	13458
ME	13459
austerity	13460
embassies	13461
first-hand	13462
printers	13463
retreat	13464
..	13465
1993-@@	13466
329	13467
4,800	13468
oti@@	13469
oz@@	13470
sil@@	13471
OzL.Pro.@@	13472
akh@@	13473
ef	13474
employs	13475
itable	13476
necessitated	13477
vector	13478
Bukavu	13479
Corrections	13480
ICESCR	13481
Rou@@	13482
Scotland	13483
charts	13484
ees	13485
informs	13486
lieu	13487
mad@@	13488
med@@	13489
merged	13490
Jabal	13491
PD@@	13492
agu@@	13493
kin@@	13494
knows	13495
negotiators	13496
remediation	13497
searching	13498
set@@	13499
understandings	13500
Equitable	13501
Negotiating	13502
convoys	13503
designating	13504
five-@@	13505
grenades	13506
ide@@	13507
need@@	13508
satisfactorily	13509
suffers	13510
AWACS	13511
calculate	13512
24-hour	13513
8.8	13514
Plus	13515
anticipate	13516
appearing	13517
entrance	13518
ept	13519
hat@@	13520
ight	13521
let@@	13522
rivers	13523
-building	13524
3,9@@	13525
FR@@	13526
Gre@@	13527
LD	13528
R-@@	13529
Worldwide	13530
alled	13531
equipping	13532
expedited	13533
factories	13534
legislations	13535
rolling	13536
rubber	13537
stationed	13538
struggling	13539
walls	13540
4,8@@	13541
Thirteenth	13542
complicity	13543
data-@@	13544
patent	13545
pushed	13546
rever@@	13547
ria	13548
sing@@	13549
426	13550
Consolidation	13551
ML@@	13552
NCDs	13553
Naz@@	13554
Nine	13555
Prisons	13556
Remote	13557
ake	13558
archiving	13559
median	13560
non-agricultural	13561
probability	13562
1-3	13563
3,5@@	13564
8.3	13565
Tall	13566
altogether	13567
bert	13568
differentiation	13569
knowledge-based	13570
modernizing	13571
objected	13572
Mortality	13573
Wh@@	13574
inherently	13575
olog@@	13576
prospecting	13577
raids	13578
tickets	13579
unarmed	13580
IHL	13581
conception	13582
feeling	13583
gang	13584
interruption	13585
ular	13586
4,400	13587
Chilean	13588
Mobilization	13589
Procedural	13590
commending	13591
idi	13592
rati@@	13593
sul@@	13594
COSP	13595
Drawing	13596
EB@@	13597
Figures	13598
Otherwise	13599
aid@@	13600
elev@@	13601
hra@@	13602
knowing	13603
pa	13604
rup@@	13605
shoulder	13606
334	13607
James	13608
PI	13609
Panels	13610
Seas	13611
Vo@@	13612
XXV	13613
ancy	13614
elling	13615
housed	13616
ith	13617
supervising	13618
temperatures	13619
tieth	13620
ug	13621
Broadcasting	13622
Highway	13623
IAS	13624
contributory	13625
homelessness	13626
inaccessible	13627
shelling	13628
warehouses	13629
Religion	13630
admit	13631
homeland	13632
markedly	13633
pir@@	13634
shadow	13635
345	13636
Immunities	13637
chairing	13638
47th	13639
Contemporary	13640
Timely	13641
aim@@	13642
apportioned	13643
halving	13644
mobil@@	13645
stand@@	13646
2007-@@	13647
Lomé	13648
Observing	13649
UNSMIL	13650
commentaries	13651
grid	13652
immune	13653
unrepresented	13654
Raj@@	13655
Updated	13656
bans	13657
lesbian	13658
Pierre	13659
Rab@@	13660
Silva	13661
defec@@	13662
hab@@	13663
incumbency	13664
mission-specific	13665
special-purpose	13666
352	13667
6,600	13668
UNMIN	13669
habitat	13670
inadequacy	13671
long-range	13672
proclamation	13673
thou@@	13674
37th	13675
DNA	13676
Identifying	13677
addenda	13678
agro@@	13679
convenience	13680
facie	13681
generously	13682
handicapped	13683
nondiscrimination	13684
out-of-@@	13685
7,600	13686
intimate	13687
investigator	13688
outs	13689
six-@@	13690
strain	13691
vacuum	13692
Coherence	13693
L.28	13694
Yemeni	13695
brochure	13696
compel	13697
distinctions	13698
salt	13699
ACTIVITIES	13700
Jurists	13701
MI	13702
bes	13703
law-enforcement	13704
manpower	13705
quota-free	13706
radios	13707
unite	13708
CNDP	13709
Inspectorate	13710
democratically	13711
on-line	13712
7,200	13713
TN@@	13714
Threat	13715
envisioned	13716
exploiting	13717
forgotten	13718
invoking	13719
missed	13720
6,200	13721
AA@@	13722
Savings	13723
boxes	13724
cattle	13725
concurrence	13726
food-@@	13727
magistrate	13728
ï@@	13729
Create	13730
Efficiency	13731
Tim@@	13732
poverty-@@	13733
reconciliations	13734
s-based	13735
3,800	13736
Freetown	13737
Next	13738
alo@@	13739
checking	13740
conditionalities	13741
distortions	13742
importers	13743
invalidity	13744
pros@@	13745
sacred	13746
tou@@	13747
CTOC	13748
Est@@	13749
South-West	13750
UNJSPF	13751
checked	13752
debtors	13753
exemplary	13754
objectively	13755
rid	13756
talking	13757
unaware	13758
39th	13759
661	13760
9.1	13761
Explosives	13762
Lead	13763
Richard	13764
USAID	13765
hard-@@	13766
olu@@	13767
prominently	13768
Broad@@	13769
Fal@@	13770
Station	13771
arguing	13772
earthquakes	13773
exhibits	13774
fuelling	13775
ici@@	13776
ignorance	13777
proxy	13778
stockpiled	13779
DU@@	13780
Majesty	13781
Nyala	13782
eration	13783
ero	13784
liberal	13785
looted	13786
touch	13787
treasury	13788
-month	13789
amparo	13790
diet	13791
hotline	13792
implication	13793
ique	13794
ners	13795
server	13796
321	13797
Grant	13798
LAC	13799
Managers	13800
cogens	13801
contra@@	13802
eral	13803
fosters	13804
inhabited	13805
questionable	13806
31st	13807
336	13808
Met@@	13809
deem	13810
instalments	13811
rul@@	13812
scholarship	13813
Int@@	13814
Uzbek	13815
cent@@	13816
divergent	13817
fought	13818
ner@@	13819
tell	13820
Le	13821
Recognize	13822
Twenty	13823
burned	13824
chem@@	13825
ories	13826
par	13827
prior-period	13828
redistribution	13829
sh	13830
1995-@@	13831
4,700	13832
5,800	13833
50th	13834
FATF	13835
L.39	13836
cater	13837
6,400	13838
L.36	13839
Looking	13840
Op@@	13841
Selected	13842
bottom-up	13843
interfaith	13844
notions	13845
pooling	13846
prescribes	13847
renounce	13848
surviving	13849
RY	13850
cost-recovery	13851
dam	13852
devastation	13853
intra@@	13854
inward	13855
migrate	13856
replication	13857
sector@@	13858
Delegates	13859
centrality	13860
dia	13861
e-government	13862
indefinitely	13863
machineries	13864
por@@	13865
prima	13866
sorties	13867
und	13868
331	13869
Francisco	13870
GC.22	13871
Tak@@	13872
adi@@	13873
boosting	13874
conservative	13875
demilitarized	13876
disaster-@@	13877
endeavoured	13878
ji@@	13879
prof@@	13880
unsuccessful	13881
Amend	13882
Protected	13883
cos@@	13884
craft	13885
edo	13886
incapacity	13887
instructors	13888
performs	13889
spec@@	13890
Conven@@	13891
assigning	13892
inactive	13893
y-based	13894
1994-@@	13895
364	13896
Issue	13897
Lab@@	13898
Por@@	13899
XXVI	13900
bil@@	13901
concurrent	13902
painful	13903
principled	13904
revisit	13905
yi	13906
332	13907
Budapest	13908
Ng@@	13909
North-East	13910
Release	13911
Sur@@	13912
charging	13913
clothes	13914
dy	13915
stones	13916
Bin	13917
Payment	13918
breaks	13919
censorship	13920
ever@@	13921
ico	13922
non-food	13923
reas@@	13924
wet	13925
1955	13926
3.9	13927
Criteria	13928
FE@@	13929
Frameworks	13930
Lin@@	13931
accrual	13932
aving	13933
dat@@	13934
hindering	13935
il-@@	13936
mal	13937
reinforces	13938
transformative	13939
ups	13940
Analy@@	13941
L.30	13942
Modalities	13943
divorced	13944
fuller	13945
rehabilitated	13946
reuse	13947
sociocultural	13948
wan	13949
2,900	13950
413	13951
Dev@@	13952
Highly	13953
RUF	13954
deliberation	13955
disappointing	13956
encompassed	13957
ily	13958
planners	13959
speeches	13960
thin@@	13961
COMMITTEE	13962
Cho@@	13963
Entry	13964
Laboratory	13965
aw	13966
clan	13967
hybrid	13968
technique	13969
Americans	13970
Migratory	13971
brain	13972
conserve	13973
repealed	13974
8,400	13975
bids	13976
by@@	13977
discontinuation	13978
eries	13979
impartially	13980
mature	13981
redeploy	13982
repu@@	13983
shaped	13984
zed	13985
Household	13986
ar-@@	13987
illtreatment	13988
lenders	13989
pot@@	13990
1907	13991
Commends	13992
Privileges	13993
Sus@@	13994
Teachers	13995
naturalization	13996
non-members	13997
staying	13998
tag@@	13999
8.5	14000
9.2	14001
SAP	14002
SC-@@	14003
Tornado	14004
aegis	14005
airline	14006
commercialization	14007
escorted	14008
malnourished	14009
penetration	14010
pensioners	14011
retains	14012
3,7@@	14013
4,600	14014
But@@	14015
IPBES	14016
UD@@	14017
XXIII	14018
displacements	14019
ho	14020
km2	14021
webcast	14022
2011-2012	14023
Book	14024
Collection	14025
competences	14026
inaccurate	14027
intermediary	14028
plastic	14029
rigid	14030
5,600	14031
50-@@	14032
6,800	14033
UNHabitat	14034
attendant	14035
broadcasters	14036
colon@@	14037
superiority	14038
38th	14039
410	14040
Benefit	14041
Ful@@	14042
Low	14043
Pesticides	14044
Rob@@	14045
U-@@	14046
strife	14047
surpluses	14048
tia	14049
1521	14050
Continental	14051
Medium-term	14052
Miguel	14053
aly@@	14054
heed	14055
prominence	14056
punishments	14057
Ari@@	14058
BINUB	14059
Considerable	14060
DRC	14061
Hizbullah	14062
Lim@@	14063
magazines	14064
terror@@	14065
time-consuming	14066
196@@	14067
CR	14068
FP	14069
Santos	14070
destabilize	14071
generates	14072
inspect	14073
rence	14074
selectivity	14075
374	14076
7.8	14077
Cotonou	14078
Ky@@	14079
ais	14080
allotted	14081
infringed	14082
port@@	14083
vegetation	14084
AIDS-related	14085
overriding	14086
quantify	14087
weighted	14088
5,400	14089
Adult	14090
Back	14091
Delivery	14092
hunting	14093
influences	14094
mul@@	14095
Estonian	14096
Strait	14097
catastrophe	14098
end-user	14099
groundwork	14100
prescription	14101
rectify	14102
stayed	14103
surprising	14104
.int	14105
600,000	14106
Ok@@	14107
af	14108
cabinet	14109
esa	14110
2003-2004	14111
Elec@@	14112
conditionality	14113
feminization	14114
fuelled	14115
promotions	14116
27-@@	14117
347	14118
Kin@@	14119
ei	14120
ethnically	14121
ima	14122
ng	14123
ome	14124
professors	14125
ø@@	14126
1956	14127
414	14128
stabilized	14129
summarizing	14130
thermal	14131
childbearing	14132
lo	14133
manipulation	14134
touched	14135
780	14136
L.31	14137
NS	14138
Reservations	14139
Wa@@	14140
abstention	14141
agrarian	14142
attorney	14143
expediting	14144
illustrative	14145
Kor@@	14146
L.35	14147
aggregated	14148
biannual	14149
defects	14150
feels	14151
gs	14152
piece	14153
sm	14154
titled	14155
watch	14156
503	14157
coalitions	14158
hyper@@	14159
quantifiable	14160
tual	14161
unconditionally	14162
understandable	14163
Bil@@	14164
condom	14165
iri@@	14166
tran@@	14167
6,300	14168
9,500	14169
Digital	14170
Selection	14171
State-owned	14172
chapeau	14173
ounded	14174
polar	14175
Repertoire	14176
channelling	14177
exerted	14178
possesses	14179
ray	14180
resolute	14181
symbolic	14182
PCB	14183
Sand@@	14184
compl@@	14185
counsellors	14186
desks	14187
drilling	14188
illegitimate	14189
leased	14190
plantations	14191
pur@@	14192
villagers	14193
,000,000	14194
2008-2013	14195
430	14196
ADB	14197
AH@@	14198
Homs	14199
Mano	14200
Produc@@	14201
UNCC	14202
at-risk	14203
day@@	14204
militants	14205
357	14206
Banks	14207
L.43	14208
SLA	14209
aerospace	14210
aspiration	14211
det@@	14212
liberties	14213
lodge	14214
proc@@	14215
scal@@	14216
14,000	14217
34th	14218
Log@@	14219
pools	14220
redundant	14221
wheat	14222
work-months	14223
24.@@	14224
Maghreb	14225
Rabat	14226
Railway	14227
Storage	14228
ases	14229
bling	14230
exempted	14231
followers	14232
icity	14233
interpreter	14234
mounting	14235
ote	14236
tree	14237
1503	14238
341	14239
GCC	14240
L.42	14241
Mitigation	14242
Petro@@	14243
Sale	14244
blueprint	14245
dynamism	14246
encies	14247
surpassed	14248
3,900	14249
DESA	14250
Except	14251
GPS	14252
Inspira	14253
alizes	14254
entrust	14255
gifts	14256
stems	14257
sympathy	14258
339	14259
Assisting	14260
Kr@@	14261
assuring	14262
cy	14263
lers	14264
occasional	14265
twenty	14266
Accession	14267
Arabian	14268
Bay@@	14269
Requested	14270
cruise	14271
family-@@	14272
sup@@	14273
REDD-plus	14274
UNITED	14275
broad@@	14276
forfeiture	14277
secretary	14278
vacation	14279
356	14280
5,300	14281
Accepted	14282
Bos@@	14283
Fe@@	14284
L.49	14285
batteries	14286
cohesive	14287
imperatives	14288
infrastructural	14289
twenty-@@	14290
undesirable	14291
3,4@@	14292
Basin	14293
Cap	14294
Counsellor	14295
Informed	14296
MISC.@@	14297
Online	14298
TIVE	14299
aran@@	14300
aug@@	14301
eding	14302
meg@@	14303
premiums	14304
pride	14305
self-help	14306
0.1	14307
Liberty	14308
Malaysian	14309
Mol@@	14310
Pedro	14311
bal@@	14312
characterization	14313
classroom	14314
hurricanes	14315
relocate	14316
tal@@	14317
Accreditation	14318
Aleppo	14319
Certificate	14320
Challenge	14321
Commodity	14322
L.48	14323
Solutions	14324
ased	14325
buying	14326
co-location	14327
ert	14328
fast-@@	14329
referenced	14330
soils	14331
3,100	14332
36th	14333
oud	14334
self-evaluation	14335
tabled	14336
Bekaa	14337
History	14338
Languages	14339
feelings	14340
informational	14341
post-retirement	14342
shock	14343
7,300	14344
Mit@@	14345
Nagorny	14346
Productive	14347
Sup@@	14348
ambition	14349
partnering	14350
py@@	14351
surrendered	14352
wel@@	14353
wounds	14354
406	14355
L.37	14356
Very	14357
refoulement	14358
CONF.2010	14359
IES	14360
Obligations	14361
SFOR	14362
Victoria	14363
ailing	14364
concentrating	14365
enrich	14366
inaugurated	14367
initi@@	14368
organ@@	14369
pledging	14370
radar	14371
1591	14372
Beings	14373
graph@@	14374
sizeable	14375
4,5@@	14376
EP	14377
LC	14378
bisexual	14379
grouping	14380
owe	14381
resurgence	14382
star@@	14383
348	14384
5,0@@	14385
Indiscriminate	14386
Nov@@	14387
depriving	14388
honest	14389
ives	14390
mismanagement	14391
omy	14392
Bah@@	14393
Extraordinary	14394
analysts	14395
annotations	14396
arch@@	14397
barely	14398
intercountry	14399
mountains	14400
south-east	14401
344	14402
FF	14403
L.33	14404
LLDCs	14405
Mam@@	14406
Speaker	14407
adaptive	14408
defeat	14409
deser@@	14410
divert	14411
kil@@	14412
specificity	14413
Critical	14414
Terms	14415
WP@@	14416
advises	14417
interrogated	14418
ond@@	14419
resistant	14420
timetables	14421
vitamin	14422
CN.5	14423
Man	14424
accommodations	14425
gr@@	14426
instituting	14427
long-lasting	14428
reactors	14429
unrelated	14430
372	14431
460	14432
CF	14433
Polisario	14434
Prize	14435
neo-@@	14436
releasing	14437
tible	14438
zi@@	14439
509	14440
Bush	14441
Maputo	14442
kes	14443
quarantine	14444
reversal	14445
sulphides	14446
!	14447
Employees	14448
Later	14449
Ossetia	14450
Rein@@	14451
Teams	14452
Tropical	14453
breeding	14454
centr@@	14455
hin@@	14456
shops	14457
L.40	14458
any@@	14459
arranging	14460
casualty	14461
cou@@	14462
excessively	14463
hampering	14464
impoverished	14465
license	14466
ninety-@@	14467
opt	14468
sourcing	14469
tight	14470
tion-related	14471
&apos;Djamena	14472
2016-2017	14473
363	14474
SI@@	14475
Uni@@	14476
country-@@	14477
eline	14478
generator	14479
mounted	14480
road@@	14481
stalled	14482
validate	14483
3-4	14484
GSP	14485
Ultimately	14486
abo@@	14487
ase	14488
lawfully	14489
tendering	14490
upstream	14491
usefully	14492
GH@@	14493
RP@@	14494
circles	14495
courtroom	14496
div@@	14497
journal	14498
journey	14499
ores	14500
355	14501
GC.@@	14502
Kra@@	14503
Structure	14504
Title	14505
Tobacco	14506
Wide	14507
asp@@	14508
cautious	14509
deleting	14510
dil@@	14511
explo@@	14512
extremists	14513
free-@@	14514
lobbying	14515
ook	14516
zing	14517
660	14518
8,800	14519
Mixed	14520
ashed	14521
derives	14522
destiny	14523
entr@@	14524
interns	14525
listen	14526
main@@	14527
rez	14528
sem@@	14529
sons	14530
tak@@	14531
751	14532
Fax	14533
Neg@@	14534
backing	14535
e-	14536
mine-@@	14537
organiz@@	14538
pathways	14539
variant	14540
CONCLUSIONS	14541
INF@@	14542
Interregional	14543
NASA	14544
Quick	14545
Raising	14546
Rep@@	14547
Structural	14548
deplored	14549
gro@@	14550
inspire	14551
ion@@	14552
profitable	14553
Pre-Trial	14554
defences	14555
denounced	14556
fol@@	14557
monies	14558
occasionally	14559
oni	14560
Add.11	14561
Anti-personnel	14562
GLO@@	14563
HO@@	14564
ITY	14565
Lumpur	14566
anti-Semitism	14567
augment	14568
disengagement	14569
dismantled	14570
ether	14571
responsibly	14572
rotary-wing	14573
smart	14574
solicit	14575
uk	14576
440	14577
ASYCUDA	14578
Guideline	14579
Integrating	14580
Multi@@	14581
Organizing	14582
bidders	14583
ech@@	14584
indivisibility	14585
wants	14586
Ken@@	14587
Kuala	14588
Names	14589
Sunday	14590
UNCAC	14591
annotated	14592
biosafety	14593
counterproductive	14594
deteriorate	14595
doors	14596
ori	14597
refu@@	14598
1929	14599
HSP	14600
Hariri	14601
O.	14602
Revolutionary	14603
Warning	14604
embraced	14605
externally	14606
jeopardized	14607
learners	14608
mergers	14609
noticed	14610
portions	14611
protectionism	14612
testified	14613
transitions	14614
Ibero-American	14615
TP	14616
exploitative	14617
ili	14618
iy@@	14619
literate	14620
non-interference	14621
priv@@	14622
tations	14623
witnessing	14624
28-@@	14625
CSD	14626
Vice-@@	14627
but@@	14628
cru@@	14629
detain	14630
fatalities	14631
under-five	14632
408	14633
Aung	14634
Ce@@	14635
García	14636
Hydro@@	14637
Mes@@	14638
attorneys	14639
colonization	14640
identity-related	14641
precautions	14642
presided	14643
salts	14644
2005-@@	14645
Advanced	14646
Conversely	14647
PCBs	14648
RB@@	14649
UNTSO	14650
Vari@@	14651
acies	14652
bility	14653
cing	14654
fault	14655
identifiable	14656
meat	14657
topical	14658
upbringing	14659
Bedouin	14660
impl@@	14661
plutonium	14662
progressing	14663
public@@	14664
windows	14665
1957	14666
510	14667
Add.12	14668
Hos@@	14669
cassation	14670
obstruction	14671
provocative	14672
surgery	14673
tal	14674
DEC@@	14675
Investigate	14676
Maintaining	14677
PCNICC	14678
Sub-Saharan	14679
catalyse	14680
verbatim	14681
10.30	14682
4,9@@	14683
controversy	14684
dividends	14685
expelling	14686
reintegrate	14687
reprocessing	14688
strives	14689
Everyone	14690
Improvements	14691
NLD	14692
REC@@	14693
engines	14694
substitutes	14695
unwavering	14696
381	14697
8,600	14698
Att@@	14699
Mid@@	14700
Type	14701
Up@@	14702
competitions	14703
counseling	14704
osphere	14705
paved	14706
postal	14707
ty-@@	14708
5,700	14709
80,000	14710
Interpretation	14711
L.45	14712
L.47	14713
Vis@@	14714
band@@	14715
congresses	14716
lock	14717
mandate-holders	14718
secretaries	14719
tine	14720
yn@@	14721
LULUCF	14722
activation	14723
faction	14724
lan	14725
6,900	14726
Comparison	14727
Doc@@	14728
Indic@@	14729
Laden	14730
che@@	14731
erated	14732
journals	14733
mil@@	14734
trans-@@	14735
Add.9	14736
Cir@@	14737
Coordinated	14738
Investig@@	14739
Statelessness	14740
brigade	14741
calibre	14742
differs	14743
multilaterally	14744
｟a50｠	14745
Internationally	14746
NATIONS	14747
concurrently	14748
decision-makers	14749
divisional	14750
drastically	14751
dying	14752
exile	14753
incarceration	14754
rents	14755
sal	14756
sian	14757
specializing	14758
warm	14759
Expanded	14760
Parliamentarians	14761
Spe@@	14762
WG.I	14763
averages	14764
crowd	14765
ented	14766
haven	14767
intercourse	14768
pro	14769
screened	14770
ó	14771
｟d51｠	14772
385	14773
IE	14774
Mic@@	14775
Salman	14776
bles	14777
feared	14778
self-sufficiency	14779
starts	14780
351	14781
560	14782
Khmer	14783
L.41	14784
Mé@@	14785
audiovisual	14786
ito	14787
miners	14788
Emissions	14789
Jam@@	14790
Respon@@	14791
Secretaries	14792
cancel	14793
cho@@	14794
cumbersome	14795
data-collection	14796
echoed	14797
extract	14798
high-income	14799
inval@@	14800
produc@@	14801
shipper	14802
subscribers	14803
ño	14804
0.8	14805
342	14806
Guinean	14807
Import	14808
KM	14809
Māori	14810
defensive	14811
electro@@	14812
escaped	14813
parenting	14814
patents	14815
386	14816
Ecuadorian	14817
Galileo	14818
Professionals	14819
SM	14820
applauded	14821
ozonedepleting	14822
vice	14823
373	14824
487	14825
Bacteriological	14826
CN	14827
Ds	14828
Journalists	14829
PROGRAMME	14830
clean-up	14831
dig@@	14832
iles	14833
ok	14834
reviewers	14835
6,100	14836
Death	14837
Kosov@@	14838
MIN@@	14839
Starting	14840
abor@@	14841
aj	14842
intrinsic	14843
ld@@	14844
liber@@	14845
memorial	14846
pilots	14847
rented	14848
verdict	14849
18,000	14850
Advisers	14851
Jul@@	14852
airfield	14853
ests	14854
ference	14855
green@@	14856
influenza	14857
insurgents	14858
presidents	14859
reconsideration	14860
scattered	14861
unavailable	14862
watershed	14863
2002-@@	14864
456	14865
Addendum	14866
Advocate	14867
Tyre	14868
Your	14869
drain	14870
fare	14871
formations	14872
hay@@	14873
substantively	14874
Took	14875
XXVII	14876
blatant	14877
enlarged	14878
imana	14879
implicated	14880
loaded	14881
revive	14882
strip	14883
-out	14884
6,700	14885
constituents	14886
cyber@@	14887
diagnosed	14888
drop-out	14889
expires	14890
outsourced	14891
sequence	14892
tain	14893
tina	14894
2019	14895
416	14896
L.44	14897
Lan@@	14898
analy@@	14899
bush	14900
crusts	14901
hrs	14902
ires	14903
licit	14904
servic@@	14905
tus	14906
Ebola	14907
Fra@@	14908
L.53	14909
MB@@	14910
Nothing	14911
Territorial	14912
grazing	14913
separating	14914
state-@@	14915
1390	14916
377	14917
7,700	14918
8.4	14919
Ben	14920
REPORT	14921
extracted	14922
idity	14923
impacting	14924
munition	14925
non-family	14926
personalities	14927
trav@@	14928
Archives	14929
NU@@	14930
POPR@@	14931
accidental	14932
concert	14933
constitutionality	14934
corps	14935
interdiction	14936
museums	14937
ood	14938
ose	14939
purification	14940
seconds	14941
Fourthly	14942
Ja@@	14943
Madam	14944
crimin@@	14945
dating	14946
eller	14947
shore	14948
Conciliation	14949
Organize	14950
billions	14951
counteract	14952
formidable	14953
ologists	14954
passes	14955
spelled	14956
wal@@	14957
120-mm	14958
16,000	14959
412	14960
9,600	14961
HDI	14962
Hil@@	14963
Pen@@	14964
deliberative	14965
fertile	14966
flash	14967
implicitly	14968
2006-2010	14969
NPM	14970
Papers	14971
SPLM	14972
Subparagraph	14973
adjudication	14974
continuum	14975
favours	14976
fruits	14977
gh	14978
opponents	14979
-led	14980
Assessing	14981
Fishing	14982
Green@@	14983
Launched	14984
MSAR	14985
Moon	14986
Speaking	14987
commemorative	14988
compensatory	14989
consuming	14990
countrywide	14991
disturbances	14992
index@@	14993
postgraduate	14994
quar@@	14995
subcommittees	14996
weaker	14997
7.6	14998
850	14999
9,800	15000
Fund@@	15001
commodity-dependent	15002
deducted	15003
deplorable	15004
eve	15005
furnished	15006
national-level	15007
omitted	15008
publicized	15009
unofficial	15010
wearing	15011
wi@@	15012
35th	15013
417	15014
Abd@@	15015
CU@@	15016
Cancún	15017
crow@@	15018
deduction	15019
invest@@	15020
invoice	15021
small-@@	15022
379	15023
L.50	15024
RC@@	15025
footprint	15026
hostages	15027
templates	15028
tense	15029
33rd	15030
CCD	15031
Hay@@	15032
Kaz@@	15033
Requ@@	15034
globalizing	15035
got	15036
love	15037
oblig@@	15038
onic	15039
uma	15040
EGTT	15041
cen@@	15042
containment	15043
ock@@	15044
predict	15045
reindeer	15046
sty@@	15047
tracked	15048
tuna	15049
vegetables	15050
470	15051
Hebron	15052
No.@@	15053
OEWG	15054
Popular	15055
faiths	15056
ib	15057
oa	15058
pers	15059
reaffirmation	15060
symposiums	15061
Gol@@	15062
PCP	15063
Tow@@	15064
abstained	15065
ario	15066
dies	15067
incapable	15068
public-@@	15069
rostrum	15070
status-of-forces	15071
uniformity	15072
Chairpersons	15073
ald	15074
borrowers	15075
egu@@	15076
fined	15077
inter-mission	15078
mak@@	15079
mented	15080
person@@	15081
predominant	15082
probable	15083
ques	15084
1959	15085
353	15086
9,200	15087
FI	15088
GRA@@	15089
MAN@@	15090
Mess@@	15091
Mr	15092
TT	15093
ater	15094
cel@@	15095
confer	15096
disclosures	15097
geo@@	15098
suitability	15099
&apos;i	15100
[...]
