的 18280255
， 14150177
。 9235930
和 7288709
在 4270907
、 4196786
. 2721399
了 2410538
) 2160898
( 2155819
年 2126633
/ 2070246
是 1904503
对 1501008
第 1360154
委员会 1304138
月 1265573
与 1231449
" 1228791
； 1226555
并 1223713
《 1223344
》 1223115
国家 1195293
问题 1178972
为 1089411
中 1072350
将 1058959
会议 1034087
报告 895917
联合国 884003
日 855795
提供 852615
国际 850531
, 845548
： 841691
发展 839355
） 832704
（ 830546
其 828455
或 804820
有 804775
关于 790558
以及 766264
组织 748390
以 729434
工作 727955
包括 719424
一个 690570
不 676662
进行 658961
方案 641951
这些 639955
到 637910
社会 630647
通过 630079
该 621720
上 598532
1 598148
所 597827
情况 587335
特别 586420
其他 584595
方面 581556
机构 576779
执行 565701
- 562572
号 562351
有关 553096
妇女 550051
决议 549382
政府 547903
还 529929
活动 522802
向 515260
他 509561
人 504402
也 503561
建议 493736
我们 491967
这 487146
行动 486279
公约 479728
人权 479480
就 478152
而 459182
所有 453781
安全 453589
区域 443190
被 442439
儿童 436895
可 435271
2 431939
项目 424157
经济 422977
3 418950
根据 414315
规定 406235
大会 399891
但 396877
地 396082
合作 386584
理事会 384729
及 382691
支持 381920
提出 378673
没有 373655
需要 369926
应 368083
下 368008
个 363245
权利 361730
法律 359348
于 359218
A 359116
决定 357832
4 352228
他们 351328
政策 351234
6 350222
都 347907
5 346873
代表 342401
时 339264
促进 337175
技术 335099
可能 333932
加强 331926
12 326852
新 322262
采取 320382
目标 319650
各 319368
确保 315480
保护 314929
已 313642
必须 313226
影响 312202
措施 311758
继续 311708
要求 311335
说 310075
从 309511
10 308352
提交 304857
· 304505
7 303775
秘书长 302446
能力 301624
使 301549
和平 299103
管理 297471
由 296135
它 292176
一些 290890
更 284056
认为 283630
服务 283607
条 279867
段 279595
努力 276562
建立 273155
计划 272213
草案 270973
系统 270283
主要 267504
期间 267097
缔约国 266987
举行 265564
开展 263532
作为 263266
注意 258041
资源 258041
我 257202
9 253995
审查 253510
可以 251003
审议 250528
实施 249937
本 248783
使用 248493
人员 247761
内 246765
11 246692
这一 246076
各国 245271
行为 245037
实现 244606
信息 244169
教育 243243
战略 243173
全球 243017
这种 239502
援助 239384
会 239188
“ 238756
基金 238647
8 238173
文件 237963
” 237842
主席 236934
因此 236785
支助 235238
之间 234021
任何 233875
重要 233846
领域 233292
参与 232006
相关 231907
其中 229450
持续 228630
后 225501
增加 224671
-- 224067
一项 222983
考虑 222611
先生 222596
等 222504
成员 222256
表示 220547
环境 219850
协调 219399
小组 217258
获得 215892
者 215324
已经 213000
特派团 212207
研究 211730
地区 210261
指出 209799
得到 209040
预算 203747
讨论 202820
工作人员 201755
作出 199747
来 199392
政治 196734
美元 196359
培训 194755
有效 194194
机制 193748
框架 191912
多 191828
及其 191647
最 190475
程序 189315
评估 188641
制定 188553
正在 187747
世界 186534
代表团 186526
中国 185355
因为 185200
一 183732
请 183188
非洲 182387
进一步 181145
条约 181125
秘书处 178887
由于 178004
中心 177770
至 177439
作用 177380
目前 177022
a 176450
平等 176312
任务 175911
进程 175749
减少 175596
处理 175463
事务 174570
取得 173813
发展中国家 173354
解决 173284
能够 172971
调查 171988
提高 170986
人口 170727
人民 168887
确定 168638
名 168447
意见 168095
她 168088
以便 167215
次 167046
工作组 165856
原则 164964
2005 164735
要 164177
资料 164003
方式 163009
如果 162177
15 161030
缔约方 160815
各种 160603
这个 159823
给 158256
2008 158246
参加 157500
它们 157148
强调 156894
2010 156831
许多 156792
美国 156760
部门 155973
说明 155533
议程 155318
2006 155237
b 154674
2009 153672
此外 153516
费用 153047
30 150005
性别 149504
公司 149351
同时 148481
国 148257
2004 147276
把 147088
做法 146616
设立 146323
间 146266
标准 146142
文化 145619
2007 145133
专家 144332
而且 144241
利用 143804
办事处 143795
2011 143493
20 143303
司法 142882
会员国 142136
进展 142098
适当 141685
承诺 141373
消除 141301
全面 140199
制度 138751
维持 138602
数据 138458
部分 138045
前 137803
必要 137380
开始 136630
具体 136201
方法 136174
建设 135711
目的 134499
监测 134465
即 134192
各项 134040
协助 133466
发言 132996
范围 132434
歧视 132141
具有 131784
按照 131657
存在 131635
家庭 131602
2003 131568
涉及 131524
造成 131135
机会 130969
咨询 130923
办法 130894
但是 130739
2000 130407
接受 130321
基础 130239
资金 130238
同 130131
14 129656
2002 129647
法院 128834
2012 128744
负责 128684
* 128152
鼓励 127741
犯罪 127719
投资 127490
13 127346
议定书 127202
尤其 127103
为了 127102
法 126142
受到 126076
— 125429
共同 125385
充分 125297
这方面 124785
款 124273
应当 124244
贸易 123645
行政 123620
非政府 123448
是否 123415
16 123069
能 122870
地方 122178
18 122163
义务 122140
产生 122070
自己 122050
一种 121713
冲突 121561
责任 121510
办公室 121302
挑战 121152
不同 120860
成为 120637
发生 120609
2001 120349
用于 120131
需 119383
对于 118767
关系 117393
例如 117156
改革 116410
分析 116211
让 116195
最后 115696
批准 115148
000 114400
社区 114235
关切 114044
严重 113938
武器 113810
受 113394
一次 113358
以色列 113357
帮助 112744
事项 112548
生活 112438
优先 112390
尽管 112331
成果 112268
形式 111891
希望 111683
暴力 111366
以下 111346
报告员 111122
部队 110997
两年 110518
案件 110449
日至 110003
17 109447
并且 109121
结果 108706
协定 108612
如 108478
2013 108288
欢迎 108161
1999 108077
c 107659
业务 107603
适用 107309
人道主义 107058
21 106890
立法 106879
31 106754
国内 106640
19 105732
期 105723
非 105656
安排 105500
恐怖主义 105482
见 105316
基本 105231
利益 105181
当局 104921
关注 104770
应该 104417
难民 104403
条件 104291
联合 104178
打击 104013
性 103759
时间 103406
土著 103005
很 102730
仍然 102607
之后 102022
以来 101960
附件 101893
: 101749
改善 101524
认识 101519
完成 101501
如何 101409
未 101247
现有 100822
选举 100246
个人 100138
纳入 100075
两个 99935
这样 99650
自由 99586
禁止 99254
着 98745
做 98415
评价 98334
1998 98184
25 97997
表明 97924
仍 97396
履行 97161
一份 97078
22 96625
不是 96456
24 95224
23 95121
防止 94905
综合 94858
监督 94843
独立 94637
这项 94466
针对 94401
介绍 94381
论坛 94196
采用 94078
健康 93347
过程 92823
自 92730
制订 92727
员额 92727
之前 92489
直接 92229
出现 91889
经费 91862
呼吁 91612
最近 91531
巴勒斯坦 91448
限制 90534
稳定 90049
重申 89853
则 89626
又 89513
虽然 89210
该国 88928
审计 88811
一切 88430
市场 88419
风险 88222
企业 88209
一般 88195
指导 88106
对话 88080
厅 88048
伙伴关系 87945
推动 87919
E 87699
安理会 87498
然而 87446
需求 87321
． 87215
宣言 87118
里 87109
广泛 87090
原因 87011
扩大 86897
积极 86568
承认 86403
临时 86365
全国 86333
警察 85971
条款 85766
某些 85493
面临 85441
S 85322
谈判 85157
发达国家 84932
千年 84798
非法 84719
现在 84315
控制 84140
预防 84108
增长 83962
内容 83868
状况 83471
集团 83382
地位 83146
保障 82974
协商 82950
定期 82673
请求 82550
无法 82068
法庭 81292
重点 81165
导致 81058
那些 80877
; 80858
收到 80568
按 80509
侵犯 80472
人们 80314
28 80258
总统 80164
26 79882
因 79834
应对 79809
发挥 79777
规则 79688
军事 79557
同意 79418
从而 79274
违反 79217
27 79059
倡议 78905
明确 78877
贩运 78834
生产 78792
旨在 78700
之 78698
占 78690
规划 78511
不能 78403
[ 78336
％ 78286
宪法 77920
联系 77792
威胁 77632
遵守 77630
岁 77198
另 77169
群体 77060
来自 76903
一名 76869
一直 76499
艾滋病 76429
当地 76355
] 76068
了解 75946
就业 75833
协议 75804
公民 75765
官员 75752
伊拉克 75682
成员国 75197
你 75053
因素 75014
编写 74782
项 74593
所述 74523
过去 74462
29 74308
网络 74281
加入 74108
准则 74102
长期 74073
方 73925
本国 73877
经 73768
上述 73737
受害者 73634
做出 73516
材料 73504
艾滋病毒 73378
实际 73222
财政 73156
保健 73152
民间 73043
领土 72865
事件 72788
收入 72597
d 72371
作 72210
土地 72196
结束 72070
举办 71960
实体 71606
改进 71342
万美元 70992
欧洲 70756
确认 70698
重新 70525
下列 70259
行动计划 70015
普遍 69983
法官 69922
人数 69724
有助于 69664
内部 69623
保证 69575
刑事 69396
更加 69351
程度 69342
拘留 69331
女士 69209
公共 69124
落实 68981
宣传 68886
人类 68562
2014 68485
正式 68435
区 68425
符合 68405
C 68222
部 67831
1997 67768
伙伴 67762
外 67742
年度 67651
指标 67286
合同 67096
境内 66954
60 66934
记录 66755
结构 66751
贫穷 66648
约 66354
缺乏 66269
B 66185
民主 65646
学校 65627
提到 65502
文书 65130
整个 65079
基于 65002
用 64714
宗教 64394
列入 64291
大 64228
提议 64223
空间 64141
城市 64035
现象 63911
拥有 63778
女性 63741
设施 63577
恢复 63556
比 63172
P 63151
享有 63100
这是 63079
酷刑 63014
支付 62913
重大 62880
经常 62819
日本 62771
基金会 62578
亿美元 62503
经验 62489
反映 62475
权 62377
保留 62319
称 62301
拟议 62176
科学 62116
国际法 62007
不断 61987
高 61815
非常 61765
起 61647
题为 61470
职能 61127
同样 60977
达到 60918
管制 60891
均 60771
之一 60770
补充 60522
残疾人 60515
采购 60504
成功 60474
专业 60313
50 60088
只有 60051
达成 59830
完全 59765
副 59749
在内 59724
工具 59723
成立 59705
后续 59555
选择 59525
若干 59350
修订 59330
就是 59277
知识 59266
出 59228
青年 59191
资产 59070
危机 59068
类 58977
手段 58926
协会 58870
授权 58866
编制 58856
农业 58832
开发 58777
苏丹 58698
过 58665
气候变化 58595
扩散 58592
e 58534
我国 58393
们 58342
较 58168
移民 58018
允许 57966
阶段 57827
40 57799
实行 57716
移徙 57683
毒品 57670
给予 57661
尊重 57650
？ 57588
构成 57550
局势 57531
关键 57393
核武器 57309
拟订 57299
运动 57282
统计 57281
总部 57205
解释 57084
回顾 57046
反对 56858
提案 56769
结论 56725
分 56658
未来 56511
签署 56460
设备 56392
为此 56349
阿富汗 56327
满足 56320
基础设施 56258
访问 56187
带来 56184
森林 56112
首脑会议 56082
显示 55836
领导 55662
宣布 55642
声明 55417
一部分 55332
准备 55305
罪行 55300
数量 55253
大学 55249
担任 55186
增强 55179
曾 55144
条例 55083
鉴于 55037
收集 55028
变化 54819
流离失所 54772
团体 54609
进入 54529
举措 54525
保持 54496
欧洲联盟 54308
议会 54222
财务 54206
权力 54021
商定 53997
外国 53914
理由 53833
或者 53695
一级 53650
专门 53635
各方 53511
答复 53485
多边 53413
支出 53381
今后 53306
此 53169
地点 53112
组成 53065
大量 53030
不过 52774
重要性 52754
调整 52753
发现 52748
57 52597
裁军 52574
加拿大 52539
超过 52522
两性 52506
尚未 52191
还有 51970
水平 51929
贡献 51841
敦促 51538
农村 51500
证据 51469
产品 51319
部署 51296
此类 51288
感到 51208
通信 51181
除 51135
传统 51040
每个 51023
1996 51020
黎巴嫩 50970
表 50847
非正式 50733
分配 50730
讲习班 50499
指控 50465
58 50323
发表 50257
联盟 50250
59 50006
从事 49955
寻求 49896
召开 49849
危险 49829
更好 49800
纲领 49711
印度 49701
55 49664
每 49663
最大 49639
2015 49449
学生 49435
媒体 49397
运作 49388
核心 49356
出口 49331
主任 49299
三个 49264
加以 48995
价值 48977
总 48915
贸发 48860
处 48745
通知 48709
另外 48622
61 48609
开发署 48590
有些 48590
一致 48567
自愿 48564
亚洲 48497
证明 48464
平民 48322
财产 48294
核准 48284
而言 48211
生物 48169
65 48168
属于 48155
每年 48064
100 48008
住房 47930
据 47866
古巴 47834
62 47790
登记 47694
比例 47618
公平 47542
改变 47505
职位 47314
体制 47282
如下 47246
预计 47227
不会 47212
35 47208
步骤 47070
以上 47067
申请 47059
团 46895
64 46891
粮食 46852
主题 46784
署 46737
课程 46731
医疗 46703
贫困 46664
观察员 46620
小 46492
统一 46467
52 46451
与会者 46439
遭受 46402
最佳 46331
赔偿 46324
二 46214
53 46152
63 46134
来源 46066
大多数 45966
任命 45933
专家组 45908
再次 45877
交流 45849
高级 45849
司 45841
私营部门 45810
索赔 45716
很多 45577
能源 45561
她们 45542
54 45415
高级别 45401
银行 45360
估计 45292
法国 45169
公众 45054
传播 45043
32 44848
高级专员 44796
日内瓦 44697
创造 44568
磋商 44555
予以 44460
56 44398
正 44338
债务 44317
专题 44225
阿拉伯 44198
宪章 44178
观点 44098
一起 44063
预期 44053
模式 44049
干事 44036
34 44005
第五 43825
还是 43820
资助 43795
金融 43771
公开 43745
1995 43649
只 43622
截至 43565
困难 43537
质量 43510
起诉 43474
不仅 43408
维护 43404
运输 43393
33 43358
实质性 43323
无 43213
采取行动 43212
却 43206
45 43146
供 43136
承担 43135
特殊 43070
定义 43041
身份 42997
依据 42864
设计 42860
反 42859
性质 42802
领导人 42700
卫生 42624
侵害 42603
避免 42567
纽约 42544
少数 42476
主管 42386
占领 42267
概念 42178
工作队 42135
第六 42035
趋势 41971
至少 41963
新闻 41868
越来越 41862
捐款 41858
上诉 41822
工人 41617
最终 41596
外地 41544
66 41520
损失 41470
联合王国 41397
一系列 41394
第二 41383
障碍 41377
有权 41289
办 41260
审判 41169
再 41137
致力于 41107
澳大利亚 41078
研讨会 41067
迅速 41059
捐助 40963
决策 40867
36 40779
筹资 40777
民族 40697
至关重要 40608
分别 40581
依照 40579
战争 40530
37 40505
国际公约 40500
科索沃 40434
海洋 40369
一样 40341
生效 40324
攸关 40315
公正 40221
德国 40194
工业 39994
清单 39924
索马里 39863
成本 39799
死亡 39705
想 39693
交易 39576
监狱 39478
辩论 39442
D 39368
部长 39338
背景 39068
顾问 39052
类似 38885
各级 38869
39 38861
律师 38857
巴西 38837
职业 38756
武装 38725
详细 38656
商业 38651
地雷 38549
38 38389
武装冲突 38356
所涉 38344
67 38315
多样性 38312
官方 38307
除了 38276
视为 38263
任择 38187
51 38127
邀请 38105
似乎 38012
有限 37976
损害 37929
一点 37913
墨西哥 37903
特定 37894
最高 37872
第一 37851
低 37846
意义 37843
网站 37743
及时 37740
供资 37697
此种 37696
安保 37695
十年 37653
通常 37615
来说 37607
才 37576
行使 37531
单位 37503
赞赏 37352
制裁 37281
人权委员会 37251
筹备 37248
往往 37224
修改 37196
－ 37186
三 37021
遭到 37005
48 36974
有人 36963
所作 36906
什么 36748
知道 36711
紧急 36692
一般性 36541
几个 36500
开发计划署 36473
一年 36456
数额 36423
常驻 36393
44 36376
率 36376
之外 36361
罪 36355
引起 36330
俄罗斯联邦 36270
大约 36266
立即 36226
41 36201
当前 36192
女孩 36183
水 36035
适应 35957
以前 35946
研究所 35936
42 35863
载 35820
500 35746
当 35739
土耳其 35738
联邦 35685
68 35666
委会 35634
降低 35566
发出 35534
双方 35532
治疗 35471
良好 35468
立场 35454
下降 35447
感谢 35401
理解 35369
大规模 35367
科威特 35356
评论 35342
应用 35336
提及 35319
疾病 35203
随后 35182
体系 35180
破坏 35132
十分 35080
49 34949
核 34887
46 34857
账户 34789
男子 34740
股 34740
过渡 34736
居民 34671
拒绝 34671
效率 34596
人士 34587
一位 34519
信 34471
精神 34459
查明 34440
重视 34421
治理 34412
本身 34394
1990 34392
43 34369
最新 34359
时候 34331
事实 34303
指南 34287
巴基斯坦 34256
待遇 34225
卢旺达 34199
救济 34132
劳工 34110
检察官 34098
处于 34060
47 34037
残疾 33979
达尔富尔 33959
便利 33941
首先 33941
接触 33924
协调员 33913
虐待 33906
工发 33896
甚至 33835
仅 33806
南 33774
各个 33681
相互 33668
加勒比 33620
共和国 33566
出席 33554
英语 33549
袭击 33507
各自 33424
学习 33386
专员 33333
很大 33331
200 33290
起草 33234
电子 33141
届 33135
组 33091
才能 33087
且 33053
足够 33050
其它 33019
药物 33016
Add.1 33010
法治 32947
竞争 32865
增进 32819
维和 32786
一@@ 32737
转让 32695
申诉 32631
启动 32598
以外 32591
信托 32561
历史 32559
几乎 32548
愿意 32375
叙利亚 32333
灾害 32298
未能 32288
难民署 32269
修正 32248
点 32237
真正 32207
日益 32122
得 32117
物质 32098
比较 32060
利比里亚 32044
这次 31937
女童 31908
获取 31833
太平洋 31722
数目 31716
通报 31676
数字 31668
指定 31655
不足 31603
福利 31568
全体会议 31510
欧盟 31506
延长 31471
国家一级 31449
维也纳 31439
种族歧视 31378
主流 31370
判决 31359
拉丁美洲 31350
埃及 31261
技能 31254
看到 31242
全部 31239
1994 31202
剥削 31154
语言 31096
暴力行为 31093
第一次 31085
名单 30904
北京 30894
去 30842
明显 30824
平衡 30818
检查 30805
达 30790
国民 30772
后果 30663
---- 30646
法令 30631
人力资源 30576
南非 30472
节 30438
今年 30399
价格 30392
种族主义 30365
计算 30308
不@@ 30305
f 30296
职责 30288
瑞士 30214
订正 30147
刚果民主共和国 30131
起来 30106
总体 30064
初步 29980
训练 29948
诉讼 29938
77 29825
不得 29798
随着 29797
强迫 29707
日期 29705
省 29700
依然 29673
今天 29633
好 29620
化 29597
助理 29593
西班牙 29578
流动 29564
劳动 29556
攻击 29471
颁布 29389
提请 29384
后勤 29370
非洲联盟 29368
发布 29360
数据库 29357
那 29356
不利 29354
万 29351
采取措施 29317
双边 29304
俄罗斯 29299
科特迪瓦 29273
只是 29255
平均 29229
规范 29204
总额 29196
法案 29147
下午 29041
透明度 29027
载有 29009
逮捕 28973
外部 28952
如此 28938
裁决 28914
意味着 28881
创新 28876
协作 28871
环境署 28841
更新 28824
表现 28779
子女 28776
干预 28702
挪威 28651
不可 28627
执法 28615
停止 28610
核查 28595
转移 28578
报道 28544
货物 28513
年龄 28504
家庭暴力 28503
资格 28487
意大利 28466
复杂 28463
常设 28459
特设 28451
重建 28438
剥夺 28398
州 28352
合作伙伴 28329
经过 28309
拟定 28263
海地 28256
乌克兰 28109
差距 28048
高专 28015
科 27994
事务部 27969
印度尼西亚 27957
民众 27926
男女 27922
世纪 27902
私人 27819
i 27797
化学品 27772
驻 27740
商品 27707
是因为 27700
当时 27692
组成部分 27647
来文 27646
形成 27638
以期 27628
酌情 27622
共识 27618
正如 27617
现行 27553
雇员 27543
执行局 27510
展开 27504
心理 27501
额外 27487
最低 27475
70 27414
种族 27386
机关 27366
层面 27285
令人 27207
住 27204
打算 27194
解决办法 27189
那样 27157
担保 27143
公布 27134
期限 27076
飞机 27046
反应 26985
巨大 26947
对此 26921
可能性 26919
投入 26913
份 26910
300 26900
阿根廷 26852
卫星 26837
供应 26808
大部分 26804
失踪 26797
哪些 26785
分享 26756
集体 26717
美利坚合众国 26685
列 26682
信任 26668
中期 26645
案 26629
途径 26623
工程处 26599
用途 26596
大@@ 26592
集中 26488
力量 26475
世界银行 26458
看法 26430
S@@ 26416
东帝汶 26387
原子能 26379
四 26341
妇女地位 26332
案文 26321
合理 26262
咨 26257
候选人 26250
津贴 26240
票 26221
反恐 26179
容忍 26172
全球化 26157
实际上 26129
然后 26124
局 26114
69 26111
补救 26066
返回 26036
之下 26012
边界 25998
朝鲜 25993
弹药 25983
指示 25978
诸如 25939
主持 25935
那么 25931
争取 25898
第二次 25891
第三 25873
哥伦比亚 25872
多年 25845
像 25836
享受 25770
制止 25762
刑法 25701
平台 25655
塞拉利昂 25653
防治 25644
包含 25609
表决 25600
预测 25591
业绩 25575
规模 25534
调动 25465
上文 25441
跨国 25430
赞扬 25397
荷兰 25319
父母 25306
基地 25292
相信 25239
透明 25167
1993 25116
在于 25105
外交 25050
合法 25036
探讨 24986
潜在 24977
人力 24966
族裔 24929
切实 24910
去年 24897
摩洛哥 24857
男性 24782
人道主义法 24756
贷款 24750
意识 24737
找到 24736
全世界 24727
任期 24664
瑞典 24652
行预 24650
附属 24629
预防犯罪 24629
赋予 24617
开放 24615
分发 24605
语文 24557
出版物 24469
派遣 24406
级 24403
天 24400
一定 24355
荒漠化 24323
清楚 24316
中央 24314
腐败 24311
阻碍 24281
青少年 24237
T@@ 24230
菲律宾 24219
有利于 24211
唯一 24200
涵盖 24200
al 24199
伊朗 24190
取消 24168
态度 24168
B@@ 24139
生殖 24133
即使 24108
尼日利亚 24047
80 24022
逐步 24002
团结 23983
埃塞俄比亚 23983
所有人 23959
而是 23907
武装部队 23905
监管 23883
主权 23877
气候 23810
更为 23769
D@@ 23739
融资 23714
惩罚 23661
新西兰 23645
公共部门 23621
居住 23590
年代 23577
既 23565
L@@ 23552
议题 23533
所载 23513
示范 23488
相比 23485
显然 23444
效力 23422
国籍 23395
捐助者 23387
替代 23339
行业 23232
回应 23204
中@@ 23191
合并 23165
单独 23145
重返 23135
时期 23132
年底 23125
加沙 23122
发起 23104
融入 23068
制造 23054
试图 23032
之中 23018
全 22985
估计数 22983
小时 22983
以后 22944
道路 22941
共同体 22885
密切 22832
相对 22817
促使 22800
所以 22796
得以 22791
小岛屿 22776
分类 22750
家 22716
储存 22708
g 22707
手册 22680
即将 22670
1992 22659
减轻 22646
G@@ 22627
斯 22611
资本 22609
容易 22600
信息技术 22582
销售 22582
联合会 22560
废物 22555
马来西亚 22544
1991 22525
吁请 22490
赞同 22490
次级 22472
令 22458
处罚 22435
多个 22434
争端 22422
用户 22393
现金 22389
一家 22374
有所 22349
外勤 22316
孩子 22308
400 22296
谴责 22264
90 22252
监禁 22252
仲裁 22232
旅行 22191
体现 22178
刚果 22162
表达 22145
多数 22129
上午 22107
主席团 22101
M@@ 22079
差异 22076
燃料 22021
不再 22019
泰国 21988
概述 21976
征聘 21956
尽可能 21942
减贫 21933
阿尔及利亚 21929
自然资源 21927
庇护 21918
确立 21916
特朗普 21903
场所 21892
人居 21879
肯尼亚 21875
军队 21862
死亡率 21852
乌干达 21848
H@@ 21845
注重 21833
因而 21789
四个 21783
德 21745
受害人 21741
记者 21739
须 21739
女 21737
P@@ 21717
伊斯兰 21686
医院 21661
放在 21641
那里 21631
审理 21630
排放 21619
使得 21552
公务员 21542
N@@ 21531
F 21501
严格 21462
脆弱 21440
事实上 21426
免费 21416
类别 21413
巩固 21384
出版 21380
证人 21379
大使 21355
利比亚 21333
相应 21328
养 21320
布隆迪 21316
类型 21303
实地 21260
相当 21251
死刑 21230
K@@ 21224
600 21219
数 21182
秘书 21177
智利 21172
中东 21167
母亲 21158
过境 21137
南部 21124
界定 21111
该项 21109
证实 21093
促请 21024
进步 21000
管辖权 20990
并非 20971
压力 20942
量 20910
第四 20908
车辆 20898
推广 20893
经委会 20892
会议室 20883
澄清 20880
劳动力 20851
生命 20831
推进 20794
上升 20780
进口 20760
和解 20757
议事规则 20739
情报 20738
意愿 20712
以往 20704
成就 20699
引渡 20698
奥地利 20690
妨碍 20686
法规 20679
部长级 20677
石油 20669
西非 20638
设 20610
教师 20608
南斯拉夫 20606
F@@ 20561
波斯尼亚 20545
R@@ 20539
CN.4 20509
突出 20497
这里 20491
购买 20453
教科文组织 20427
修正案 20418
加 20415
厄立特里亚 20381
声称 20300
第三次 20288
缅甸 20281
位于 20277
一体化 20244
释放 20235
驱逐 20201
相同 20184
衡量 20162
政治权利 20108
产出 20106
认可 20084
更大 20081
阿@@ 20078
规划署 20076
75 20066
取决于 20028
职等 20018
投票 20000
建筑 19978
塞浦路斯 19928
阿塞拜疆 19925
危害 19902
英国 19898
of 19862
后来 19834
o 19814
结合 19787
道德 19749
混合 19730
应急 19699
两 19698
市 19679
格鲁吉亚 19636
离开 19628
费 19611
恤金 19610
筹措 19569
阐述 19561
派 19513
并未 19492
效益 19492
型 19431
本次 19431
备选 19425
设想 19423
首次 19411
高度 19409
' 19403
付款 19394
依赖 19390
外层空间 19384
两名 19366
未经 19346
将会 19334
消费 19334
管辖 19331
斗争 19329
受益 19328
互动 19308
空缺 19299
一道 19277
工资 19268
决心 19260
同一 19254
争议 19229
保险 19221
食物 19198
核裁军 19120
文 19103
谅解 19088
工程 19072
讨论会 19061
阁下 19059
就此 19058
老年人 19031
800 19029
分摊 19029
开支 19028
学院 19025
款项 18945
货币 18915
现实 18813
询问 18811
72 18805
大韩民国 18794
成 18787
方向 18779
案例 18776
孟加拉国 18772
年度报告 18764
雇主 18762
s 18757
C@@ 18733
提供援助 18703
香港 18698
听取 18693
总理 18681
豁免 18655
无核武器 18643
马@@ 18638
式 18621
密切合作 18613
规约 18612
中有 18608
C.2 18579
卖淫 18577
推迟 18559
观察 18548
遇到 18545
金 18524
伤害 18522
渔业 18488
共 18482
秘鲁 18451
有时 18449
指 18431
丹麦 18426
担心 18423
恶化 18412
生态系统 18411
无@@ 18400
前往 18371
约旦 18371
初级 18368
销毁 18366
被告 18365
黑塞哥维那 18362
C.3 18347
可靠 18341
加快 18320
申诉人 18307
变得 18299
一套 18280
00 18243
婚姻 18239
最初 18238
备忘录 18233
I 18209
制作 18198
列出 18194
复员 18170
性暴力 18158
装备 18143
几年 18141
要素 18140
薪金 18136
拨款 18118
角度 18114
芬兰 18059
发言者 18036
五 18034
终止 18017
71 18015
定于 17980
h 17972
欧元 17967
马里 17950
志愿人员 17941
管理局 17934
卡@@ 17927
建造 17915
波兰 17909
与其 17902
信贷 17887
多@@ 17821
可持续性 17820
会上 17811
任意 17798
金融机构 17776
发放 17756
危地马拉 17754
比利时 17750
事 17745
自身 17740
供应商 17731
m@@ 17729
整体 17723
实践 17722
囚犯 17721
细则 17710
持久 17675
附近 17673
专门机构 17665
道 17658
子 17657
共有 17654
污染 17649
除非 17647
效果 17638
白俄罗斯 17630
700 17616
低于 17613
名额 17586
l@@ 17561
特点 17556
获悉 17550
阿拉伯叙利亚共和国 17545
具备 17543
命令 17538
两次 17536
护理 17533
移交 17524
潜力 17523
感染 17483
问责制 17481
名义 17474
第一个 17464
伊朗伊斯兰共和国 17458
s@@ 17423
的话 17421
口头 17419
克罗地亚 17399
公民权利 17383
额 17358
全体 17324
强烈 17315
73 17308
有利 17257
坚持 17248
会计准则 17241
in 17220
驻地 17216
补贴 17170
满意 17169
后者 17166
受理 17119
为期 17093
粮农组织 17092
建设性 17065
小@@ 17037
据称 17033
难以 17014
显著 16998
出于 16989
职务 16978
网 16965
厄瓜多尔 16951
排除 16950
设在 16949
周期 16943
内罗毕 16915
提名 16915
清洁 16904
与此同时 16902
74 16895
世界各地 16882
约束力 16882
拉 16873
书面 16872
宗旨 16850
警方 16850
强奸 16845
成绩 16844
d@@ 16834
韩国 16828
克 16823
面对 16806
裁军谈判 16797
谨 16787
近东 16778
东道国 16770
负担 16762
根本 16758
敏感 16747
奥巴马 16746
克服 16735
突尼斯 16731
b@@ 16727
正常 16694
期待 16688
三年 16682
代理 16681
加剧 16677
希腊 16670
自然 16666
an 16661
本届 16638
五个 16636
状态 16630
首席 16609
例子 16595
国际法庭 16584
比如 16584
外国人 16581
基准 16566
76 16560
er 16559
经历 16545
自治 16544
海关 16513
确实 16499
限度 16470
阻止 16448
t@@ 16443
地球 16443
反腐败 16435
新闻部 16420
工会 16402
尼泊尔 16397
专门知识 16383
拉@@ 16366
北部 16354
物品 16354
体 16350
塞尔维亚 16305
告知 16295
政党 16293
经营 16292
五年 16289
尊严 16287
协商一致 16281
汇编 16279
特遣队 16268
无论 16264
用来 16258
少数民族 16253
78 16252
委内瑞拉 16248
越南 16232
G 16203
安置 16199
巴黎 16199
惯例 16181
电话 16181
人@@ 16179
只能 16140
经济体 16128
人格 16126
赞成 16118
阿 16117
废除 16101
食品 16101
斯里兰卡 16086
主张 16077
特 16066
联络 16037
卡 16027
吸引 16018
告诉 16012
负责人 15993
最高法院 15975
A@@ 15959
协同 15955
每月 15949
面前 15925
已有 15917
第四次 15911
当选 15905
私营 15903
一旦 15830
言 15823
客户 15815
事先 15792
普通 15791
总数 15777
交付 15749
近 15740
㈠ 15725
滥用 15694
员 15692
投资者 15663
削减 15661
毁灭性 15650
设法 15644
气体 15620
分庭 15592
以此 15585
各地 15554
议员 15542
行政当局 15533
照顾 15531
纳 15530
高@@ 15507
消费者 15506
寻找 15505
财务报表 15502
排雷 15496
C.5 15449
h@@ 15438
㈡ 15410
快速 15407
Rev.1 15406
美洲 15389
罗马尼亚 15371
轻武器 15363
问责 15361
方针 15358
81 15345
M 15340
自然灾害 15340
调解 15338
西 15314
雇用 15304
放弃 15299
79 15286
r@@ 15286
恐怖 15286
内陆 15268
汞 15253
巴勒斯坦人 15250
期望 15245
可行 15240
取代 15222
缔结 15201
尽快 15200
充足 15199
处决 15194
最好 15183
康复 15182
常常 15173
准确 15172
积极参与 15170
装置 15165
亚美尼亚 15156
发射 15149
资源管理 15148
飞行 15137
深入 15134
强化 15128
塞内加尔 15118
互联网 15112
认定 15110
观念 15109
页 15093
长 15082
信通 15081
南南合作 15077
柬埔寨 15073
适合 15071
证书 15068
认真 15056
不人道 15054
联刚 15049
HRC 15028
W@@ 15019
主办 15017
核定 15009
有罪 15000
十一届 14999
失业 14994
罗马 14994
只要 14990
葡萄牙 14979
通讯 14965
协调一致 14958
邻国 14951
上@@ 14941
参考 14941
许可证 14937
营养 14901
便 14894
解除武装 14889
对@@ 14885
c@@ 14860
着手 14855
85 14845
管理人员 14807
图 14801
制 14797
纲要 14764
诉 14757
82 14755
一场 14752
何种 14750
出生 14750
称为 14729
医生 14726
机场 14726
米 14723
仇外 14711
试验 14711
情形 14701
所谓 14690
哥斯达黎加 14685
加上 14680
家人 14668
83 14661
每天 14658
n@@ 14655
短期 14645
收益 14620
900 14584
裁定 14583
陈述 14571
应付 14566
一条 14556
单方面 14550
有害 14550
C.1 14542
缺少 14532
各类 14528
处境 14527
士兵 14526
许可 14516
大家 14490
遵循 14488
六 14482
彻底 14479
边境 14479
对象 14463
两项 14444
加速 14436
包容性 14433
兼 14431
掌握 14430
k@@ 14428
事态 14412
间接 14384
任 14382
ar@@ 14378
界 14360
补偿 14355
主动 14352
统计数据 14346
世贸组织 14342
怀疑 14338
新加坡 14331
经验教训 14325
安全部队 14324
粮食安全 14322
印发 14291
安哥拉 14291
加纳 14287
1@@ 14284
120 14275
渠道 14271
百分比 14271
比率 14249
很少 14246
监察员 14244
余额 14236
提醒 14234
分列 14217
1.@@ 14202
会计 14198
肯定 14192
大楼 14173
援助团 14170
Al 14168
概算 14167
守则 14160
少 14160
自我 14160
贸易法 14154
这份 14151
关联 14149
发 14143
好处 14140
首长 14135
爱尔兰 14132
重复 14129
新@@ 14114
V@@ 14093
值得 14088
改为 14081
沙特阿拉伯 14073
北爱尔兰 14060
摘要 14056
现代 14053
交换 14041
主义 14031
头 14027
观察团 14024
摊款 14014
共计 14012
遣返 14009
不到 14005
捷克共和国 14005
拟 13954
多种 13948
84 13947
人人 13947
J@@ 13943
指数 13937
乌拉圭 13925
某 13915
有@@ 13912
质疑 13901
不论 13876
融合 13862
就业机会 13858
三@@ 13854
贩卖 13850
en 13840
一国 13840
匈牙利 13840
还要 13838
事情 13836
and 13833
功能 13827
推出 13825
国际贸易 13823
科@@ 13821
也许 13816
暂停 13815
内@@ 13811
拖延 13800
穷人 13799
强调指出 13796
武力 13788
犯下 13765
正义 13763
站 13725
看 13724
时间表 13722
86 13717
不应 13698
乍得 13695
知识产权 13666
仅仅 13658
社会保障 13653
87 13639
y 13624
巴@@ 13622
共享 13619
2@@ 13610
正确 13610
该法 13610
审评 13609
上空 13608
出售 13603
若 13571
98 13559
95 13556
推行 13545
用品 13539
终了 13537
前景 13525
转型 13525
当然 13524
灵活 13513
变革 13507
西@@ 13505
提高认识 13488
相 13488
先前 13482
大型 13466
任职 13463
必要性 13458
披露 13457
倡导 13454
地带 13454
角色 13451
载于 13448
订立 13446
u 13436
投诉 13424
小型 13411
汇报 13402
10@@ 13396
• 13395
侧重于 13384
i@@ 13379
位 13379
国际法院 13370
简要 13359
缓解 13356
转递 13351
坚定 13322
国际标准 13315
索赔人 13298
马 13296
al@@ 13279
杀害 13279
京都 13272
玻利维亚 13267
教授 13260
错误 13258
有辱 13255
月份 13252
招募 13244
一方面 13241
曾经 13241
转变 13221
国别 13205
导弹 13200
é 13172
早期 13172
法律援助 13156
另一方面 13140
残忍 13119
科技 13114
引发 13108
特征 13108
特@@ 13096
对待 13050
定为 13047
创建 13041
照料 13037
定罪 13034
速度 13022
处置 13017
y@@ 13004
哈萨克斯坦 13003
不够 12990
中非共和国 12950
分子 12947
多哈 12926
小学 12914
东部 12910
签订 12894
信仰 12891
88 12888
职权范围 12886
一半 12869
核可 12862
亿 12859
岛 12855
促成 12852
爆炸 12846
3@@ 12837
尼加拉瓜 12836
级别 12834
软件 12831
正是 12828
可@@ 12827
语 12821
民事 12819
92 12799
预算外 12794
怀孕 12782
L 12780
第二个 12766
不要 12764
失去 12756
海外 12745
关押 12739
关闭 12736
带 12732
委员 12729
多次 12711
这类 12710
限 12709
农民 12703
91 12695
加@@ 12689
利 12685
尔 12681
97 12673
西亚 12671
阐明 12660
也门 12654
得出 12652
迄今 12646
93 12639
捐助国 12634
萨尔瓦多 12629
描述 12623
说法 12617
旅游 12613
简化 12613
始终 12611
被迫 12597
海洋法 12593
极端 12592
体育 12579
150 12578
两@@ 12576
4@@ 12571
书 12570
脆弱性 12563
温室 12561
时限 12550
99 12545
大不列颠 12539
续 12528
89 12527
喀麦隆 12513
法定 12494
咨询服务 12492
讲话 12490
北 12478
单一 12475
抗议 12474
an@@ 12471
领袖 12469
有用 12455
Corr.1 12454
跟踪 12451
e@@ 12448
卡塔尔 12443
洗钱 12437
ar 12432
员工 12429
p@@ 12419
日@@ 12417
on 12403
删除 12403
因特网 12395
没收 12392
de 12381
有着 12376
负债 12371
附加 12367
极为 12365
区域合作 12360
兴趣 12356
军 12356
` 12353
男女平等 12353
退化 12349
少年 12348
有力 12346
E@@ 12343
所属 12334
自@@ 12334
直到 12329
完善 12320
岛屿 12311
尼 12283
斯洛文尼亚 12279
着重 12279
日起 12272
阿尔巴尼亚 12267
图书馆 12244
库存 12239
为什么 12238
支柱 12238
件 12235
96 12229
年轻 12229
测试 12226
入侵 12218
营地 12205
O@@ 12201
优势 12194
地理 12193
关心 12187
培训班 12176
疟疾 12174
领空 12167
坚决 12161
扩展 12151
排斥 12148
a@@ 12138
之@@ 12135
罪犯 12117
器 12113
某种 12109
持有 12106
地域 12093
或许 12086
所有权 12084
作业 12078
裁谈会 12077
还应 12064
www 12053
近年来 12046
出来 12034
婴儿 12022
董事会 12022
金额 12009
排放量 12004
动员 12001
其@@ 12000
父亲 11994
相反 11993
此项 11982
内部监督 11979
高兴 11972
紧急情况 11967
水@@ 11965
包容 11954
伊 11951
升级 11950
毛里求斯 11950
不妨 11946
华盛顿 11945
企图 11937
时代 11919
偿还 11917
两种 11914
Y@@ 11909
行事 11904
列为 11903
穆斯林 11898
完整 11885
汽车 11874
物资 11871
加大 11870
绩效 11859
94 11854
试点 11851
力 11849
年轻人 11837
批评 11825
一致性 11822
丧失 11812
er@@ 11809
R 11799
第一届 11782
多样化 11772
有益 11768
谈到 11764
净额 11758
姆 11757
转交 11744
保加利亚 11731
根源 11731
大幅 11729
队 11720
运用 11718
竞争力 11717
化学武器 11713
结论性 11712
UNEP 11711
5@@ 11709
南方 11707
汇率 11707
联合国开发计划署 11703
依靠 11694
言论 11684
童工 11673
n 11668
杀伤 11655
独立性 11652
安全部门 11647
十五届 11643
歧视性 11642
退休 11638
沿海 11637
纪念 11634
注册 11628
领取 11628
缺陷 11608
常规武器 11602
紧张 11601
未成年人 11599
编列 11597
规章 11597
不得不 11592
生计 11587
外交部长 11584
纪律 11580
如今 11575
登记册 11568
会晤 11565
来看 11554
in@@ 11553
国外 11553
绑架 11553
运行 11553
法语 11544
参照 11541
斯@@ 11540
其余 11535
斯洛伐克 11528
其他人 11522
至于 11522
当事方 11519
必要措施 11515
将来 11489
强有力 11483
org 11450
个别 11449
一词 11420
受伤 11420
独特 11417
艺术 11405
实质 11402
弱势群体 11398
现已 11390
恐怖分子 11373
本人 11357
迄今为止 11343
看来 11339
视察 11339
当事人 11333
理论 11331
身体 11323
碳 11321
g@@ 11320
民兵 11319
前提 11305
饥饿 11305
文本 11301
纳@@ 11297
家属 11291
万人 11287
丈夫 11287
德@@ 11269
万@@ 11265
亚太经社会 11263
言论自由 11258
车 11256
格 11253
z@@ 11250
当中 11230
相当于 11228
逐渐 11224
w@@ 11216
网上 11214
国@@ 11210
开办 11209
总干事 11194
色情 11194
技术转让 11182
大大 11180
应有 11174
自从 11171
黑山 11164
Ch@@ 11159
不罚 11133
税收 11131
高于 11112
任何人 11110
代表性 11107
定居点 11105
权能 11095
封锁 11091
f@@ 11084
事故 11084
极大 11083
四年 11076
回答 11075
伊@@ 11072
巴 11068
进度 11059
国内法 11048
采访 11044
绿色 11038
巴塞尔 11030
该部 11023
1989 11014
作出贡献 11010
几内亚比绍 10998
6@@ 10997
决策者 10986
份额 10982
解决方案 10977
格式 10969
痛苦 10967
破产 10960
干旱 10959
和@@ 10954
我要 10953
随时 10951
区分 10946
简单 10945
指导方针 10931
用以 10926
下@@ 10922
养护 10920
他人 10918
可用 10913
业 10908
赞比亚 10906
人群 10904
配置 10903
设置 10900
牙买加 10894
奥@@ 10892
区别 10890
位置 10889
想法 10886
强制性 10884
离职 10884
电影 10883
秩序 10868
第二届 10867
制约 10864
复原 10859
海@@ 10856
海上 10851
之内 10844
免遭 10838
人权法 10837
培养 10830
Z@@ 10827
水资源 10826
公报 10817
FCCC 10811
本@@ 10806
发言人 10805
难民营 10803
’ 10792
再生能源 10792
农村妇女 10792
t 10789
保存 10787
遗憾 10785
布基纳法索 10774
各位 10773
价值观 10766
支援 10759
纠正 10756
信息系统 10751
违背 10745
组合 10737
首要 10735
年初 10731
走 10730
有效性 10726
提起 10723
种 10722
犯罪行为 10720
行 10720
选民 10719
科技咨询 10718
塔 10709
宏观经济 10694
物 10684
指称 10673
禁运 10663
110 10661
联黎 10655
下述 10653
接近 10641
非正规 10638
I@@ 10636
审查会议 10636
例外 10625
清除 10615
探索 10605
哈@@ 10600
亚 10597
同次 10587
村 10562
总结 10554
有机 10548
联合国大会 10548
工作文件 10543
布@@ 10535
被捕 10532
由此 10531
消耗 10527
削弱 10523
吨 10519
参与者 10509
空中 10509
档案 10498
选定 10498
几内亚 10489
药品 10486
监察 10482
250 10480
所列 10476
溴 10476
这场 10472
债权人 10469
税 10467
英文 10464
es 10461
判例 10459
关税 10457
入 10456
东西 10455
援引 10451
近期 10450
自动 10447
性虐待 10440
净 10438
灵活性 10433
爆炸物 10429
亚太 10427
航空 10417
钻石 10413
期内 10409
伦敦 10405
问 10401
发展权 10398
18@@ 10397
马耳他 10395
度 10394
绝对 10383
el 10381
时@@ 10380
线 10369
地@@ 10356
安@@ 10354
CN.9 10351
形势 10351
第二条 10347
席位 10344
青年人 10338
被占领土 10336
强制 10329
所@@ 10319
配偶 10310
觉得 10304
亦 10296
at 10293
同等 10285
国家元首 10279
观测 10279
重@@ 10271
蒙古 10270
条文 10266
联塞 10266
宝贵 10264
过度 10264
超出 10263
学 10260
政权 10253
萨@@ 10248
一方 10246
J 10243
台 10242
沟通 10235
患者 10227
多少 10215
the 10214
均衡 10205
j@@ 10200
认证 10198
场 10194
填补 10194
司法部 10193
变动 10188
能否 10188
室 10184
西岸 10174
立陶宛 10172
ad@@ 10164
SR.@@ 10163
病毒 10159
公认 10156
合格 10148
港口 10148
假 10147
经合组织 10120
动态 10100
种种 10096
讲 10091
假设 10089
公里 10089
转 10089
跨界 10080
105 10078
做到 10070
政府首脑 10065
生存 10063
合法性 10058
高等教育 10057
弱势 10053
文章 10051
没 10051
知情 10046
所在 10043
负有 10042
这@@ 10041
罗@@ 10035
警告 10035
机 10029
展示 10027
人民币 10020
对策 10018
限于 10015
教学 10014
修建 10013
撤销 10011
侵略 9994
判处 9990
H 9989
现状 9988
习近平 9984
永久 9977
安装 9972
免受 9969
不当 9967
外交部 9964
强大 9960
中非 9955
管理系统 9954
赠款 9950
的确 9947
自由化 9940
核实 9936
初次 9933
en@@ 9932
不久 9930
调查结果 9921
暂时 9917
开设 9907
卫生组织 9904
it@@ 9903
妻子 9902
连续 9895
否则 9892
翻译 9891
1988 9890
月底 9882
津巴布韦 9882
设定 9870
这么 9868
国际劳工组织 9862
成效 9850
全球性 9849
思想 9844
下文 9824
倾向 9820
联科 9809
蒙特利尔 9806
7@@ 9800
尽 9799
管理层 9792
外@@ 9790
章 9783
继承 9783
繁荣 9779
煽动 9778
必需 9768
利@@ 9761
架 9750
法@@ 9750
产妇 9733
得不到 9733
联利 9730
解除 9725
中部 9721
用作 9721
妇发 9700
保安 9688
帐户 9688
系 9679
爱沙尼亚 9677
轨道 9672
变成 9669
报 9666
贝宁 9658
受害 9656
102 9648
灾难 9646
同@@ 9643
文明 9641
意图 9640
乌兹别克斯坦 9638
习惯 9637
多名 9628
㈢ 9624
博士 9622
门 9619
对付 9616
差别 9614
总共 9614
as 9609
中学 9609
提升 9602
分歧 9601
迹象 9600
r 9599
担忧 9599
增多 9567
旅游业 9567
诉诸 9566
工作者 9563
特使 9554
撒哈拉 9553
污染物 9550
刑事法庭 9548
迫切需要 9545
简报 9537
残疾儿童 9536
拉脱维亚 9533
k 9532
众多 9525
授予 9521
发@@ 9517
金融危机 9512
愿望 9511
丰富 9505
种植 9501
U@@ 9492
钱 9484
习俗 9483
朝鲜民主主义人民共和国 9478
巡逻 9475
召集 9464
客观 9464
直至 9463
ing 9458
101 9455
V 9454
非@@ 9454
路 9451
福祉 9447
1980 9446
购置 9445
111 9440
第三方 9437
铭记 9434
am@@ 9429
无害 9428
感兴趣 9427
以@@ 9426
男孩 9424
l 9423
发了 9420
圆桌会议 9415
维修 9412
130 9401
事业 9401
遭 9393
十三届 9388
普及 9388
基本权利 9385
现代化 9384
首都 9383
房屋 9378
属 9376
结婚 9372
至今 9362
配合 9355
筹备工作 9351
影响力 9349
最为 9346
un 9344
行动者 9342
毛额 9337
视 9337
名@@ 9336
每周 9334
基本上 9331
经共体 9328
家庭成员 9325
冰岛 9324
计量 9314
迫使 9312
战斗人员 9306
文@@ 9304
应@@ 9303
发挥作用 9294
尔@@ 9292
回返 9290
太 9290
马其顿共和国 9289
恰当 9288
警察部队 9288
此次 9287
夫 9281
针对性 9281
着重指出 9279
德班 9277
朋友 9277
某个 9273
学术 9270
船只 9268
清理 9267
裂变 9262
巴林 9257
联邦政府 9256
广播 9251
电信 9251
选出 9250
出@@ 9247
ia 9245
2.@@ 9241
很难 9241
为止 9240
值 9240
信心 9234
5% 9232
一天 9230
103 9226
会费 9220
多项 9217
或是 9215
很快 9208
面向 9204
咨商 9203
分布 9201
标题 9201
17@@ 9186
u@@ 9186
人为 9183
冻结 9179
施加 9177
流程 9170
缩小 9167
增至 9161
仇恨 9155
外联 9150
自决 9149
回收 9148
分@@ 9140
共同努力 9133
104 9132
风险管理 9127
围绕 9117
响应 9114
查阅 9111
一贯 9102
军备 9090
等待 9089
埃@@ 9083
十二届 9078
13@@ 9071
四@@ 9068
对外 9065
节目 9059
交给 9058
莫桑比克 9042
补助金 9033
忽视 9031
标准化 9023
草稿 9022
14@@ 9020
并于 9019
欺诈 9019
批款 9010
一所 9001
法律文书 9000
力求 8997
坦桑尼亚联合共和国 8996
欧洲委员会 8995
持 8992
大陆 8987
产业 8982
指挥官 8979
世界卫生组织 8978
j 8974
所示 8973
ch@@ 8958
小额 8956
方便 8955
生 8945
核试验 8943
刑法典 8922
兰 8921
年前 8921
2016 8910
从未 8909
覆盖 8898
巴拿马 8896
发给 8891
工厂 8891
治安 8890
爆发 8882
散发 8870
世界人权宣言 8865
第五次 8859
总是 8853
非殖民化 8849
计算机 8846
非索 8846
前@@ 8845
化学 8844
改造 8843
瓦 8843
实物 8838
is@@ 8836
真相 8834
谁 8833
卢森堡 8831
薪酬 8831
卫生部 8826
置于 8821
在线 8819
序言 8819
闭会 8815
计划生育 8814
祝贺 8808
反对派 8807
物体 8804
第六条 8795
申明 8787
如@@ 8786
采纳 8778
原 8777
想要 8764
布 8762
辩护 8757
东耶路撒冷 8744
剩余 8742
金@@ 8737
工作量 8736
路线图 8732
拉加 8716
108 8715
海事 8715
组建 8715
细节 8713
单元 8711
计划署 8710
文职人员 8707
年@@ 8706
编辑 8697
模型 8690
发动 8687
会见 8683
职类 8681
克@@ 8679
驳回 8675
纳米比亚 8674
年间 8672
巴拉圭 8663
低收入 8661
一步 8657
接收 8656
高效 8656
天@@ 8652
CEDAW 8648
暂行 8648
防范 8645
利润 8639
辅助 8638
维护者 8630
追踪 8630
西方 8626
报酬 8625
第三届 8621
司长 8620
50% 8619
特性 8618
m 8617
边缘化 8617
效应 8616
不结盟运动 8614
无论是 8611
牵头 8608
洪都拉斯 8606
107 8599
at@@ 8596
列支敦士登 8589
系统地 8585
照片 8584
现场 8567
摆脱 8562
时说 8561
局面 8560
各个方面 8558
等等 8552
运营 8547
第十四条 8544
v@@ 8543
经济委员会 8535
106 8531
经社理事会 8531
中亚 8530
土库曼斯坦 8528
实验室 8526
+ 8523
正规 8523
电视 8515
T 8513
死 8512
尽早 8510
之际 8504
比@@ 8501
优惠 8498
六个 8494
村庄 8494
每日 8491
秘密 8491
保密 8489
进 8489
振兴 8479
112 8477
标志 8472
分段 8453
缴款 8450
骚扰 8450
公路 8448
团伙 8447
有所增加 8444
分担 8441
竞选 8441
维@@ 8432
常会 8428
主导 8427
140 8425
会谈 8410
此事 8410
犯有 8406
十届 8402
移动 8400
一架 8395
增长率 8395
几@@ 8393
10% 8388
不管 8386
船舶 8377
盟约 8369
体面 8368
失败 8366
作出努力 8364
失业率 8362
十@@ 8357
预防性 8356
两级 8347
II 8344
上次 8344
115 8336
罗姆人 8336
实例 8335
罗 8333
K 8332
名称 8332
写 8329
财富 8325
补编 8321
图@@ 8320
森 8320
取得成功 8316
更多地 8316
el@@ 8308
每@@ 8307
和平利用 8305
生产力 8304
or@@ 8302
协调会 8300
生态 8285
尼@@ 8284
易 8282
臭氧 8276
所得 8268
恩 8264
苏丹政府 8259
措辞 8252
联检 8252
作物 8248
星期 8240
运送 8238
此后 8237
养恤 8235
紧迫 8235
日常 8232
萨 8230
特权 8225
有待 8224
Sh@@ 8222
制品 8209
堕胎 8197
任用 8195
基 8191
交通 8186
营养不良 8186
单 8185
项下 8178
我谨 8177
中国政府 8175
健全 8172
喜欢 8171
高级官员 8166
买卖 8154
识别 8153
基本建设 8148
另有 8144
O 8141
113 8140
花 8134
中等 8133
斐济 8133
达@@ 8133
县 8131
迪 8129
各@@ 8128
旅费 8128
斯德哥尔摩 8127
20% 8112
经济危机 8111
儿子 8108
尚 8108
原籍 8106
视频 8101
征求 8099
生育 8091
表格 8087
114 8085
持久性 8077
高质量 8075
民警 8074
捕捞 8073
短缺 8069
关键作用 8068
瓦@@ 8067
审 8061
军事行动 8056
为@@ 8043
部落 8041
大力 8026
15@@ 8025
陷入 8023
打@@ 8020
支配 8016
本着 8016
缓慢 8016
雷@@ 8016
奠定 8015
庆祝 8010
多哥 8009
而@@ 8008
109 8005
博@@ 8005
整合 8004
东盟 8001
吗 7998
大幅度 7995
金属 7991
族 7989
承包商 7988
生@@ 7988
塔吉克斯坦 7972
行政部门 7969
机遇 7968
品 7967
开采 7961
弃权 7961
含有 7957
尽管如此 7957
源 7955
周 7951
116 7946
此前 7944
该司 7943
契约 7940
犯 7936
as@@ 7932
基@@ 7921
0.@@ 7917
o@@ 7917
获 7915
0@@ 7914
国会 7912
职业培训 7908
订约 7908
操守 7907
军火 7901
理想 7901
招聘 7898
合作社 7895
学会 7894
Al@@ 7893
脱离 7887
对抗 7886
1967 7883
开 7880
团队 7878
比额 7874
公共政策 7866
ad 7853
指令 7852
司法制度 7851
操作 7848
林业 7847
联合国环境规划署 7845
中所载 7844
阿拉伯联合酋长国 7839
固定 7837
七 7835
约束 7834
台湾 7829
合适 7829
追加 7827
极其 7826
新兴 7821
左右 7815
设有 7815
负面影响 7808
三名 7806
开幕 7802
长@@ 7800
不足以 7790
致使 7783
库 7782
中小企业 7780
尊重人权 7779
减缓 7773
消息 7771
周围 7768
http 7765
土著人 7764
延迟 7762
家长 7758
不受 7751
on@@ 7750
从@@ 7745
N 7743
惩治 7735
Add.2 7728
减免 7725
必不可少 7721
蒙特雷 7720
回到 7719
起到 7718
党 7710
警官 7708
该条 7708
顾及 7707
签证 7705
亚@@ 7704
这笔 7704
吉布提 7699
同事 7692
羁押 7692
3% 7690
跨 7690
1% 7689
开会 7686
遏制 7681
代价 7679
战斗 7676
吉尔吉斯斯坦 7673
面积 7673
贩卖人口 7666
117 7664
据说 7663
联合国秘书处 7663
人均 7660
住所 7660
次数 7660
南部非洲 7658
权限 7655
广大 7653
普@@ 7653
迪@@ 7653
五@@ 7652
感 7647
补助 7643
采矿 7640
达成协议 7635
过@@ 7632
et 7631
疫苗 7630
科学家 7630
2% 7629
构想 7628
惩处 7624
约合 7624
无效 7618
既定 7618
形象 7616
122 7614
届会 7612
作品 7610
入境 7602
ah 7596
波动 7595
认捐 7594
复苏 7593
联 7593
消灭 7588
发行 7587
儿基会 7585
‘ 7580
160 7579
八 7577
应由 7574
16@@ 7567
联合国总部 7567
其后 7566
联海 7562
ol@@ 7551
180 7547
国民议会 7542
你们 7541
某一 7540
禁令 7538
3.@@ 7534
名为 7534
已于 7532
美@@ 7530
要点 7530
见下文 7523
策略 7518
反@@ 7517
动机 7512
撤出 7508
开列 7507
流行 7507
病人 7506
面 7506
撤回 7499
检测 7498
手 7495
il@@ 7491
6% 7486
勒 7483
供水 7479
非国家 7469
118 7467
房 7467
群岛 7465
截止 7462
开@@ 7460
12@@ 7455
4% 7450
应为 7449
麻醉药品 7448
第七条 7446
多米尼加共和国 7445
干涉 7445
具体措施 7437
激励 7437
分散 7436
感到遗憾 7434
所说 7434
20@@ 7431
加工 7431
125 7423
穷国 7421
转@@ 7419
玻利瓦尔 7415
当代 7407
普遍性 7407
格@@ 7402
所用 7395
警务 7391
工业化 7388
种族灭绝 7388
星期五 7387
核能 7387
彼此 7386
ab@@ 7385
西撒哈拉 7385
禁毒 7380
跨国公司 7373
中美洲 7365
欧安组织 7362
集会 7362
塔@@ 7359
流行病 7359
0 7358
孕妇 7358
顺利 7358
以南 7353
转向 7349
动物 7347
包 7343
除外 7340
无国籍 7328
这位 7326
曼 7325
里@@ 7324
星期一 7320
安 7319
提倡 7318
审讯 7315
即便 7313
街头 7312
部委 7309
南@@ 7308
足以 7307
人事 7306
重叠 7306
8@@ 7304
欣见 7302
林 7300
重组 7294
饮用水 7294
下次 7290
119 7288
执法人员 7286
预警 7280
系列 7276
偏见 7275
兹 7272
颁发 7272
un@@ 7265
塞人 7265
7% 7262
塞@@ 7262
办公 7259
The 7258
尼日尔 7256
委托 7254
家园 7253
元 7252
30% 7246
不仅仅 7239
指责 7238
报复 7237
现 7235
先进 7234
8% 7232
提 7231
塔利班 7228
正当 7227
捍卫 7222
一事 7221
案情 7221
考试 7221
1373 7216
教训 7216
刺激 7214
摩尔多瓦共和国 7213
卫生设施 7211
队伍 7209
埃 7207
评注 7206
学科 7205
施政 7204
CRC 7203
直升机 7202
市场准入 7189
公共行政 7186
写道 7185
第四届 7182
感觉 7175
检察长 7173
本地 7164
租赁 7161
刑事诉讼法 7160
卫生保健 7155
警察局 7154
章程 7151
术语 7149
一段 7148
否认 7148
班 7146
一支 7145
老龄 7141
谋求 7140
马拉维 7139
待 7136
病 7135
am 7132
划界 7130
聘用 7123
名册 7121
灭绝种族 7121
发达 7119
受@@ 7112
广告 7111
难 7108
停火 7107
心@@ 7107
是从 7106
大赦 7103
诺 7101
动力 7099
赞助 7099
故事 7094
周二 7093
信函 7092
六个月 7092
沙@@ 7091
宣称 7090
每次 7090
9@@ 7076
第十届 7075
孕产妇 7071
指挥 7068
统筹 7066
莫@@ 7066
时至 7065
跟 7064
本来 7050
123 7048
创业 7048
普查 7037
奇 7036
电子商务 7036
一座 7035
2020 7034
意外 7034
送 7033
男人 7028
两份 7027
司法部门 7026
远远 7026
贝@@ 7025
is 7022
气 7018
遗产 7016
事宜 7011
结余 7011
教育部 7010
革命 7008
具 7003
一届 6994
那个 6987
美国政府 6986
留在 6983
版 6979
精简 6975
证词 6971
ed 6970
刑事诉讼 6968
目的地 6967
签发 6966
船 6966
成@@ 6964
较为 6962
范畴 6953
马达加斯加 6952
121 6950
海盗 6948
缴纳 6946
分钟 6943
ag@@ 6942
公共卫生 6938
ic@@ 6935
博茨瓦纳 6934
号法 6929
储备 6928
利率 6928
中间 6924
地震 6920
扫盲 6914
筹集 6914
种类 6911
其次 6909
内阁 6909
鱼类 6908
2017 6906
ay@@ 6904
准备金 6901
反馈 6901
山 6901
所指 6901
抵达 6899
地面 6895
版本 6894
先决条件 6890
适足 6890
外空 6884
后@@ 6880
毛里塔尼亚 6877
曼谷 6871
引入 6864
西部 6854
领土完整 6852
三分之一 6846
名字 6842
人物 6841
索@@ 6836
中止 6835
总@@ 6832
罚款 6832
和平解决 6825
河 6822
波@@ 6822
碎片 6817
为何 6815
性骚扰 6813
成人 6812
势头 6810
回 6808
早 6808
明确规定 6807
根除 6807
奖励 6803
预算编制 6796
马尔代夫 6791
布鲁塞尔 6789
星期四 6782
联合国儿童基金会 6782
全@@ 6779
找出 6778
萨摩亚 6776
前任 6773
海 6773
会@@ 6770
洛@@ 6769
节省 6769
es@@ 6759
更具 6752
追究 6749
支持者 6746
离婚 6746
托 6745
权益 6738
实效 6737
常规 6737
遗留 6737
依 6735
鲁@@ 6735
古@@ 6733
权威 6733
枪支 6729
社会福利 6729
124 6728
远 6727
第四条 6726
一部 6724
权力下放 6722
ak@@ 6720
专题讨论 6719
估算 6713
检查组 6712
id@@ 6705
一再 6705
活力 6705
星期三 6701
调 6701
距离 6701
象 6698
企业家 6695
事务处 6693
志愿 6693
实务 6690
作者 6685
全面禁止 6683
港 6680
较大 6669
天然气 6668
摧毁 6667
几十年 6666
打 6664
国防 6661
生产总值 6657
撤离 6656
塞族 6654
1986 6643
据此 6642
im@@ 6641
儿 6640
方@@ 6639
准许 6638
配备 6637
弥补 6636
得出结论 6634
演变 6634
第二章 6633
朝 6632
赢得 6630
杂志 6629
抵消 6627
138 6626
内政部 6625
救助 6623
世卫 6622
汇款 6621
延误 6616
环境保护 6616
危及 6612
南亚 6606
十四届 6605
大西洋 6605
尝试 6605
约翰内斯堡 6604
便于 6603
呢 6597
证券 6597
网址 6596
会期 6592
入学 6587
星期二 6586
力度 6582
流入 6581
剂 6579
地中海 6578
未@@ 6578
团长 6577
隔离 6576
倍 6574
巴巴多斯 6570
一揽子 6567
外债 6566
公共服务 6565
条@@ 6565
综合性 6555
ou@@ 6553
思考 6548
具体情况 6547
吸收 6546
体罚 6540
追求 6534
失望 6532
不丹 6526
ur@@ 6525
证件 6523
追回 6520
矛盾 6519
统计数字 6517
二@@ 6515
将近 6513
医疗保健 6512
冲击 6505
活跃 6504
老年 6503
入学率 6499
快 6497
联苏 6496
三项 6495
os 6489
接纳 6484
申请人 6484
et@@ 6482
裔 6480
尽量 6477
本案 6476
列举 6472
杜@@ 6472
第六次 6471
提@@ 6469
增设 6468
层 6460
ac@@ 6459
财务报告 6459
莱@@ 6457
惠益 6456
通@@ 6451
气氛 6450
连接 6448
技术支持 6446
第三条 6446
第一章 6445
采取有效 6445
靠 6444
遭遇 6443
电台 6442
服务中心 6436
免疫 6432
各部 6431
因@@ 6431
分为 6423
连 6414
苹果 6413
进行谈判 6412
双重 6410
数@@ 6404
主管部门 6401
甄选 6401
住宅 6395
134 6394
第三国 6392
先 6385
表示感谢 6384
155 6381
University 6381
公寓 6380
架构 6373
公@@ 6371
叙述 6371
做好 6369
物种 6366
兄弟 6361
总务 6361
明 6361
划分 6360
大众 6356
不幸 6353
流 6347
使命 6340
重大进展 6340
参加者 6339
已@@ 6336
测量 6333
学者 6332
奖 6331
恐吓 6325
一下 6323
谨慎 6318
起@@ 6317
作法 6316
周年 6315
收容 6315
话 6314
凡 6312
电脑 6312
两国 6309
永远 6309
管 6308
愿 6306
40% 6303
指明 6302
连续性 6301
公私 6299
128 6298
126 6292
那种 6292
皮@@ 6286
确切 6281
该@@ 6281
辐射 6281
送交 6279
电子邮件 6278
议定 6278
收养 6271
绝大多数 6270
DP 6266
恶劣 6263
业已 6260
租金 6257
零 6256
过渡时期 6255
梅@@ 6254
充分利用 6253
海洋环境 6250
少女 6245
论述 6243
圭亚那 6241
次序 6241
帕@@ 6240
产量 6238
国际原子能机构 6235
退出 6233
通用 6233
哈 6230
姓名 6226
182 6223
盘旋 6222
C.4 6219
例 6213
西班牙语 6211
口译 6209
第九届 6209
一周 6207
报表 6207
相@@ 6207
枚 6206
诊断 6206
谋杀 6204
城 6197
相关性 6196
Mar@@ 6195
东 6192
处以 6191
苏@@ 6189
索 6188
法外 6187
手机 6186
耶路撒冷 6186
转型期 6185
文职 6184
之所以 6183
示威 6179
过于 6179
敌对行动 6176
签字 6175
St@@ 6174
林@@ 6174
这家 6172
第二阶段 6169
极端主义 6167
ed@@ 6162
增编 6161
债券 6158
助长 6157
毫米 6150
诊所 6149
重 6149
1987 6144
表@@ 6144
不满 6143
声音 6143
09 6142
吉@@ 6140
价 6139
赤贫 6130
明@@ 6129
迁移 6126
周一 6123
含义 6122
配额 6121
带有 6117
调集 6116
欧洲人 6114
积累 6112
城镇 6111
自决权 6111
解释性 6107
无疑 6092
行径 6091
9% 6088
寿命 6087
建筑物 6086
忆及 6084
收取 6084
兵 6082
严峻 6079
希@@ 6079
厂 6076
时刻 6076
出台 6073
本条 6072
成年人 6071
两位 6065
自主 6062
木材 6061
奥 6057
刚刚 6056
153 6054
贾@@ 6053
修复 6046
收购 6043
1985 6041
拘押 6040
俱乐部 6039
129 6037
圣@@ 6035
风@@ 6034
审计员 6033
超越 6032
严厉 6027
护照 6027
承受 6025
隔离墙 6024
1982 6022
会议议程 6021
单@@ 6017
报纸 6011
主@@ 6007
消极 6005
光@@ 5999
诺@@ 5997
提前 5992
135 5989
生境 5988
170 5987
发送 5986
第五十八 5983
产假 5978
军方 5978
富有 5976
ir@@ 5973
地图 5971
见解 5971
买方 5968
东@@ 5964
极 5964
空@@ 5958
托@@ 5957
海牙 5957
由@@ 5954
获益 5954
中所 5949
勘探 5947
路线 5947
INF 5937
东南亚 5937
无障碍 5937
和谐 5936
第六届 5933
大多 5932
阵线 5929
132 5925
定 5925
检验 5923
联委会 5923
女生 5920
第五十九 5918
更换 5915
税务 5915
分至 5914
博物馆 5913
司法机关 5910
信中 5909
绳之以法 5909
动荡 5908
房地产 5907
辆 5907
对应 5905
蒂 5904
紧张局势 5903
利息 5902
听到 5901
归还 5901
80% 5898
专长 5898
加紧努力 5895
期@@ 5895
或@@ 5892
原@@ 5890
友好 5889
游客 5888
集束 5888
职 5886
塞 5885
述及 5885
1540 5884
好@@ 5884
调查团 5884
141 5883
亲属 5883
片 5883
英 5880
替代品 5877
续会 5877
土壤 5876
听 5872
迫害 5872
雇佣军 5870
雷 5869
第五条 5868
127 5867
上帝 5865
据报 5863
1970 5862
紧密 5858
经济社会 5858
真实 5854
白@@ 5851
133 5850
品牌 5847
派出 5847
第七届 5847
承付 5845
境况 5842
169 5839
作@@ 5836
山区 5836
别的 5833
申报 5833
莫斯科 5832
常见 5831
导航 5830
131 5829
之二 5828
第十一届 5827
妇女组织 5824
转化 5823
第三个 5819
第五届 5818
李@@ 5816
社交 5813
下面 5810
行@@ 5809
裁撤 5809
邦 5809
三次 5807
心 5807
理事 5805
每一 5803
要么 5803
Mr 5802
p 5802
展览 5802
普通照会 5802
概况 5801
顿 5801
可信 5798
侧重 5797
电力 5797
现任 5791
212 5790
中小型 5784
奴役 5784
收费 5784
海底 5783
最多 5780
涉嫌 5780
伊斯兰教 5779
从中 5774
不予 5770
编号 5769
or 5767
印刷 5764
之上 5755
六@@ 5751
统治 5750
世界贸易组织 5745
加蓬 5744
救援 5741
第九条 5737
山@@ 5735
债务人 5734
上海 5730
卷入 5728
强 5722
证 5719
传染病 5717
情绪 5717
战略性 5716
em@@ 5714
短 5712
非洲大陆 5709
七个 5706
上涨 5706
延期 5705
合@@ 5704
性别歧视 5704
微型 5703
收回 5703
幸存者 5701
分娩 5700
所提 5698
扣押 5697
几次 5692
两者 5691
á 5690
以供 5690
乡村 5687
捐赠 5687
不愿 5684
TD 5680
中断 5680
监控 5677
挑选 5674
生产能力 5674
5.@@ 5668
成长 5665
蔓延 5665
多地 5664
假定 5663
签名 5663
概要 5662
甲基 5660
关键问题 5659
上学 5657
核不扩散 5654
法律事务 5650
改组 5648
相一致 5646
全民投票 5645
深 5643
那@@ 5643
酒店 5638
初期 5634
无视 5633
资金来源 5633
偷运 5632
概览 5632
结构性 5629
详尽 5627
违法行为 5626
上面 5625
分开 5621
电@@ 5620
美 5620
奖学金 5618
上周 5617
章节 5616
载列 5616
挂钩 5613
这两项 5613
留下 5612
政府部门 5611
十六届 5609
救灾 5607
署长 5606
中将 5603
艾@@ 5602
正@@ 5601
第五十七届 5601
伤亡 5600
法典 5600
信号 5598
学术界 5595
宪法法院 5595
日前 5592
被控 5591
鱼 5591
建制 5588
编纂 5588
区域性 5586
妥善 5586
2.1 5584
预定 5584
原则上 5581
继 5581
分离 5578
股票 5576
训研 5575
令人满意 5574
展望 5570
定居 5566
136 5565
低@@ 5565
法人 5565
贩毒 5565
& 5563
08 5560
区域间 5560
谈 5557
作战 5556
峰会 5552
性@@ 5549
占领国 5548
补救措施 5548
ri@@ 5547
第一阶段 5547
放射性 5540
民族和解 5540
透露 5539
伊斯坦布尔 5538
av@@ 5535
摩纳哥 5535
理念 5531
自主权 5527
划拨 5525
来到 5525
认同 5525
困境 5523
完整性 5522
论点 5521
医学 5520
ani 5518
经@@ 5513
性健康 5511
用@@ 5511
ina 5509
CO 5508
殴打 5506
费率 5506
增效 5504
预防措施 5496
充当 5495
管理机构 5495
支 5489
科学技术 5489
调查表 5488
淘汰 5486
判断 5485
境外 5485
库@@ 5485
演讲 5484
令人遗憾 5482
文字 5479
商 5478
om@@ 5474
一笔 5474
下来 5474
差 5471
女儿 5470
更改 5469
女@@ 5468
普 5467
附录 5466
三方 5463
工 5462
可行性 5460
㈣ 5459
社 5459
老@@ 5457
艰难 5457
137 5456
空运 5451
充满 5448
得@@ 5448
各州 5446
Add.@@ 5441
国防部 5440
家@@ 5440
06 5438
核证 5437
1.1 5430
WP.@@ 5430
周三 5430
大程度 5428
阵地 5428
打破 5427
142 5423
措词 5423
搜索 5421
特别法庭 5419
仔细 5418
如同 5418
协商会议 5415
man 5412
差旅 5412
米@@ 5412
1978 5411
职权 5407
举报 5405
一人 5404
扭转 5404
W 5403
赋权 5396
卢@@ 5395
制造商 5394
阿曼 5392
使用者 5389
口 5386
相互依存 5385
05 5384
计 5384
警卫 5381
段落 5379
us 5378
激烈 5378
it 5375
到达 5375
恩@@ 5375
详情 5375
养老金 5374
一致意见 5372
镇 5372
保持一致 5370
楼 5370
驱动 5370
下去 5369
优质 5368
洛 5367
长时间 5364
公务 5363
遵约 5360
事务司 5358
蓄意 5358
东欧 5357
官 5357
指派 5357
熟悉 5355
边缘 5354
复杂性 5353
第八届 5353
分裂 5351
流通 5350
军官 5349
体@@ 5346
不必 5345
连贯 5345
无条件 5344
委 5343
不法行为 5341
两人 5338
便利化 5337
加深 5337
ie 5336
三分之二 5331
受益人 5331
马德里 5331
几项 5330
炸弹 5330
禁产 5329
布雷顿 5327
143 5324
切割 5323
所在地 5321
目前为止 5321
卷 5320
营 5320
阶层 5319
套 5312
拆除 5312
莱索托 5309
全权 5306
全国性 5305
真的 5305
早日 5304
刑罚 5301
刚 5301
注 5301
刑事犯罪 5299
用尽 5299
le 5292
复兴 5292
有意 5292
氟 5290
01 5287
可疑 5287
同行 5287
收@@ 5283
相似 5283
for 5279
亚的斯亚贝巴 5276
扶持 5276
入@@ 5275
草坪 5273
掉 5272
花费 5271
称赞 5270
原先 5266
1949 5265
庭长 5265
约翰 5262
主管机构 5259
轮 5259
下令 5257
伊斯兰会议组织 5256
北方 5256
保护措施 5255
联合行动 5255
还会 5254
头@@ 5250
气象 5250
劳动法 5247
遵照 5246
持久和平 5245
省份 5243
预见 5241
等级 5240
排 5239
应予 5238
网页 5235
预先 5235
139 5233
教育权 5233
未决 5232
飞离 5231
ul@@ 5229
益处 5225
撰写 5224
不少 5221
X 5220
联阿 5215
25% 5214
联网 5214
乌@@ 5213
一类 5212
教@@ 5211
抵抗 5209
薄弱 5208
一件 5207
努力实现 5207
吸毒 5205
暴力事件 5205
145 5201
夫人 5198
迈出 5197
北约 5194
登 5190
区内 5185
跨部门 5184
克林顿 5183
国际货币基金组织 5183
法律顾问 5180
兼顾 5172
纠纷 5170
各项规定 5169
判刑 5168
巴格达 5164
循环 5164
独立国家 5161
麻醉品 5161
可否 5159
144 5157
层次 5157
款额 5156
热@@ 5154
手中 5153
看作 5151
缩短 5147
该次 5147
吉 5146
词 5145
七@@ 5144
房舍 5144
小组讨论 5141
赫@@ 5141
回@@ 5140
无需 5139
147 5136
即@@ 5136
谷歌 5134
动用 5129
太@@ 5129
化@@ 5128
点@@ 5128
徒刑 5126
战略规划 5125
U 5124
作出反应 5121
教 5121
依法 5120
当@@ 5119
农产品 5114
Th@@ 5112
非洲人 5109
巴哈马 5107
生命权 5107
坚信 5101
余留 5100
那时 5100
多方 5099
国家计划 5098
白宫 5098
产 5097
海岸 5097
愿景 5095
手续 5095
伊拉克政府 5094
深刻 5094
走向 5094
os@@ 5093
不可或缺 5093
io 5091
几天 5091
命运 5090
接着 5090
60% 5089
专用 5088
处在 5087
欧洲共同体 5086
群 5086
借鉴 5085
黑@@ 5076
尼亚 5075
220 5073
城市化 5069
07 5068
僵局 5068
干扰 5065
毕业 5064
看待 5063
二十一 5062
162 5061
深信 5061
费@@ 5061
ra 5060
查@@ 5059
火器 5059
半 5058
戈兰 5057
附 5057
来@@ 5055
仪式 5053
生产性 5051
红十字 5051
1981 5050
农场 5047
平@@ 5046
文化遗产 5045
身上 5044
十 5041
流@@ 5039
人身 5038
手@@ 5029
暴行 5029
俄 5027
宗 5027
研训 5022
九 5020
种群 5019
创立 5018
胁迫 5016
基伍 5015
故意 5015
飞越 5015
病例 5014
遥感 5014
to 5013
Q@@ 5010
氯化 5010
CD 5009
3.1 5008
固有 5004
146 5002
哥本哈根 5002
拘禁 5002
权@@ 5001
成熟 5000
冈比亚 4997
ir 4996
st@@ 4995
4.@@ 4994
Sub.2 4993
东京 4993
周四 4992
International 4991
互助 4991
占据 4991
孤儿 4991
附上 4985
1973 4981
解雇 4981
犯罪活动 4979
用水 4978
270 4976
监视 4976
与会 4975
季度 4975
and@@ 4973
列@@ 4973
派驻 4973
re@@ 4971
预审 4970
原来 4969
ah@@ 4968
工@@ 4968
平等权利 4966
占有 4965
核算 4965
动 4962
应收款 4958
编 4957
联@@ 4954
吸取 4952
集 4948
看出 4944
156 4941
超@@ 4941
空气 4939
自行 4937
传染性 4936
发病率 4936
沃@@ 4936
穆罕默德 4935
界限 4934
无线电 4933
深切 4933
Ar@@ 4932
恐惧 4932
154 4929
210 4929
论文 4927
多边贸易 4925
居留 4925
极为重要 4925
学员 4924
抢劫 4924
加重 4920
解放 4920
总量 4919
必然 4918
接种 4917
习惯法 4916
查询 4915
铁路 4915
受益者 4914
th@@ 4912
劳动者 4912
鹿特丹 4909
将要 4905
ib@@ 4904
不限 4904
斡旋 4903
í 4900
油 4900
充分考虑 4899
付出 4895
全额 4895
.1 4894
维 4894
实验 4890
专@@ 4889
肇事者 4887
151 4886
刑事责任 4884
向前 4883
健康状况 4882
孤立 4881
万名 4878
改动 4877
资发 4877
找 4876
浓度 4876
ov@@ 4875
著名 4871
音乐 4871
高层 4871
生物武器 4868
190 4867
诸多 4865
ai 4864
波多黎各 4862
中说 4860
书记 4860
各省 4859
参数 4857
土著居民 4855
金伯利 4855
光 4854
采取任何 4854
一段时间 4853
149 4850
巴布亚新几内亚 4846
C.6 4845
PRST 4843
特立尼达和多巴哥 4841
药物滥用 4841
鼓舞 4839
走私 4838
气@@ 4836
边 4836
波 4835
受过 4826
基督教 4825
门@@ 4823
166 4822
共产党 4821
月初 4821
过分 4821
交@@ 4820
接待 4819
长期以来 4816
非盟 4816
座 4811
相符 4809
火@@ 4806
辅导 4806
花@@ 4805
ST 4803
外勤人员 4803
152 4801
2.5 4801
减灾 4801
这名 4801
回合 4800
吃 4799
电视台 4799
财务状况 4793
王@@ 4792
法文 4791
省级 4791
1.2 4789
筹备会议 4789
回复 4787
在@@ 4786
货币基金 4786
字 4785
更@@ 4785
所致 4781
公职人员 4780
x@@ 4779
陆地 4779
估值 4776
无人 4776
更正 4776
参与性 4774
妥协 4773
里程碑 4771
航空公司 4768
！ 4768
小规模 4766
Kh@@ 4765
发展部 4764
立法机构 4764
验证 4764
15% 4763
贫民窟 4761
350 4760
杀 4760
235 4759
战略方针 4757
消失 4757
个案 4756
联合国安全理事会 4755
ć 4752
新增 4750
公园 4747
基线 4747
判定 4746
火箭 4746
侦查 4745
组@@ 4743
阿拉伯国家联盟 4743
八@@ 4742
拖欠 4742
穆@@ 4742
着眼于 4740
笔 4735
90% 4734
差旅费 4733
当作 4732
定居者 4731
会员 4730
考察 4729
您 4728
越 4728
参议院 4727
ro@@ 4722
um@@ 4722
第二十届 4722
植物 4721
日历 4719
阅读 4717
148 4715
一篇 4714
保@@ 4712
报@@ 4710
158 4709
AC.109 4709
第一步 4708
第十二届 4707
汲取 4705
出色 4700
不可分割 4698
令人鼓舞 4698
ap@@ 4697
医疗保险 4697
口粮 4697
_ 4696
限制性 4696
1984 4693
征收 4693
犯罪者 4693
海军 4692
早些时候 4689
研发 4687
摩加迪沙 4684
重债 4683
ut@@ 4682
环境卫生 4679
老挝人民民主共和国 4679
抵制 4676
经常性 4676
70% 4675
保护区 4674
陈 4672
不确定性 4670
明年 4670
西撒 4668
教会 4666
添加 4665
王国 4663
兰@@ 4661
于是 4660
内外 4659
院 4659
对本 4658
征税 4658
执行官 4656
创收 4655
注意力 4654
下跌 4647
交流信息 4646
办理 4646
公然 4644
施行 4643
军@@ 4641
家中 4641
频繁 4639
157 4638
多重 4638
应是 4635
条中 4633
家具 4629
空 4629
张 4628
9.@@ 4627
航行 4626
240 4624
执行机构 4623
身@@ 4623
副本 4622
重计 4622
日向 4620
人才 4619
族群 4619
借助 4617
慈善 4616
人口普查 4615
幅度 4614
店 4611
社团 4609
社会保险 4608
八个 4607
混乱 4607
阿尔@@ 4607
主持人 4606
大批 4606
当事 4606
技术性 4606
场地 4604
2.2 4603
佛得角 4600
储蓄 4600
民用 4600
兑现 4597
El@@ 4596
沙特 4596
癌症 4594
技术咨询 4593
身 4592
财政年度 4591
遗传 4590
司法程序 4589
海啸 4589
板 4587
主 4584
女工 4584
双@@ 4582
坦桑尼亚 4582
接到 4582
合 4581
问卷 4581
确信 4578
以色列政府 4577
免除 4577
突然 4576
致 4575
供应链 4573
往 4572
调@@ 4571
嫌疑人 4570
通货膨胀 4570
强制执行 4568
殖民地 4567
连同 4567
避孕 4566
波黑 4565
208 4564
制造业 4563
一批 4561
161 4560
毫无 4560
进而 4558
霍@@ 4557
文中 4554
Ab@@ 4550
苦难 4549
卖方 4548
部长会议 4548
累积 4547
ov 4546
进出口 4544
地名 4542
= 4541
借此机会 4541
后裔 4541
解决问题 4540
165 4538
使@@ 4534
战 4532
不必要 4529
宽容 4526
市镇 4524
我@@ 4523
捕鱼 4523
高效率 4523
该案 4521
不变 4519
检查站 4519
裁减 4518
切实有效 4514
分组 4513
培训中心 4513
第十九条 4513
前进 4512
定稿 4512
无关 4512
机@@ 4512
危险废物 4510
抚养 4506
共@@ 4505
携带 4502
驻科 4502
财力 4500
统计资料 4499
常 4497
核@@ 4497
代@@ 4496
系统性 4496
8.@@ 4495
北@@ 4494
Add.3 4493
高等法院 4488
药 4487
230 4486
一个月 4484
犯人 4483
1979 4482
竞争法 4482
张@@ 4477
部@@ 4477
侵权行为 4475
有限公司 4475
卢 4473
复@@ 4473
最低工资 4473
化合物 4472
量化 4467
付 4463
违约 4463
学年 4461
各项措施 4459
三大 4458
开罗 4457
受到限制 4456
大麻 4455
建 4455
得知 4455
260 4453
介入 4453
二氧化碳 4452
la 4450
男 4448
搜查 4447
顺序 4447
非统组织 4445
创伤 4444
动议 4438
杰@@ 4437
波恩 4434
ey 4432
深感 4432
于@@ 4431
29@@ 4430
远程 4430
Br@@ 4424
aw@@ 4424
他@@ 4424
基层 4424
负 4422
太阳能 4421
卡尔 4419
朝着 4419
科摩罗 4418
递交 4416
自杀 4415
损坏 4414
托克劳 4413
联合国日内瓦办事处 4413
同性恋 4410
书记官 4409
当今 4408
ay 4407
扶贫 4407
节约 4406
选 4404
小册子 4403
贯彻 4403
明白 4402
201 4401
第五十四届 4401
213 4398
Ad@@ 4395
满 4395
中立 4394
缉获 4391
CONF.@@ 4389
242 4386
怎么 4386
特派 4385
越境 4385
获释 4383
官长 4382
逃离 4382
但@@ 4381
直布罗陀 4381
ana 4380
继续加强 4379
苏联 4378
159 4376
文献 4376
股份 4376
us@@ 4375
受援国 4374
耶 4372
晋升 4368
记得 4368
斯特 4365
第七 4365
迫切 4363
市长 4361
共和党 4360
声援 4360
尤为 4359
新型 4359
缴付 4359
02 4358
乐观 4357
放@@ 4355
老人 4355
前所未有 4350
毫无疑问 4350
司机 4349
防@@ 4349
色 4347
im 4346
结核病 4346
学@@ 4345
od@@ 4342
征得 4342
班@@ 4341
户 4340
适宜 4340
到期 4336
什 4334
仲裁庭 4334
希族 4334
丧生 4331
健康权 4331
一辆 4329
强行 4329
消耗性 4329
被害人 4329
股东 4328
代理人 4327
胡@@ 4325
军人 4324
半@@ 4324
天基 4321
排@@ 4321
实况 4320
联络小组 4319
投 4318
爱 4318
怎样 4316
变@@ 4315
茨 4314
164 4312
再度 4312
推定 4311
相辅相成 4311
地址 4310
借口 4306
履约 4305
市政 4305
下属 4302
ou 4298
审计报告 4298
幼儿 4298
联合国人口基金 4298
回归 4296
娜 4294
泰@@ 4292
自动化 4291
Facebook 4290
普京 4290
监督机构 4284
负面 4284
ot@@ 4283
读 4283
饮水 4283
IN@@ 4282
III 4280
扎 4280
金正恩 4280
175 4278
负担得起 4278
一体 4277
向@@ 4276
至迟 4276
248 4274
这座 4270
贸易协定 4268
模块 4267
镇压 4266
基础教育 4264
承担责任 4264
文盲 4264
Am@@ 4263
Re@@ 4263
前体 4262
西欧 4261
总收入 4260
批 4259
离 4259
失@@ 4258
奇@@ 4258
艺术家 4258
搬迁 4256
第二十三届 4256
仅限于 4254
表述 4254
一组 4253
金融服务 4253
拨 4252
无辜 4252
中央银行 4251
分项 4251
四名 4251
两天 4249
伯@@ 4247
姆@@ 4244
尽量减少 4244
航班 4243
降至 4242
加紧 4240
有形 4240
1325 4239
只会 4239
登记处 4238
编入 4238
节余 4237
百@@ 4233
凯@@ 4232
整@@ 4231
审视 4230
此@@ 4230
所定 4229
致函 4229
伯利兹 4228
平等待遇 4228
阿拉伯语 4226
z 4224
院长 4222
美国@@ 4219
引用 4218
变 4217
第一条 4216
新闻稿 4215
交 4214
保卫 4213
含水层 4213
大使馆 4210
梅 4210
私有化 4210
领导层 4207
推@@ 4206
经社 4205
亿@@ 4201
职员 4201
年份 4200
抗 4200
该股 4200
第一款 4198
课 4196
庞大 4195
惩戒 4195
游戏 4195
反叛 4193
大选 4192
买 4191
前面 4191
减至 4190
3.2 4187
L.1 4186
一案 4186
出发 4184
决定性 4183
获准 4183
之友 4180
据估计 4180
极@@ 4179
矿物 4179
163 4178
il 4178
ó 4176
第一份 4174
不明 4172
4.1 4170
详细资料 4166
斯威士兰 4162
蒂@@ 4160
娱乐 4157
并@@ 4157
引进 4155
ers 4154
罪名 4154
聚集 4153
连@@ 4153
屠杀 4152
农药 4148
电 4147
地向 4146
陈@@ 4146
大气 4143
南斯拉夫联盟共和国 4142
在职 4141
值得注意 4139
阿卜耶伊 4139
贝鲁特 4138
推翻 4136
真诚 4136
172 4135
严格遵守 4133
世界粮食计划署 4129
即可 4129
发表意见 4129
环境影响 4127
戈 4126
请愿 4126
资源分配 4125
167 4124
ic 4124
鲁 4124
服务业 4121
民主党 4120
施工 4119
博 4118
民航 4118
在此期间 4117
外界 4117
患有 4116
空白 4116
战略目标 4115
第十三届 4115
以使 4113
图像 4113
附带 4106
交叉 4105
旧 4105
ine 4104
特许 4102
211 4100
吸引力 4100
东亚 4099
引导 4098
经理 4097
审前 4095
查 4094
竞争性 4094
L.@@ 4089
免于 4085
消费量 4084
拯救 4082
互相 4080
急剧 4080
新生儿 4080
建@@ 4079
比赛 4079
股@@ 4078
出入 4077
第七次 4077
John 4076
三年期 4075
常任理事 4074
解放军 4074
仓库 4073
03 4071
168 4071
慷慨 4069
过渡政府 4067
湖区 4066
质 4065
1960 4063
信誉 4063
阿布哈兹 4063
联发援 4062
鉴定 4062
189 4061
ang 4058
结@@ 4058
麻 4058
6.@@ 4056
不想 4055
良心 4055
限额 4055
将军 4054
致命 4054
联络点 4053
精@@ 4052
以色列国防军 4051
声 4050
延续 4047
车@@ 4042
五名 4041
应计 4041
面@@ 4041
科学研究 4040
eg@@ 4039
年来 4039
石 4038
调解人 4038
ent@@ 4034
被@@ 4033
汇集 4032
特别强调 4032
病@@ 4028
这部 4028
伴侣 4025
信件 4025
192 4023
土地利用 4023
宣读 4023
辩护律师 4022
周日 4020
安道尔 4018
28@@ 4016
伦 4016
.2 4015
含 4015
服装 4013
该科 4013
糟糕 4012
运转 4012
皮 4011
乘客 4010
潜能 4009
被判 4008
论 4008
对方 4006
251 4005
原始 4005
定性 4005
强@@ 4005
播放 4005
注销 4005
众议院 4004
相结合 4004
等国 4002
流动性 4000
经济学家 3999
171 3997
过时 3996
南北 3994
取 3994
贝 3994
取@@ 3993
韦@@ 3993
提高效率 3992
女子 3989
印象 3987
戈@@ 3987
输入 3986
这使 3985
一节 3984
农业部门 3984
加共体 3984
技巧 3984
简介 3984
eb@@ 3983
情 3982
Q 3980
2.3 3978
巴勒斯坦国 3978
网@@ 3976
利害关系 3975
一本 3974
结成 3972
普遍存在 3971
铲除 3971
之类 3970
代替 3970
以为 3970
索偿 3969
荣幸 3969
苏里南 3967
x 3965
解散 3964
人员编制 3962
联合国粮食及农业组织 3962
受欢迎 3959
愤怒 3959
预@@ 3958
草拟 3957
不利于 3955
视@@ 3955
生殖器 3954
分阶段 3953
财政部 3952
逻辑 3952
欧@@ 3950
联伊 3950
04 3948
三种 3948
制@@ 3948
千@@ 3948
不适 3947
总产值 3947
红@@ 3947
装 3947
何时 3946
保 3946
土族 3946
174 3945
复审 3945
指@@ 3945
1974 3944
党派 3944
国有 3942
外交政策 3942
时应 3941
毫不 3941
发布会 3940
萨赫勒 3940
SC 3939
外来 3937
组成员 3937
183 3936
弹道导弹 3936
之害 3933
制度化 3933
多人 3932
多元化 3931
感染者 3931
及@@ 3930
该处 3930
下届 3927
题目 3926
街 3924
sh@@ 3923
185 3921
出身 3921
选择性 3921
施@@ 3920
六种 3919
独联体 3919
不安 3918
英@@ 3918
回国 3917
二苯醚 3916
到@@ 3916
晚上 3915
时机 3913
初 3911
现况 3908
生产者 3908
必要条件 3905
房子 3903
1983 3900
传达 3900
... 3898
住宿 3898
改@@ 3894
众所周知 3891
生产率 3891
227 3890
信@@ 3889
最@@ 3889
民政 3889
本文 3888
基石 3887
结构调整 3887
173 3885
1975 3885
全文 3884
典型 3882
出庭 3882
男童 3880
着重于 3880
从来 3879
变更 3879
忽略 3879
进出 3879
优化 3876
大陆架 3876
综管 3876
1977 3875
214 3875
ig@@ 3873
供其 3873
定@@ 3872
合办 3871
用语 3871
第十条 3871
缺口 3870
列报 3869
继续执行 3867
书@@ 3866
场合 3866
自卫 3866
专业知识 3864
二级 3864
延伸 3863
清晰 3863
民法 3862
几位 3861
国防军 3861
内在 3860
勒@@ 3860
个体 3859
讲述 3859
交通运输 3857
岗位 3856
性行为 3856
油@@ 3855
哪 3853
奴隶制 3849
调查员 3849
现@@ 3848
谈论 3847
控制措施 3846
高中 3846
op@@ 3843
成年 3843
见@@ 3843
优先权 3842
第二节 3841
身心 3841
Bar@@ 3839
合理化 3839
X@@ 3838
承办 3838
精确 3836
卡车 3835
供@@ 3833
有毒 3833
灾后 3830
师 3829
温@@ 3829
选@@ 3828
清@@ 3826
毁坏 3825
中为 3824
克斯 3824
接下来 3823
莱 3823
本周 3822
破坏性 3822
模拟 3821
生育率 3821
应用程序 3820
雇佣 3820
辞职 3819
186 3816
af@@ 3816
拿 3814
源自 3814
先@@ 3813
积压 3813
虽 3811
装@@ 3809
简称 3808
接@@ 3807
家里 3806
15.@@ 3805
az@@ 3805
177 3801
Kar@@ 3800
一并 3800
一张 3800
性取向 3800
181 3797
出资 3797
上市 3794
团@@ 3794
皇家 3794
其实 3793
人选 3792
历史性 3792
清洗 3792
相称 3791
监护人 3789
星 3788
100% 3787
罗姆 3787
盟友 3786
外交官 3785
［ 3784
民主化 3783
看起来 3783
统计局 3783
全力支持 3781
密切相关 3778
臭氧层 3778
餐厅 3777
下放 3776
实用 3776
标签 3776
作证 3774
程序性 3774
表示遗憾 3773
一大 3771
育儿 3771
RC 3770
严重威胁 3770
第六十六 3770
高度重视 3770
各种各样 3769
邮件 3768
尸体 3767
ek@@ 3765
信念 3765
视角 3763
华 3762
武装力量 3762
源于 3761
An@@ 3760
出席会议 3760
块 3760
进@@ 3758
影片 3756
一边 3755
追查 3753
通 3753
大小 3752
夫妇 3752
机会均等 3752
初等教育 3751
覆盖面 3751
上限 3749
含量 3748
选项 3748
226 3747
会面 3746
178 3743
即决 3743
工程师 3743
九个 3742
切@@ 3742
地理信息系统 3742
替换 3742
军备竞赛 3741
载入 3741
社会主义 3740
RES 3738
日本政府 3738
严重性 3737
暂定 3737
频率 3737
12.@@ 3734
个@@ 3734
到来 3734
议会选举 3734
10.@@ 3732
密集 3732
随函 3731
中请 3726
1.5 3725
石@@ 3725
多方面 3724
首@@ 3723
推荐 3722
WG 3721
此人 3720
西非国家 3720
监护 3718
不论是 3716
去世 3716
自然人 3716
相关者 3714
贯穿 3714
瓦努阿图 3713
id 3712
事例 3710
占领军 3709
圣卢西亚 3709
鸿沟 3709
黑人 3709
先例 3708
187 3707
两周 3707
公共秩序 3707
显得 3707
热 3707
短@@ 3707
191 3705
Ali 3705
回报 3704
曼@@ 3703
ev@@ 3702
乃至 3702
投标 3701
206 3699
根 3699
附表 3699
赤道几内亚 3698
转换 3698
意识形态 3697
罢工 3697
关键因素 3696
升 3695
华@@ 3694
图瓦卢 3693
某种程度 3693
海域 3692
走@@ 3692
225 3691
总局 3691
此举 3690
焦点 3690
不动产 3689
尊敬 3686
血@@ 3685
东非 3682
新闻媒体 3682
菲@@ 3681
202 3678
扩张 3678
或非 3676
实@@ 3675
八届 3674
建立联系 3674
所罗门群岛 3674
此案 3674
176 3671
平 3671
中央政府 3670
ch 3669
打死 3669
撤消 3669
疑问 3669
184 3668
例外情况 3667
小组会议 3667
代 3666
一句 3664
势力 3664
领事 3663
居 3662
金融市场 3660
难@@ 3658
访谈 3657
］ 3657
ti@@ 3655
高达 3655
九@@ 3653
ation 3652
农发 3652
塞浦路斯共和国 3652
水域 3652
7.@@ 3651
等于 3651
干@@ 3650
结社自由 3650
户主 3649
盖@@ 3649
百万美元 3645
隐私 3645
主体 3644
国际金融 3644
233 3643
环保 3643
革新 3643
口@@ 3642
职司 3640
马克 3640
Twitter 3639
管理工作 3639
箱 3639
举 3638
之日起 3637
发表声明 3637
女人 3637
尽力 3637
力@@ 3636
吧 3636
中欧 3632
立@@ 3632
ian 3631
墙 3630
209 3627
243 3627
可靠性 3627
国王 3627
在场 3626
侵入 3624
National 3623
干 3622
ik@@ 3621
往来 3620
手术 3620
真@@ 3619
第二项 3618
14.@@ 3617
赫 3617
难题 3617
飞@@ 3617
增@@ 3616
创始人 3614
强劲 3614
紧急状态 3614
症 3613
PC 3612
无论如何 3610
ong 3609
法律依据 3609
木@@ 3607
1961 3606
深化 3606
杀人 3604
金钱 3603
蒙@@ 3602
监察组 3601
给出 3601
圣马力诺 3598
牺牲 3598
中国@@ 3597
要@@ 3597
车队 3596
印度洋 3595
生成 3595
联大 3595
中等教育 3594
率为 3594
多万 3593
弱点 3592
规范性 3592
角 3592
标记 3591
禁试 3588
一次性 3587
参议员 3587
系数 3584
能@@ 3584
假@@ 3583
爱@@ 3583
签署国 3583
规划系统 3582
总的来说 3581
招标 3580
铀 3579
信仰自由 3578
分工 3578
定型 3578
沙 3578
1951 3574
扎@@ 3573
汇总 3573
第纳尔 3573
齐@@ 3572
ard 3566
毕业生 3566
远@@ 3566
十七届 3565
律师协会 3565
转达 3565
稿 3564
179 3563
希 3563
储备金 3559
身份证 3559
4.2 3558
不良 3558
叛乱 3558
可是 3558
老 3558
218 3557
可怕 3556
项@@ 3556
1976 3554
翻修 3554
喀布尔 3553
法医 3553
兵力 3551
条所 3551
当天 3550
易@@ 3549
风 3549
207 3548
188 3547
殖民主义 3547
注射 3547
答案 3546
教育领域 3545
估价 3544
出缺 3544
大国 3544
节@@ 3544
扭曲 3543
成分 3541
调节 3541
闭幕 3541
1971 3540
AC.105 3540
194 3539
ec@@ 3538
评委 3538
初始 3537
拍摄 3536
前者 3534
烟草 3533
UN@@ 3532
捍卫者 3532
联络处 3532
古 3531
反复 3530
COP 3527
杜 3527
犹太人 3527
落 3527
PV.@@ 3525
四项 3525
第一@@ 3525
负有责任 3525
集装箱 3524
流量 3521
Dec.@@ 3520
丁 3518
事@@ 3518
医务 3518
这件 3518
教材 3513
母婴 3513
项目管理 3513
周@@ 3512
禁毒署 3510
切实可行 3505
树 3503
关岛 3502
卫生部门 3502
法律义务 3502
450 3500
联合国贸易和发展会议 3500
大臣 3499
203 3498
EC 3498
205 3497
如上 3497
海洋生物 3496
深表 3496
一群 3495
谈话 3495
审案 3494
艰苦 3494
表面 3494
政@@ 3493
昂贵 3492
穿 3492
表示满意 3491
奴隶 3490
渴望 3490
违法 3490
为主 3489
公告 3488
司@@ 3488
基因 3487
落后 3487
近@@ 3487
民@@ 3486
范例 3486
意 3484
而定 3481
红十字国际委员会 3479
运@@ 3479
黄金 3478
联东 3474
精神药物 3472
牌 3471
审慎 3470
理@@ 3470
伤 3468
放缓 3467
正面 3467
只@@ 3464
按@@ 3464
多元 3463
喀土穆 3462
反洗钱 3461
行列 3461
河@@ 3459
深@@ 3459
简易 3459
27@@ 3457
义务教育 3457
说服 3457
迎接 3457
传真 3456
提供者 3456
适用范围 3456
可取 3455
房间 3455
到位 3453
18.@@ 3452
信息管理 3452
农@@ 3452
后代 3451
1972 3450
全民 3450
发票 3448
萨米 3448
莫 3447
差额 3446
易于 3446
美洲国家组织 3445
圣 3444
轰炸 3442
阻挠 3441
传递 3440
齐 3440
228 3439
国家主权 3439
访问团 3439
保留意见 3438
发电机 3438
阿拉木图 3437
受伤害 3434
履行职责 3434
防御 3434
193 3432
悲剧 3432
胜利 3432
合作项目 3431
贿赂 3431
222 3429
理 3428
国情 3427
工作日 3427
呈 3426
参见 3425
本项 3424
跨越 3424
研究员 3423
里奥 3422
不可避免 3421
夫妻 3420
第一项 3420
ob@@ 3417
Car@@ 3415
毒性 3413
听证会 3412
飓风 3412
16.@@ 3409
耶@@ 3408
陪同 3408
第二款 3406
抵押 3404
SBI 3403
和平部队 3403
ari 3402
原告 3402
顾客 3402
大屠杀 3401
交易所 3400
团聚 3400
定价 3398
商人 3395
英里 3395
独@@ 3393
19@@ 3389
盈余 3389
读者 3388
一处 3386
管理处 3385
情@@ 3383
艰巨 3383
iz@@ 3382
兴奋剂 3382
工艺 3381
253 3379
IS@@ 3377
与非 3376
转运 3376
… 3375
目录 3375
余地 3374
划定 3372
人称 3370
暴露 3370
神@@ 3370
237 3369
名誉 3369
时所 3369
son 3368
行政助理 3366
199 3364
215 3363
动@@ 3362
传染 3361
局@@ 3359
职工 3359
害怕 3358
重大贡献 3357
公职 3353
扮演 3352
条约法 3352
3.3 3351
人身安全 3351
种子 3350
被告人 3350
宗教信仰 3349
.4 3348
咨询机构 3348
作家 3346
垃圾 3346
家族 3346
269 3345
热带 3345
步伐 3344
L.2 3343
增订 3343
赛 3343
280 3342
四方 3342
2.4 3341
护士 3341
Le@@ 3340
完全符合 3340
沉重 3340
保护法 3339
各个领域 3339
修@@ 3338
另见 3338
有所改善 3337
195 3336
商店 3336
第三节 3336
走廊 3336
敌对 3335
然 3334
财务管理 3334
精算 3333
204 3332
服务提供者 3332
通道 3332
取缔 3331
完 3331
届时 3331
除@@ 3331
阿里巴巴 3329
1969 3328
活 3328
多达 3327
落@@ 3327
宗教自由 3326
.@@ 3325
下达 3325
其管辖 3325
犹太 3325
教堂 3324
震惊 3324
ach@@ 3323
金沙萨 3323
黄@@ 3323
算 3320
法制 3319
终身 3319
197 3316
按时 3316
附有 3316
极其重要 3315
无力 3313
Add.4 3312
大致 3311
实力 3310
早婚 3308
死@@ 3306
毒素 3305
疗法 3305
221 3304
CERD 3304
塞舌尔 3304
核对 3303
消极影响 3299
红十字会 3299
大力支持 3298
董事 3296
上半年 3295
交存 3295
数百万 3295
暗示 3295
基金组织 3294
处@@ 3292
平行 3292
抱怨 3291
为本 3290
高管 3290
逾 3289
ta 3288
加勒比地区 3288
赤字 3287
ICCD 3285
土@@ 3284
几周 3283
海运 3283
简短 3283
籍 3282
路@@ 3281
速效 3281
da 3278
等@@ 3277
241 3274
相互作用 3274
管理部 3274
各届 3272
送到 3271
11.@@ 3270
周五 3270
216 3269
谢@@ 3268
ES 3267
新闻界 3267
本质 3267
降 3265
公斤 3264
想象 3262
令人担忧 3261
内战 3261
公营 3259
定位 3259
媒介 3258
已知 3258
局限于 3257
ez 3256
庇护所 3256
树立 3256
再@@ 3255
务实 3255
236 3253
盘 3253
准入 3252
抱 3252
货运 3251
国际@@ 3250
不让 3249
预警系统 3249
经由 3247
苏 3246
争论 3245
ud@@ 3244
崩溃 3244
分析师 3243
利益冲突 3242
巴厘 3238
所起 3238
旅馆 3238
第三章 3238
桥梁 3236
殖民 3235
别 3234
参观 3232
eh 3231
第十九届 3230
风格 3230
% 3229
㈤ 3229
阿里 3229
266 3228
龙 3228
总计 3227
淡水 3226
年龄组 3225
198 3224
北非 3224
急需 3223
评级 3223
13.@@ 3222
判处死刑 3221
拘留所 3221
这会 3221
知名 3220
拒 3219
稳步 3219
商@@ 3218
虚拟 3218
一轮 3217
保护环境 3217
听@@ 3217
观众 3217
汉@@ 3216
几名 3210
善政 3210
天内 3210
传@@ 3209
并入 3208
核设施 3208
196 3207
创造条件 3207
未成年 3206
qu@@ 3205
已婚 3205
介绍性 3204
ur 3203
ip@@ 3202
业@@ 3202
威@@ 3202
法律咨询 3202
地下 3201
一新 3199
增列 3199
El 3198
290 3197
年内 3197
乔治 3196
控告 3196
福@@ 3196
17.@@ 3194
乍 3194
控制权 3194
应收 3193
多层面 3192
冷战 3191
铁@@ 3190
Har@@ 3189
ell 3189
增值 3189
略有 3188
第六十 3187
别人 3186
地说 3184
标识 3183
238 3182
下落 3182
使该 3182
约@@ 3180
经济@@ 3180
下半年 3179
人体 3179
考绩 3179
脱@@ 3178
抵销 3177
意思 3176
if@@ 3175
亲@@ 3175
表决权 3174
造福 3174
公顷 3173
更高 3173
休假 3172
编@@ 3172
音 3172
对比 3171
专利 3170
组织法 3170
缩编 3170
营业 3168
普遍认为 3166
住户 3165
直@@ 3165
1.3 3162
部族 3162
生产商 3159
1000 3158
答辩 3157
非法行为 3157
选举法 3156
久 3155
全氟 3155
桑@@ 3155
交流经验 3154
伪造 3154
卖 3154
ICEF 3153
晚 3153
符合国际 3153
清 3152
停@@ 3151
下表 3149
减 3149
奉行 3149
商务 3148
摩尔多瓦 3148
走上 3148
既有 3147
有效率 3147
日常生活 3146
物流 3146
亲 3145
全环 3145
录像 3145
布林迪西 3144
松 3143
带到 3141
副@@ 3140
管理制度 3140
亿人 3139
依赖于 3139
安全措施 3139
管理制 3139
侦察机 3136
在实践中 3136
永久性 3136
否决 3135
力图 3134
纽约时报 3134
阿拉伯人 3134
盖 3133
杰出 3131
19.@@ 3130
og@@ 3130
辛@@ 3129
托管 3128
服务器 3128
样本 3128
意在 3126
活@@ 3126
退休金 3126
通告 3126
浪费 3124
肤色 3124
拥挤 3123
成千上万 3121
见表 3121
构建 3120
第八 3120
天主教 3119
年里 3119
登@@ 3119
C.12 3118
携手 3118
217 3117
中向 3117
球 3117
Ag@@ 3116
CCPR 3116
插入 3115
另一名 3112
各不相同 3110
近来 3110
Gu@@ 3109
显而易见 3109
渔船 3108
ara 3105
地下水 3105
高风险 3104
地为 3102
Y 3101
佩@@ 3101
声@@ 3101
就要 3101
收 3101
@ 3100
操纵 3100
ang@@ 3099
大纲 3099
从业人员 3098
冰@@ 3097
饮食 3097
文莱达鲁萨兰国 3096
年度预算 3095
英联邦 3095
缺点 3094
247 3093
志愿者 3093
流域 3092
需@@ 3092
外籍 3090
联署 3090
背后 3089
运 3089
ya 3088
汤加 3087
没@@ 3087
研制 3085
255 3084
倒 3084
贝尔格莱德 3084
246 3083
尚待 3082
阿比让 3082
244 3081
Pr@@ 3081
得益于 3081
经济学 3081
也就是说 3080
在外 3080
富裕 3080
某项 3080
机器 3078
ter 3077
保养 3077
社会工作者 3077
营造 3077
专注 3076
两倍 3076
讲座 3076
阿鲁沙 3074
Gr@@ 3073
横向 3073
联合声明 3072
ep@@ 3071
却是 3071
探测 3071
联布 3070
麦@@ 3070
ton 3069
利亚 3069
伴随 3068
领@@ 3068
ak 3064
两家 3064
新政府 3064
0% 3063
联格 3063
其所 3062
后面 3062
帕 3062
收缴 3062
第十六届 3062
咖啡 3061
开枪 3061
感受 3061
不同于 3060
致力 3059
加倍努力 3058
第十七届 3058
首相 3058
乔@@ 3057
学位 3055
所称 3055
转入 3055
股市 3054
草 3054
CAT 3053
第二十四届 3053
uk@@ 3052
届满 3052
拉特 3052
聘请 3052
ub@@ 3050
十周年 3050
像是 3049
构成威胁 3048
零部件 3048
困扰 3046
物理 3046
中介 3045
军用飞机 3045
机密 3045
哪个 3044
无数 3044
第一批 3044
试@@ 3044
5.1 3043
北美 3043
扩充 3043
租用 3043
信用 3042
弹 3042
公海 3040
假期 3039
临 3036
列明 3036
变为 3036
零@@ 3036
该段 3035
六年 3034
扬 3033
圣文森特 3032
阿克拉 3032
限定 3032
洪水 3031
产权 3030
75% 3029
一整套 3029
无意 3029
除名 3029
剩下 3028
努@@ 3028
管@@ 3028
POPS 3027
电池 3025
缩减 3024
安盟 3022
广场 3022
房地 3021
防卫 3021
少于 3020
游说 3020
应于 3018
瓦尔 3018
发生变化 3017
SBSTA 3016
265 3015
食@@ 3015
高昂 3015
准 3014
安提瓜和巴布达 3013
基会 3012
内政 3011
事务所 3009
状 3009
制定者 3008
性传播 3007
牲畜 3007
Abu 3006
导向 3005
抗议者 3005
解@@ 3005
说@@ 3005
天气 3004
忘记 3004
AC.@@ 3003
公正性 3003
造林 3003
司法部长 3002
原有 3001
商业性 3001
美好 3001
汇 3000
258 2999
格林纳达 2999
残割 2998
首尔 2996
1267 2992
保育 2992
反过来 2992
拿出 2991
医务人员 2990
详细情况 2990
否定 2989
第七章 2989
执照 2988
跨境 2987
em 2986
关 2986
有时候 2986
离@@ 2986
理事国 2985
David 2984
挑衅 2982
第八条 2982
始于 2981
oc@@ 2980
禁 2980
密@@ 2979
小说 2979
ee 2978
空间科学 2978
283 2976
前后 2976
十二 2976
薪资 2976
修理 2975
多么 2975
替代性 2975
某人 2975
276 2973
重新考虑 2973
223 2972
审核 2971
访问期间 2970
匮乏 2969
开来 2968
书籍 2967
乌 2966
换 2966
格林纳丁斯 2966
炮弹 2966
231 2965
表演 2965
Di@@ 2964
东南欧 2964
令人不安 2964
对照 2964
及早 2962
终于 2962
Ma@@ 2960
明确指出 2960
缅甸政府 2959
以免 2958
价值链 2958
第十二条 2958
辩称 2958
还@@ 2958
事务局 2957
市政府 2957
案子 2957
赔偿金 2957
各政党 2956
保人 2952
254 2951
公共安全 2951
太平洋地区 2951
借贷 2950
款@@ 2950
犯罪人 2950
三角 2946
减@@ 2946
刑 2946
执政 2946
通行 2946
iy@@ 2945
特有 2943
竞赛 2943
形 2942
调拨 2942
信息中心 2941
常@@ 2941
两架 2940
特许权 2939
酒 2939
经济合作与发展组织 2938
军用 2937
查验 2937
人道 2935
患 2935
保罗 2934
232 2933
ant@@ 2933
各项政策 2931
启用 2931
办@@ 2930
教廷 2930
集@@ 2930
下滑 2929
行为人 2929
可卡因 2927
渥太华 2927
弗@@ 2926
恐怖活动 2924
掩盖 2924
本书 2924
诽谤 2924
西班牙文 2923
创意 2922
公 2921
记忆 2921
最长 2920
360 2919
央行 2919
展现 2919
当年 2919
效能 2919
些 2918
偿付 2918
第十五届 2917
紧缩 2917
年会 2914
存放 2913
教科书 2913
包装 2912
机械 2912
采@@ 2912
忧虑 2911
漏洞 2910
234 2907
识字 2906
异议 2905
传媒 2904
发生冲突 2902
教员 2902
漫长 2902
? 2901
第一年 2901
两类 2900
很小 2900
改革方案 2900
卡拉巴赫 2899
叫 2899
演习 2899
民间组织 2898
第十八届 2898
甲 2896
长远 2896
264 2895
原本 2894
营销 2894
合法化 2893
扣除 2892
日后 2892
晚些时候 2892
v 2891
物@@ 2891
绝不 2891
联索 2890
长期存在 2890
冲@@ 2889
局长 2889
承包者 2889
无权 2889
社会@@ 2889
4.3 2888
缔约 2888
贸易谈判 2888
周六 2887
医药 2886
支@@ 2884
受损 2882
赛@@ 2880
千克 2879
富@@ 2879
抓住 2876
观 2876
249 2874
289 2872
低下 2872
生长 2872
四分之一 2871
检察 2871
严肃 2870
外聘 2870
警务人员 2869
进来 2869
误解 2868
战略部署 2866
257 2865
空气污染 2865
re 2864
一枚 2864
5.2 2862
覆盖率 2862
大家庭 2861
附注 2861
Tr@@ 2860
关键性 2859
坐在 2859
小国 2859
法律效力 2859
夫@@ 2856
逆转录 2856
SA@@ 2855
刑警 2855
累计 2855
温 2853
最低标准 2852
总之 2851
意志 2850
敏感性 2849
打开 2848
说道 2848
不合理 2845
坦@@ 2845
224 2844
245 2844
备灾 2844
道@@ 2844
ka 2843
相比之下 2843
不结盟 2842
控诉 2842
总体而言 2841
219 2840
热情 2840
亟需 2839
平方米 2839
承运人 2839
申请者 2839
上个月 2838
减排 2838
炸药 2838
Gh@@ 2837
枪 2836
热线 2836
舆论 2836
发生率 2835
基本法 2835
指认 2834
索取 2834
结社 2834
南美洲 2831
我愿 2831
Sch@@ 2828
奉 2828
259 2827
季 2827
改划 2826
联合体 2826
起因 2826
易受 2825
战胜 2823
缓和 2823
料 2822
检方 2818
体重 2817
国际性 2817
实 2817
整理 2817
偏离 2815
党@@ 2815
备件 2815
抑制 2814
禁@@ 2814
同期 2812
政策措施 2812
示威者 2812
750 2811
不但 2810
Qu@@ 2809
大于 2809
宪政 2809
案中 2809
代表权 2808
存@@ 2808
欠款 2807
思维 2805
根本原因 2805
氢 2805
柏林 2804
尔斯 2802
拍卖 2802
劳工法 2800
无罪 2800
案@@ 2800
产@@ 2798
强加 2797
国内外 2796
情节 2796
裁判 2795
存款 2794
闭门 2794
侮辱 2793
警@@ 2793
越@@ 2792
275 2791
以求 2791
战略伙伴 2791
概括 2791
靠近 2791
究竟 2790
想@@ 2789
诚意 2789
起飞 2789
20.@@ 2788
达喀尔 2788
一向 2787
大胆 2786
主管机关 2785
商品价格 2785
庭 2785
血统 2785
野生 2785
产科 2784
创造性 2783
里约集团 2783
内地 2782
同一个 2782
物项 2782
ing@@ 2780
各次 2780
第二@@ 2780
住区 2779
子@@ 2779
不符 2778
同情 2776
链接 2775
非暴力 2775
刑事案件 2773
ma 2771
根深蒂固 2771
上将 2770
民用航空 2770
区@@ 2769
幼儿园 2769
立 2769
As@@ 2768
大马士革 2768
ug@@ 2767
创新性 2766
平静 2766
彻底消除 2766
中所列 2765
偏远 2765
函 2764
安全局 2764
所在国 2764
仲裁员 2763
ra@@ 2762
纯粹 2762
3.5 2761
中旬 2761
抵触 2761
新喀里多尼亚 2760
既然 2760
Z 2759
有望 2759
320 2758
实习 2758
投@@ 2758
放松 2757
管理员 2757
避难 2756
尤@@ 2755
370 2753
偏远地区 2751
应享 2751
服刑 2751
非核心 2751
男@@ 2750
第二十六条 2750
总督 2749
Mohamed 2748
AR@@ 2747
229 2746
哈马斯 2746
持续增长 2746
衣服 2746
三级 2745
毛@@ 2745
外国投资 2744
ey@@ 2743
导则 2743
乐@@ 2742
刊登 2742
包@@ 2742
杀死 2742
举动 2741
候选国 2741
复制 2741
此一 2741
注入 2740
查访 2739
善治 2738
配@@ 2738
261 2737
ent 2737
巡逻队 2737
希尔 2737
伤残 2736
随 2736
人发 2735
垄断 2735
资@@ 2735
262 2734
部件 2733
oy@@ 2732
展 2732
质量保证 2732
应从 2731
文学 2729
服兵役 2729
海洛因 2729
埃厄 2727
ass@@ 2723
军事法庭 2723
如上所述 2722
通知书 2722
话题 2721
休 2720
总人口 2720
239 2719
刘@@ 2719
留@@ 2719
战术 2718
审定 2717
坚实 2716
珊瑚礁 2716
关@@ 2715
压迫 2715
发电 2715
大会决议 2715
转为 2715
一间 2714
管道 2713
随@@ 2713
A.@@ 2712
Cl@@ 2711
象征 2711
教育部门 2710
目 2710
货 2710
三天 2707
亿元 2707
负责管理 2707
欧共体 2706
士 2705
满@@ 2705
很@@ 2704
计@@ 2704
里面 2704
ell@@ 2703
函件 2703
惊人 2703
中应 2702
丹 2701
互补 2701
人质 2701
伦@@ 2700
款中 2700
悬而未决 2699
北极 2697
ab 2696
温度 2696
迈进 2694
沃 2693
外汇 2692
借@@ 2691
准军事 2691
开展业务 2691
质@@ 2690
面谈 2690
暗杀 2688
紧急状况 2688
轻@@ 2688
挖掘 2687
移动电话 2687
4.5 2686
ess@@ 2685
ri 2684
核爆炸 2684
CN.7 2683
Sal@@ 2683
议案 2683
财产权 2682
288 2681
切 2681
房产 2681
科技委 2681
第二期 2681
恐怖袭击 2680
紧急行动 2680
继续下去 2680
实现目标 2679
揭示 2678
记 2678
情况通报 2677
订 2676
过多 2676
第四章 2675
256 2674
数年 2674
追@@ 2674
远离 2673
亲自 2672
木 2672
激发 2672
任@@ 2671
见到 2671
ane 2670
根据上述 2669
策划 2669
au@@ 2668
毁 2667
浓缩 2666
灾难性 2666
te 2665
做@@ 2665
总体目标 2665
异@@ 2664
青@@ 2664
已获 2663
废料 2663
实时 2662
第九 2662
伟大 2660
恐怖组织 2660
酸 2660
安全网 2659
德黑兰 2657
派别 2657
监督机制 2657
连贯性 2657
廉价 2656
白人 2656
迁徙 2656
逾期 2656
每届 2655
老挝 2654
除此之外 2653
com 2652
国际刑警组织 2652
比尔 2652
称之为 2652
公立 2650
效用 2650
ek 2649
税率 2648
检察院 2647
灌溉 2647
272 2646
协 2646
南共体 2645
辍学 2645
密切联系 2644
赔偿额 2643
Par@@ 2642
核武库 2642
欧洲理事会 2641
国家@@ 2639
330 2638
客 2638
百分点 2638
引@@ 2637
检查和 2637
压制 2636
ow 2635
延@@ 2635
玛 2634
iv@@ 2633
> 2632
使人 2632
Part 2631
宪兵 2631
早@@ 2631
end@@ 2628
结果表明 2627
史 2626
市场经济 2626
原料 2625
最具 2625
鸦片 2625
助@@ 2624
私@@ 2624
拨出 2622
理性 2622
股权 2622
ot 2621
长达 2621
一期 2620
服从 2620
瑙鲁 2620
世 2618
责成 2618
交换意见 2617
精神病 2617
Ham@@ 2616
化管 2615
造@@ 2615
单身 2614
否决权 2613
不可逆转 2610
创办 2610
混@@ 2610
幸福 2609
结核 2609
苏格兰 2609
导言 2608
虚假 2608
详述 2608
ol 2607
富 2607
矿业 2607
艘 2607
2018 2606
撰文 2606
封闭 2605
起点 2604
里约热内卢 2604
伦理 2603
高等 2601
残酷 2600
CRP.1 2599
深度 2599
ij@@ 2598
任职者 2598
刑期 2598
办公厅 2598
ry 2597
数据中心 2597
Man@@ 2596
牢房 2596
生殖器官 2596
雅@@ 2596
aj@@ 2595
但须 2595
反而 2595
服 2594
338 2593
发育 2593
交往 2589
惠及 2588
谋生 2588
加以解决 2586
杀戮 2586
敌方 2585
衰退 2584
平方公里 2583
菲 2581
CN.15 2580
2.6 2579
榜样 2579
选票 2579
研究生 2578
1948 2577
iPhone 2577
阿卜杜勒 2577
刚才 2576
彼得 2576
结算 2576
CCW 2575
通往 2575
借款 2572
无限期 2572
首 2572
专委 2571
微@@ 2571
明智 2571
杂项 2571
305 2570
963 2570
550 2569
人中 2569
器官 2569
杰 2569
呈现 2568
妇女儿童 2568
国贸 2566
放 2565
反对党 2564
精力 2564
错 2564
未满 2563
极少 2563
荣誉 2563
养@@ 2562
民族团结 2562
学费 2560
果断 2560
3.4 2559
悲惨 2559
金融体系 2559
单个 2558
康@@ 2558
多于 2557
带@@ 2557
ow@@ 2556
朝鲜半岛 2555
每一项 2554
缴 2554
请@@ 2554
毛 2553
第四节 2553
解读 2553
部际 2553
12% 2552
劳@@ 2552
底 2552
一艘 2551
国家统计局 2551
广播电台 2551
异常 2551
接管 2551
报销 2550
第十四届 2550
廷 2549
末 2549
21.@@ 2548
主计长 2548
余下 2548
元首 2548
中文 2547
所有者 2547
联席会议 2547
拍 2546
标@@ 2546
鼓掌 2546
兹@@ 2545
消息来源 2545
脚注 2545
交由 2544
声誉 2544
迈克尔 2544
世@@ 2542
火 2542
食 2542
专业化 2541
出境 2541
深海 2541
目睹 2541
30@@ 2540
昨天 2540
删去 2539
最终目标 2539
有点 2539
那次 2539
升@@ 2538
拓展 2538
该款 2538
252 2537
ama 2536
环节 2536
协理 2534
总协定 2534
管理者 2534
蒙 2533
马绍尔群岛 2532
310 2531
ung 2531
深远 2531
居@@ 2530
650 2529
广 2529
藏@@ 2529
提法 2528
运载 2528
Mat@@ 2527
历来 2527
纪念活动 2527
Add.5 2525
二十@@ 2525
半数 2525
德拉 2525
第八次 2525
阿拉伯文 2525
分成 2524
前途 2524
技术@@ 2524
驱逐出境 2524
征募 2523
提取 2523
本土 2523
all@@ 2522
借调 2522
新设 2522
最有 2522
精英 2522
285 2521
交谈 2521
对手 2521
来源国 2521
本月 2520
画 2517
结盟 2517
过渡期 2517
土 2516
制图 2515
无家可归 2515
结 2515
Mc@@ 2514
罪@@ 2514
情报机构 2513
民 2513
第一季度 2513
防扩散 2513
停留 2512
日趋 2512
压@@ 2510
流向 2510
威 2509
求@@ 2508
八国集团 2507
无须 2507
周边 2506
调度 2506
探@@ 2505
东欧国家 2504
归因于 2504
报导 2504
准确性 2503
就@@ 2503
开辟 2503
角度看 2502
Su@@ 2501
感@@ 2501
药@@ 2501
大会堂 2500
归 2500
民间团体 2499
词语 2499
263 2498
独立宣言 2498
船旗国 2498
次@@ 2497
分支机构 2496
模糊 2495
韦 2495
出去 2494
分部 2494
当务之急 2494
有所不同 2494
汽油 2494
消@@ 2494
烟@@ 2494
存储 2493
校 2493
至@@ 2493
调查报告 2493
一倍 2492
元素 2492
创作 2492
几种 2491
自豪 2491
MA@@ 2490
列名 2490
寡妇 2490
技术人员 2490
ha 2488
一封 2488
原定 2488
名叫 2488
激增 2487
链 2487
审批 2486
筛选 2486
艾哈迈德 2486
13% 2485
XV 2485
旅 2485
规格 2485
币 2484
292 2483
占用 2483
欧盟委员会 2483
紧@@ 2483
1701 2482
um 2481
事实证明 2481
周末 2481
移民局 2481
吸毒者 2480
断定 2480
月间 2480
267 2479
准予 2479
挑战性 2479
1.4 2478
om 2478
# 2476
26@@ 2476
匿名 2475
搜集 2475
轮调 2475
这部分 2475
会计师 2474
容器 2473
清真寺 2473
考@@ 2473
将@@ 2472
产后 2471
格局 2471
存货 2470
建成 2470
法学家 2470
一语 2469
抗击 2466
洗@@ 2466
视听 2465
仅为 2464
所处 2464
ate 2463
空军 2463
轮@@ 2462
保管 2461
全境 2461
氛围 2461
特区 2461
伯格 2460
分在 2460
敌人 2460
Michael 2459
使馆 2459
< 2458
试行 2458
收容所 2457
智力 2457
Cor@@ 2455
似宜 2455
减损 2455
句 2455
交战 2453
残@@ 2453
动乱 2452
门户 2452
.. 2451
眼 2451
L.3 2450
船@@ 2450
陪伴 2449
本法 2448
资深 2448
运动员 2448
观看 2447
金融部门 2447
Sp@@ 2446
考验 2446
帕劳 2445
硬件 2445
第六十九 2445
什@@ 2444
雷区 2444
武装集团 2443
犯罪集团 2443
优秀 2442
第五章 2442
窗口 2441
环境退化 2440
内向 2439
备@@ 2439
279 2437
另一方 2437
省@@ 2437
可见 2436
出口国 2434
受让人 2434
四次 2434
席 2434
总统令 2434
卡拉 2433
坦 2433
判决书 2432
政治犯 2432
倡导者 2431
青年党 2431
专项 2430
内务部 2430
安南 2430
少@@ 2430
新德里 2430
事后 2429
决策机构 2429
家务 2429
旱地 2429
照 2428
q 2427
免@@ 2427
松@@ 2426
视作 2425
逃避 2425
不用 2424
南极 2422
数月 2422
陆军 2422
中型 2420
少量 2420
目@@ 2420
德尔 2419
拉姆 2419
ok@@ 2418
步 2418
予 2417
便是 2417
重振 2416
技术培训 2415
湖 2415
处长 2414
抗@@ 2414
欧空局 2414
生活水准 2413
门槛 2413
百慕大 2412
计入 2412
eh@@ 2411
仅@@ 2411
各部委 2411
可预测性 2410
填写 2410
老龄化 2410
互补性 2409
解放运动 2409
捷克 2408
反思 2407
日志 2407
什么样 2406
排名 2406
供给 2405
光盘 2405
待@@ 2404
狗 2403
第十次 2403
Sa@@ 2402
压 2402
商学院 2401
增补 2401
设计师 2401
记载 2399
ev 2398
含@@ 2398
男生 2398
增添 2397
开火 2396
国在 2395
所知 2395
克制 2394
宣告 2394
对联 2394
差价 2394
担负 2394
本应 2394
第十七条 2394
见本 2394
Sam@@ 2393
分支 2393
戴 2392
智能手机 2392
真主党 2392
很长 2391
豁免权 2391
进一步提高 2390
册 2389
容纳 2389
承包 2389
支撑 2389
税@@ 2389
第九次 2389
藏 2389
非营利 2389
奥斯陆 2388
矿 2387
敲定 2386
三国 2385
第三款 2385
素 2385
激进 2384
篇 2384
ist@@ 2383
主导地位 2383
哪里 2383
海峡 2383
星@@ 2382
收获 2381
救@@ 2380
随之 2380
此基础 2379
致@@ 2379
圈 2378
澳大利亚政府 2378
移送 2378
剧 2376
网络@@ 2376
致意 2376
6.2 2375
鱼@@ 2375
信用证 2374
日子 2374
United 2373
一章 2372
伤@@ 2371
宁 2371
聚@@ 2371
380 2370
ts 2370
买家 2369
发展局 2369
绝@@ 2369
约定 2368
翻@@ 2368
善意 2367
欠 2367
通货膨胀率 2367
中午 2366
眼@@ 2366
一片 2364
其为 2364
数十年 2364
认知 2363
大气层 2362
美联储 2362
尚无 2361
笔译 2361
纸@@ 2361
细@@ 2361
采集 2361
一代 2360
沿线 2360
政治化 2358
族人 2358
生于 2358
线路 2358
非洲统一组织 2358
／ 2358
国务卿 2356
1950 2355
35% 2355
云 2355
揭露 2355
稳定性 2355
高出 2354
总裁 2353
传送 2352
堡 2352
接替 2352
远距离 2352
驻扎 2352
体检 2351
268 2350
照@@ 2349
环@@ 2349
建议书 2348
房@@ 2348
燃烧 2348
亚马逊 2347
体育运动 2347
应予以 2347
武@@ 2347
第一期 2347
ER@@ 2346
穿着 2346
情事 2345
运载工具 2345
日为 2344
日益增长 2344
ik 2343
工作岗位 2342
息 2342
特殊教育 2342
萨尔 2342
丽@@ 2341
侵蚀 2341
驾驶 2341
受众 2340
新任 2340
一款 2339
努力提高 2339
287 2337
买@@ 2336
唐纳德 2336
日程 2335
语@@ 2335
定向 2334
市@@ 2334
熟练 2334
VI 2333
co 2333
余@@ 2333
情感 2333
出示 2332
受限制 2332
战@@ 2332
系指 2332
24@@ 2331
不太 2331
全人类 2330
归@@ 2330
方括号 2330
略 2330
营@@ 2329
农 2328
别@@ 2328
换@@ 2328
蒙受 2328
货@@ 2328
识字率 2327
340 2326
Mon@@ 2326
ata 2326
克里 2326
L.4 2325
第二份 2325
量@@ 2325
CO@@ 2324
仪器 2324
提出申请 2324
积极支持 2324
翻新 2324
关爱 2323
23.@@ 2322
万元 2322
均等 2322
往@@ 2321
ada 2320
锡 2320
额@@ 2320
五项 2319
周转 2319
一度 2318
新建 2318
盗窃 2318
非法活动 2318
295 2317
ill@@ 2316
弥合 2316
296 2315
人工 2315
全年 2315
十一 2315
废止 2315
日止 2315
不了 2314
就读 2314
最早 2314
水源 2314
泽 2314
281 2313
游行 2313
谨向 2313
ain 2312
乐 2312
era 2311
令人震惊 2311
社群 2311
5.3 2310
不顾 2310
极度 2310
邻近 2310
地质 2309
屋 2309
摆在 2309
立法机关 2309
美属 2309
286 2308
Institute 2308
城乡 2308
账目 2308
kh@@ 2307
劫持 2307
心理健康 2307
飞 2307
316 2306
未获 2306
达尔 2306
阿卜杜拉 2306
ale 2305
了@@ 2305
感到高兴 2305
合规 2304
印@@ 2303
期限内 2303
剂量 2302
当今世界 2302
海盗行为 2302
警员 2302
重新部署 2302
低估 2301
相互尊重 2301
詹姆斯 2301
FAO 2300
阿布贾 2299
坎@@ 2298
扫雷 2298
纽约市 2298
q@@ 2297
接受国 2297
一块 2296
司法人员 2295
学家 2295
细胞 2295
解 2294
就业率 2293
偏低 2292
野@@ 2292
能效 2290
广为 2289
新近 2289
最终用户 2289
罂粟 2289
表示同意 2289
模板 2288
CA@@ 2287
数值 2287
若@@ 2286
南海 2285
参看 2285
而应 2285
博拉 2284
积极主动 2284
退@@ 2284
灯 2283
缺席 2283
肉 2283
并行 2282
分区 2281
朗 2281
现阶段 2281
充分发挥 2280
恩德培 2280
依@@ 2279
蓝线 2278
隆 2278
Mor@@ 2277
妊娠 2277
来文方 2277
上校 2276
远景 2276
非传统 2276
1968 2275
惊讶 2275
切尔诺贝利 2273
棘手 2273
议长 2273
防护 2273
雄心勃勃 2273
主权国家 2271
领地 2270
拟@@ 2269
数据@@ 2269
个案研究 2268
坚称 2268
结案 2268
行政@@ 2268
公共事务 2267
反驳 2267
百万 2267
东南亚国家联盟 2265
崇高 2265
每人 2265
波利萨 2265
CP 2264
射击 2264
弗 2263
Ms 2262
丁@@ 2262
假如 2262
指望 2262
密切协作 2261
封 2261
田 2261
合计 2260
安第斯 2260
夏季 2259
广@@ 2259
按计划 2259
全职 2258
散@@ 2258
破产法 2258
麻烦 2258
万个 2257
国际海事组织 2257
拉美 2256
国防部长 2255
法域 2255
舍 2255
监核 2254
天体 2253
岛上 2253
牢固 2253
身心健康 2252
常任 2251
看看 2251
一致同意 2249
est@@ 2248
是非 2248
智慧 2247
一览表 2245
严@@ 2245
保护主义 2244
卡塔赫纳 2244
参@@ 2244
庄严 2244
看@@ 2244
街道 2244
到底 2243
有鉴于此 2243
范@@ 2243
ary 2242
主义者 2242
尽@@ 2242
和平谈判 2240
装运 2240
读@@ 2240
村民 2239
发言权 2238
所获 2238
早先 2238
申请书 2238
雪@@ 2238
何@@ 2237
待命 2237
筹集资金 2237
老师 2237
被盗 2237
端 2236
主导作用 2235
保险公司 2235
双 2235
布什 2235
Kim 2234
士@@ 2234
New 2233
宽泛 2233
毒@@ 2233
管理信息系统 2233
273 2232
商业@@ 2232
额度 2232
1966 2231
体验 2231
短暂 2231
生意 2230
管理司 2230
送@@ 2230
服务台 2229
玛@@ 2229
例行 2227
利马 2227
就职 2226
年满 2224
空袭 2224
amb@@ 2222
变性 2222
红新月会 2222
扶养 2221
施加压力 2221
终结 2221
思@@ 2220
数据处理 2219
第二十二届 2218
adi 2217
传统习俗 2217
侵权 2217
抵御 2216
商讨 2215
一般来说 2214
张贴 2214
率@@ 2214
一封信 2213
参与方 2213
封@@ 2213
274 2212
覆盖范围 2212
Em@@ 2211
ew@@ 2211
平均数 2211
河流 2211
贴 2211
iss@@ 2210
吸烟 2210
应立即 2210
素质 2210
裁研 2210
差@@ 2209
涌入 2209
湾 2209
IV 2208
年级 2208
弹@@ 2208
贵国 2208
幅 2207
承@@ 2207
表现形式 2207
ish@@ 2206
带头 2206
提问 2206
他于 2205
付给 2205
套@@ 2205
第四十九届 2205
ova 2204
五岁 2204
伯 2204
养育 2204
工具包 2204
ei 2203
英镑 2203
全力 2202
普里什蒂纳 2202
GC 2201
凝聚力 2201
境地 2201
经纪人 2201
拨给 2200
文第 2200
贬值 2200
专题组 2199
旧@@ 2199
组织者 2199
420 2198
Bl@@ 2198
Mal@@ 2198
记入 2198
宇宙 2197
手工 2197
该厅 2197
282 2196
争辩 2196
尔德 2196
调和 2196
扣留 2195
政 2195
舒@@ 2195
iyah 2194
罗斯 2194
进攻 2194
医疗卫生 2193
布宜诺斯艾利斯 2193
最小 2193
年鉴 2192
朝@@ 2192
归咎于 2191
非常任 2191
CP.7 2190
研究院 2190
int 2189
努 2189
沿 2189
演员 2189
糖 2189
菜 2188
锡@@ 2188
NPT 2187
夏@@ 2187
时尚 2187
正常化 2187
罗姆尼 2187
两者之间 2186
思 2186
性能 2186
破@@ 2186
1963 2185
奥运会 2185
脑@@ 2185
助手 2184
持@@ 2184
确@@ 2184
阿尔及尔 2184
日于 2183
自营 2183
雷达 2183
补@@ 2182
工商业 2181
教徒 2181
直接参与 2180
竭尽全力 2180
免税 2179
嗣后 2179
ice 2178
切合实际 2178
居住地 2178
停火协定 2177
检索 2177
辍学率 2177
颠覆 2176
馆 2176
回忆 2175
非歧视 2175
开启 2174
电子@@ 2174
过剩 2174
临时性 2173
受雇 2173
汇@@ 2173
火灾 2173
环境法 2173
过高 2173
布尔 2172
强硬 2172
改建 2172
尼科西亚 2171
情景 2171
贝尔 2171
送回 2171
278 2170
同盟 2170
换言之 2170
沿海地区 2170
C.@@ 2169
环 2169
边境地区 2169
运费 2169
6.1 2167
Ay@@ 2167
乘坐 2167
仍@@ 2167
使本 2167
免 2167
ST@@ 2166
个州 2166
交通@@ 2166
付诸实施 2166
可比性 2166
超支 2166
道理 2166
敌 2165
游@@ 2165
国家机关 2164
选区 2164
一面 2163
打造 2163
通报情况 2163
PA@@ 2162
一台 2162
非裔 2162
不良影响 2161
视委 2161
列于 2160
各阶层 2160
贾 2160
ati@@ 2159
意向 2159
拉斯 2159
ala 2158
ne 2158
持续性 2158
AP@@ 2157
履行义务 2157
避孕药 2157
人力资本 2156
朱@@ 2156
生命周期 2156
根本性 2155
勇气 2154
早已 2154
获取信息 2154
郊区 2154
顶 2154
ier 2152
专职 2152
新闻自由 2152
谷 2152
挫折 2150
Pl@@ 2149
域外 2149
广义 2149
第四@@ 2149
类@@ 2149
圣地亚哥 2148
Be@@ 2147
引述 2147
某@@ 2146
移@@ 2146
突破 2146
组办 2146
拒绝接受 2145
持有人 2145
贫困人口 2145
2030 2144
审计工作 2144
祸害 2144
太阳 2143
掠夺 2143
归类 2142
默@@ 2142
令人@@ 2141
宣扬 2141
第二号 2141
色@@ 2140
获@@ 2140
商用 2139
园 2138
政治@@ 2138
断 2138
武装人员 2138
治 2138
记@@ 2138
展@@ 2137
餐馆 2137
逍遥法外 2136
高峰 2136
然@@ 2135
全球战略 2134
南太平洋 2134
罗伯特 2134
帮 2133
365 2132
吴@@ 2132
编拟 2132
内为 2131
Far@@ 2130
交货 2130
媒体报道 2130
混合物 2130
In@@ 2129
白 2129
领 2129
4.4 2128
守@@ 2128
庭审 2128
弱 2128
搁置 2128
穆 2128
687 2127
RA@@ 2127
空前 2127
群众 2127
辛烷 2127
GDP 2126
出版社 2126
总监 2126
枪@@ 2126
跑 2125
277 2124
ba 2124
专 2124
戈马 2124
栏 2123
双边协定 2122
反应堆 2122
26.@@ 2121
Center 2121
沮丧 2121
特色 2121
日益严重 2120
毛泽东 2120
论及 2120
充实 2119
备用 2119
改叙为 2118
让步 2118
非常重视 2118
宗教团体 2117
旅客 2117
赦免 2117
di 2116
围@@ 2116
招@@ 2116
边防 2115
金枪鱼 2115
ich@@ 2114
住院 2114
共同利益 2114
na 2113
付费 2113
初@@ 2113
图里 2113
改 2113
哈瓦那 2112
冷@@ 2111
杜绝 2111
ind@@ 2110
一只 2110
国家级 2110
战斗机 2110
活产 2110
教派 2108
航 2108
标 2107
多边合作 2106
航运 2106
订单 2106
304 2105
义 2105
惊@@ 2105
纪录 2103
自由贸易 2103
贫困线 2103
重新分配 2103
大厦 2102
核技术 2102
积@@ 2102
运往 2102
这起 2102
性犯罪 2101
扰乱 2101
200@@ 2100
段时间 2100
经济援助 2100
起着 2100
多边条约 2098
母语 2098
第二天 2098
一般而言 2096
法学院 2096
Ahmed 2095
Con@@ 2095
具体步骤 2095
吸入 2095
言@@ 2095
遴选 2095
卖@@ 2094
延至 2094
敌军 2094
月@@ 2094
转而 2094
七年 2093
中共 2093
拦截 2093
数次 2093
未缴 2093
知名人士 2093
先后 2092
步@@ 2092
印 2091
印尼 2091
商业活动 2091
微软 2091
任务区 2090
大学生 2090
安倍晋三 2090
总值 2090
1958 2089
倒退 2089
改良 2089
不足之处 2088
文盲率 2088
步枪 2087
流失 2087
自由权 2087
讲@@ 2087
保守 2085
戴@@ 2085
毒 2085
群组 2085
隐私权 2085
反腐 2084
线@@ 2084
早就 2083
行之有效 2083
赞成票 2083
ica 2082
出口商 2082
失效 2082
安援 2082
数学 2082
沉@@ 2082
逃犯 2082
核心作用 2081
Kr@@ 2080
而已 2080
全面实施 2079
公民投票 2079
低成本 2078
快速反应 2078
样 2078
梦想 2078
纵向 2078
ann@@ 2077
不佳 2076
增大 2076
巨额 2076
教育法 2076
近几个月 2076
酒@@ 2076
个省 2075
陷于 2075
沿着 2073
冲突地区 2072
天然 2072
271 2071
不准 2070
个人@@ 2070
不懈努力 2069
国际电联 2069
预算内 2069
不太可能 2068
战时 2068
书面形式 2067
品@@ 2066
科菲 2066
跟进 2066
可望 2065
看上去 2065
2.7 2064
容许 2064
95% 2063
凭借 2063
谈会 2063
公立学校 2062
失衡 2062
求助 2062
货币政策 2062
力争 2061
服务质量 2061
多种多样 2060
核销 2060
瑞@@ 2060
降到 2060
味 2059
塑造 2059
朱巴 2059
SGB 2058
uc@@ 2058
家政 2058
性侵犯 2058
男女之间 2058
目标群体 2058
优点 2057
图片 2057
探访 2057
结果显示 2057
可予 2056
台@@ 2056
后期 2056
掌控 2056
私立 2056
非洲开发银行 2056
291 2055
pl@@ 2055
协力 2055
正当理由 2055
En@@ 2054
海平面 2054
电视节目 2053
科目 2053
our@@ 2052
微额 2052
承 2052
管控 2052
上网 2051
两大 2051
另@@ 2051
未曾 2051
股价 2051
英尺 2051
休会 2050
共用 2050
症状 2050
价值观念 2049
24.@@ 2048
CR@@ 2048
衣 2048
适用性 2048
Min@@ 2047
打交道 2047
政变 2047
斯诺 2047
第三@@ 2047
韩@@ 2047
口头报告 2046
第四十六届 2046
ex 2045
代表作 2045
引人注目 2045
航天 2045
回家 2044
形@@ 2044
第一节 2044
潮 2043
重型 2043
上届 2042
澳门 2042
L.7 2041
军警 2041
拖@@ 2041
母乳喂养 2041
维奇 2041
资讯 2041
国务院 2040
此时 2039
逆转 2039
有趣 2038
助益 2037
我会 2037
比重 2037
俄语 2036
坦克 2036
泽@@ 2036
购买力 2036
ao 2035
不如 2035
保全 2035
修订本 2035
候补 2035
前瞻性 2034
悬挂 2034
这套 2034
废水 2033
归属 2033
坎帕拉 2032
贫困者 2032
311 2031
细目 2031
裁 2031
ef@@ 2029
丑闻 2028
争夺 2028
快@@ 2028
民族主义 2026
经营者 2026
是不是 2025
流产 2025
公信力 2024
双性恋 2024
就此结束 2024
援用 2022
盈利 2022
煤炭 2021
维权 2021
起诉书 2021
种族隔离 2019
杀伤性 2018
海报 2018
磺酸 2018
轻 2018
存 2017
治@@ 2017
福克兰群岛 2017
送往 2016
大门 2014
就任 2014
戈尔诺 2014
搜寻 2014
25@@ 2013
应以 2012
折磨 2012
L.6 2011
爆 2011
恶@@ 2010
有益于 2010
求 2010
突显 2010
偶尔 2009
卢萨卡 2009
固定翼 2009
PR@@ 2008
上述情况 2008
不错 2008
丝 2008
卫生系统 2008
祝愿 2008
微 2007
1244 2006
境 2006
布隆迪政府 2006
Is@@ 2005
好像 2004
教室 2004
评审 2004
Bank 2003
只不过 2003
商业银行 2003
地理位置 2003
巨@@ 2003
杂@@ 2003
第四个 2003
输@@ 2003
根@@ 2002
301 2001
时效 2001
结婚年龄 2001
陆@@ 2001
提出异议 2000
真 1999
违规 1999
在此之前 1998
竞争对手 1998
餐 1998
休@@ 1997
兴@@ 1997
该局 1997
东北部 1996
录音 1996
架飞机 1996
责任人 1996
保险费 1995
认 1995
驻@@ 1995
全盘 1994
最少 1994
ash@@ 1993
all 1992
东北 1992
合约 1992
环卫 1992
福利部 1992
首脑 1992
日渐 1991
旱灾 1991
不断扩大 1989
细菌 1989
厄 1988
服役 1988
神圣 1987
6.3 1986
老板 1986
走访 1986
下载 1985
价格上涨 1985
生产国 1985
回避 1984
宽带 1984
泡沫 1984
野蛮 1984
影 1983
逮捕令 1983
核计划 1982
520 1981
牛 1981
维尔 1981
迷@@ 1981
ter@@ 1980
佐证 1980
共和党人 1980
南南 1980
局限性 1980
音@@ 1980
DE@@ 1979
全会 1979
威慑 1979
至多 1979
预付款 1979
马丁 1979
移民法 1978
这点 1977
298 1976
Per@@ 1976
诉求 1975
Ber@@ 1973
World 1973
双重标准 1973
图表 1972
德斯 1972
即应 1971
塑料 1971
押 1971
段@@ 1971
预报 1971
Or@@ 1970
中央@@ 1970
事关 1970
公益 1970
协调会议 1970
意@@ 1970
派@@ 1970
见图 1970
身为 1970
Peter 1969
凯 1969
双语 1968
散布 1968
每名 1968
沿岸 1968
谈及 1968
单证 1967
0.7% 1966
传授 1966
款下 1966
表中 1965
伸张正义 1964
斯特@@ 1964
ner 1963
姿态 1962
道歉 1962
Ak@@ 1961
果 1961
票据 1961
赚取 1961
务 1960
大城市 1960
安全性 1960
情势 1960
前来 1959
同步 1959
平壤 1959
永@@ 1959
瓦加杜古 1959
圣基茨 1958
政治家 1958
践踏 1958
较@@ 1958
有何 1957
425 1956
国旗 1956
圣保罗 1956
机票 1956
经济衰退 1956
前提条件 1955
受惠 1955
商事 1955
外交使团 1955
来讲 1955
降@@ 1955
18% 1954
失业者 1954
挽救 1954
科学界 1954
资 1954
Fl@@ 1953
L.5 1953
密克罗尼西亚联邦 1953
触@@ 1953
299 1952
国土 1952
22.@@ 1951
引爆 1951
欧元区 1951
边@@ 1951
商界 1950
红 1950
编码 1950
284 1949
地产 1949
系统@@ 1949
综述 1949
440 1948
印度政府 1948
新闻@@ 1948
甚 1947
第六章 1947
合成 1946
水道 1946
子弹 1945
303 1944
ex@@ 1944
不具 1944
牢记 1944
税款 1944
零售 1943
分割 1942
拟设 1942
田@@ 1942
第二次世界大战 1942
不起 1941
侨民 1941
新闻报道 1941
森@@ 1941
聚会 1941
45% 1940
批准书 1940
格陵兰 1940
甲@@ 1940
第二类 1939
足球 1939
酌处 1939
休息 1938
慢性 1938
略@@ 1938
监委 1938
纸 1938
不带 1937
防空 1937
两国政府 1936
丹@@ 1936
动植物 1936
可信度 1936
矿产 1936
294 1935
L.8 1935
年龄段 1935
整套 1935
杀虫剂 1935
受审 1934
抽样 1934
敬意 1934
专业人士 1933
何处 1933
尼维斯 1933
5.5 1932
核燃料 1932
焦虑 1932
11% 1931
三人 1931
两起 1931
公式 1931
带薪 1931
警 1931
获得成功 1930
其间 1929
架次 1929
共同市场 1928
壁垒 1928
大道 1928
小企业 1928
静止 1928
⑴ 1927
多余 1927
季节 1927
廉正 1927
强度 1927
情报局 1927
方在 1927
阿萨德 1927
集群 1927
领养 1927
ena 1926
减弱 1926
加拿大政府 1926
之处 1925
福 1925
路上 1925
隆@@ 1925
尚@@ 1924
龙@@ 1924
国际贸易中心 1923
蓝@@ 1923
污水 1922
滥杀 1922
㈥ 1921
万亿美元 1921
绘制 1921
6.4 1920
ro 1920
仪 1920
定制 1920
有序 1920
肺结核 1920
友谊 1919
崛起 1919
ali 1918
公吨 1918
利用率 1918
期刊 1918
沉默 1918
14% 1917
主旨 1917
叶@@ 1917
307 1916
厕所 1916
293 1915
ih@@ 1915
出差 1915
越过 1915
险 1915
使团 1914
饥荒 1914
th 1913
六名 1913
导@@ 1913
放宽 1913
政治处 1913
牛@@ 1913
生活费 1913
16% 1912
不力 1912
微妙 1912
预备 1912
托马斯 1911
这段 1911
人生 1910
塞尔维亚共和国 1910
工商企业 1910
率领 1910
社会群体 1910
翻译成 1910
行为准则 1910
可行性研究 1909
第十一条 1908
夜间 1907
教育@@ 1907
1964 1906
氟氯烃 1906
汗 1906
优@@ 1905
国籍法 1905
戴维 1905
受灾 1904
折@@ 1904
着力 1904
CMP.1 1903
印制 1903
铅 1903
w 1902
巴拉 1902
缺失 1901
毁林 1900
第二十七届 1900
460 1898
5.4 1898
两用 1898
洪@@ 1898
门户网站 1898
17% 1897
Me@@ 1897
合法权利 1897
差不多 1897
望 1897
查看 1897
临床 1896
方法学 1896
中所作 1895
公共利益 1895
坐 1895
撒 1895
罚金 1895
命 1893
必@@ 1893
遵行 1893
留 1892
缺@@ 1892
23@@ 1891
27.@@ 1891
碳@@ 1891
预料 1891
叛乱分子 1890
宝@@ 1890
导 1890
297 1889
二十年 1889
娅 1889
脚@@ 1889
人口比例 1888
定量 1888
屏幕 1888
安全@@ 1887
怀@@ 1887
盛@@ 1887
430 1886
und@@ 1886
传单 1885
疫情 1885
退还 1885
从根本上 1883
剥夺权利 1883
糖尿病 1882
邮政 1882
1962 1881
ano 1881
据@@ 1881
绿@@ 1881
850 1880
减量 1880
加利 1880
外包 1880
安曼 1880
年届会 1879
借 1878
及时性 1878
射@@ 1878
监@@ 1878
第二十六届 1878
结清 1877
人均收入 1876
祖@@ 1876
新闻记者 1875
第四十届 1875
工商 1874
集会自由 1874
多米尼克 1873
想到 1873
所犯 1873
桥 1872
训练有素 1871
佛@@ 1870
更替 1870
85% 1869
脚 1869
距 1869
态势 1868
暂@@ 1868
民选 1868
社会工作 1868
附@@ 1868
刑院 1867
初审 1867
客@@ 1867
完毕 1866
成见 1866
时才 1866
蒙特塞 1866
Atlas 1865
Paul 1865
奖金 1865
子公司 1865
毫克 1865
纷纷 1865
ñ 1864
一同 1864
与否 1864
列示 1864
甘@@ 1864
集体行动 1864
302 1863
受灾国 1863
可比 1863
建设项目 1863
红色 1863
能量 1863
马舍尔 1863
加勒比海 1862
受权 1862
有效期 1861
校@@ 1861
占领区 1860
该市 1860
领导者 1860
民主联盟 1859
肯@@ 1859
两届 1858
播出 1858
清算 1858
共存 1857
势 1857
标明 1857
击中 1856
划@@ 1856
开展调查 1856
篇幅 1856
跨@@ 1856
ino 1855
国有企业 1855
换取 1855
轨 1855
312 1854
Ros@@ 1854
感染率 1854
称@@ 1854
约瑟夫 1854
自治区 1854
迈@@ 1854
L.9 1853
同日 1853
和平共处 1853
Bur@@ 1852
农田 1850
少年犯 1850
市民 1850
阴谋 1850
充作 1849
医@@ 1849
团结一致 1849
惩教 1849
调入 1849
第三阶段 1848
停战 1847
大为 1847
恰@@ 1847
民盟 1847
CH@@ 1846
oh@@ 1846
云@@ 1846
保险@@ 1846
暴@@ 1846
aya 1845
停滞 1845
黑客 1845
James 1844
劳力 1844
库克群岛 1844
特等 1844
第十五条 1844
农户 1843
航空安全 1843
原油 1842
维持费 1842
酸@@ 1842
Her@@ 1841
ler 1841
整编 1841
间隔 1841
抛弃 1840
滴滴涕 1840
业主 1839
石棉 1839
第四十七届 1839
薪 1839
Vol 1838
井 1838
工作进展 1838
硫丹 1838
系统对 1838
议 1838
隐藏 1838
CRP.@@ 1837
Ex@@ 1837
拨付 1837
私营企业 1837
转给 1837
乱 1836
初中 1836
外长 1836
314 1835
ini 1835
照会 1835
克拉 1834
制剂 1834
宫 1834
毁灭 1834
股长 1834
观察站 1834
以至于 1833
债 1833
友 1833
履行任务 1833
敬@@ 1832
校长 1832
工业部门 1831
度@@ 1831
开发商 1831
上游 1830
品种 1830
Un@@ 1829
树@@ 1829
第四十三届 1829
群@@ 1829
课题 1829
回来 1828
坐@@ 1828
巨头 1828
社@@ 1828
Mohammed 1827
会议厅 1827
信徒 1827
军营 1827
卡特尔 1827
奈@@ 1826
行政长官 1825
频道 1825
Res@@ 1824
变量 1824
色彩 1824
L.10 1823
八年 1823
升高 1823
长久 1823
合伙人 1822
池 1822
盘@@ 1822
州长 1821
艺术品 1821
RE@@ 1820
拿到 1820
球@@ 1820
上任 1819
决@@ 1819
推销 1819
解体 1819
购 1819
希拉里 1818
死者 1818
测@@ 1818
审@@ 1817
温和 1817
进口国 1817
22% 1816
Robert 1816
ity 1816
偿债 1816
进修 1816
使用权 1815
第一轮 1815
自由@@ 1815
萨拉 1815
体内 1814
加州 1814
阿塞拜疆共和国 1814
LA@@ 1813
兑换 1813
广泛传播 1813
民法典 1813
经济合作组织 1813
透过 1813
Group 1812
号码 1812
机能 1812
00@@ 1811
Muhammad 1811
作好 1811
击 1811
银@@ 1811
便宜 1810
半岛 1810
6.5 1809
受控 1809
地缘 1809
自力更生 1808
装修 1808
25.@@ 1807
560 1807
祖国 1807
At@@ 1806
学前教育 1806
返还 1804
典范 1803
白俄罗斯共和国 1803
五年期 1802
基本要素 1802
描绘 1802
来信 1802
民主政体 1802
译成 1802
阿布 1802
马尔@@ 1802
号召 1801
曼哈顿 1801
Bo@@ 1800
不遗余力 1800
举@@ 1800
寄@@ 1800
罕见 1800
警报 1800
学业 1799
第四十八届 1799
FPA 1798
后备 1798
局限 1798
敌意 1798
爱国 1798
联络官 1798
ies 1797
安圭拉 1797
异 1797
第二十五届 1797
铁 1797
圆桌 1796
委@@ 1796
第一类 1796
410 1795
拿@@ 1795
one 1794
不止 1794
大大增加 1794
银行业 1794
三位 1793
赶@@ 1793
陈旧 1793
倒@@ 1792
桑 1792
次要 1792
正当程序 1792
适用法律 1792
长度 1792
相连 1791
市政当局 1790
检察机关 1790
蔬菜 1790
az 1789
一职 1789
各段 1789
讯息 1789
付诸 1788
冒 1788
外交关系 1788
往年 1788
贪污 1788
2.8 1787
文凭 1787
案文见 1787
棉花 1787
不善 1786
笼统 1786
金融资产 1786
安全区 1785
影@@ 1785
中级 1784
市值 1784
高水平 1784
全民教育 1783
氯 1783
筹款 1783
第十八条 1782
318 1781
up@@ 1781
za 1781
切断 1780
刑@@ 1780
毗邻 1780
率先 1780
立刻 1780
财政部长 1780
非正常 1780
IC@@ 1779
双边合作 1779
杨@@ 1779
案文@@ 1779
十五 1778
圣多美和普林西比 1778
退回 1778
1945 1777
Co@@ 1777
克什米尔 1777
善 1777
在政治上 1777
现存 1777
第三十八届 1777
马上 1777
告诫 1776
培育 1776
岸 1776
恪守 1776
渔民 1776
丽 1775
多米尼加 1775
导演 1775
是否是 1775
ley 1774
广泛支持 1774
著 1774
追究责任 1774
Mas@@ 1773
pr@@ 1773
可可 1773
官@@ 1773
报告期 1772
讯问 1772
明天 1771
WG.6 1770
国立 1770
对受 1770
耗氧 1770
亲密 1769
同工同酬 1769
以致 1768
加元 1768
十个 1768
打电话 1768
跳@@ 1768
中东地区 1767
嫌犯 1767
财产损失 1767
人人平等 1766
博客 1766
外资 1766
宏观 1766
总支出 1766
部厅 1766
制药 1765
宁@@ 1765
评@@ 1765
遥远 1765
修订案 1763
控制@@ 1763
著作 1763
1946 1762
保持联系 1762
宽@@ 1762
瘫痪 1762
省长 1762
喷@@ 1761
字@@ 1761
完美 1761
306 1760
Ram@@ 1760
务必 1760
参谋 1759
有所提高 1759
称作 1759
非洲之角 1759
安非他明 1758
完工 1758
帝国 1758
照管 1758
oo@@ 1757
颇 1757
1954 1756
480 1756
ita 1756
亚洲开发银行 1756
入伍 1756
印第安人 1756
无偿 1756
民事诉讼 1756
ran@@ 1755
创@@ 1755
骨@@ 1755
Pro@@ 1754
ain@@ 1754
生理 1754
自称 1754
超级 1754
东道 1753
1965 1752
三份 1752
他会 1752
法律法规 1752
视察员 1752
间谍 1752
队部 1752
本章 1751
财政状况 1751
ard@@ 1750
无人机 1750
袋 1750
Trump 1749
互惠 1749
实在 1749
第二轮 1749
China 1748
公用事业 1748
夏 1748
开曼群岛 1748
班吉 1748
第三十九届 1748
被动 1748
默 1748
忠诚 1746
分销 1745
以内 1744
反抗 1744
苯丙胺 1744
中方 1743
应邀 1743
贫困家庭 1743
ID@@ 1742
内有 1742
启发 1742
奇怪 1742
原材料 1741
投票权 1741
港@@ 1741
姐妹 1740
ess 1739
一生 1739
稳固 1739
Ben@@ 1738
修 1738
多氯联苯 1738
水泥 1738
Mad@@ 1737
个人身份 1737
唐@@ 1737
室内 1737
滥伤 1737
演出 1737
泰 1736
评定 1736
领先 1736
308 1735
School 1735
ö 1735
一时期 1735
乌兹别克斯坦共和国 1735
在世界上 1735
当事国 1735
述 1735
art 1734
及第 1734
排定 1734
断@@ 1734
有无 1734
边际 1734
须@@ 1734
309 1733
性关系 1733
anc@@ 1732
便@@ 1732
信奉 1732
大概 1732
紧迫性 1732
自由选择 1732
苦@@ 1732
L.13 1731
Ro@@ 1731
中华人民共和国 1731
互@@ 1731
付@@ 1731
工作@@ 1731
时报 1731
足额 1731
雅加达 1731
升温 1730
Ba@@ 1729
De@@ 1729
E.@@ 1729
全面解决 1729
想起 1729
数码 1729
下称 1728
事务部长 1728
对面 1728
歌@@ 1728
经管 1728
船员 1728
邦特 1728
Nor@@ 1727
幼@@ 1727
背@@ 1727
1612 1726
佣工 1726
加大力度 1726
有利条件 1726
绝不能 1726
航天器 1726
血 1726
被忽视 1726
香@@ 1726
均@@ 1725
开幕式 1725
沙漠 1725
逗留 1725
部在 1725
指引 1724
严重后果 1723
比特 1723
焚烧 1723
纽约联合国总部 1723
经受 1723
见面 1723
达格 1723
亚太地区 1722
侦察 1722
文化@@ 1722
滥用权力 1722
酗酒 1722
早上 1721
警惕 1721
Ne@@ 1720
形态 1720
新生 1720
明星 1720
机器人 1720
认罪 1720
软 1720
325 1719
UN 1719
呼声 1719
狂@@ 1719
L.11 1718
史@@ 1718
基加利 1718
急@@ 1718
流亡 1718
科学@@ 1718
George 1717
产物 1717
旧金山 1717
人民@@ 1716
海洋学 1716
谈谈 1716
开创 1715
蒙罗维亚 1715
谢赫 1715
1718 1714
CN.3 1714
一个@@ 1714
泰勒 1714
之时 1713
减去 1713
助产士 1713
旗下 1713
第十六条 1713
船上 1713
迫击炮弹 1713
不容 1712
营运 1712
货物运输 1712
颇为 1712
Donald 1711
ff@@ 1711
全新 1711
凯科 1710
十多年 1710
搞 1710
有期徒刑 1709
落入 1709
轮换 1709
前述 1708
反对票 1708
酒吧 1708
40@@ 1707
区别对待 1707
校园 1707
机动 1706
莎 1706
防 1706
.3 1705
ii 1705
俄文 1705
失踪者 1705
战士 1705
虫 1705
时常 1704
时数 1704
英格兰 1704
不好 1703
亚非 1703
座谈会 1702
新生力量 1702
Sar@@ 1701
春季 1701
瑞士法郎 1701
限期 1701
欧 1700
坚定不移 1699
居民区 1699
感情 1699
舞台 1699
ura 1698
对非 1698
酋长 1698
人会 1697
洋@@ 1697
一带 1696
中东问题 1696
中小学 1696
占@@ 1696
390 1695
ong@@ 1695
严重破坏 1695
传唤 1695
初稿 1695
卢比 1695
投了 1695
有赖于 1695
注明 1695
矿@@ 1695
触及 1695
327 1694
387 1694
并不一定 1694
所设 1694
通盘 1694
查出 1693
研究成果 1693
羞辱 1693
第四十二届 1692
终@@ 1692
警卫队 1692
Bu@@ 1691
外阴 1691
希亚 1691
稍后 1691
载明 1691
十分重视 1690
恢复正常 1690
院校 1690
富有成效 1689
归于 1689
礼拜 1689
部将 1689
ant 1688
沦为 1688
绝望 1688
兼@@ 1687
制服 1687
损害赔偿 1687
ja 1686
显@@ 1686
立法者 1686
辖区 1686
Ahmad 1685
SS 1685
推 1685
简@@ 1685
马拉 1685
P.@@ 1684
协助执行 1684
慢 1684
惯常 1683
空间数据 1683
产前 1682
侯赛因 1682
出具 1681
捕获 1681
第十一次 1681
航天局 1681
输送 1681
Fr@@ 1680
出发点 1680
age 1679
公允 1679
孕产 1679
库拉 1679
循证 1679
战斗员 1679
海湾 1679
相互合作 1679
肯 1679
470 1678
Mah@@ 1678
欧洲议会 1678
软@@ 1678
2050 1677
坏 1677
数以千计 1677
问@@ 1677
ber@@ 1676
令人信服 1676
情报@@ 1676
等同于 1676
边远地区 1676
33% 1675
护@@ 1675
土地权 1674
基薪 1674
容量 1674
应分 1674
职@@ 1674
规避 1674
一律 1673
分从 1673
居高不下 1673
核扩散 1673
ion 1672
举例 1672
可为 1672
可观 1672
接 1672
构架 1672
舞弊 1672
护送 1671
民族@@ 1671
氟碳 1671
濒危 1671
风暴 1671
人向 1670
环境部 1670
7.2 1669
ul 1669
与@@ 1669
口译员 1669
征@@ 1669
留给 1669
第三十七届 1669
记录在案 1669
身份证件 1669
归功于 1668
社会活动 1668
继承权 1668
邮@@ 1668
La 1667
不可@@ 1667
不致 1667
久@@ 1667
朗@@ 1667
笔@@ 1667
第五号 1667
蚊帐 1667
途中 1667
65% 1666
7.5 1666
wa 1666
三星 1666
同性 1666
射 1666
液体 1666
玻璃 1666
阿富汗人 1665
CC 1664
一审 1664
倾倒 1664
盘存 1664
钱@@ 1664
L.15 1663
黑 1663
Abd@@ 1662
桶 1662
欺骗 1662
Add.6 1661
UNA0@@ 1661
各司 1661
差别待遇 1661
军事装备 1660
废弃物 1660
教育工作者 1660
系@@ 1660
Ol@@ 1659
修缮 1659
科学院 1659
订于 1659
夏天 1658
弹性 1658
葡萄牙语 1658
集结 1658
立足于 1657
为限 1656
墨西哥政府 1656
痛 1656
950 1655
IS 1655
Ph@@ 1655
任何理由 1655
布雷 1655
盛行 1655
轻型 1655
闪@@ 1655
est 1654
哲学 1653
圣地 1653
城市规划 1653
滑@@ 1653
近地 1653
VII 1652
今日 1652
偏@@ 1652
姓氏 1652
扩建 1652
索引 1652
听证 1651
值得一提的是 1649
缓冲区 1649
1737 1648
L.12 1648
ore 1648
厨房 1648
置 1648
兵库 1647
Sim@@ 1646
现实情况 1646
通胀 1646
镇@@ 1646
传输 1645
口号 1645
同居 1645
度过 1645
耕作 1645
L.14 1644
似 1644
志@@ 1644
进驻 1644
ME@@ 1642
数千 1642
行政拘留 1642
1.6 1641
CE@@ 1641
毕竟 1641
混淆 1641
● 1640
楼@@ 1640
防备 1640
即时 1638
此处 1638
古老 1637
增幅 1637
搬 1637
疯狂 1637
7.1 1636
NA@@ 1636
危险性 1636
历史@@ 1636
瓶 1636
供电 1635
投标书 1635
汇总表 1635
离境 1635
露@@ 1635
样品 1634
He@@ 1633
战俘 1633
水文 1633
荷 1633
le@@ 1632
分会 1632
医疗机构 1632
去@@ 1632
堂 1632
大笔 1632
湿地 1632
见证 1632
调研 1632
oo 1631
世界@@ 1631
50@@ 1630
丰@@ 1630
好几个 1630
尤为重要 1630
斯坦 1630
租@@ 1630
编撰 1630
误@@ 1629
载@@ 1629
高加索 1629
Gl@@ 1628
中称 1628
十三 1628
同一天 1628
米尔 1628
借以 1627
卡特 1627
多样 1627
相等 1627
福利金 1627
退休年龄 1627
适@@ 1627
威尔士 1626
安全部 1626
所长 1626
西藏 1626
大片 1625
特罗 1625
L.18 1624
Mus@@ 1624
乡 1624
债权 1624
公民权 1624
参考资料 1624
塞尔 1624
最快 1624
村@@ 1624
L.16 1623
人工流产 1623
场址 1623
有没有 1623
油价 1623
洛杉矶 1623
随意 1623
北美洲 1622
演@@ 1622
秋季 1622
紧 1622
较少 1622
养殖 1621
市场@@ 1621
范本 1621
体育@@ 1620
收藏 1620
施压 1620
继@@ 1620
乔 1619
方可 1619
315 1618
古巴政府 1618
国为 1618
恶意 1618
故障 1618
新疆 1618
汉 1618
薪水 1618
财务@@ 1618
铺平道路 1618
Jean 1617
横@@ 1617
每项 1617
起初 1617
JIU 1616
尼斯 1616
战机 1616
配有 1616
28.@@ 1615
326 1615
告 1615
总表 1615
连带 1615
霍 1615
非洲地区 1615
530 1614
Wal@@ 1614
ung@@ 1614
广阔 1614
报刊 1614
轻微 1614
540 1613
ast@@ 1613
多媒体 1613
欠缺 1612
Lu@@ 1611
宜 1611
布朗 1611
枪击 1611
玛丽 1611
离岸 1611
第二年 1611
iya 1610
our 1610
313 1609
三倍 1609
科研 1609
空调 1609
Se@@ 1608
二者 1608
毛利人 1608
说话 1608
违规行为 1608
信息安全 1607
受害国 1607
集合 1607
市中心 1606
忠实 1606
着重强调 1606
记住 1606
诚实 1606
346 1605
AC.26 1605
同侪 1605
四分之三 1605
委任 1605
政令 1605
神 1605
递解 1605
Mu@@ 1604
日增 1604
特克斯 1604
过失 1604
375 1603
ens@@ 1603
哨所 1603
恢复性 1603
剧@@ 1602
舞@@ 1602
藐视 1602
510 1601
CRP.2 1601
E4 1601
li 1601
宣传@@ 1601
接入 1601
等到 1601
大体上 1600
移 1600
童婚 1600
SA 1599
商业化 1599
录取 1599
景 1599
纽@@ 1598
328 1597
EA 1597
亮 1597
每位 1597
礼 1597
触犯 1597
不时 1596
乙 1596
亚裔 1596
体制改革 1596
血液 1596
660 1595
ü 1595
卜 1595
故 1595
数个 1595
视频会议 1595
DNA 1594
库尔德 1593
算@@ 1593
陪审团 1593
高危 1593
ath@@ 1592
最易 1592
第三十@@ 1591
业务流程 1590
互利 1590
坦率 1590
威廉 1590
左@@ 1590
拜 1590
象@@ 1590
3.6 1589
在上文 1589
感激 1589
马尼拉 1589
tr@@ 1588
增长速度 1588
文化部 1588
穿过 1588
适于 1588
雷斯 1588
充分就业 1587
摄影 1587
有损 1587
琳 1587
运营商 1587
片@@ 1586
写@@ 1585
十九 1585
抽@@ 1585
触发 1585
ial 1584
公升 1584
叶 1584
少数几个 1584
海洋资源 1583
到处 1582
技术开发 1582
犯罪分子 1582
该省 1582
黑海 1582
L.20 1581
工商界 1581
底@@ 1581
改叙 1581
腿 1581
莉 1581
表示祝贺 1581
出租 1580
外面 1580
白色 1580
凡是 1579
对话者 1579
年末 1579
私下 1579
Law 1578
html 1578
处处长 1578
工业@@ 1578
所持 1578
火箭弹 1578
街区 1578
变暖 1577
成套 1577
救护车 1577
L.19 1576
临近 1576
拆毁 1576
泄露 1576
项中 1576
ti 1575
检@@ 1575
毛派 1575
版权 1575
一栋 1574
任何一方 1574
借此 1574
城市论坛 1574
报价 1574
780 1573
冬季 1573
审问 1573
推移 1573
甚@@ 1573
盐 1573
第三十六届 1573
财政政策 1573
大都 1572
旷日持久 1572
置评 1572
难度 1572
鲍@@ 1572
We@@ 1571
〇 1571
为准 1571
管辖区 1571
自助 1571
走出 1571
迹 1571
逃 1571
爵士 1570
网络安全 1570
各区 1569
静@@ 1569
晚@@ 1568
第九@@ 1568
管理@@ 1568
草@@ 1568
上级 1567
乱@@ 1567
小农 1567
康复中心 1567
条对 1567
水准 1567
致死 1567
迈向 1567
SAT 1566
per@@ 1566
信息网 1566
急性 1566
土地改革 1565
现年 1565
砍伐 1565
交通管制 1564
干部 1564
服务@@ 1564
格外 1564
清偿 1564
热烈 1564
留住 1564
隶属 1564
319 1563
和善 1563
密度 1563
推动力 1563
纪录片 1563
该党 1563
难以@@ 1563
劳动@@ 1562
床 1562
民主@@ 1562
烧@@ 1562
病假 1562
米歇尔 1562
ero 1561
一是 1561
衣@@ 1561
证@@ 1561
American 1560
SP 1560
妇@@ 1560
排列 1560
不间断 1559
国民经济 1559
自行车 1559
购@@ 1559
迪拜 1559
一则 1558
一小部分 1558
化解 1558
呆 1558
批@@ 1557
耳@@ 1557
过来 1557
Ger@@ 1556
两条 1556
决不能 1556
基里巴斯 1556
核动力 1556
续@@ 1556
L.17 1555
口径 1555
合伙 1555
商会 1555
能为 1555
Bou@@ 1554
不负责任 1554
国营 1554
查尔斯 1554
水事 1554
筛查 1554
转发 1554
飞往 1554
一个多 1553
丢失 1553
参政 1553
委派 1553
母@@ 1553
渐进 1553
界线 1553
认@@ 1553
里亚 1553
重新@@ 1553
骚乱 1553
众@@ 1552
定额 1552
未作 1552
位@@ 1551
刊物 1551
理应 1551
积极行动 1551
董事长 1551
Val@@ 1550
不久前 1550
尽职 1550
检查员 1550
钟 1550
333 1549
中长期 1549
列表 1549
参与率 1549
并发症 1549
液 1549
道义 1549
do 1548
足@@ 1548
323 1547
单边 1547
塔尔 1547
开头 1547
深入研究 1547
规章制度 1547
仇视 1546
役 1546
江@@ 1546
竭力 1546
自愿性 1546
这为 1546
追溯 1546
肉@@ 1545
车间 1545
小型企业 1544
换句话说 1544
贯彻落实 1544
烟 1543
蔑视 1543
重罪 1543
院@@ 1543
宿舍 1542
施 1542
贷 1542
陆上 1542
公共信息 1541
婚 1541
孔@@ 1541
探视 1541
普通法 1541
理查德 1541
加特 1540
时向 1540
最高级别 1540
水灾 1540
当初 1539
德里 1539
玩 1539
单据 1537
490 1536
AN@@ 1536
CC@@ 1536
au 1536
化石 1536
大宗 1536
潘@@ 1536
癌 1536
620 1535
程 1535
贝克 1535
雅 1535
首位 1535
呼@@ 1534
更是 1534
曾@@ 1534
签 1534
要件 1534
640 1533
Richard 1533
水果 1533
独自 1533
yn@@ 1532
周转基金 1532
而作 1532
邻居 1532
众 1531
内所 1531
妥当 1531
旅@@ 1531
查找 1531
避难所 1531
开端 1530
的@@ 1530
第一位 1530
CONF 1529
外流 1529
行政法院 1529
ace 1528
ida 1528
ph@@ 1528
上岗 1528
义@@ 1528
厄@@ 1528
多大 1528
宣誓 1528
尺度 1528
年限 1528
废弃 1528
策 1528
赴 1528
都市 1528
不懈 1527
农业部 1527
开庭 1527
金融交易 1527
SE@@ 1526
ence 1526
佛教 1526
信息@@ 1526
印度尼西亚政府 1525
春@@ 1525
核电站 1525
问及 1525
中以 1524
区域开发 1524
告@@ 1524
暴力犯罪 1524
未清 1524
紧急措施 1524
终端 1524
eng@@ 1523
宽松 1523
确定性 1523
零售商 1523
高速 1523
一至 1522
在经济上 1522
戏剧 1522
收支 1522
放置 1522
穿越 1522
试验性 1522
企业界 1521
投资人 1521
管理科 1521
写入 1520
哈桑 1520
未付 1520
残暴 1520
超 1520
AI 1519
Mur@@ 1519
me 1519
之用 1519
教养 1519
波罗的海 1519
装有 1519
6.6 1518
ech@@ 1518
坚@@ 1518
投机 1518
更长 1518
电邮 1518
酒精 1518
五分之一 1517
夜@@ 1517
壳 1516
奥尔@@ 1516
宗@@ 1516
胜任 1516
行为能力 1516
0.7 1515
23% 1515
五次 1515
同性恋者 1515
责任制 1515
猛虎 1514
纳粹 1514
为例 1513
兼职 1513
第二十八届 1513
自给自足 1513
一读 1512
提具 1512
领水 1511
分权 1510
半年 1510
填@@ 1510
故@@ 1510
售价 1509
转让技术 1509
葡萄酒 1508
路易斯 1508
ons 1507
入口 1507
吃@@ 1507
废@@ 1507
技术员 1507
笑 1507
利息收入 1506
办事 1506
增 1506
职业生涯 1506
720 1505
国际协会 1505
学历 1505
尚有 1505
形容 1505
成人教育 1505
精心 1505
接口 1504
昂山 1504
401 1503
Sol@@ 1503
植被 1503
第五@@ 1503
GS 1502
ce 1502
关怀 1502
太空 1502
宣传材料 1502
对称 1502
岛@@ 1502
支票 1502
钢@@ 1502
周岁 1501
画@@ 1501
317 1500
公共场所 1500
原产地 1500
叛军 1500
新华社 1500
野生动物 1500
州政府 1499
日刊 1499
普及教育 1499
海港 1499
看护 1499
366 1498
ira 1498
中是 1498
太子港 1498
目击者 1498
贸易中心 1498
倾听 1497
分包 1497
散 1497
旁边 1497
磁@@ 1497
Nations 1496
今天上午 1496
发明 1496
图书 1496
打击犯罪 1496
日报 1496
来访 1496
蓝图 1496
诉状 1496
受训 1495
坎昆 1495
电子政务 1495
黑色 1495
ke 1494
代码 1494
勇敢 1494
千 1494
哥伦比亚政府 1494
在下文 1494
收益率 1494
筹划 1494
连任 1494
if 1493
卫生@@ 1493
各种因素 1493
帝力 1493
逃@@ 1493
ESCAP 1492
OzL 1492
夜 1492
过后 1492
配 1492
ens 1491
外贸 1491
对立 1491
栋 1491
水电 1491
营养@@ 1491
享用 1490
劳 1490
哈尔 1490
柯@@ 1490
第三十二届 1490
艾 1490
从前 1489
家庭收入 1489
暗@@ 1489
犯@@ 1489
莱斯 1489
迟交 1489
ric@@ 1488
休闲 1488
净@@ 1488
尔多 1488
旗帜 1488
CN.6 1487
创始 1487
柴油 1487
民防 1487
较长 1487
322 1486
Pal@@ 1486
降落 1486
分派 1485
响 1485
外侨 1485
更是如此 1485
证据规则 1485
ac 1484
侧重点 1484
分配资源 1484
哈萨克斯坦共和国 1484
99.@@ 1483
Ed@@ 1483
卓越 1483
卫队 1483
哺乳 1483
商标 1483
政治局势 1483
氏 1483
第二句 1483
耐@@ 1483
轮流 1483
ance 1482
协商会 1482
执法机关 1482
深受 1482
REP 1481
下向 1481
照射 1481
速 1481
329 1480
保守派 1480
可供 1480
诋毁 1480
Tar@@ 1479
公共财政 1479
居所 1479
摩根 1479
本款 1479
爆炸性 1479
科尔 1479
by 1478
耐心 1478
账款 1478
遵从 1478
名录 1477
大院 1477
每隔 1477
送达 1477
htm 1476
功@@ 1476
听说 1476
智@@ 1476
资金不足 1476
技术厅 1475
经纪 1475
节能 1475
不向 1474
代表大会 1474
克隆 1474
梅托 1474
起源 1474
335 1473
几家 1473
指挥部 1473
系统化 1473
讲习会 1473
转账 1473
隶属于 1473
Pol@@ 1472
严密 1472
井@@ 1472
四周 1472
议事 1472
赫尔辛基 1472
1955 1471
27% 1471
ok 1471
平均水平 1471
归入 1471
拟于 1471
据点 1471
效仿 1471
大大减少 1470
布琼布拉 1470
文物 1470
通过培训 1470
ker 1469
嫌疑犯 1469
疏忽 1469
速@@ 1469
PBC.@@ 1468
ick 1468
减除 1468
开除 1468
赤道 1468
身边 1468
配套 1468
349 1467
EM@@ 1467
宣判 1467
数字化 1467
断言 1467
耻辱 1467
英雄 1467
获利 1467
财@@ 1467
辈 1467
麻疹 1467
oll@@ 1466
恫吓 1466
本专题 1466
法院院长 1466
灵@@ 1466
空间站 1466
统@@ 1466
路径 1466
ea 1465
司法官员 1465
同类 1465
常用 1465
令@@ 1464
传 1464
命@@ 1464
321 1463
主持会议 1463
毫无根据 1463
瓜@@ 1463
眼睛 1463
种姓 1463
劳动部 1462
无遗 1462
监护权 1462
长大 1462
阳性 1462
354 1461
控制系统 1461
歪曲 1461
海里 1461
瑞 1461
网播 1461
音译 1461
are 1460
专属经济区 1460
单纯 1460
户@@ 1460
私有 1460
组件 1460
调配 1460
For@@ 1459
ca 1459
ers@@ 1458
几份 1458
重新安排 1458
Ibrahim 1457
值@@ 1457
击@@ 1457
扬@@ 1457
法郎 1457
瑟 1457
皮特 1457
破裂 1457
升至 1456
另行 1456
容@@ 1456
常委会 1456
申@@ 1456
SPLOS 1455
保释 1455
同文信 1455
国际事务 1455
圆@@ 1455
好莱坞 1455
安卡拉 1455
渗透 1455
骨 1455
aa 1454
小儿麻痹症 1454
思路 1454
眼前 1454
19% 1453
乳@@ 1453
事物 1453
以人为本 1453
当量 1453
比勒陀利亚 1453
立足 1453
ge 1452
oj@@ 1452
上以 1452
亏损 1452
字母 1452
拟将 1452
王 1452
西北 1452
阴@@ 1452
兼并 1451
动作 1451
发援会 1451
命名 1451
多国部队 1451
疏散 1451
营利 1451
马尔维纳斯群岛 1451
务@@ 1450
劫持人质 1450
购物 1450
Bal@@ 1449
上市公司 1449
充分认识 1449
凡@@ 1449
夺取 1449
娃 1449
它会 1449
工业界 1449
欧亚 1449
遗体 1449
克减 1448
卫生条件 1448
实施者 1448
巴尔干 1448
所欠 1448
韩 1448
举证责任 1447
国际电信联盟 1447
经合 1447
顺@@ 1447
7.3 1446
人以 1446
国际化 1446
337 1445
上作 1445
人民解放军 1445
术 1445
中产阶级 1444
妓女 1444
人身保护 1443
瓦利 1443
杂项收入 1442
经济制裁 1442
试 1442
避孕套 1442
ure 1441
播@@ 1441
有损于 1441
狭隘 1441
生物学 1441
第七@@ 1441
第三十三届 1441
适度 1441
hi 1440
出国 1440
前沿 1440
带领 1440
打印机 1440
精算师 1440
转到 1440
轻易 1440
ut 1439
主席国 1439
内政部长 1439
客观性 1439
28% 1438
Mil@@ 1438
例证 1438
增加额 1438
征求意见 1438
政治部 1438
由该 1438
知名度 1438
万吨 1437
加班费 1437
基辅 1437
执政党 1437
通讯社 1437
非关税壁垒 1437
sen 1436
吉隆坡 1436
恶性循环 1436
执@@ 1436
新一代 1436
树木 1436
真诚地 1436
种@@ 1436
约翰逊 1436
贵 1436
下设 1435
在家 1435
妈妈 1435
美洲开发银行 1435
贯彻执行 1435
324 1434
631 1434
上一年 1434
授@@ 1434
极端分子 1434
私立学校 1434
第五节 1434
钚 1434
第三十四届 1433
IT@@ 1432
Pet@@ 1432
ion@@ 1432
开放式 1432
课@@ 1432
附文 1432
Dar@@ 1431
ç 1431
碰撞 1431
寄宿 1430
界@@ 1430
腐败问题 1430
评述 1430
Im@@ 1429
内载 1429
分析表明 1429
前线 1429
抗灾 1429
泛美 1429
洄游 1429
21% 1428
DC 1428
偷@@ 1428
宝 1428
尤 1428
巴马科 1428
硕士 1428
补给 1428
诚信 1428
轮胎 1428
首批 1428
保护性 1427
哀悼 1427
摆@@ 1427
缺 1427
les 1426
ty 1426
增拨 1426
懂 1426
胎儿 1426
345 1425
好转 1425
Mo@@ 1424
帐篷 1424
求偿 1424
不高 1423
业界 1423
右@@ 1423
布拉 1423
效 1423
镜 1423
24% 1422
巴塞罗那 1422
广播节目 1422
367 1421
aw 1421
不大可能 1421
价@@ 1421
会后 1421
充@@ 1421
冒险 1421
托运人 1421
缴费 1421
麦 1421
讽刺 1420
迄今已 1420
4.6 1419
ef 1419
七名 1419
数百名 1419
更广 1419
顽固 1419
饭 1419
刚果共和国 1418
多家 1418
如果说 1418
等候 1418
招收 1417
捕@@ 1417
授课 1417
组长 1417
编制工作 1417
美国公司 1417
发动机 1416
患病 1416
权威性 1416
科学知识 1416
经济损失 1416
遣 1416
331 1415
ISBA 1415
专属 1415
痛@@ 1414
肯尼迪 1414
失 1413
富人 1413
已故 1413
平方英尺 1413
性工作者 1413
更为重要 1413
留出 1413
第四十@@ 1413
隐瞒 1413
001 1412
参加国 1412
哪怕 1412
生病 1412
鼓吹 1412
Cr@@ 1411
国会议员 1411
更强 1411
第三十届 1411
航空航天 1411
贸易壁垒 1411
轮值 1411
题 1411
保障制度 1410
圆满 1410
秒 1410
通行证 1410
圣城 1409
峰 1409
敦请 1409
最迟 1409
联系国 1409
AT@@ 1407
佩 1407
牧师 1407
Sect.@@ 1406
专题报告 1406
主观 1406
城@@ 1406
多种形式 1406
放映 1406
斯洛伐克共和国 1406
曼德拉 1406
深深 1406
隐@@ 1406
57@@ 1405
een 1405
公投 1405
原子 1405
听众 1405
大区 1405
手法 1405
维护和平 1405
论据 1405
辩方 1405
儿@@ 1403
积极合作 1403
起码 1403
错@@ 1403
饮料 1403
存档 1402
施暴 1402
路障 1402
退役 1402
INF.@@ 1401
anda 1401
art@@ 1401
局部 1401
泄漏 1401
相关联 1401
辩解 1401
边界地区 1401
att@@ 1400
判 1400
就学 1400
巴西政府 1400
有史以来 1400
特工 1400
销售额 1400
知@@ 1399
硫化物 1399
第八章 1399
遗弃 1399
432 1398
FA@@ 1398
潘基文 1398
示@@ 1398
第三十五届 1398
附加值 1398
Jos 1397
充满活力 1397
存量 1397
680 1396
Ev@@ 1396
五十周年 1396
元@@ 1396
充分反映 1396
武器弹药 1396
纪念日 1396
该届 1396
2.9 1395
Add.7 1395
Del@@ 1395
厄尔尼诺 1395
归化 1395
此项工作 1395
炮击 1395
纺织品 1395
过期 1395
580 1394
ide 1394
在发言中 1394
这片 1394
与会代表 1393
名人 1393
哪@@ 1393
推断 1393
讲授 1393
amm@@ 1392
凯恩 1392
层级 1392
投掷 1392
拘捕 1392
Park 1391
of@@ 1391
为数 1391
分遣队 1391
微生物 1391
疑虑 1391
诸 1391
426 1390
三类 1390
友好关系 1389
引擎 1389
负债表 1389
遇害 1389
匹配 1388
战后 1388
苏维埃 1388
跨文化 1388
Az@@ 1387
姓 1387
牧民 1387
第一句 1387
Mag@@ 1386
^ 1386
ust@@ 1386
六项 1386
年头 1386
水质 1386
观@@ 1386
景@@ 1385
最惠国 1385
即审 1384
放到 1384
每种 1384
百 1384
管理工具 1384
ib 1383
制宪 1383
多份 1383
极力 1383
每季度 1383
猜测 1383
ila 1382
中间人 1382
使用率 1382
爆炸事件 1382
考 1382
贴@@ 1382
辛 1382
非军事化 1382
55% 1381
Council 1381
Gar@@ 1381
心理学 1381
Hassan 1380
假释 1380
劳工市场 1380
如能 1380
察 1380
部级 1380
青 1380
ES@@ 1379
划 1379
基桑加尼 1379
新闻处 1379
权衡 1379
许诺 1379
之初 1378
旁 1378
果@@ 1378
特殊性 1378
诞生 1378
334 1377
HRI 1377
佐@@ 1377
和睦 1377
字样 1377
未遂 1377
综合症 1377
迟@@ 1377
重量 1377
高得 1377
State 1376
二战 1376
圆满成功 1376
服@@ 1376
系统管理 1376
Thomas 1375
促进作用 1375
具体地说 1375
封信 1375
水产 1375
矫正 1375
租 1375
缔造 1375
⑵ 1374
减半 1374
吸纳 1374
礼@@ 1374
离任 1374
舱 1374
衍生 1374
足 1374
递送 1374
590 1373
一百@@ 1373
囚禁 1373
寄养 1373
自信 1373
赖 1373
26% 1372
取样 1372
明斯克 1372
调查小组 1372
保持稳定 1371
医师 1371
检疫 1371
知晓 1371
357 1370
Com@@ 1370
Ge@@ 1370
全都 1370
景观 1370
设@@ 1370
剧院 1369
把握 1369
无人驾驶 1369
档 1369
ko 1368
写作 1368
载述 1368
不成比例 1367
奎@@ 1367
政府军 1367
求助于 1367
电气 1367
面试 1367
三条 1366
全面落实 1366
意味 1366
明文规定 1366
李 1366
规 1366
Ash@@ 1365
不定 1365
发展趋势 1365
奥林匹克 1365
态 1365
沉积物 1365
知 1365
Lee 1364
万国宫 1364
没什么 1364
红利 1364
置@@ 1364
安娜 1363
家乡 1363
据信 1363
无期徒刑 1363
生物@@ 1363
短时间 1363
社区服务 1363
譬如 1363
许@@ 1363
进去 1363
遭@@ 1363
隔@@ 1363
sp@@ 1362
典 1362
天数 1362
看着 1362
跟上 1362
驳斥 1362
滞留 1361
版@@ 1361
迫击炮 1361
马拉喀什 1361
Col@@ 1360
Hu@@ 1360
前夕 1360
因数 1360
圣战 1360
灭绝 1360
燃油 1360
监督制度 1360
阴影 1360
347 1359
ola 1359
利雅得 1359
宽 1359
扫描 1359
绝育 1359
谷物 1359
资本主义 1359
pdf 1358
以防 1358
失误 1358
巴博 1358
斯基 1358
日托 1358
大脑 1357
属性 1357
汽车@@ 1357
供应国 1356
心态 1356
332 1355
336 1355
共处 1355
撒@@ 1355
Ind@@ 1354
L.22 1354
一员 1354
为首 1354
朴槿惠 1354
歌 1354
刀 1353
婚姻状况 1353
当地人 1353
海滩 1353
留存 1353
答 1353
坑 1352
私人资本 1352
词@@ 1352
停滞不前 1351
文人 1351
时有 1351
有偿 1351
泛滥 1351
碎 1351
论@@ 1351
1957 1350
〉 1350
园@@ 1350
孙@@ 1350
家庭事务 1350
流行病学 1350
芬 1350
AC.51 1349
CO2 1349
pro@@ 1349
假日 1349
共同@@ 1349
政客 1349
女议员 1348
挂 1348
今@@ 1347
倾@@ 1347
联运 1347
运输@@ 1347
遗址 1347
Ha@@ 1346
交出 1346
伊比利亚 1346
但应 1346
并用 1346
扣@@ 1346
有过 1346
环境监测 1346
钢铁 1346
30.@@ 1345
ill 1345
š 1345
会议记录 1345
国民大会 1345
行政区 1345
遇到困难 1345
Mak@@ 1344
无法控制 1344
昂 1344
正好 1344
亲戚 1343
各个部门 1343
所得税 1343
稍 1343
341 1342
再次发生 1342
加权 1342
墨西哥城 1342
纯 1342
课本 1342
348 1341
Jo@@ 1341
PA 1341
erg@@ 1341
原文 1341
方方面面 1341
硬@@ 1341
终生 1341
表彰 1341
赫勒拿 1341
IX 1340
专业培训 1340
午餐 1340
大有 1340
大通 1340
最起码 1340
未予 1340
眼下 1340
误导 1340
630 1339
之三 1339
便携式 1339
凸显 1339
周边地区 1339
铜 1339
锻炼 1339
del 1338
〈 1338
受访者 1338
寻常 1338
尼克 1338
服务处 1338
逐@@ 1338
ull@@ 1337
世界性 1337
凭 1337
父 1337
获知 1337
以下内容 1336
富国 1336
市区 1336
拉尔 1336
里斯本 1336
需求量 1336
修订版 1335
前不久 1335
he@@ 1334
创造力 1334
化武 1334
对口 1334
对性 1334
睡 1334
积极性 1334
355 1333
本协定 1333
ez@@ 1332
俄@@ 1332
十八 1332
围栏 1332
复杂化 1332
急救 1332
轻松 1332
年期 1331
战略武器 1331
法学 1331
流浪 1331
而来 1331
Hal@@ 1330
互动式 1330
努力争取 1330
归纳 1330
比照 1330
研 1330
九年 1329
号@@ 1329
奖@@ 1329
打伤 1329
曲 1329
适时 1329
eng 1328
再循环 1328
劳工部 1328
摒弃 1328
摩@@ 1328
无形 1328
谨此 1328
包围 1327
四大 1327
奈 1327
采掘业 1327
霍尔 1327
351 1326
352 1326
万英镑 1326
期满 1326
第三项 1326
Rights 1325
传感器 1325
帐 1325
联接 1325
跨学科 1325
Fre@@ 1324
L.24 1324
快速增长 1324
总面积 1324
awa 1323
人有 1323
军事基地 1323
工作效率 1323
应使 1323
斟酌 1323
猖獗 1323
Rev.2 1322
克里米亚 1322
海牙公约 1322
粉 1322
诺夫 1322
母 1321
瓶颈 1321
绝 1321
造 1321
五天 1320
分居 1320
微不足道 1320
本期 1320
活动分子 1320
570 1319
ement 1319
判@@ 1319
十四 1319
多国 1319
润滑油 1319
转送 1319
Association 1318
化学@@ 1318
卓有成效 1318
嘉@@ 1318
德国政府 1318
欣慰 1318
词汇 1318
运输系统 1318
东南 1317
善@@ 1317
立陶宛共和国 1317
解放阵线 1317
不法 1316
弃权票 1316
款次 1316
袭击者 1316
麻管局 1316
98% 1315
严格执行 1315
在押 1315
存入 1315
能源安全 1315
芝加哥 1315
1.8 1314
36% 1314
催化剂 1314
处分 1314
硅谷 1314
2025 1313
38% 1313
VIII 1313
价格@@ 1313
型@@ 1313
测 1313
重启 1313
uk 1312
乳腺癌 1312
尔特 1312
弗拉基米尔 1312
硫 1312
飞行员 1312
高级法院 1312
偏向 1311
防务 1311
ue 1310
振@@ 1310
ick@@ 1309
保有 1309
党内 1309
参阅 1309
四种 1309
备受 1309
小额贷款 1309
纯@@ 1309
绝大部分 1309
364 1308
尼泊尔政府 1308
拜@@ 1308
牧场 1308
迟 1308
销售@@ 1308
730 1307
sk@@ 1307
tion 1307
住处 1307
原住民 1307
猫 1307
ics 1306
作贡献 1306
团结起来 1306
婚内 1306
检控 1306
细分 1306
负@@ 1306
一侧 1305
杯 1305
腾讯 1305
OC 1304
ern@@ 1304
讲师 1304
42% 1303
国务秘书 1303
幸运 1303
惩罚性 1303
房价 1303
灵 1303
的黎波里 1303
神经 1303
责任感 1303
趋于 1303
这条 1303
高端 1303
高级顾问 1303
356 1302
ock 1302
克尔 1302
粗暴 1302
L.21 1301
带走 1301
1956 1300
3.7 1300
ado 1300
东正教 1300
两国之间 1300
分配情况 1300
批评者 1300
维尔京群岛 1300
职业@@ 1300
详见 1300
Research 1299
中未 1299
服务提供商 1299
继任 1299
里克 1299
＊ 1299
507 1298
官僚 1298
抨击 1298
柬埔寨政府 1298
毛坯 1298
aq@@ 1297
伊科 1297
使用暴力 1297
大体 1297
安全法 1297
驻留 1297
型飞机 1296
录 1296
用处 1296
看守 1296
第二十五条 1296
补充性 1296
够 1295
截然不同 1295
科长 1295
素@@ 1295
通信@@ 1295
湖@@ 1294
评判 1294
遗@@ 1294
以向 1293
掌管 1293
着@@ 1293
耗费 1293
诉@@ 1293
预付 1293
3000 1292
32% 1292
860 1292
小心 1292
撤@@ 1292
教学@@ 1292
曝光 1292
汇聚 1292
雪 1292
入籍 1291
在短期内 1291
第十三条 1291
线索 1291
往返 1290
求职者 1290
维察 1290
虽@@ 1290
陛下 1290
ade 1289
几 1289
卧室 1289
哥伦比亚特区 1289
施以 1289
智能 1289
机油 1289
Ng@@ 1288
体育部 1288
出卖 1288
出自 1288
司在 1288
波士顿 1288
4.7 1287
L.29 1287
San@@ 1287
其下 1287
技经 1287
洁净 1287
科技@@ 1287
第二十四条 1287
署@@ 1287
订@@ 1287
金融@@ 1287
IC 1286
ela 1286
丑 1286
勒索 1286
当地政府 1286
昆@@ 1286
经验交流 1286
脸 1286
L.23 1285
PR 1285
住@@ 1285
关联性 1285
组在 1285
资历 1285
随即 1285
麦克 1285
海湾合作委员会 1284
突@@ 1284
繁@@ 1284
家庭@@ 1283
接壤 1283
致残 1283
身亡 1283
这批 1283
ima 1282
伊万 1282
国际收支 1282
太多 1282
岛国 1282
背道而驰 1282
驱回 1282
760 1281
ise 1281
季@@ 1281
最大化 1281
炸死 1281
瓜 1281
白皮书 1281
339 1280
374 1280
KP 1280
不公 1280
同伴 1280
咨委 1280
拍@@ 1280
放射 1280
特里 1280
西班牙政府 1280
1959 1279
343 1279
98.@@ 1279
住房问题 1279
几点 1279
同年 1279
固@@ 1279
导游 1279
手语 1279
框 1279
讯 1279
谈@@ 1279
领导力 1279
610 1278
AL@@ 1278
Met@@ 1278
Sw@@ 1278
发交 1278
司令部 1278
法国政府 1278
领海 1278
353 1277
Mac@@ 1277
丝@@ 1277
域 1277
明示 1277
若干次 1277
MC 1276
主人 1276
仍旧 1276
就算 1276
转变成 1276
7.4 1275
ati 1275
征用 1275
情报部门 1275
牵涉到 1275
电器 1275
钴 1275
阿什 1275
oz@@ 1274
哈佛大学 1274
宿@@ 1274
折扣 1274
窗 1274
344 1273
不偏不倚 1273
出任 1273
抚恤金 1273
来源于 1273
柜 1273
洪灾 1273
上下 1272
巡回 1272
布里 1272
1624 1271
se 1271
排序 1271
舍@@ 1271
马诺河 1271
1874 1270
402 1270
man@@ 1270
东方 1270
供词 1270
晚间 1270
画面 1270
薄熙来 1270
5000 1269
人日 1269
和准 1269
哈龙 1269
时地 1269
芬@@ 1269
进行性 1269
服务费 1268
检 1268
论证 1268
象征性 1268
迁离 1268
鞋 1268
食品安全 1268
San 1267
克罗地亚共和国 1267
公司@@ 1267
获胜 1267
5.6 1266
一层 1266
中起 1266
以北 1266
割礼 1266
损伤 1266
猎@@ 1266
码 1266
迟迟 1266
适应性 1266
全球定位系统 1265
如表 1265
皮肤 1265
第八@@ 1265
第十二次 1265
胎 1265
选举权 1265
sa 1264
全面性 1264
初创 1264
升值 1264
微观 1264
无误 1264
运河 1264
手枪 1263
拥有者 1263
沙巴 1263
密 1262
氯苯 1262
泥@@ 1262
陆 1262
霍乱 1262
IM@@ 1261
势@@ 1261
特拉特 1261
现实意义 1261
And@@ 1260
可信性 1260
截@@ 1260
末尾 1260
39@@ 1259
中载列 1259
加班 1259
各方对 1259
新鲜 1259
杜夫 1259
派往 1259
贸易@@ 1259
辰 1259
一经 1258
战场 1258
课堂 1258
领事馆 1258
麻@@ 1258
487 1257
Martin 1257
Shar@@ 1257
ment 1257
电网 1257
413 1256
一共 1256
承包人 1256
gov 1255
丝毫 1255
已登记 1255
教学大纲 1255
洛尔科 1255
犹太主义 1255
译员 1255
37% 1254
sch@@ 1254
和表 1254
秀 1254
竞选活动 1254
第二季度 1254
非人 1254
342 1253
Joseph 1253
ish 1253
前一天 1253
礼物 1253
露 1253
414 1252
497 1252
上台 1252
岛民 1252
必将 1252
森林资源 1252
沿@@ 1252
流落 1252
减刑 1251
四氯化碳 1251
狭窄 1251
繁重 1251
胜 1251
野 1251
No 1250
Sab@@ 1250
互相@@ 1250
决 1250
址 1250
才干 1250
招生 1250
益@@ 1250
联席 1250
过早 1250
运到 1250
阿根廷共和国 1250
ear@@ 1249
其能 1249
华为 1249
征 1249
欣@@ 1249
滞后 1249
炉 1249
环境治理 1249
自由贸易区 1249
372 1248
Bas@@ 1248
在校 1248
基督徒 1248
标界 1248
煤@@ 1248
瑞士政府 1248
第十 1248
视野 1248
1.7 1247
488 1247
看似 1247
计算机@@ 1247
阻@@ 1247
43% 1246
Google 1246
Kam@@ 1246
Mark 1246
共同点 1246
工程@@ 1246
忍受 1246
电文 1246
真空 1246
积极开展 1246
经济效益 1246
行李 1246
诉讼法 1246
饭店 1246
全时 1245
写信给 1245
大法官 1245
投入使用 1245
提供数据 1245
游 1245
灰@@ 1245
照明 1245
长期投资 1245
Av@@ 1244
ich 1244
厚@@ 1244
少将 1244
虚@@ 1244
伯特 1243
公共交通 1243
奖项 1243
现正 1243
皆 1243
des 1242
rez 1242
偿金 1242
暴力行动 1242
那天 1242
史密斯 1241
对冲 1241
维生素 1241
育@@ 1241
412 1240
不复存在 1240
人因 1240
伐木 1240
功效 1240
火车 1240
立方米 1240
416 1239
° 1239
山脉 1239
纳税 1239
南非洲 1238
常务副 1238
逐字 1238
CRP.3 1237
唱 1237
期中 1237
民族解放 1237
精神@@ 1237
较差 1237
军事化 1236
坦诚 1236
多数票 1236
漫@@ 1236
零件 1236
enn@@ 1235
发电厂 1235
年终 1235
活动家 1235
自发 1235
近海 1235
port 1234
29.@@ 1233
385 1233
枢纽 1233
欣赏 1233
主教 1232
做些 1232
危急 1232
带动 1232
民主党人 1232
纪念碑 1232
航@@ 1232
英属维尔京群岛 1232
黑暗 1232
ú 1231
兼容 1231
实证 1231
样子 1231
民主选举 1231
aki 1230
二十周年 1230
拓宽 1230
数以百万计 1230
转载 1230
Kal@@ 1229
真实性 1229
谋@@ 1229
销 1229
La@@ 1228
交通工具 1228
挪用 1228
gu@@ 1227
世界气象组织 1227
会计@@ 1227
加利福尼亚州 1227
疲软 1227
罗德里格斯 1227
重伤 1227
L.26 1226
for@@ 1226
ly 1226
害 1226
荒@@ 1226
装载 1226
赞@@ 1226
季节性 1225
巡@@ 1225
瘘管 1225
确保安全 1225
编排 1225
航空器 1225
补 1225
全体成员 1224
机枪 1224
棒 1224
讲台 1224
上周五 1223
拉德 1223
数百@@ 1223
花园 1223
行政事务 1223
L.27 1222
发出通知 1222
因果关系 1222
363 1221
Abdel@@ 1221
MISC.5 1221
亚历山大 1221
伊拉克人 1221
喝 1221
幻@@ 1221
延 1221
意大利政府 1221
欲 1221
生产@@ 1221
逃脱 1221
面对面 1221
0.5 1220
423 1220
60@@ 1220
KO@@ 1220
伊斯兰共和国 1220
反击 1220
引 1220
心脏病 1220
没能 1220
等同 1220
银行业务 1220
习@@ 1219
准@@ 1219
外交人员 1219
滥@@ 1219
第三世界 1219
聪明 1219
训 1219
详细信息 1219
近几年来 1219
顺应 1219
31% 1218
373 1218
Er@@ 1218
人于 1218
华尔街 1218
受制于 1218
宾 1218
斯塔 1218
来往 1218
武 1218
狂热 1218
里亚尔 1218
教皇 1217
玉米 1217
节日 1217
过渡性 1217
DA@@ 1216
不均 1216
不敢 1216
北大西洋公约组织 1216
司将 1216
恰恰 1216
放牧 1216
第六十@@ 1216
纪@@ 1216
417 1215
ory 1215
冗长 1215
去除 1215
数千名 1215
停顿 1214
富有成果 1214
直升飞机 1214
der 1213
利害攸关 1213
海员 1213
相互理解 1213
368 1212
下旬 1212
埃尔@@ 1212
普斯卡 1212
请拨 1212
诸@@ 1212
主审 1211
信守 1211
区域环境 1211
抗辩 1211
条目 1211
贝拉 1211
661 1210
land 1210
个性 1210
卡洛斯 1210
Ky@@ 1209
一如既往 1209
商品@@ 1209
总括 1209
注视 1209
活性 1209
维拉 1209
避开 1209
青春期 1209
飙升 1209
381 1208
Os@@ 1208
亲人 1208
冒@@ 1208
座@@ 1208
纤维 1208
谢 1208
饱受 1208
359 1207
Bel@@ 1207
吸@@ 1207
尼罗 1207
应得 1207
彭@@ 1207
政体 1207
登载 1207
竞@@ 1207
兵役 1206
北欧国家 1206
平价 1206
能源供应 1206
苏丹共和国 1206
储@@ 1205
无助于 1205
演说 1205
电视@@ 1205
遇 1205
防灾 1205
973 1204
con@@ 1204
团在 1204
格尔 1204
觉 1204
总会 1203
渔获 1203
美国国会 1203
萨拉热窝 1203
这栋 1203
ist 1202
东南部 1202
各项任务 1202
多式 1202
学到 1202
惨@@ 1202
第二十九届 1202
销@@ 1202
兑 1201
密集型 1201
甲烷 1201
415 1200
ella 1200
一幅 1200
一视同仁 1200
初等 1200
国民军 1200
奥马尔 1200
心理学家 1200
所受 1200
数据交换 1200
消防 1200
第十四次 1200
屋顶 1199
泛 1199
第四季度 1199
Security 1198
ks 1198
双边条约 1198
州@@ 1198
油田 1198
评 1198
运载火箭 1198
Khan 1197
价格指数 1197
地形 1197
实习生 1197
布尼亚 1197
布达佩斯 1197
乘 1196
内陆国 1196
几届 1196
刻 1196
十六 1196
唱@@ 1196
坎 1196
指向 1196
改派 1196
更能 1196
爱德华 1196
程序@@ 1196
错综复杂 1196
0.5% 1195
NGO 1195
ski 1195
è 1195
不列颠 1195
人性 1195
放射源 1195
敏@@ 1195
日本@@ 1195
比索 1195
浮@@ 1195
贫困率 1195
ord@@ 1194
净增 1194
受损害 1194
座位 1194
性别差异 1194
核弹头 1194
石油@@ 1194
程序法 1194
Af@@ 1193
埃塞俄比亚政府 1193
奋斗 1193
子孙后代 1193
念 1193
持有者 1193
马丁内斯 1193
高额 1193
509 1192
670 1192
Sc@@ 1192
交易成本 1192
制成品 1192
受阻 1192
坚持不懈 1192
抢@@ 1192
曾多次 1192
激起 1192
AC.96 1191
世界市场 1191
中作 1191
国对 1191
热烈欢迎 1191
耶夫 1191
致敬 1191
违犯 1191
1947 1190
Human 1190
OEWG 1190
兴建 1190
开通 1190
首个 1190
362 1189
Ta@@ 1189
平均值 1189
袭 1189
逊尼派 1189
358 1188
B.@@ 1188
L.25 1188
L.38 1188
ood 1188
刑事警察 1188
杀@@ 1188
经济区 1188
起义 1188
输出 1188
371 1187
ost@@ 1187
中毒 1187
从业者 1187
保护@@ 1187
合乎 1187
恩贾梅纳 1187
持续时间 1187
方框 1187
素季 1187
456 1186
后于 1186
周期性 1186
喜@@ 1186
未经许可 1186
派出所 1186
狱中 1186
莉@@ 1186
转用 1186
986 1185
ile 1185
冰 1185
并视 1185
503 1184
众议员 1184
干净 1184
控@@ 1184
管教 1184
自然环境 1184
408 1183
AS@@ 1183
IF@@ 1183
ors 1183
判罪 1183
搞@@ 1183
邪恶 1183
690 1182
CHW 1182
Company 1182
Nd@@ 1182
公平竞争 1182
合理性 1182
小于 1182
无可@@ 1182
模@@ 1182
消费品 1182
满意度 1182
腐败现象 1182
荷兰政府 1182
镑 1182
Ass@@ 1181
Jabal 1181
国际商会 1181
尾@@ 1181
应适当 1181
蓝色 1181
谱 1181
重心 1181
颜色 1181
377 1180
428 1180
berg 1180
ight 1180
哥 1180
场景 1180
开业 1180
球队 1180
违禁 1180
门诊 1180
383 1179
PS 1179
SO@@ 1179
中国共产党 1179
劳务 1179
教练 1179
聘 1179
薪@@ 1179
议@@ 1179
骄傲 1179
386 1178
整修 1178
渔@@ 1178
自立 1178
0.0@@ 1177
44% 1177
录@@ 1177
无家可归者 1177
普尔 1177
茶 1177
视觉 1177
382 1176
406 1176
慈善机构 1176
纽带 1176
荷@@ 1176
蓄@@ 1176
1559 1175
Ny@@ 1175
War@@ 1175
li@@ 1175
上班 1175
兵@@ 1175
刺@@ 1175
前南 1175
展出 1175
险@@ 1175
369 1174
XX 1174
oun@@ 1174
上报 1174
亚美尼亚共和国 1174
使用费 1174
浪潮 1174
牙科 1174
联安 1174
雨水 1174
Mer@@ 1173
一夫多妻制 1173
婚@@ 1173
报案 1173
科科长 1173
第二种 1173
致辞 1173
逮捕证 1173
Mohammad 1172
两族 1172
候选 1172
吉尔吉斯共和国 1172
径 1172
挪威政府 1172
杆 1172
滥用职权 1172
畜牧业 1172
联阵 1172
若干@@ 1172
贫@@ 1172
Lib@@ 1171
eb 1171
妮 1171
宣传教育 1171
方对 1171
粮食价格 1171
能以 1171
Dj@@ 1170
GE@@ 1170
侧 1170
出租车 1170
对峙 1170
年纪 1170
挺 1170
测绘 1170
盐@@ 1170
级@@ 1170
般的 1170
良@@ 1170
规@@ 1170
陆运 1170
Aw@@ 1169
Mos@@ 1169
esa 1169
op 1169
乡@@ 1169
建筑材料 1169
玩@@ 1169
该署 1169
大洋 1168
灌输 1168
远见 1168
Ban@@ 1167
争@@ 1167
亵渎 1167
征询 1167
未必 1167
行政法 1167
非常高兴 1167
MSP 1166
三周 1166
业经 1166
助 1166
埃尔 1166
烧毁 1166
看见 1166
科尔多凡 1166
阿根廷政府 1166
乐于 1165
江 1165
XX@@ 1164
分校 1164
剧烈 1164
密码 1164
放射性物质 1164
第二十条 1164
铺 1164
集中精力 1164
雨 1164
实际行动 1163
犯罪团伙 1163
留用 1163
轻重缓急 1163
依赖性 1162
国界 1162
收入水平 1162
歌曲 1162
质量标准 1162
475 1161
为生 1161
入狱 1161
利特 1161
劳资关系 1161
年时 1161
折旧 1161
辛格 1161
违@@ 1161
减小 1160
卡尔@@ 1160
卸任 1160
征兵 1160
简明 1160
销量 1160
阿齐兹 1160
仿效 1159
孤@@ 1159
布鲁克林 1159
建筑师 1159
派系 1159
调查组 1159
4.8 1158
525 1158
8.1 1158
RA 1158
ert 1158
gr@@ 1158
党员 1158
托儿所 1158
月球 1158
粉@@ 1158
语音 1158
资料库 1158
阿拉 1158
CN 1157
IA@@ 1157
六次 1157
农作物 1157
孔 1157
试用 1157
迁 1157
ond@@ 1156
军事力量 1156
并作 1156
播 1156
未交 1156
符合条件 1156
菌 1156
调停 1156
还于 1156
422 1155
751 1155
余 1155
合资企业 1155
土耳其共和国 1155
无国界 1155
结转 1155
迁往 1155
阿勒颇 1155
379 1154
IR@@ 1154
MO@@ 1154
制冷 1154
复核 1154
期为 1154
瑟@@ 1154
盛 1154
郑@@ 1154
钢 1154
29% 1153
hm@@ 1153
发射器 1153
外围 1153
学术@@ 1153
并非如此 1153
条至 1153
浸@@ 1153
磅 1153
粗@@ 1153
调往 1153
下一代 1152
不用说 1152
兰德 1152
历届 1152
清偿债务 1152
穿@@ 1152
艾伦 1152
遗骸 1152
York 1151
地被 1151
寻@@ 1151
招待会 1151
独一无二 1151
视力 1151
高速公路 1151
361 1150
Char@@ 1150
予以考虑 1150
古柯 1150
总经理 1150
插@@ 1150
本节 1150
管理费用 1150
若干项 1150
436 1149
My@@ 1149
供参考 1149
写信 1149
完全同意 1149
新一轮 1149
细致 1149
鲜明 1149
ISIS 1148
十七 1148
摩洛哥王国 1148
窗户 1148
美国国务院 1148
调解员 1148
香港@@ 1148
品质 1147
土耳其政府 1147
弹头 1147
签@@ 1147
背离 1147
身穿 1147
健@@ 1146
动产 1146
外展 1146
平权 1146
译注 1146
si 1144
密切关系 1144
父@@ 1144
管理程序 1144
经验丰富 1144
训练班 1144
遮@@ 1144
金融时报 1144
问道 1144
建筑@@ 1143
晓@@ 1143
乘@@ 1142
再也 1142
备 1142
多位 1142
存有 1142
建筑业 1142
正规化 1142
法律责任 1142
浓缩铀 1142
福特 1142
竞标 1142
飞行器 1142
标的 1141
里昂 1141
高地 1141
Vladimir 1140
共产主义 1140
或者说 1140
现金流量 1140
相互信任 1140
英国政府 1140
身处 1140
34% 1139
CN.17 1139
凭证 1139
嫌疑 1139
更为严重 1139
月度 1139
美洲国家 1139
389 1138
392 1138
L.34 1138
akh@@ 1138
㈦ 1138
以利于 1138
县@@ 1138
因应 1138
巴哈 1138
粮 1138
纽约州 1138
自我@@ 1138
人民军 1137
份子 1137
体制性 1137
保持沉默 1137
前期 1137
恐慌 1137
慢慢 1137
本年度 1137
顿@@ 1137
食用 1137
376 1136
mann 1136
丘@@ 1136
康 1136
开拓 1136
街@@ 1136
际 1136
435 1135
437 1135
L.32 1135
今世 1135
并购 1135
更进一步 1135
有别于 1135
看不到 1135
知悉 1135
第二卷 1135
鉴别 1135
餐@@ 1135
2.5% 1134
Add.10 1134
地上 1134
大大提高 1134
漏@@ 1134
相互之间 1134
肢体 1134
驯鹿 1134
二是 1133
农业@@ 1133
反弹 1133
改正 1133
直播 1133
祈祷 1133
量刑 1133
阶级 1133
食品@@ 1133
47% 1132
Add.8 1132
Maria 1132
Ob@@ 1132
eo 1132
佐 1132
未用 1132
梦 1132
狱警 1132
稀少 1132
额为 1132
全权代表 1131
各处 1131
收据 1131
靠@@ 1131
2019 1130
ett 1130
分析员 1130
技合 1130
演 1130
红新月 1130
研所 1129
会同 1128
抓 1128
时装 1128
欢@@ 1128
深入分析 1128
甄别 1128
甜@@ 1128
菜@@ 1128
豪@@ 1128
账 1128
马其顿 1128
工资@@ 1127
旗 1127
测定 1127
疏@@ 1127
睡眠 1127
纳税人 1127
递延 1127
阿马 1127
鸟 1127
1952 1126
Ac@@ 1126
政见 1126
氧 1126
秋天 1126
第二十三条 1126
计算方法 1126
责 1126
雅典 1126
1353 1125
DA 1125
动摇 1125
合资 1125
同其 1125
完@@ 1125
总署 1125
民解 1125
重大成就 1125
1820 1124
入账 1124
投标人 1124
折衷 1124
提供方便 1124
阿勒 1124
颗 1124
439 1123
弗里敦 1123
短信 1123
第十五次 1123
创 1122
司法独立 1122
地理信息 1122
小孩 1122
投资@@ 1122
最新进展 1122
译 1122
512 1121
Ir@@ 1121
ery 1121
ig 1121
军事@@ 1121
各派 1121
地步 1121
复会 1121
第一天 1121
罪恶 1121
贵@@ 1121
ht@@ 1120
卫星通信 1120
盟国 1120
第三季度 1120
Clinton 1119
air@@ 1119
小计 1119
平板 1119
忙 1119
氟化 1119
研究者 1119
第六节 1119
裁@@ 1119
透@@ 1119
Ru@@ 1118
ach 1118
ein 1118
刊 1118
如前所述 1118
政和 1118
淡@@ 1118
UNCTAD 1117
中均 1117
中性 1117
兴起 1117
制成 1117
朝向 1117
正值 1117
票数 1117
鱼种 1117
3.8 1116
不远 1116
哥@@ 1116
巴尔@@ 1116
市场份额 1116
极有 1116
煤 1116
空间信息 1116
银行@@ 1116
闻 1116
710 1115
8.2 1115
XVII 1115
演示 1115
第十六次 1115
不像 1114
吞并 1114
喊 1114
总预算 1114
时会 1114
稍@@ 1114
那场 1114
铺@@ 1114
默许 1114
395 1113
AC 1113
ho 1113
一对 1113
专题会议 1113
买下 1113
会长 1113
台式 1113
止 1113
珍@@ 1113
停 1112
关键所在 1112
双边关系 1112
板@@ 1112
礼宾 1112
请求书 1112
雷场 1112
马格里布 1112
70@@ 1111
Committee 1111
什叶派 1111
优惠待遇 1111
数最多 1111
盆地 1111
码头 1111
iri 1110
回报率 1110
如本 1110
拆@@ 1110
极具 1110
步行 1110
汇辑 1110
透彻 1110
阿巴斯 1110
奢侈品 1109
最受 1109
而成 1109
达卡 1109
110.@@ 1108
William 1108
万至 1108
卫 1108
暴乱 1108
电缆 1108
阿方索 1108
447 1107
Ter@@ 1107
叫做 1107
实施方案 1107
帮@@ 1107
意见分歧 1107
服务部 1107
这届 1107
决不 1106
大米 1106
戏 1106
联合国国际贸易法委员会 1106
预制 1106
34.@@ 1105
ast 1105
临@@ 1105
历 1105
反倾销 1105
数据分析 1105
污名 1105
物理学 1105
非军事区 1105
专案 1104
定期存款 1104
徒 1104
既@@ 1104
服用 1104
411 1103
820 1103
aka 1103
北朝鲜 1103
因果 1103
未婚 1103
赢 1103
近几年 1103
选用 1103
oun 1102
召集人 1102
羊 1102
贸易战 1102
长短 1102
521 1101
参选 1101
成功经验 1101
破 1101
稳 1101
378 1100
405 1100
uz@@ 1100
之多 1100
出访 1100
前几次 1100
增速 1100
最低水平 1100
长老 1100
Han@@ 1099
imana 1099
市级 1099
扣 1099
病媒 1099
相处 1099
第十一 1099
缓刑 1099
联络人 1099
Raj@@ 1098
固体废物 1098
手表 1098
旋风 1098
硬 1098
米兰 1098
联手 1098
走进 1098
辨认 1098
Development 1097
OL 1097
Wor@@ 1097
下级 1097
俩 1097
克利 1097
大厅 1097
尼尔 1097
陪 1097
59@@ 1096
五氯 1096
券 1096
府 1096
微克 1096
残疾者 1096
登上 1096
西北部 1096
评分 1096
ora 1095
抬头 1095
浪 1095
联邦调查局 1095
说出 1095
采掘 1095
565 1094
不清 1094
伤害力 1094
医学@@ 1094
所附 1094
汉普森 1094
瞄准 1094
表达意见 1094
豪 1094
1572 1093
De 1093
L.28 1093
ec 1093
地方法院 1093
布卡武 1093
底层 1093
捐赠者 1093
推测 1093
普选 1093
毫无@@ 1093
答卷 1093
资料袋 1093
１ 1093
FBI 1092
低廉 1092
发掘 1092
宣@@ 1092
攀升 1092
社会学 1092
装甲车 1092
阳 1092
难以获得 1092
424 1091
433 1091
EX 1091
US 1091
合同规定 1091
基数 1091
择@@ 1091
汉堡 1091
猪 1091
米勒 1091
高校 1091
ON@@ 1090
人工智能 1090
劣势 1090
历@@ 1090
宾@@ 1090
拼@@ 1090
新能源 1090
赚 1090
丙@@ 1089
乙@@ 1089
愿@@ 1089
春天 1089
429 1088
展开讨论 1088
眼光 1088
NSA 1087
一股 1087
出生日期 1087
刚@@ 1087
官兵 1087
开发新 1087
橡胶 1087
死亡威胁 1087
社会科学 1087
立法会 1087
累@@ 1087
缩@@ 1087
钦 1087
交互式 1086
烷 1086
赚钱 1086
农产 1085
学童 1085
改编 1085
筒 1085
话@@ 1085
软禁 1085
阿拉伯联盟 1085
Dr@@ 1084
器具 1084
国债 1084
增加一倍 1084
星球 1084
潜艇 1084
离去 1084
纳斯 1084
进攻性 1084
郎 1084
52% 1083
Van 1083
下调 1083
卡比拉 1083
各款 1083
帮派 1083
童年 1083
自由主义 1083
通向 1083
840 1082
LE@@ 1082
偷窃 1082
川 1082
特种 1082
站点 1082
为时过早 1081
优越 1081
信息管理系统 1081
宜@@ 1081
投票站 1081
整 1081
盲人 1081
退伍军人 1081
银 1081
世界知识产权组织 1080
各大 1080
戒@@ 1080
渊源 1080
组织协调 1080
账单 1080
顾 1080
Go@@ 1079
OS 1079
个区 1079
伟 1079
公共开支 1079
内部事务 1079
围困 1079
管理法 1079
维斯 1079
421 1078
三十@@ 1078
卡塔尔国 1078
员@@ 1078
抵@@ 1078
毫不@@ 1078
404 1077
Abdul@@ 1077
Sand@@ 1077
完备 1077
慎重 1077
死因 1077
该组 1077
帐目 1076
接洽 1076
材 1076
短语 1076
Mir@@ 1075
XVI 1075
ovi 1075
何塞 1075
出生率 1075
援@@ 1075
相互了解 1075
算法 1075
遣散 1075
444 1074
中低收入 1074
为数不多 1074
信息网络 1074
吕@@ 1074
年均 1074
当成 1074
核心内容 1074
波哥大 1074
翁 1074
里斯 1074
48% 1073
乐队 1073
八名 1073
拥护 1073
穆尔西 1073
童@@ 1073
384 1072
398 1072
Co 1072
Ts@@ 1072
别国 1072
右翼 1072
美军 1072
角@@ 1072
诚挚 1072
Sy@@ 1071
克族 1071
瓦解 1071
辅之以 1071
近年 1071
397 1070
oul@@ 1070
上调 1070
国际私法 1070
居留证 1070
并称 1070
该校 1070
391 1069
418 1069
477 1069
七项 1069
应用软件 1069
彼此之间 1069
旅行社 1069
Ver@@ 1068
代际 1068
彩@@ 1068
房租 1068
控 1068
控制中心 1068
服务公司 1068
洛美 1068
票@@ 1068
规律 1068
Charles 1067
产品@@ 1067
倘若 1067
固体 1067
有所改进 1067
潜@@ 1067
育 1067
说服力 1067
419 1066
46% 1066
ve 1066
一律平等 1066
各异 1066
巴里 1066
理所当然 1066
PO@@ 1065
之手 1065
发现自己 1065
神秘 1065
苯酚 1065
39% 1064
458 1064
NO@@ 1064
安东尼奥 1064
巴基斯坦政府 1064
无理 1064
束缚 1064
连通 1064
骑@@ 1064
十二个 1063
型号 1063
度假 1063
施暴者 1063
清点 1063
移居 1063
访 1063
钥匙 1063
Luis 1062
二人 1062
弃 1062
维和部队 1062
首领 1062
AB 1061
Tal@@ 1061
XXIX 1061
ire 1061
五周年 1061
会为 1061
劳资 1061
压缩 1061
塔拉 1061
异性 1061
普通教育 1061
求职 1061
饰 1061
企@@ 1060
停火协议 1060
献@@ 1060
订购 1060
重大意义 1060
Kl@@ 1059
ami 1059
ap 1059
人满为患 1059
他国 1059
当日 1059
梦@@ 1059
流感 1059
联尼 1059
苏人解 1059
软件@@ 1059
页面 1059
Agency 1058
Saf@@ 1058
减税 1058
参差不齐 1058
并不认为 1058
残余 1058
租约 1058
装饰 1058
野心 1058
阿联酋 1058
393 1057
Nas@@ 1057
举出 1057
十分@@ 1057
帖子 1057
斗 1057
湖泊 1057
研@@ 1057
绘图 1057
罗姆族 1057
评估所 1057
默克尔 1057
438 1056
443 1056
CA 1056
Le 1056
May@@ 1056
人事管理 1056
居住区 1056
还同 1056
阵 1056
407 1055
Arm@@ 1055
L.39 1055
uss@@ 1055
北欧 1055
参与权 1055
宏伟 1055
平稳 1055
挑起 1055
童 1055
肿瘤 1055
L.36 1054
一颗 1054
加德满都 1054
重新启动 1054
we 1053
凌辱 1053
学徒 1053
欣 1053
1.5% 1052
465 1052
513 1052
两部 1052
地以 1052
官方语言 1052
放慢 1052
退 1052
485 1051
Ser@@ 1051
Vi@@ 1051
ki 1051
传给 1051
佛罗里达州 1051
单亲家庭 1051
变通 1051
技术标准 1051
海水 1051
880 1050
add@@ 1050
eed 1050
交易商 1050
南方共同市场 1050
垃圾@@ 1050
性别角色 1050
斯科 1050
犯罪现场 1050
猛烈 1050
种植园 1050
粉丝 1050
56% 1049
L.30 1049
一代人 1049
拉巴特 1049
替 1049
行进 1049
西南 1049
责任者 1049
不及 1048
卡纳克 1048
技@@ 1048
敌视 1048
格拉 1048
母乳 1048
涂@@ 1048
言辞 1048
478 1047
CAC 1047
厘米 1047
引信 1047
胜@@ 1047
金边 1047
AL 1046
Carlos 1046
之久 1046
候任 1046
热爱 1046
腹泻 1046
英才 1046
詹@@ 1046
逐出 1046
似@@ 1045
双方同意 1045
夸@@ 1045
实地考察 1045
开发@@ 1045
铺平 1045
Bak@@ 1044
人口老龄化 1044
人员培训 1044
参谋长 1044
尾 1044
有悖于 1044
望远镜 1044
知识库 1044
预示 1044
Ltd 1043
之日 1043
九名 1043
克里斯 1043
堆 1043
改善生活 1043
星期六 1043
炮 1043
练习 1043
联塞建 1043
这句 1043
雅虎 1043
445 1042
448 1042
PM@@ 1042
anga 1042
不便 1042
卫生领域 1042
广播公司 1042
每当 1042
行长 1042
队员 1042
486 1041
MBA 1041
业务@@ 1041
保证金 1041
格林 1041
真是 1041
聚焦 1041
西南亚 1041
赎金 1041
Apple 1040
Kat@@ 1040
勤 1040
协调局 1040
恤 1040
战略@@ 1040
朝鲜人 1040
瑞典政府 1040
050 1039
501 1039
68@@ 1039
侦测 1039
储藏 1039
创业精神 1039
外汇储备 1039
摄影师 1039
潮流 1039
烹饪 1039
交通事故 1038
喝@@ 1038
担当 1038
比前 1038
越界 1038
难道 1038
鸡 1038
ene 1037
决议案 1037
分隔 1037
奶 1037
高涨 1037
455 1036
bin 1036
下落不明 1036
不详 1036
政治性 1036
核军备 1036
私法 1036
罗先生 1036
起始 1036
469 1035
532 1035
CRIC 1035
Tur@@ 1035
enc@@ 1035
偶然 1035
扫射 1035
电话会议 1035
裨益 1035
483 1034
537 1034
ico 1034
化为 1034
卫@@ 1034
归档 1034
样@@ 1034
8.3 1033
L.43 1033
保持警惕 1033
尺寸 1033
志 1033
撞击 1033
服务供应商 1033
淡化 1033
点击 1033
石油价格 1033
纪要 1033
388 1032
403 1032
434 1032
Sha 1032
医治 1032
单亲 1032
各点 1032
开放源码 1032
止@@ 1032
望@@ 1031
1929 1030
Daniel 1030
lez 1030
世界杯 1030
伊朗政府 1030
助学金 1030
异见 1030
收紧 1030
曲@@ 1030
法中 1030
盒 1030
阿尔 1030
L.35 1029
下游 1029
哈佛 1029
就座 1029
年幼 1029
政界 1029
概@@ 1029
气温 1029
IT 1028
L.37 1028
Ra@@ 1028
ith 1028
不相称 1028
五年计划 1028
南奥塞梯 1028
各有 1028
大洲 1028
契机 1028
截获 1028
深圳 1028
篇文章 1028
良知 1028
Gi@@ 1027
eva 1027
协联 1027
国应 1027
恒@@ 1027
耗资 1027
衔接 1027
麦克@@ 1027
呈件 1026
扎克 1026
水生 1026
生涯 1026
菲利普 1026
衡平 1026
顶级 1026
预订 1026
L.49 1025
启@@ 1025
售 1025
大洋洲 1025
头部 1025
爱国者 1025
环境@@ 1025
研讨 1025
第五十@@ 1025
薄 1025
Abdul 1024
L.31 1024
L.42 1024
ji 1024
三届 1024
债@@ 1024
公务人员 1024
出行 1024
占多数 1024
广播@@ 1024
政策性 1024
牧@@ 1024
画廊 1024
稀缺 1024
穆萨 1024
行程 1024
isa 1023
决策权 1023
调控 1023
逊 1023
金融体制 1023
526 1022
Commission 1022
ISO 1022
ush@@ 1022
van 1022
不堪 1022
不易 1022
伏 1022
创设 1022
加密 1022
南美 1022
帕拉 1022
报名 1022
按规定 1022
数千@@ 1022
殿下 1022
确有 1022
肆意 1022
荣 1022
莱特 1022
资源@@ 1022
陶@@ 1022
557 1021
Cal@@ 1021
index 1021
历次 1021
失业问题 1021
范 1021
违宪 1021
通报会 1021
33.@@ 1020
L.40 1020
Marc@@ 1020
Med@@ 1020
af 1020
乘数 1020
会外 1020
函@@ 1020
含汞 1020
婚姻关系 1020
存活 1020
殖民统治 1020
端@@ 1020
1907 1019
409 1019
505 1019
57% 1019
下才 1019
不宜 1019
叫@@ 1019
喀@@ 1019
已使 1019
巴库 1019
浏览 1019
许 1019
间@@ 1019
General 1018
人命 1018
信用卡 1018
几十@@ 1018
列有 1018
发展前景 1018
国务 1018
有形资产 1018
痕迹 1018
科威特政府 1018
邓小平 1018
aga 1017
人则 1017
具体任务 1017
区法院 1017
哈德 1017
放心 1017
空气质量 1017
自评 1017
负荷 1017
遏止 1017
醇 1017
为的是 1016
呼吸 1016
时段 1016
普及率 1016
条所载 1016
硫@@ 1016
考量 1016
证据不足 1016
453 1015
457 1015
506 1015
L.48 1015
公诉 1015
受援 1015
复 1015
扎伊尔 1015
摇@@ 1015
波及 1015
职业妇女 1015
能源@@ 1015
航线 1015
街上 1015
财政@@ 1015
辞 1015
辩 1015
迫在眉睫 1015
高官 1015
European 1014
不知 1014
净减 1014
困惑 1014
备有 1014
掌权 1014
效@@ 1014
第十三次 1014
答@@ 1014
谋 1014
545 1013
740 1013
L.33 1013
WG@@ 1013
很差 1013
杠杆 1013
通话 1013
41% 1012
Jan@@ 1012
上课 1012
凌晨 1012
刑事管辖 1012
建国 1012
更快 1012
计算@@ 1012
与日俱增 1011
接收国 1011
法尔 1011
生产量 1011
736 1010
TE@@ 1010
Um@@ 1010
一连串 1010
审计师 1010
97.@@ 1009
Pan@@ 1009
关键时刻 1009
埋@@ 1009
515 1008
AP 1008
七条 1008
勾结 1008
听讯 1008
有个 1008
证明文件 1008
资本@@ 1008
车臣 1008
限@@ 1008
颇@@ 1008
Jul@@ 1007
Sm@@ 1007
ean 1007
人员伤亡 1007
可用性 1007
应聘 1007
微博 1007
惟一 1007
武断 1007
盖茨 1007
衷心 1007
446 1006
Mel@@ 1006
eda 1006
per 1006
丙 1006
临时政府 1006
份文件 1006
失调 1006
威尔 1006
守 1006
拖 1006
相吻合 1006
站@@ 1006
萘 1006
Nat@@ 1005
下台 1005
主页 1005
安全形势 1005
常备 1005
微小 1005
支持性 1005
转诊 1005
阵营 1005
53% 1004
人身自由 1004
国立大学 1004
愉快 1004
有幸 1004
氮 1004
394 1003
427 1003
安全事件 1003
徐@@ 1003
日元 1003
ona 1002
举证 1002
安全套 1002
挖@@ 1002
掌@@ 1002
烧 1002
续设 1002
ua 1001
商业界 1001
弃@@ 1001
Hy@@ 1000
Sl@@ 1000
uh@@ 1000
人事@@ 1000
受托 1000
层@@ 1000
并会 1000
遇@@ 1000
驱逐令 1000
魅力 1000
News 999
On@@ 999
肯尼亚政府 999
605 998
IPO 998
Rev@@ 998
例@@ 998
南非政府 998
哈里 998
时任 998
河谷 998
疼痛 998
研究组 998
鲨鱼 998
466 997
51% 997
CST 997
办事员 997
推动者 997
滚@@ 997
照看 997
过长 997
选拔 997
遗属 997
邦@@ 997
442 996
8.5 996
二十世纪 996
涉@@ 996
界面 996
转折点 996
铝 996
770 995
Department 995
XL@@ 995
res@@ 995
万维网 995
公诉人 995
共同行动 995
实际意义 995
毫无意义 995
迟缓 995
逐年 995
霍姆斯 995
非农业 995
香港特区 995
474 994
48@@ 994
尴尬 994
布拉@@ 994
身分 994
雨季 994
北南 993
察@@ 993
托儿 993
窃取 993
耕种 993
遣送 993
58@@ 992
int@@ 992
ite 992
omb@@ 992
伊斯兰堡 992
关系密切 992
卷宗 992
咨询组 992
强烈建议 992
玩具 992
菲尔德 992
Ben 991
ud 991
世界卫生 991
名前 991
奉献 991
弄 991
惠@@ 991
抚养费 991
搬@@ 991
政治危机 991
敌国 991
火山 991
停车场 990
第一种 990
针@@ 990
镜头 990
＋ 990
467 989
同胞 989
奴 989
平民百姓 989
弄清 989
总费用 989
收款 989
普惠制 989
枯竭 989
第十七次 989
退学 989
逐一 989
Street 988
idi 988
华沙 988
巧 988
心脏 988
急诊 988
纵@@ 988
行文 988
赵@@ 988
跑道 988
这样一来 988
erv@@ 987
st 987
主管人员 987
北京@@ 987
坐标 987
旺@@ 987
服务项目 987
用户@@ 987
ative 986
借用 986
扎伊 986
扫@@ 986
相互支持 986
确凿 986
第一卷 986
简历 986
罐 986
芯片 986
阿拉法特 986
529 985
ä 985
两套 985
中仅 985
前列 985
城区 985
快乐 985
柱 985
繁琐 985
而后 985
邓@@ 985
396 984
inc@@ 984
ys@@ 984
在技术上 984
巴厘岛 984
无记名 984
服务局 984
次访问 984
知识分子 984
英亩 984
警力 984
资质 984
遍布 984
零星 984
B型 983
Inter@@ 983
Pri@@ 983
以利 983
含糊 983
增值税 983
援 983
教益 983
玉@@ 983
399 982
COSP 982
L.50 982
个人卫生 982
充斥 982
公共汽车 982
共谋 982
手榴弹 982
扣减 982
极高 982
联会 982
名声 981
地使 981
大卫 981
期所 981
欲@@ 981
耗@@ 981
1.9 980
Na@@ 980
Nik@@ 980
三十年 980
充分行使 980
挫败 980
无知 980
糖@@ 980
451 979
L.41 979
Mark@@ 979
客人 979
甚微 979
简直 979
郭@@ 979
ET@@ 978
下于 978
叙利亚人 978
增派 978
岸@@ 978
略微 978
要说 978
采 978
采矿业 978
Cas@@ 977
itt@@ 977
lin 977
包机 977
四条 977
摊@@ 977
格雷 977
电影节 977
直属 977
第七十三 977
贸易条件 977
这应 977
498 976
Can@@ 976
上来 976
增援 976
失散 976
总和 976
推选 976
朴@@ 976
矩阵 976
获得性 976
阿布@@ 976
雅温得 976
920 975
ings 975
五位 975
信赖 975
千百万 975
国产 975
普里 975
皮埃尔 975
科夫 975
葬 975
要是 975
进口商 975
514 974
CN.5 974
促@@ 974
偷渡 974
向本 974
沿用 974
照护 974
诠释 974
闯入 974
49% 973
偏好 973
具体来说 973
冻结资产 973
到访 973
医学院 973
夸大 973
挑@@ 973
浮动 973
电子产品 973
竟然 973
苹果公司 973
血腥 973
表二 973
雅克 973
461 972
468 972
och@@ 972
仓储 972
任满 972
办公@@ 972
基尔 972
大自然 972
婚姻法 972
开车 972
联机 972
胆@@ 972
1514 971
L.53 971
Rad@@ 971
č 971
中曾 971
学前 971
并列 971
式@@ 971
待审 971
渔业资源 971
犯罪率 971
计算机化 971
该报 971
6.7 970
COP.1 970
人应 970
家务劳动 970
探矿 970
狩猎 970
薄弱环节 970
1500 969
Pa@@ 969
abi 969
公民自由 969
分队 969
合用 969
塔什 969
律师@@ 969
所订 969
泰国政府 969
胡安 969
454 968
511 968
L.45 968
东北亚 968
伊斯 968
最高@@ 968
纳克 968
锁 968
马尔 968
一把 967
中约 967
再接再厉 967
啊 967
尘@@ 967
移植 967
苦 967
送入 967
9.1 966
Sou@@ 966
副总裁 966
尽可能减少 966
应负 966
用意 966
碎@@ 966
第七十届 966
认明 966
银河 966
iro 965
医 965
原型 965
填补空缺 965
射入 965
第六@@ 965
船队 965
718 964
Da@@ 964
三家 964
它@@ 964
平息 964
操@@ 964
末@@ 964
物件 964
规程 964
陆路 964
魁北克 964
别墅 963
副产品 963
动向 963
布拉格 963
氯烃 963
现代@@ 963
突发 963
联苯 963
谎言 963
财物 963
隧道 963
476 962
办公楼 962
埃米尔 962
柏@@ 962
残障 962
科斯 962
节中 962
金融工具 962
54% 961
一书 961
严重不足 961
人员配备 961
先是 961
化肥 961
宵禁 961
强国 961
必需品 961
新举措 961
新机制 961
625 960
Inspira 960
伏@@ 960
医保 960
吊@@ 960
外交事务 960
打印 960
无线电台 960
毛利 960
社会变革 960
441 959
9.2 959
XXVI 959
使用寿命 959
接轨 959
架@@ 959
相互间 959
而异 959
迈 959
431 958
484 958
L.47 958
保密性 958
基金项目 958
头发 958
席@@ 958
灰色 958
频@@ 958
Bor@@ 957
交火 957
充资 957
全日制 957
处方 957
奥斯@@ 957
小学生 957
招 957
捷@@ 957
时为 957
浴室 957
竞争者 957
膳食 957
自备 957
谷@@ 957
隔绝 957
Pat@@ 956
交涉 956
务虚会 956
卜@@ 956
妇 956
水井 956
海岸线 956
理会 956
第十@@ 956
葡语 956
该地 956
长期有效 956
争执 955
售@@ 955
国际联盟 955
容 955
索马里人 955
缘 955
荡 955
逐案 955
随之而来 955
Ari@@ 954
以色列国 954
候审 954
卡斯 954
地方性 954
地板 954
待定 954
扩@@ 954
投保 954
用地 954
这本 954
逃跑 954
Fa@@ 953
供应品 953
哥伦比亚大学 953
挣扎 953
期货 953
湿 953
维多利亚 953
1591 952
9.3 952
二次 952
任一 952
发言稿 952
寺 952
悲痛 952
攻势 952
被遗弃 952
青年@@ 952
.... 951
Reg@@ 951
中亚国家 951
儿童@@ 951
先驱 951
建模 951
捕 951
无所@@ 951
验收 951
495 950
mar@@ 950
偏高 950
六氯 950
卡扎菲 950
治罪 950
现成 950
用具 950
第二十一条 950
第十八次 950
继而 950
长者 950
首府 950
479 949
uri 949
洞 949
监 949
第十三 949
起步 949
Mahmoud 948
代表处 948
别无选择 948
拒@@ 948
撤退 948
牢 948
穷@@ 948
粮食供应 948
纵容 948
银行家 948
集体@@ 948
472 947
Tor@@ 947
一例 947
不成 947
优良 947
局局长 947
巴士拉 947
建和办 947
循序渐进 947
液@@ 947
热点 947
组和 947
能见度 947
计算机设备 947
酬金 947
Organization 946
han 946
唯@@ 946
应同 946
租户 946
自由派 946
5.7 945
633 945
ole 945
像@@ 945
再生 945
周年纪念 945
回事 945
模仿 945
牵连 945
环己烷 945
生物资源 945
第二十七条 945
37.@@ 944
CONF.2010 944
军民 944
发病 944
安哥拉政府 944
师资 944
斯顿 944
期末 944
灵感 944
牵涉 944
该名 944
请愿书 944
贸@@ 944
L.44 943
SB 943
不曾 943
减让 943
友@@ 943
庆@@ 943
水量 943
消防@@ 943
美丽 943
马普托 943
Don@@ 942
MA 942
pp@@ 942
世界旅游组织 942
具体做法 942
割@@ 942
国际公法 942
大得多 942
家庭环境 942
拉尼 942
未爆 942
警察局长 942
轻罪 942
黄 942
yn 941
举例来说 941
交换所 941
司法权 941
器材 941
地处 941
看成 941
第十二 941
练 941
继承人 941
订阅 941
辩论会 941
饲养 941
马伊 941
980 940
ndez 940
专栏 940
埃尔比勒 940
护 940
枪杀 940
舒适 940
裁量权 940
Alma 939
Cam@@ 939
一路 939
星期日 939
检察署 939
五大 938
从不 938
稻米 938
蓬勃发展 938
讲坛 938
败@@ 938
518 937
CTOC 937
aff@@ 937
世代 937
哈里里 937
水下 937
科托努 937
赞助者 937
韩国政府 937
452 936
502 936
63% 936
HS 936
ical 936
oy 936
yan 936
书店 936
妥 936
对账 936
幻想 936
死去 936
水坝 936
汤@@ 936
章@@ 936
若干年 936
落实工作 936
GC.22 935
Sul@@ 935
不大 935
亨利 935
优于 935
技术创新 935
择 935
提示 935
无限 935
有违 935
牵@@ 935
电视会议 935
繁忙 935
该州 935
龄 935
1521 934
摊 934
是@@ 934
班级 934
仿佛 933
工作室 933
拉夫 933
无线 933
核生化 933
第三份 933
签约 933
而论 933
联系人 933
492 932
58% 932
XXI 932
墓地 932
第三类 932
签订合同 932
达累斯萨拉姆 932
sky 931
伸@@ 931
俄国 931
凭@@ 931
损毁 931
残害 931
管理条例 931
赖@@ 931
还须 931
Party 930
内尔 930
刑事法 930
楼房 930
玛丽亚 930
第比利斯 930
自下而上 930
舞 930
莱德 930
饰演 930
首选 930
522 929
733 929
之地 929
协同效应 929
土地@@ 929
士气 929
宏大 929
灾 929
独裁 929
瓦拉 929
管制系统 929
躲避 929
459 928
○ 928
中转 928
在册 928
学士 928
尔顿 928
爆@@ 928
翻了一番 928
鼓动 928
99% 927
Ni@@ 927
不算 927
中学生 927
人民党 927
国际航空 927
年青人 927
悬@@ 927
符号 927
胶@@ 927
551 926
67% 926
Hab@@ 926
enko 926
仓 926
出价 926
同学 926
微波 926
总付 926
散居 926
特拉 926
王子 926
维亚 926
481 925
830 925
89.@@ 925
XIX 925
历时 925
妨害 925
弗里@@ 925
榴弹 925
法定@@ 925
索要 925
跌 925
重审 925
Des@@ 924
Kafr 924
婚礼 924
幕 924
慰问 924
才@@ 924
检讨 924
济@@ 924
示 924
诱惑 924
连通性 924
遗忘 924
凶@@ 923
戒毒 923
母国 923
着陆 923
耕地 923
茨@@ 923
财务处 923
音像 923
Global 922
侵占 922
几起 922
酸化 922
umb@@ 921
值得称赞 921
利斯 921
器@@ 921
壮@@ 921
摊派 921
滋生 921
示威游行 921
凭单 920
列述 920
小镇 920
巴尔 920
市议会 920
裂 920
贡 920
迷 920
错过 920
534 919
YouTube 919
中间商 919
军控 919
复查 919
婴幼儿 919
尼日利亚政府 919
罚 919
饲料 919
1390 918
Bill 918
周刊 918
害@@ 918
弟弟 918
时要 918
派对 918
猛@@ 918
议席 918
送给 918
1503 917
Wh@@ 917
人口@@ 917
掩饰 917
有近 917
标志性 917
礁 917
继任者 917
联合@@ 917
行者 917
491 916
Str@@ 916
以东 916
发来 916
定论 916
年长 916
戈兰高地 916
权责 916
标示 916
社会阶层 916
简述 916
表态 916
规模较 916
警戒 916
谋杀罪 916
谨@@ 916
499 915
com@@ 915
举例说明 915
依旧 915
其余部分 915
包裹 915
卫生部长 915
平均工资 915
氯@@ 915
珍视 915
跳 915
迫@@ 915
449 914
960 914
GGE 914
Office 914
低碳 914
卫士 914
大意 914
孤身 914
提款权 914
比较@@ 914
脂肪 914
辱 914
还称 914
471 913
Antonio 913
Bh@@ 913
专制 913
卜拉希米 913
四天 913
布干维尔 913
总长 913
拨@@ 913
焦@@ 913
称道 913
突击 913
英国@@ 913
营养状况 913
都@@ 913
顶@@ 913
482 912
496 912
ere 912
不切实际 912
倾斜 912
学说 912
数周 912
蓬@@ 912
贸 912
达巴 912
531 911
556 911
俗 911
壮大 911
巴德 911
庄园 911
泡 911
甘 911
象牙 911
62% 910
767 910
oon 910
克莱 910
募集 910
另据 910
可喜 910
塔什干 910
庭@@ 910
所负 910
易卜拉欣 910
条下 910
疑 910
高科技 910
555 909
CP@@ 909
L.46 909
Sah@@ 909
乱伦 909
供应量 909
兄弟姐妹 909
加之 909
德语 909
维吾尔 909
衡量标准 909
足迹 909
首要任务 909
790 908
取而代之 908
另一家 908
奏效 908
挪@@ 908
石油换 908
组装 908
职业道德 908
艾德 908
蒂斯 908
辆车 908
预留 908
462 907
464 907
化学物质 907
叙级 907
墨@@ 907
很强 907
性病 907
怪@@ 907
片剂 907
第一手 907
仿@@ 906
克里@@ 906
分化 906
商谈 906
太过 906
岩 906
电视剧 906
订有 906
随机 906
516 905
名下 905
在座 905
急 905
推向 905
数字@@ 905
监测中心 905
答应 905
薄@@ 905
转基因 905
Mut@@ 904
出版商 904
反对者 904
扼要 904
法律@@ 904
登录 904
米纳 904
高技术 904
Rom@@ 903
做过 903
受限 903
处理@@ 903
总价值 903
流传 903
电影@@ 903
闻名 903
463 902
RS 902
amp@@ 902
iz 902
产能 902
任地 902
何 902
同酬 902
工时 902
摩托车 902
生态@@ 902
生态旅游 902
管理机制 902
萧条 902
译文 902
边远 902
pp 901
劫@@ 901
勤@@ 901
流出 901
济 901
生活状况 901
第十九次 901
适应能力 901
高空 901
PCNICC 900
ula 900
丹尼尔 900
主意 900
场@@ 900
年收入 900
扫除 900
撞 900
法律条文 900
注定 900
男女比例 900
益 900
经销商 900
良 900
默认 900
504 899
bi 899
五角大楼 899
广告@@ 899
忠于 899
数十亿美元 899
牛奶 899
肉体 899
行驶 899
雨@@ 899
548 898
715 898
EC@@ 898
Gal@@ 898
IMF 898
下一阶段 898
亚人 898
名是 898
回升 898
天文学 898
忍@@ 898
拍照 898
激@@ 898
爱滋病 898
珠@@ 898
第三十一条 898
经典 898
逝世 898
493 897
ison 897
呈现出 897
圈@@ 897
昂@@ 897
普通@@ 897
汁 897
沙姆沙伊赫 897
荒漠 897
1747 896
Sk@@ 896
地铁 896
巴斯 896
拟出 896
渔管 896
第二十三 896
财务科 896
佩林 895
创纪录 895
利亚@@ 895
厚 895
另一人 895
执业 895
敏 895
机队 895
通信卫星 895
阿族 895
附加条件 895
Zh@@ 894
ake 894
佛 894
勇@@ 894
听询 894
床位 894
或经 894
扔 894
招致 894
文化背景 894
物力 894
犯罪案件 894
请参阅 894
顾虑 894
States 893
wan 893
两点 893
之家 893
协约 893
小麦 893
欺凌 893
残留 893
灭@@ 893
艺术@@ 893
行政命令 893
494 892
WG.1 892
以西 892
创下 892
捐献 892
生活@@ 892
890 891
HA@@ 891
Sil@@ 891
一门 891
不同寻常 891
击败 891
十大 891
发送给 891
少年儿童 891
热门 891
神经@@ 891
腾出 891
自主性 891
裁员 891
返@@ 891
返国 891
Comm@@ 890
iPad 890
便会 890
岌岌可危 890
文在寅 890
调查局 890
预支 890
餐饮 890
870 889
借款人 889
八项 889
取证 889
固定资产 889
国际舞台 889
尖锐 889
广岛 889
序列 889
文档 889
极易 889
相互依赖 889
能源部 889
趋向 889
这支 889
金矿 889
高频 889
575 888
Wat@@ 888
ations 888
书中 888
交易@@ 888
历年 888
孟加拉 888
战略重点 888
民调 888
湄公河 888
源@@ 888
逃往 888
闭@@ 888
露天 888
1953 887
Ku@@ 887
gh@@ 887
从此 887
偏袒 887
军事演习 887
口岸 887
可受 887
听力 887
尔格 887
检查@@ 887
特尔 887
静 887
高标准 887
31.@@ 886
Nic@@ 886
实实在在 886
欧洲法院 886
第一夫人 886
荒谬 886
访客 886
Bi@@ 885
主编 885
全面实现 885
符合国家 885
该所 885
跌@@ 885
驱@@ 885
鲜@@ 885
571 884
Jr 884
ois 884
与此相反 884
克朗 884
卡利 884
强力 884
性交 884
括号 884
肥胖 884
自该 884
补偿金 884
阐释 884
Health 883
各种类型 883
呈文 883
咖啡@@ 883
已达 883
库什 883
精神病院 883
职业者 883
虽说 883
验@@ 883
ag 882
ales 882
乃是 882
区域化 882
咨询中心 882
律 882
浓@@ 882
竣工 882
英寸 882
详细分析 882
But@@ 881
从业 881
堆@@ 881
弗朗索瓦 881
忧@@ 881
或愿 881
手里 881
改装 881
本函 881
福岛 881
缺水 881
舞蹈 881
赶上 881
阿拉@@ 881
雾 881
538 880
Tom@@ 880
军事顾问 880
密切注意 880
展览会 880
稳健 880
诊 880
资金短缺 880
队@@ 880
Est@@ 879
Gonz 879
oa 879
亦可 879
人能 879
四人 879
带头作用 879
抓获 879
新颖 879
稀@@ 879
自上 879
雄@@ 879
508 878
66@@ 878
743 878
CRP.4 878
Rod@@ 878
之声 878
合法利益 878
城市贫民 878
头衔 878
强奸案 878
来函 878
氧化@@ 878
登记簿 878
精神疾病 878
缓减 878
郡 878
546 877
书写 877
好战 877
屋@@ 877
排挤 877
救 877
注册@@ 877
狱@@ 877
珠宝 877
矿区 877
罐@@ 877
马尔维纳斯 877
46@@ 876
539 876
94.@@ 876
CN@@ 876
IP@@ 876
兆 876
兴奋 876
军舰 876
游击队 876
贷项 876
940 875
Tel@@ 875
illa 875
oud 875
乌兹别克 875
仅次于 875
台风 875
威德 875
恶 875
拉丹 875
犹太教 875
萎缩 875
顾@@ 875
106.@@ 874
489 874
BWC 874
Jong 874
Si@@ 874
que 874
书面材料 874
保健@@ 874
吉尔吉斯斯坦共和国 874
国家有关 874
当做 874
影子 874
情愿 874
散播 874
瓦德 874
集中力量 874
L.52 873
St 873
aba 873
ald 873
与此相关 873
分离主义 873
曾于 873
附于 873
驻外 873
585 872
使用量 872
围墙 872
平均年龄 872
概率 872
正视 872
涨 872
球员 872
警觉 872
财政困难 872
阳@@ 872
降解 872
非成员国 872
519 871
able 871
cl@@ 871
伙伴国 871
向上 871
商业部门 871
总而言之 871
最穷 871
耗时 871
联合国安理会 871
选择地 871
世界遗产 870
但据 870
协调性 870
大地 870
失学 870
审计长 870
巴勒莫 870
探测器 870
教导 870
珊瑚 870
逆向 870
钻井 870
顺 870
38@@ 869
527 869
603 869
ney 869
八条 869
始@@ 869
开普敦 869
拳@@ 869
疗@@ 869
给@@ 869
自尊 869
贸易商 869
隔离区 869
出口@@ 868
原件 868
吓@@ 868
战线 868
斯科特 868
残 868
追溯到 868
集中营 868
College 867
Hum@@ 867
内塔尼亚胡 867
制定方案 867
埃拉 867
工地 867
操作系统 867
耽搁 867
茶@@ 867
被称作 867
革@@ 867
魔@@ 867
746 866
ien 866
伯利恒 866
典礼 866
加里 866
十分复杂 866
总的说来 866
手续费 866
抛@@ 866
拉马拉 866
洛夫 866
穷 866
第五个 866
索尼 866
需在 866
事务股 865
凶手 865
刻@@ 865
图象 865
磨@@ 865
规划@@ 865
赡养费 865
EN@@ 864
guez 864
复合 864
学龄前 864
强加于 864
碰到 864
纸张 864
页数 864
ans 863
ier@@ 863
哲 863
奋@@ 863
懂得 863
改写 863
日及 863
最高层 863
通力合作 863
不驱 862
世俗 862
仁 862
代行 862
关系@@ 862
接生 862
斯塔@@ 862
日间 862
采购计划 862
驶@@ 862
oni 861
只应 861
呼吸道 861
固然 861
大火 861
柬 861
王室 861
贝卡 861
领导职务 861
50.@@ 860
Mont@@ 860
Smith 860
东区 860
储量 860
助产 860
岩@@ 860
强制措施 860
摸@@ 860
洁 860
眼中 860
职业病 860
Id@@ 859
Kab@@ 859
WP 859
中度 859
培@@ 859
家用 859
格雷@@ 859
秘鲁政府 859
第二十二条 859
结壳 859
能源需求 859
防止出现 859
饼 859
Kor@@ 858
ash 858
oor 858
zi 858
协@@ 858
可预见性 858
吉塞 858
师@@ 858
店@@ 858
玛伊 858
约束性 858
貌 858
Pro.@@ 857
一如 857
互不 857
卓@@ 857
复国主义 857
机械@@ 857
艺 857
避免出现 857
772 856
COM.2 856
两院 856
依循 856
又称 856
大街 856
夺走 856
碰@@ 856
计划@@ 856
勉强 855
史无前例 855
生动 855
破伤风 855
473 854
48.@@ 854
517 854
552 854
69@@ 854
comm@@ 854
六周 854
定点 854
帽 854
建筑群 854
开具 854
总统府 854
拔@@ 854
灭 854
瑞安 854
迈阿密 854
公用 853
塔吉克斯坦共和国 853
测验 853
石块 853
祸患 853
翻 853
长期性 853
567 852
Muh@@ 852
不停 852
制宪会议 852
客机 852
评为 852
诺言 852
选手 852
采伐 852
境遇 851
好事 851
投放 851
日益加剧 851
筹@@ 851
裁武 851
诈骗 851
辅助性 851
HSP 850
ID 850
IN 850
ej@@ 850
全方位 850
增建 850
极少数 850
那儿 850
535 849
Bah@@ 849
Dec@@ 849
ili 849
专有 849
俄罗斯联邦政府 849
几分钟 849
孟@@ 849
幸@@ 849
成份 849
津@@ 849
渔具 849
迈尔 849
AM@@ 848
ins 848
ito 848
ius 848
上期 848
水中 848
沙特阿拉伯王国 848
Maj@@ 847
und 847
两党 847
佳@@ 847
司令 847
囊括 847
困难重重 847
奥斯卡 847
相邻 847
硕士学位 847
社发 847
豪华 847
迪士尼 847
Pe@@ 846
der@@ 846
亚斯 846
从属 846
售出 846
玻璃@@ 846
第十二章 846
迪奥 846
Mb@@ 845
Tall 845
aj 845
yl@@ 845
二十 845
塞米 845
斯托 845
族@@ 845
直 845
省政府 845
简洁 845
联合国教科文组织 845
聚 845
融@@ 845
长处 845
Jam@@ 844
SAICM 844
分数 844
名新 844
基尔库克 844
学龄儿童 844
敦 844
柔@@ 844
逃税 844
钟@@ 844
青睐 844
esh 843
org@@ 843
伊拉 843
同谋 843
库尔德人 843
总能 843
每份 843
脱贫 843
证明书 843
铺设 843
高盛 843
CP.@@ 842
Mit@@ 842
两所 842
伍@@ 842
冲 842
各有不同 842
圆满完成 842
尖@@ 842
承担义务 842
欠发达 842
该区 842
丹麦政府 841
人文 841
别处 841
可悲 841
已久 841
报废 841
相差 841
绕过 841
边界线 841
酮 841
银行贷款 841
非官方 841
Kir@@ 840
伟@@ 840
多久 840
抓@@ 840
数项 840
旋转翼 840
染@@ 840
涅@@ 840
滋@@ 840
甚高频 840
49.@@ 839
乡镇 839
公设辩护 839
创业者 839
双边协议 839
发扬 839
大肆 839
属@@ 839
拉克 839
校舍 839
现值 839
现役 839
真理 839
经济犯罪 839
角落 839
贷@@ 839
非常复杂 839
523 838
L.51 838
ette 838
利纳 838
国与国 838
失灵 838
抱负 838
拮据 838
电力@@ 838
祖先 838
膜 838
贫民区 838
重大事件 838
长期@@ 838
Add.9 837
农用 837
团体之间 837
新闻社 837
油气 837
科伦坡 837
货币联盟 837
革命@@ 837
692 836
GA 836
elle 836
不道德 836
供应方 836
停火线 836
基本@@ 836
对外贸易 836
巴伦西亚 836
日到 836
有意思 836
混凝土 836
社会关系 836
装甲运兵车 836
1160 835
Add.11 835
促 835
儿童教育 835
哥哥 835
实用性 835
平均@@ 835
搬运 835
摆 835
脉 835
赞 835
面包 835
76.@@ 834
Bir@@ 834
Tre@@ 834
个人资料 834
伤员 834
债务国 834
决策人员 834
前身 834
同伙 834
悠久 834
成瘾 834
扎根 834
碍 834
赶走 834
迎来 834
马库 834
573 833
66% 833
介于 833
公平性 833
午@@ 833
博览会 833
可达 833
困@@ 833
斯科@@ 833
涅 833
生活费用 833
赛义德 833
金戈 833
4.9 832
Lab@@ 832
不断更新 832
亚美尼亚人 832
停职 832
努美阿 832
四处 832
市场机制 832
布什总统 832
砖 832
西区 832
载人 832
邻@@ 832
Capital 831
OP 831
互信 831
生物量 831
监督员 831
纪念@@ 831
辞去 831
533 830
Du@@ 830
ni 830
其他费用 830
兼任 830
副手 830
国务部长 830
客车 830
提早 830
改成 830
环境因素 830
美食 830
驱散 830
Hay@@ 829
Khal@@ 829
Shah@@ 829
Sin@@ 829
ury 829
勃@@ 829
夏威夷 829
奎 829
导师 829
罪责 829
近乎 829
驱动力 829
582 828
777 828
任意性 828
刀@@ 828
十国集团 828
多功能 828
怪 828
控制区 828
智 828
肉类 828
豆 828
ori 827
中小 827
保障人权 827
前次 827
复印件 827
诸位 827
财政危机 827
责@@ 827
贬低 827
迎@@ 827
Naqurah 826
net 826
丧@@ 826
乌萨马 826
分机 826
原理 826
受到破坏 826
吉尔 826
喂养 826
喜爱 826
外交大臣 826
特别感谢 826
筹办 826
邮票 826
阿鲁巴 826
露出 826
3.5% 825
Jab@@ 825
Ur@@ 825
⑶ 825
交互 825
伽利略 825
坏@@ 825
定购 825
审判程序 825
显现 825
案卷 825
荷属 825
赡养 825
震@@ 825
Nav@@ 824
军事法院 824
参赞 824
奶@@ 824
布鲁@@ 824
很广 824
摄@@ 824
摄入 824
斯坦@@ 824
比起 824
肆虐 824
AK 823
噪音 823
属实 823
红色高棉 823
能源技术 823
警察署 823
该书 823
避@@ 823
那位 823
564 822
冒犯 822
利益集团 822
合同条款 822
年增长率 822
并存 822
经济秩序 822
绘画 822
谢里夫 822
XVIII 821
ger 821
优步 821
保留地 821
几百@@ 821
切入点 821
取自 821
性保健 821
盟 821
眼镜 821
礼品 821
自动@@ 821
获得者 821
装卸 821
重演 821
.5 820
572 820
BC 820
Jar@@ 820
rig@@ 820
以新 820
低价 820
克里姆林宫 820
女王 820
无证 820
极好 820
洋 820
股本 820
默示 820
CM@@ 819
als 819
uti@@ 819
一年一度 819
两国关系 819
内部@@ 819
双向 819
坚实基础 819
有增无减 819
比亚 819
法律委员会 819
迁@@ 819
运动@@ 819
音乐会 819
601 818
COP.9 818
事务@@ 818
分解 818
同该 818
投降 818
新西兰政府 818
识 818
道义上 818
金斯克 818
阳光 818
97% 817
ie@@ 817
光明 817
垂直 817
常设机构 817
极限 817
构造 817
源头 817
算是 817
结尾 817
考古 817
胸@@ 817
认真对待 817
遗漏 817
583 816
AS 816
不然 816
佩戴 816
做生意 816
哺乳动物 816
天花板 816
峰值 816
强奸罪 816
有害物质 816
消费@@ 816
第一组 816
读书 816
通则 816
35.@@ 815
748 815
MI 815
SG 815
公路网 815
具@@ 815
十二@@ 815
可不 815
基多 815
毕@@ 815
炸毁 815
联合公报 815
花钱 815
这一@@ 815
1888 814
536 814
出版@@ 814
咖啡馆 814
国与 814
地区性 814
就业人数 814
干旱地区 814
挂@@ 814
教义 814
旅程 814
梁@@ 814
氯化石蜡 814
聆听 814
裂@@ 814
诱拐 814
这块 814
遇难 814
Abdel 813
Bad@@ 813
万达 813
仍应 813
埋设 813
控股 813
搭配 813
旗舰 813
样板 813
Business 812
Int@@ 812
专门从事 812
人种 812
具体内容 812
埋 812
尽责 812
更难 812
活着 812
疑@@ 812
研究@@ 812
磷 812
科威特国 812
自有 812
透明性 812
阈值 812
Ah@@ 811
Ap@@ 811
Oliv@@ 811
仁@@ 811
化验 811
历史学家 811
引诱 811
弱@@ 811
新闻媒介 811
格里 811
百分之@@ 811
联危 811
自然@@ 811
陷入僵局 811
eta 810
完全一致 810
撤军 810
海洋污染 810
虫害 810
近距离 810
顺利完成 810
五人 809
代管 809
巴西利亚 809
指导@@ 809
旅行者 809
明文 809
电脑@@ 809
盘点 809
胜诉 809
高等院校 809
568 808
64% 808
810 808
ook 808
保险法 808
母公司 808
迁至 808
通风 808
释@@ 808
Air 807
Bat@@ 807
Jos@@ 807
ect 807
危地马拉政府 807
外出 807
庞@@ 807
摘录 807
正直 807
简编 807
翼 807
701 806
864 806
old 806
专业技能 806
五国 806
企业@@ 806
停车 806
墙上 806
已为 806
布设 806
忠@@ 806
打下 806
服贸 806
疑似 806
第四款 806
访@@ 806
诗 806
超市 806
阿斯马拉 806
一大批 805
上诉人 805
关系法 805
己 805
恩斯 805
治愈 805
珀 805
珀@@ 805
途 805
外科 804
孟买 804
属地 804
怂恿 804
担@@ 804
日程表 804
盐类 804
积极分子 804
缩 804
能源价格 804
裤 804
账务 804
赖斯 804
61% 803
Moh@@ 803
TP@@ 803
lo 803
人民代表 803
伪@@ 803
哈拉 803
征集 803
政局 803
涌现 803
源泉 803
硝@@ 803
追随者 803
Convention 802
Ma 802
加入书 802
实质问题 802
捐@@ 802
数据系统 802
整顿 802
泛非 802
过渡阶段 802
风能 802
528 801
Kur@@ 801
乐意 801
典@@ 801
前后一致 801
加倍 801
经济繁荣 801
育龄妇女 801
背 801
自杀式 801
邮寄 801
配量 801
1803 800
38.@@ 800
WFP 800
于本 800
出人意料 800
孤儿院 800
未知 800
根基 800
洲 800
电讯 800
脂 800
见于 800
贫困地区 800
阿姆 800
预见到 800
齐心协力 800
先锋 799
农村居民 799
原则立场 799
国际妇女节 799
备抵 799
废水处理 799
机组人员 799
桑德斯 799
洪 799
荣@@ 799
还给 799
这时 799
634 798
79.@@ 798
917 798
Edward 798
买受人 798
俗@@ 798
保费 798
几类 798
华人 798
期权 798
海面 798
滕 798
立即行动 798
598 797
Bern@@ 797
IPBES 797
los 797
两侧 797
争取和平 797
出路 797
城市@@ 797
捉@@ 797
斯克 797
李克强 797
矿工 797
缴获 797
胶 797
逐个 797
钦@@ 797
..... 796
542 796
Kon@@ 796
Luc@@ 796
刚果人 796
岁月 796
待决 796
漂亮 796
矿产资源 796
肥 796
赌场 796
项目表 796
0.1 795
562 795
604 795
ODP 795
上映 795
两国间 795
主宰 795
了结 795
亦@@ 795
位居 795
充分说明 795
基层组织 795
宇航 795
当下 795
心血管 795
手无寸铁 795
法证 795
蒂尔 795
采行 795
591 794
731 794
侵略者 794
减债 794
得当 794
擅自 794
收缩 794
施加影响 794
最高级 794
知情权 794
运输工具 794
避税 794
釜山 794
579 793
68% 793
930 793
上去 793
主角 793
尼察 793
广州 793
期盼 793
浆 793
澳大利亚人 793
痛惜 793
程@@ 793
财政管理 793
近日 793
645 792
Abdullah 792
三边 792
严酷 792
况 792
分配原则 792
受邀 792
多氯 792
密不可分 792
展现出 792
必定 792
恐怖行动 792
整整 792
漂@@ 792
缓 792
肩@@ 792
蒙巴萨 792
谢尔盖 792
COP.5 791
ous@@ 791
人次 791
告终 791
复议 791
实用@@ 791
扎齐 791
施用 791
牢@@ 791
诱@@ 791
非加太 791
549 790
616 790
CER 790
COP.6 790
Ke@@ 790
Pro 790
erson 790
ult@@ 790
书面通知 790
德意志联邦共和国 790
暴跌 790
睡觉 790
诺贝尔和平奖 790
连锁 790
降雨 790
11@@ 789
128.@@ 789
两地 789
二读 789
享@@ 789
从来不 789
前方 789
原子弹 789
帕特里克 789
无法@@ 789
深层 789
烈@@ 789
监测员 789
第一副 789
转播 789
过滤 789
594 788
L.55 788
不加 788
不能不 788
固定@@ 788
多伦多 788
局域网 788
斯蒂芬 788
遍及 788
非洲法郎 788
643 787
7.6 787
72% 787
BDE 787
Fin@@ 787
Tah@@ 787
ato 787
丰厚 787
共同财产 787
厂商 787
国境 787
国家银行 787
堪称 787
妇幼保健 787
排减 787
斯特拉斯堡 787
核威胁 787
澳门特区 787
肩负 787
蛋白质 787
行贿 787
563 786
Bon@@ 786
Foundation 786
先令 786
全面@@ 786
出面 786
可再生 786
天空 786
怀 786
教唆 786
游牧 786
目光 786
穆尔 786
耗尽 786
迪亚 786
道德@@ 786
561 785
7.5% 785
Mot@@ 785
啤酒 785
堂@@ 785
声望 785
外籍人 785
娱乐活动 785
尔曼 785
尼奥 785
斯蒂@@ 785
独特性 785
称职 785
般 785
通缉 785
酱 785
32.@@ 784
House 784
Mun@@ 784
传票 784
低级 784
出对 784
卵@@ 784
埃及政府 784
审判权 784
悼念 784
景象 784
第十四 784
莎@@ 784
萨格勒布 784
音乐@@ 784
XI 783
XXV 783
令人发指 783
发展@@ 783
多元性 783
帕克 783
慢性病 783
战略意义 783
拒绝给予 783
朴 783
登记@@ 783
零票 783
71% 782
8.4 782
Zah@@ 782
克莱@@ 782
公共资源 782
号案 782
合同法 782
梅尔 782
法塔赫 782
率高 782
碳氢化合物 782
该分 782
这三项 782
587 781
ë 781
不许 781
专业@@ 781
书面报告 781
人造 781
养老 781
同比 781
搜索引擎 781
相机 781
行星 781
解职 781
违法者 781
都灵 781
问答 781
39.@@ 780
578 780
Bet@@ 780
IR 780
Union 780
区域@@ 780
合作者 780
圣何塞 780
夺@@ 780
如对 780
小节 780
既定目标 780
机动车辆 780
桌子 780
欧统局 780
河内 780
物色 780
犬 780
突袭 780
维吾尔族 780
节奏 780
闹 780
饭@@ 780
1930 779
558 779
Muk@@ 779
东道主 779
婴 779
政治局 779
普罗@@ 779
构成犯罪 779
泛@@ 779
积 779
罗安达 779
547 778
App@@ 778
L.57 778
Salman 778
uch@@ 778
不太@@ 778
停止使用 778
共同商定 778
内乱 778
军政府 778
外派 778
安宁 778
宋@@ 778
怀有 778
教育者 778
权重 778
气象卫星 778
灰 778
经商 778
1284 777
4000 777
Alexander 777
ank@@ 777
伊特 777
六方会谈 777
分裂主义 777
取用 777
大豆 777
宝石 777
林地 777
格伦 777
民事责任 777
美援 777
过大 777
降低成本 777
驱虫 777
4.5% 776
541 776
544 776
Cap@@ 776
Ot@@ 776
SU@@ 776
倾弃 776
可得 776
各节 776
外交@@ 776
岗 776
帐款 776
平稳过渡 776
掩护 776
模特 776
毫不含糊 776
氢@@ 776
股票市场 776
谢意 776
陷阱 776
鼓@@ 776
553 775
位数 775
国名 775
急于 775
杂 775
村子 775
比如说 775
阻力 775
隐含 775
815 774
Vol@@ 774
ele 774
ith@@ 774
不断加强 774
产业@@ 774
住宅区 774
分类账 774
印刷品 774
吸取经验 774
宁愿 774
弥@@ 774
牛津 774
票房 774
酸盐 774
846 773
Had@@ 773
L.54 773
evi 773
ika 773
─ 773
不迟于 773
伤亡人数 773
对以 773
技术设备 773
桌面 773
浅 773
科米 773
自由行动 773
诗@@ 773
配方 773
584 772
eri 772
临时代办 772
乔布斯 772
习 772
冠@@ 772
减低 772
可得性 772
可追溯 772
对准 772
己@@ 772
擅长 772
智囊团 772
独有 772
电报 772
第四项 772
证言 772
问到 772
高潮 772
Kan@@ 771
ga 771
ions 771
乎 771
伊丽莎白 771
安倍 771
征服 771
托雷斯 771
方都 771
查谟 771
欠@@ 771
炎 771
琼斯 771
石头 771
获奖 771
Hussein 770
ath 770
从速 770
冠 770
利伯维尔 770
四国 770
外来@@ 770
已同 770
弗兰克 770
恐怖集团 770
拷打 770
林业部门 770
死于 770
现时 770
财团 770
领导权 770
3.9 769
37@@ 769
CT@@ 769
Hor@@ 769
iss 769
国家标准 769
搭建 769
泄 769
特别法 769
畜牧 769
睡@@ 769
香蕉 769
82% 768
AF@@ 768
Add.12 768
Dan@@ 768
东方省 768
其向 768
加以改进 768
抄@@ 768
教学方法 768
日以 768
欧洲央行 768
正确方向 768
炸伤 768
电厂 768
监测@@ 768
经营@@ 768
行为@@ 768
连接起来 768
阻挡 768
Andrew 767
aev 767
单项 767
古巴人 767
妇女运动 767
安大略省 767
幕@@ 767
扰 767
方案设计 767
环球 767
联络员 767
蒙古国 767
鸟类 767
5.8 766
供餐 766
变数 766
基调 766
嫁妆 766
本金 766
杰夫 766
正由 766
氯氟烃 766
油漆 766
潮@@ 766
灾民 766
艺@@ 766
观测站 766
败 766
36.@@ 765
554 765
559 765
Bos@@ 765
Il@@ 765
Nt@@ 765
Trans@@ 765
ze 765
中心@@ 765
人心 765
以下几点 765
任职期间 765
冷 765
卢布 765
宽恕 765
恰恰相反 765
成文法 765
换算 765
法则 765
浅@@ 765
特兰 765
至上 765
EB 764
L.56 764
Sur@@ 764
一任 764
中校 764
丰度 764
会场 764
列车 764
司法警察 764
在我看来 764
悲伤 764
政界人士 764
突发事件 764
股在 764
身着 764
592 763
Haj@@ 763
Journal 763
oto 763
分局 763
加拿大人 763
南朝鲜 763
因在 763
嫁给 763
挽回 763
物价 763
租房 763
联几建 763
脱节 763
IL@@ 762
Stephen 762
仍为 762
全套 762
南半球 762
参与度 762
合力 762
哈利法 762
手下 762
晚餐 762
炸 762
福克斯 762
蹂躏 762
遗失 762
637 761
探 761
斥 761
无形资产 761
机械化 761
电子设备 761
详细审查 761
账号 761
难得 761
马哈茂德 761
524 760
Cons@@ 760
ame 760
awi 760
不分青红皂白 760
乌克兰政府 760
国民党 760
基督 760
悉尼 760
愈发 760
构思 760
核国家 760
沃尔@@ 760
砍伐森林 760
约会 760
铜@@ 760
问卷调查 760
驾驶员 760
鸡@@ 760
596 759
Fer@@ 759
Pop@@ 759
二中 759
价款 759
供选择 759
友善 759
地面站 759
废 759
怕 759
携带者 759
更糟 759
死伤 759
海法 759
漫画 759
管制法 759
精彩 759
赶 759
集中@@ 759
90.@@ 758
970 758
AN 758
EN 758
ER 758
Te@@ 758
一宗 758
亚尔 758
停产 758
凝聚 758
洲际 758
涉案 758
潘 758
联营 758
蒙得维的亚 758
言语 758
ias 757
公有 757
土地法 757
小岛 757
库克 757
损 757
牌照 757
退款 757
rah 756
反坦克 756
夹 756
始 756
对前 756
恐怕 756
查清 756
港元 756
管理费 756
计算机系统 756
针 756
615 755
78% 755
Dis@@ 755
bo 755
㈧ 755
各条 755
否 755
患@@ 755
数名 755
新版 755
牙@@ 755
稳妥 755
签定 755
调出 755
豆@@ 755
逆@@ 755
遗嘱 755
060 754
供职 754
制衡 754
城市居民 754
斯卡 754
绝不会 754
胡锦涛 754
都柏林 754
铝@@ 754
锥体 754
Bush 753
Hg 753
ep 753
中东欧 753
夫斯基 753
奔@@ 753
如期 753
德罗 753
民意调查 753
环经 753
相适应 753
网络攻击 753
联邦区 753
舰 753
TRAC 752
严格控制 752
具体@@ 752
加尔@@ 752
呈交 752
孕期 752
授 752
控方 752
民权 752
灾区 752
盗@@ 752
纹 752
脱 752
080 751
TC 751
air 751
代顿 751
催化 751
安定 751
成败 751
改用 751
攻@@ 751
横田 751
穆巴拉克 751
第一百 751
股将 751
贮存 751
通奸 751
阿特拉斯 751
Gre@@ 750
Putin 750
两期 750
基因组 750
抗拒 750
摩 750
特殊@@ 750
稳@@ 750
缩写 750
肖@@ 750
胚胎 750
评议 750
贫 750
迈克 750
颇具 750
.6 749
727 749
Bre@@ 749
Central 749
mi 749
stein 749
他称 749
会计制度 749
保护局 749
几率 749
和平时期 749
展望未来 749
工业部 749
常务 749
形状 749
怀着 749
抽象 749
探照灯 749
数以百计 749
炼油厂 749
环礁 749
电力供应 749
祝 749
米格尔 749
纯属 749
蒙特 749
融 749
非凡 749
黄色 749
781 748
DI 748
kin 748
一分 748
仍会 748
刊载 748
剪@@ 748
多半 748
大众传媒 748
工业生产 748
提供商 748
流血 748
现为 748
老化 748
西雅图 748
解放@@ 748
调查过程 748
这篇 748
通讯@@ 748
铁路网 748
609 747
AG@@ 747
净化 747
头上 747
巨大贡献 747
应征 747
性格 747
挤@@ 747
推理 747
民主运动 747
洛克 747
淹没 747
矿石 747
赔款 747
阵@@ 747
非军事 747
非常感谢 747
1.0@@ 746
809 746
RI@@ 746
Silva 746
关乎 746
卡斯特罗 746
商务@@ 746
埃里克 746
塑@@ 746
建筑工程 746
总公司 746
恢复原状 746
挨饿 746
激光 746
电话号码 746
病情 746
第二十四 746
西奥 746
首届 746
73% 745
9.4 745
万公顷 745
上方 745
单是 745
执勤 745
接获 745
涌@@ 745
让@@ 745
辅导员 745
这有 745
这比 745
100.@@ 744
589 744
Cast@@ 744
Johnson 744
Maz@@ 744
XII 744
第五十 744
纪律处分 744
羊@@ 744
非全时 744
608 743
83% 743
Sec@@ 743
便捷 743
太阳@@ 743
妮@@ 743
巴勒斯坦解放组织 743
改名 743
春 743
桌 743
电梯 743
移至 743
缉毒 743
脑 743
请假 743
543 742
od 742
先知 742
尸@@ 742
接手 742
搜救 742
数十@@ 742
文化教育 742
无核化 742
祖父 742
近期内 742
里德 742
AR 741
修女 741
妓院 741
安邦 741
德科 741
文件系统 741
电子版 741
监管者 741
私营化 741
611 740
COP.8 740
Hol@@ 740
ack 740
du 740
isc@@ 740
举报人 740
患上 740
洗 740
美利坚合众国政府 740
递 740
预选 740
566 739
632 739
Mass@@ 739
par@@ 739
严谨 739
二所列 739
优素福 739
吊销 739
坡 739
将领 739
应急行动 739
廉政 739
归根结底 739
未向 739
校内 739
消耗量 739
渐渐 739
联塔 739
船长 739
葬礼 739
走过 739
配件 739
Dav@@ 738
Mart@@ 738
NA 738
二条 738
加丹加 738
加利福尼亚 738
室@@ 738
属人 738
探望 738
斯洛文尼亚共和国 738
结局 738
装甲 738
贸易部 738
Alf@@ 737
Hel@@ 737
ip 737
交纳 737
以补 737
伸出 737
保安人员 737
同级 737
并不@@ 737
开放性 737
泡@@ 737
燃@@ 737
申请表 737
督察 737
西尔 737
贷记 737
迟于 737
风气 737
鼠 737
688 736
A.1 736
Lar@@ 736
不尽相同 736
医疗@@ 736
处所 736
多岁 736
就医 736
忘 736
打压 736
波音 736
激怒 736
糟 736
解密 736
758 735
Rob@@ 735
iel@@ 735
主要职责 735
佩尔 735
劳务市场 735
外交界 735
挂图 735
改革@@ 735
数据资料 735
早孕 735
税法 735
蛋 735
重开 735
871 734
中情局 734
儿科 734
十一大 734
国际水域 734
就业人口 734
惠 734
放下 734
旅游@@ 734
析 734
粘@@ 734
统治者 734
990 733
All@@ 733
EL@@ 733
Omar 733
ega 733
ins@@ 733
red@@ 733
严 733
中所起 733
名女 733
多尔 733
审理案件 733
查获 733
核事故 733
歌手 733
瓦斯 733
篮子 733
细 733
过量 733
689 732
92% 732
XIV 732
一中 732
五十 732
危@@ 732
唯有 732
困苦 732
国及 732
埋葬 732
寿@@ 732
应能 732
格利 732
现行政策 732
短期内 732
短期投资 732
维纳 732
该行 732
辅以 732
1200 731
706 731
87% 731
ild@@ 731
its 731
专科 731
付清 731
代之以 731
促销 731
俄罗斯政府 731
刑事@@ 731
向下 731
地段 731
大面积 731
居于 731
旁@@ 731
旋@@ 731
最迟在 731
核可@@ 731
汤姆 731
灾@@ 731
私 731
第三期 731
第二批 731
锁定 731
阿姆斯特丹 731
预 731
683 730
Adam 730
ont 730
乐团 730
书目 730
仰光 730
儿童性 730
南盟 730
厂房 730
在历史上 730
多月 730
威尔逊 730
显 730
涉足 730
诉讼@@ 730
辐照 730
雄心 730
574 729
CP.16 729
Dir@@ 729
isi 729
何人 729
场面 729
烃 729
狭义 729
秘 729
纠@@ 729
肥料 729
艇 729
要务 729
道路交通 729
部内 729
驱使 729
757 728
Federal 728
Tam@@ 728
估量 728
嘲笑 728
回籍 728
抗旱 728
效忠 728
最先 728
烈士 728
热量 728
禁核试条约 728
福利制度 728
窒息 728
重男轻女 728
Kw@@ 727
X光 727
ays@@ 727
je 727
ond 727
中非国家 727
入手 727
可变 727
哈马 727
坚强 727
备份 727
安大略 727
所能 727
授标 727
新法 727
第十五 727
经济指标 727
肆无忌惮 727
记录@@ 727
569 726
Cent@@ 726
Hillary 726
加工@@ 726
医护人员 726
哪些方面 726
年数 726
抑郁症 726
改观 726
明确要求 726
磺 726
逃亡 726
586 725
648 725
665 725
CRP.5 725
Kas@@ 725
两辆 725
它于 725
屏蔽 725
干练 725
幻 725
桌@@ 725
绳 725
576 724
SL@@ 724
illo 724
休会期间 724
出入境 724
分配@@ 724
外交代表 724
妄@@ 724
强势 724
接受者 724
集束炸弹 724
593 723
DTIE 723
Rec@@ 723
Say@@ 723
ates 723
一两年 723
严格@@ 723
手铐 723
特地 723
相匹配 723
真主 723
表扬 723
1455 722
759 722
ts@@ 722
兼容性 722
冰川 722
发射@@ 722
叛@@ 722
后处理 722
圈子 722
天线 722
已作 722
战事 722
曲线 722
西南部 722
581 721
626 721
86% 721
Sub@@ 721
ign@@ 721
世人 721
六十周年 721
博士学位 721
口服 721
古巴共和国 721
圣母 721
教育局 721
正轨 721
禁忌 721
联络组 721
CLCS 720
书面声明 720
写给 720
决定权 720
娱乐@@ 720
戏@@ 720
有酬 720
犹@@ 720
福尔 720
统一性 720
贝格 720
追捕 720
递增 720
附庸 720
颗粒 720
1483 719
CIA 719
Corporation 719
ous 719
way@@ 719
Š 719
冬天 719
吹@@ 719
和平@@ 719
国际会计 719
实地调查 719
工伤 719
应付款 719
开关 719
数枚 719
滚动 719
缝 719
阿尔巴尼亚族 719
隐蔽 719
ink@@ 718
中来 718
冷静 718
办为 718
工会组织 718
快捷 718
本论坛 718
椅子 718
生存能力 718
相互竞争 718
维系 718
贝尔@@ 718
613 717
74% 717
96% 717
Juan 717
从那时起 717
再次出现 717
吃惊 717
基督教徒 717
委托人 717
开邦 717
救济金 717
最合适 717
添@@ 717
自此 717
镍 717
Washington 716
den 716
ect@@ 716
乌姆 716
事由 716
喜剧 716
复杂程度 716
天后 716
奥地利政府 716
好评 716
所作所为 716
拉法 716
波特 716
海区 716
纳赛尔 716
莱州 716
防火 716
风险投资 716
Ins@@ 715
刘晓波 715
势必 715
反垄断 715
尿@@ 715
律@@ 715
时光 715
朱 715
武器化 715
相继 715
给付 715
ema 714
公司法 714
十分必要 714
半个世纪 714
卡里 714
含糊不清 714
循环基金 714
普雷 714
曾任 714
美国联邦 714
间谍活动 714
阿德 714
隔 714
雇 714
599 713
XXVII 713
下周 713
决算 713
划一 713
劲 713
尖端 713
德利 713
把@@ 713
片面 713
略高于 713
经济核算 713
论者 713
预算赤字 713
Op@@ 712
aci 712
中华@@ 712
伊尔 712
冠军 712
孤独 712
屈@@ 712
平均收入 712
彻@@ 712
执行主席 712
提出诉讼 712
秋@@ 712
萨尔@@ 712
蓝 712
计及 712
辞@@ 712
＝ 712
704 711
Mod@@ 711
ets 711
iii 711
万多 711
世行 711
兽医 711
回收率 711
宣布独立 711
布加勒斯特 711
废墟 711
放大 711
次日 711
5.5% 710
602 710
go 710
低迷 710
大力@@ 710
太高 710
屡次 710
布拉柴维尔 710
床@@ 710
攻读 710
核战争 710
缴@@ 710
范式 710
调派 710
636 709
827 709
Foreign 709
SP@@ 709
一站式 709
名词 709
地下室 709
就业部 709
店铺 709
明显增加 709
民兵组织 709
独裁者 709
纽埃 709
身体健康 709
重塑 709
CP.17 708
Es@@ 708
Hir@@ 708
Management 708
Rah@@ 708
上演 708
仍感 708
决策层 708
同位素 708
失控 708
密封 708
应请 708
梵蒂冈 708
秒钟 708
藏匿 708
遥控 708
595 707
624 707
76% 707
80@@ 707
Hom@@ 707
POPR@@ 707
不住 707
人手 707
催化作用 707
发运 707
大不相同 707
开出 707
心里 707
朝鲜政府 707
氯丁二烯 707
淡 707
筹委会 707
紫@@ 707
纳尔逊 707
若有 707
西蒙 707
诚@@ 707
赔偿@@ 707
酯 707
陆港 707
AB@@ 706
Fund 706
INF.1 706
Studies 706
偶@@ 706
兄弟会 706
各界 706
外币 706
失踪案 706
实情 706
息@@ 706
打断 706
投资银行 706
报称 706
沙龙 706
泵 706
短链 706
组别 706
自家 706
贪污腐败 706
露面 706
面上 706
IS3.@@ 705
str@@ 705
二世 705
偿还债务 705
创新型 705
印度教 705
吞@@ 705
哈吉 705
回去 705
布局 705
常务委员会 705
涨@@ 705
电话@@ 705
盲文 705
箱@@ 705
绕@@ 705
自其 705
衷心感谢 705
誓言 705
577 704
646 704
中继器 704
半干旱 704
吉尔@@ 704
哲@@ 704
墙壁 704
安全感 704
对外部 704
普拉 704
纺织 704
自行决定 704
防范措施 704
阿斯 704
642 703
697 703
Dor@@ 703
kov 703
off@@ 703
pol@@ 703
不出 703
低水平 703
冰箱 703
净收入 703
分处 703
各章 703
商务部 703
大象 703
左翼 703
布瓦凯 703
放款 703
统法 703
职场 703
虚构 703
被关 703
782 702
AT 702
Gen@@ 702
HIV 702
Ka@@ 702
out 702
ovic 702
上表 702
厅应 702
后继 702
审判@@ 702
宰@@ 702
尊@@ 702
已达成 702
挺@@ 702
捷克斯洛伐克 702
文件@@ 702
洞@@ 702
深思熟虑 702
百度 702
科维奇 702
躺 702
难于 702
高原 702
CON@@ 701
CT 701
Por@@ 701
今年夏天 701
处理厂 701
应邀参加 701
开发部 701
犯罪学 701
相冲突 701
粗 701
膨胀 701
菌@@ 701
6.5% 700
亲王 700
供养 700
保险金 700
厌恶 700
山地 700
政治学 700
脊 700
贫血 700
转售 700
邻近地区 700
颁布法律 700
635 699
93% 699
RO@@ 699
Tak@@ 699
ive 699
专利@@ 699
之苦 699
事前 699
传承 699
内涵 699
德勒 699
资料@@ 699
踏@@ 699
钢铁@@ 699
非常低 699
顺利进行 699
Asia 698
DLDD 698
GN@@ 698
Od@@ 698
Wil@@ 698
亨特 698
先发制人 698
内斯 698
坎大哈 698
巴希尔 698
怒 698
杰宁 698
测试@@ 698
自相矛盾 698
赫尔 698
还愿 698
这些年来 698
适得其反 698
选择权 698
IA 697
emb@@ 697
从纳 697
体育场 697
供资@@ 697
别克斯 697
嘉宾 697
拜访 697
旗@@ 697
机密信息 697
燃煤 697
社会各界 697
竞争能力 697
米特 697
菜单 697
745 696
中立性 696
买主 696
半个 696
双手 696
幕后 696
执行程序 696
扶@@ 696
柳@@ 696
流动资金 696
第@@ 696
肌肉 696
香港特别行政区 696
030 695
1882 695
77% 695
CI@@ 695
二十五 695
兆瓦 695
吓 695
嘴@@ 695
年薪 695
微信 695
琼 695
社论 695
纳尔 695
误差 695
588 694
651 694
910 694
Ri@@ 694
bert 694
五种 694
人案 694
亿万富翁 694
几小时 694
女性化 694
库尔德斯坦 694
病原体 694
称呼 694
虑 694
虾 694
过重 694
钱财 694
难以确定 694
风力 694
Comp@@ 693
ford 693
一等 693
交织 693
佳 693
副司长 693
大学@@ 693
小米 693
年制 693
找@@ 693
摸 693
暖@@ 693
泊车 693
澳门特别行政区 693
黎@@ 693
Camp@@ 692
Instagram 692
ran 692
为性 692
偏差 692
出生地 692
副教授 692
同化 692
因其 692
妇幼 692
审结 692
总书记 692
悲观 692
检察厅 692
正当性 692
浩@@ 692
环发 692
遵@@ 692
雕塑 692
首席法官 692
Jer@@ 691
unc@@ 691
一俟 691
克里斯托弗 691
内心 691
军阀 691
国内安全 691
工具箱 691
批量 691
抑郁 691
昌@@ 691
点名 691
烤 691
熔@@ 691
睦邻关系 691
窄 691
笑@@ 691
该片 691
707 690
Dah@@ 690
专业性 690
工程项目 690
摄像头 690
收录 690
有的是 690
污辱 690
清洁@@ 690
火星 690
译@@ 690
较弱 690
金融中心 690
628 689
641 689
Lo@@ 689
aire 689
囊 689
挨@@ 689
支离破碎 689
昏@@ 689
槽 689
深远影响 689
社会规范 689
稍微 689
胺 689
轿车 689
666 688
CMP 688
卖出 688
吉普赛人 688
始终如一 688
无酬 688
治安@@ 688
泰米尔 688
统一@@ 688
罹患 688
苯 688
训@@ 688
诚然 688
赌博 688
跑@@ 688
高血压 688
606 687
SR.2 687
一号 687
两座 687
供求 687
公安 687
分期 687
制冷剂 687
卡莱 687
却@@ 687
头脑 687
女法官 687
宇 687
密切配合 687
打败 687
推土机 687
臂 687
苏呼米 687
骗 687
Ang@@ 686
NE@@ 686
保护者 686
停用 686
内所载 686
凯瑟琳 686
北大西洋 686
司空见惯 686
味道 686
妹妹 686
客户服务 686
布里@@ 686
心理@@ 686
急剧下降 686
慢@@ 686
扼杀 686
报警 686
新来 686
更名 686
枢密院 686
植根于 686
正试图 686
泉 686
纷@@ 686
蔡 686
越发 686
远程教育 686
ass 685
mo 685
一流 685
作风 685
四份 685
妇科 685
完全相同 685
沉积 685
热带@@ 685
纳德 685
锰 685
725 684
va 684
ye 684
争斗 684
公寓楼 684
姆巴 684
广度 684
熟知 684
福音 684
酶 684
5.9 683
Dal@@ 683
Eng@@ 683
F.@@ 683
不可否认 683
两岸 683
两组 683
养活 683
夸张 683
德国马克 683
机密性 683
核电 683
法律界 683
环境污染 683
砖@@ 683
立宪 683
简而言之 683
红树林 683
链@@ 683
84% 682
852 682
OP@@ 682
Tu@@ 682
WG.2 682
ne@@ 682
olo 682
古代 682
手工艺 682
秘@@ 682
Bay@@ 681
IDB.@@ 681
iam 681
oma 681
从总体上 681
仲裁条款 681
十字路口 681
千名 681
存续 681
庆 681
心理咨询 681
承租人 681
指纹 681
捷 681
武库 681
涉 681
牙 681
空委 681
行人 681
首份 681
Add.13 680
Om@@ 680
me@@ 680
一番 680
串通 680
吻合 680
地貌 680
基因@@ 680
妻 680
批发 680
法罗群岛 680
粮@@ 680
谣言 680
递给 680
Bro@@ 679
Fel@@ 679
Merc@@ 679
TV 679
债权国 679
厨师 679
大都会 679
开工 679
毫无保留 679
腾 679
蔓延到 679
59% 678
CN.10 678
一九九@@ 678
个性化 678
关键在于 678
决策程序 678
利弊 678
厂@@ 678
奇科 678
帐@@ 678
废旧 678
损耗 678
查封 678
浓 678
科恩 678
肖 678
调查队 678
银行帐户 678
Brown 677
FO@@ 677
举足轻重 677
催生 677
加薪 677
基斯马尤 677
大声 677
学术研究 677
开幕词 677
引领 677
有利可图 677
猪肉 677
癖 677
监听 677
财政收入 677
这就是说 677
邮袋 677
高分辨率 677
47.@@ 676
AD@@ 676
CL@@ 676
uma 676
― 676
债券市场 676
共和 676
再三 676
寺庙 676
拦@@ 676
新兵 676
新浪 676
明知 676
灯@@ 676
灵魂 676
环境标准 676
禁用 676
轮椅 676
馆@@ 676
6.8 675
Coll@@ 675
Sel@@ 675
ase 675
一大部分 675
不断改进 675
公共关系 675
出生证 675
少校 675
我能 675
洛斯 675
烈 675
相悖 675
缘故 675
罗夫 675
胃@@ 675
607 674
775 674
Dh@@ 674
一分钟 674
两场 674
临界 674
京@@ 674
公国 674
国际争端 674
塔吉克 674
女同性恋 674
巴士 674
帝国主义 674
批判 674
文号 674
文学@@ 674
武装@@ 674
要约 674
觉@@ 674
诗人 674
arb@@ 673
arm@@ 673
ition 673
一线 673
之旅 673
伍德 673
四倍 673
拖网 673
数十名 673
紧密联系 673
经济基础 673
请洽 673
贴现率 673
这儿 673
钻@@ 673
霸@@ 673
che 672
ham 672
不合@@ 672
使用@@ 672
做时 672
刺 672
压倒性 672
去掉 672
周密 672
四位 672
正当@@ 672
汤 672
沉 672
社会制度 672
福德 672
肥@@ 672
该词 672
酝酿 672
93.@@ 671
Cab@@ 671
aut 671
几内亚湾 671
勇 671
喷洒 671
圣多明各 671
地表水 671
头巾 671
客户关系 671
持平 671
汇兑 671
汶 671
燃料@@ 671
第一任 671
运抵 671
马西 671
81% 670
Economic 670
King 670
TA 670
Tri@@ 670
专题研究 670
入住 670
取得联系 670
就诊 670
教程 670
日才 670
棉@@ 670
步兵营 670
比上 670
混 670
溶@@ 670
瘘 670
神父 670
繁殖 670
737 669
765 669
921 669
FS 669
L.58 669
oe 669
pe 669
不合 669
业者 669
伊拉克共和国 669
勋章 669
大会党 669
崔@@ 669
工作团 669
正文 669
臭名昭著 669
199@@ 668
705 668
Fil@@ 668
TP 668
tis 668
利基 668
合法权益 668
国民收入 668
多万美元 668
审判庭 668
应受 668
开玩笑 668
投保人 668
来访者 668
津 668
票价 668
第七节 668
若干个 668
行动@@ 668
Act 667
中兴 667
以待 667
光学 667
克拉@@ 667
发射场 667
取向 667
园区 667
外加 667
大事 667
大坝 667
安德鲁 667
常住 667
晶 667
智利政府 667
禽流感 667
紧迫感 667
练@@ 667
贡@@ 667
达赖喇嘛 667
非营利性 667
骑 667
644 666
69% 666
88.@@ 666
887 666
Tan@@ 666
Windows 666
一根 666
击落 666
劝说 666
在案 666
大军 666
大鼠 666
幸存 666
底薪 666
有机@@ 666
林丹 666
栏@@ 666
核能力 666
残留物 666
温哥华 666
直接对话 666
营业@@ 666
赛事 666
逼 666
风俗 666
1533 665
621 665
9.5 665
911 665
Dam@@ 665
Tom 665
XXIII 665
bl@@ 665
你@@ 665
出口量 665
卫生局 665
大主教 665
日致 665
油井 665
热切 665
祖母 665
金融业 665
619 664
723 664
92.@@ 664
Service 664
交还 664
人未 664
利用@@ 664
增加收入 664
契@@ 664
抽签 664
摩擦 664
斗@@ 664
木炭 664
特委会 664
磨 664
祖 664
致以 664
贺@@ 664
597 663
653 663
675 663
744 663
一刻 663
上司 663
不多 663
不知@@ 663
住家 663
宣誓就职 663
带入 663
担负起 663
白天 663
耀@@ 663
趋同 663
钻探 663
Drag@@ 662
与此有关 662
仅以 662
受贿 662
商家 662
并经 662
总金额 662
格斯 662
欠佳 662
消耗品 662
等值 662
饱@@ 662
香烟 662
10.1 661
122.@@ 661
657 661
672 661
88% 661
REDD 661
oth@@ 661
之大 661
伊黎 661
供述 661
催@@ 661
勘测 661
勾@@ 661
回忆录 661
夜晚 661
完成学业 661
尸 661
屏障 661
帐务 661
普遍化 661
极低 661
标准@@ 661
此刻 661
特种部队 661
看管 661
穷困 661
耳 661
萨克 661
跃@@ 661
达标 661
选中 661
40.@@ 660
711 660
712 660
America 660
Vill@@ 660
oc 660
义务@@ 660
处死 660
宗派 660
查韦斯 660
栏目 660
激进分子 660
缺勤 660
老虎 660
英国人 660
逼供 660
里夫 660
647 659
94% 659
Gall@@ 659
ime 659
不至于 659
人工@@ 659
优 659
巴萨 659
悬殊 659
斜@@ 659
构 659
格里@@ 659
特赦 659
能源危机 659
运输成本 659
香 659
1.25 658
受难者 658
悲@@ 658
技术顾问 658
明晰 658
精 658
雷尔 658
676 657
756 657
785 657
wor@@ 657
为名 657
姐姐 657
录用 657
德曼 657
握@@ 657
数十万 657
此地 657
烤@@ 657
绑 657
计票 657
677 656
721 656
CFSP 656
下水道 656
亨@@ 656
亿多 656
分辨率 656
反洗钱法 656
商业模式 656
地块 656
建设@@ 656
扶助 656
技术手段 656
海床 656
疏远 656
纵火 656
缓冲 656
警署 656
618 655
uj@@ 655
伴 655
向来 655
填埋 655
居室 655
应向 655
航空@@ 655
观察哨 655
说成 655
L.62 654
MISC.1 654
New@@ 654
Patrick 654
ros@@ 654
一桩 654
不去 654
不可抗力 654
人口总数 654
加固 654
季刊 654
录制 654
执行者 654
摄影@@ 654
攻击者 654
桩 654
皇@@ 654
致词 654
节约@@ 654
雇工 654
10.2 653
685 653
IP 653
Naj@@ 653
og 653
ym@@ 653
zh@@ 653
人口统计 653
县级 653
塞尔@@ 653
墙@@ 653
弗朗西斯 653
执委会 653
探究 653
氟@@ 653
相互配合 653
讲解 653
谨请 653
超额 653
那名 653
飞地 653
1925 652
In 652
不上 652
交接 652
交流中心 652
凝@@ 652
听从 652
国防@@ 652
女婴 652
尼奥斯 652
巧妙 652
有名 652
污@@ 652
简言之 652
纳戈尔 652
非全日制 652
首当其冲 652
679 651
779 651
CE 651
Steven 651
rey 651
亚齐 651
仍须 651
企 651
公开@@ 651
公理 651
利润率 651
双轨 651
发誓 651
天堂 651
捏造 651
早餐 651
染 651
用量 651
盘问 651
第二代 651
调任 651
采取相应 651
长官 651
49@@ 650
ix 650
不该 650
匀支 650
十分困难 650
反响 650
带给 650
微薄 650
心中 650
忘@@ 650
愈演愈烈 650
牌@@ 650
私人生活 650
误 650
高级@@ 650
102.@@ 649
77.@@ 649
ui 649
公共事业 649
妙 649
彼@@ 649
恐@@ 649
收受 649
本信 649
注释 649
火炮 649
特纳 649
犯法 649
雄 649
预备会议 649
020 648
793 648
Bab@@ 648
Ib@@ 648
Rab@@ 648
Trade 648
会以 648
刚刚开始 648
号令 648
徒步 648
想方设法 648
摘@@ 648
有鉴于 648
标语 648
正等待 648
独立@@ 648
纸质 648
营养素 648
调到 648
货款 648
693 647
AM 647
GC.@@ 647
yo 647
业务管理 647
住房条件 647
充满希望 647
全民公决 647
共向 647
分界线 647
分节 647
千万 647
失业人数 647
常态 647
想象力 647
成像 647
抗体 647
持械 647
步入 647
氧化 647
沃尔玛 647
牙医 647
路透社 647
软弱 647
辩@@ 647
迪克 647
错误@@ 647
Eric 646
不分性别 646
佐夫 646
力所能及 646
外国@@ 646
大师 646
有效途径 646
殖民化 646
滑坡 646
瑞士联邦 646
直线 646
确诊 646
芒 646
难以实现 646
IV@@ 645
iman 645
仅靠 645
华裔 645
密克罗尼西亚 645
微笑 645
无薪 645
某国 645
油轮 645
泛亚 645
烟雾 645
理智 645
矿场 645
稳定局势 645
粮安委 645
繁多 645
统计学 645
绳@@ 645
航海 645
谦@@ 645
通讯设备 645
采样 645
错失 645
138.@@ 644
Mach@@ 644
XIII 644
inger 644
中国香港 644
勘查 644
奥林匹克运动会 644
宫颈癌 644
慈@@ 644
010 643
不言而喻 643
净值 643
加西亚 643
参半 643
无关紧要 643
暨 643
条为 643
熊 643
狱政 643
自治权 643
部位 643
非法交易 643
787 642
806 642
CS@@ 642
Li@@ 642
Oc@@ 642
乳房 642
司法@@ 642
审阅 642
慎@@ 642
抹 642
撕@@ 642
暂 642
纽约大学 642
网络空间 642
证券@@ 642
面貌 642
728 641
735 641
Ann@@ 641
BP 641
D.@@ 641
No@@ 641
不良后果 641
体力 641
准时 641
半天 641
反之 641
史蒂夫 641
商议 641
安静 641
年版 641
性生活 641
折 641
未受 641
特斯拉 641
班加西 641
留守 641
立案 641
辩护人 641
遇难者 641
零散 641
霾 641
高档 641
iko 640
ons@@ 640
两枚 640
倒闭 640
几支 640
对经 640
幌子 640
拉赫 640
掉@@ 640
水稻 640
生物圈 640
转介 640
运动会 640
阿扎 640
难以置信 640
CP.4 639
DO@@ 639
Ker@@ 639
iv 639
中华民国 639
休战 639
卷@@ 639
双重国籍 639
异构体 639
早晨 639
石化 639
迪尔 639
里程 639
阿盟 639
亡@@ 638
供水系统 638
全美 638
多处 638
当家作主 638
房客 638
更少 638
最能 638
门口 638
040 637
883 637
Ra 637
iza 637
tor 637
una 637
三角洲 637
佣金 637
候 637
即便如此 637
吉斯 637
大幅提高 637
学士学位 637
心情 637
拉萨 637
第五款 637
解救 637
铅@@ 637
震荡 637
马云 637
高温 637
黎 637
617 636
752 636
ated 636
ber 636
iti 636
户外 636
数据管理 636
科多里 636
阿布扎比 636
骂 636
614 635
AA 635
Frank 635
MISC.@@ 635
SR@@ 635
WP.1 635
azi 635
els 635
二号 635
响@@ 635
塞拉 635
封面 635
戈尔 635
折中 635
标定 635
毫无例外 635
气旋 635
水管 635
狂 635
私募 635
轴 635
通过审查 635
重中之重 635
761 634
Kn@@ 634
Ren@@ 634
anne 634
be 634
ein@@ 634
不稳定性 634
个人财产 634
京 634
传统@@ 634
俄亥俄州 634
关在 634
半数以上 634
定出 634
山谷 634
抢 634
梁 634
气象学 634
病房 634
第二组 634
03@@ 633
682 633
L.59 633
Rub@@ 633
ifa 633
切尔 633
变性人 633
台北 633
各份 633
圆满结束 633
基础@@ 633
并不需要 633
应可 633
抽样调查 633
甲型 633
电子媒体 633
称其 633
累 633
非但 633
623 632
667 632
696 632
732 632
cont@@ 632
下个 632
今年年底 632
佩雷斯 632
保持平衡 632
动因 632
外围地区 632
折算 632
摄像机 632
正为 632
水利 632
琴@@ 632
航空运输 632
苗@@ 632
苛刻 632
述@@ 632
途经 632
1889 631
6000 631
Net@@ 631
Press 631
Sid@@ 631
Women 631
乞讨 631
人意 631
关键@@ 631
吻 631
周永康 631
德文 631
招待 631
核反应堆 631
相符合 631
社会秩序 631
美洲狮 631
诚 631
874 630
Singh 630
osh@@ 630
具名 630
卫生机构 630
地球科学 630
居住者 630
广为人知 630
开放市场 630
拆解 630
收货人 630
日程安排 630
琴 630
编队 630
解答 630
谋杀案 630
Art 629
举止 629
之情 629
公法 629
区块 629
受命 629
尼特 629
居留权 629
或次 629
毕业@@ 629
示例 629
第四阶段 629
视而不见 629
阿片 629
668 628
Abd 628
Pierre 628
itz 628
中美 628
其于 628
冈萨雷斯 628
大地测量 628
守法 628
宫@@ 628
技术革新 628
教育体制 628
数百人 628
无异议 628
期初 628
模范 628
浮标 628
百分之百 628
纪 628
行使权力 628
齐全 628
LG@@ 627
Manuel 627
Wadi 627
agh@@ 627
ves 627
不管怎样 627
个人电脑 627
低调 627
侦@@ 627
哥伦比亚省 627
多出 627
崇高目标 627
希腊政府 627
帮忙 627
抑或 627
期将 627
求得 627
火车站 627
爬 627
生日 627
离子 627
窃听 627
订定 627
附带条件 627
陷入困境 627
622 626
CH 626
CRPD 626
Francisco 626
aye 626
ium 626
mer 626
世界观 626
垫 626
威力 626
得益 626
时所作 626
暂缓 626
残骸 626
水面 626
活动@@ 626
牛肉 626
774 625
Pi@@ 625
ique 625
pa 625
两边 625
充裕 625
内务 625
分析方法 625
剧本 625
劝阻 625
哈拉雷 625
塔纳 625
展期 625
开立 625
敲@@ 625
更佳 625
有效载荷 625
熟@@ 625
牛津大学 625
确证 625
神话 625
科研@@ 625
认真@@ 625
该镇 625
非关税 625
马萨诸塞州 625
Win@@ 624
乌兰巴托 624
人口密度 624
人来 624
先行 624
共犯 624
办案 624
存取 624
延缓 624
档案@@ 624
清醒 624
电离层 624
皈依 624
第二十次 624
绿线 624
转口 624
金斯敦 624
音频 624
638 623
DS 623
一时 623
伏击 623
全国@@ 623
圣彼得堡 623
坊 623
巧克力 623
抉择 623
教学材料 623
法律承认 623
海洋@@ 623
笼罩 623
览 623
629 622
Sch 622
ota 622
七天 622
东南非 622
乏 622
优先发展 622
呈上升 622
察觉 622
射程 622
居住权 622
帕尔@@ 622
德国人 622
支出额 622
渗入 622
矿床 622
管局 622
肥沃 622
若能 622
表示决心 622
装配 622
记账 622
轨迹 622
迎合 622
115.@@ 621
L.61 621
iq 621
伊萨 621
在此之后 621
指挥@@ 621
挑衅性 621
本科 621
材@@ 621
没法 621
泽斯 621
灾祸 621
祥 621
职业指导 621
迅猛 621
002 620
799 620
BBC 620
OE@@ 620
Ok@@ 620
PBC 620
中列明 620
传播媒介 620
但本 620
依次 620
凌虐 620
因涉嫌 620
扎实 620
本戈亚 620
植树造林 620
欺@@ 620
沾染 620
第十一部分 620
粮价 620
纷争 620
马德@@ 620
78.@@ 619
Den@@ 619
Pin@@ 619
Var@@ 619
以较 619
俄罗斯@@ 619
公关 619
召@@ 619
接任 619
根本@@ 619
横滨 619
毒打 619
沈@@ 619
类集 619
腾@@ 619
购物中心 619
AWGLCA 618
COM.3 618
Mul@@ 618
Scott 618
以有 618
做成 618
入门 618
公会 618
另类 618
可言 618
廉@@ 618
拉里 618
政策方针 618
本分 618
污水处理 618
相似之处 618
顶尖 618
1397 617
652 617
699 617
747 617
984 617
Mar 617
lan 617
一栏 617
专辑 617
互动关系 617
吃饭 617
备案 617
就绪 617
尾声 617
执行公务 617
放入 617
旋 617
时而 617
电离辐射 617
电脑化 617
研拟 617
禁闭 617
站不住脚 617
第一段 617
结构化 617
衣物 617
论处 617
1.4% 616
662 616
686 616
LO@@ 616
Lor@@ 616
Ov@@ 616
din 616
兰特 616
大大降低 616
帕斯 616
拜登 616
普通人 616
有意识 616
未及 616
束 616
生物体 616
电视广播 616
蒙德 616
赞许 616
CP.8 615
Garc 615
L.60 615
两处 615
休养 615
嘴 615
孕 615
布托 615
应否 615
本周一 615
瓜拉尼 615
罗列 615
航道 615
表一 615
调用 615
阿尔法 615
695 614
708 614
89% 614
Rumaysh 614
ando 614
不可思议 614
专家建议 614
九条 614
企业主 614
动荡不安 614
合乎逻辑 614
哈利 614
善于 614
小行星 614
平原 614
承保 614
来文@@ 614
欧洲@@ 614
电动汽车 614
盟军 614
脸@@ 614
自来水 614
苏莱曼 614
衡算 614
衰@@ 614
证券市场 614
金属@@ 614
预想 614
SD@@ 613
Sa 613
ayo 613
ello 613
九项 613
伊始 613
体积 613
公路运输 613
加拉加斯 613
卡帕 613
厅@@ 613
图案 613
坦率地 613
新娘 613
核威慑 613
而于 613
说来 613
非盈利 613
CF@@ 612
alo 612
ashi 612
ente 612
一第 612
几条 612
加尔 612
卫生工作者 612
哺乳期 612
国际竞争 612
坠毁 612
安放 612
总统大选 612
愤 612
文莱 612
服务社 612
条是 612
氟化铀 612
社会保障部 612
稽@@ 612
遗迹 612
配给 612
里根 612
1.7% 611
46.@@ 611
612 611
Mich@@ 611
la@@ 611
oli 611
何地 611
侵@@ 611
加强监督 611
印第安 611
图尔 611
婚前 611
尚需 611
成本计算 611
抓捕 611
渡@@ 611
炮火 611
物业 611
科学部 611
第十九 611
造就 611
２ 611
Obama 610
Times 610
一年级 610
以备 610
伊朗人 610
卑@@ 610
大众@@ 610
姆贝基 610
开放@@ 610
洛朗 610
聊天 610
萨姆 610
Ant@@ 609
COP.2 609
arov 609
ities 609
万份 609
互换 609
产业政策 609
健 609
吉利 609
抽查 609
比绍 609
疗 609
神职人员 609
第二位 609
芬兰政府 609
见证人 609
金融监管 609
预咨 609
高层次 609
高素质 609
七次 608
中亚地区 608
亚太经合组织 608
亿吨 608
军事设施 608
出口额 608
国际货物 608
地毯 608
影院 608
手头 608
拖车 608
援助国 608
显著@@ 608
汀 608
疆界 608
闹@@ 608
we@@ 607
一波 607
一遍 607
倍增 607
削@@ 607
呼 607
圆 607
在建 607
庚 607
掀起 607
新闻简报 607
枝 607
污 607
法医学 607
激情 607
登陆 607
绵@@ 607
被保险人 607
逼迫 607
除此以外 607
雷先生 607
马里政府 607
691 606
702 606
79% 606
Esp@@ 606
Mary 606
Suppl 606
上层 606
人格尊严 606
全日 606
国库 606
录像带 606
愚蠢 606
料@@ 606
氏@@ 606
泥 606
牟利 606
球场 606
第三年 606
MS 605
SAP 605
两段 605
争议性 605
喜 605
坐落 605
好坏 605
朝鲜战争 605
来临 605
杰克 605
珠 605
监管部门 605
砍@@ 605
科室 605
自闭症 605
酷@@ 605
里奇 605
马恩岛 605
656 604
858 604
JS@@ 604
介@@ 604
冷冻 604
变异 604
团结@@ 604
地表 604
塔尼 604
婚约 604
实绩 604
特例 604
部应 604
闻@@ 604
1.3% 603
2500 603
658 603
875 603
City 603
MX 603
Policy 603
ilo 603
一夫多妻 603
不已 603
专家团 603
主人翁 603
优待 603
劳动合同 603
卫星@@ 603
叙事 603
奉@@ 603
汇报工作 603
社会化 603
签字国 603
简便 603
衫 603
过错 603
CN.18 602
Hotel 602
安抚 602
工业区 602
彰显 602
昨日 602
而设 602
自由市场 602
识@@ 602
辉 602
问责@@ 602
陆续 602
ications 601
保护权 601
做饭 601
击毙 601
可耻 601
时起 601
滕@@ 601
简 601
管理体系 601
美国市场 601
胡 601
质询 601
5000@@ 600
Gor@@ 600
Jal@@ 600
下定决心 600
业务费 600
原产 600
微乎其微 600
抚养人 600
排外 600
穆德 600
那不勒斯 600
重金属 600
预警飞机 600
0.2% 599
Nab@@ 599
ios 599
偷 599
军法 599
创新能力 599
安东尼 599
宏@@ 599
总务科 599
枪手 599
椅 599
环绕 599
碘 599
索尔 599
纳布卢斯 599
联邦@@ 599
节制 599
英文版 599
讯@@ 599
越南政府 599
邮报 599
1.6% 598
664 598
848 598
Abb@@ 598
Eur@@ 598
Ul@@ 598
ais 598
ono 598
中间@@ 598
信息学 598
制片人 598
器械 598
奢侈 598
尔巴 598
恢复@@ 598
愤慨 598
执行@@ 598
掌 598
朗德 598
欧洲航天局 598
歧@@ 598
法例 598
涂料 598
深入@@ 598
瓦尼 598
第七十六条 598
自行@@ 598
艺术作品 598
迟延 598
铁矿石 598
锌 598
663 597
669 597
845 597
DCP 597
East 597
Hil@@ 597
yi 597
世界秩序 597
会前 597
受其 597
商场 597
堡@@ 597
摩苏尔 597
模糊不清 597
盈@@ 597
紫外线 597
职能部门 597
蜂@@ 597
辱骂 597
722 596
APLC 596
AWG 596
令人吃惊 596
太大 596
安德烈 596
宪兵队 596
教区 596
法国@@ 596
状@@ 596
终点 596
统 596
阿尔马 596
Gold@@ 595
Pre@@ 595
Technology 595
ation@@ 595
orn@@ 595
会因 595
保障@@ 595
信使 595
借助于 595
共和军 595
关键词 595
分包商 595
召回 595
可见度 595
各科 595
后天免疫 595
园艺 595
撞@@ 595
收复 595
日本首相 595
漏 595
笼@@ 595
综@@ 595
老年@@ 595
老鼠 595
这张 595
雇佣兵 595
678 594
Sad@@ 594
eman 594
古拉 594
后方 594
图谋 594
基本概念 594
夜班 594
寒@@ 594
崇@@ 594
巴沙尔 594
怎么办 594
教官 594
死亡@@ 594
渣 594
评论员 594
财 594
躲@@ 594
集成 594
驾@@ 594
654 593
674 593
778 593
83.@@ 593
一切权利 593
主机 593
伊朗核 593
冯@@ 593
利害相关 593
副作用 593
台站 593
商业利益 593
就象 593
师范@@ 593
投向 593
支持率 593
数据保护 593
服务设施 593
植@@ 593
生命科学 593
离散 593
筹供 593
缅@@ 593
警察所 593
谈起 593
赔 593
雕像 593
非常规 593
GC.10 592
Intern@@ 592
ese 592
osa 592
不服 592
不能容忍 592
乘以 592
孜@@ 592
学习成绩 592
小区 592
影像 592
新军 592
清查 592
生命危险 592
着装 592
舒服 592
行政诉讼 592
1.2% 591
Georg@@ 591
North 591
Progr@@ 591
Shin 591
ams 591
交付给 591
单方 591
厄瓜多尔政府 591
弄@@ 591
成百上千 591
杰克逊 591
点燃 591
蓬 591
逾越 591
681 590
DE 590
分公司 590
分级 590
气象@@ 590
献身精神 590
笔记本电脑 590
第二十一次 590
良机 590
California 589
Pacific 589
Yah@@ 589
port@@ 589
天赋 589
川@@ 589
成因 589
经常出现 589
萨达姆 589
调查者 589
边防@@ 589
070 588
12.5 588
703 588
96.@@ 588
Ll@@ 588
PB@@ 588
之路 588
亭 588
信贷@@ 588
印度@@ 588
周边国家 588
地质@@ 588
娶 588
弗吉尼亚州 588
愈加 588
扎勒 588
无一例外 588
株 588
溶剂 588
第二段 588
精神创伤 588
腰@@ 588
车上 588
雨林 588
724 587
HR 587
Ze@@ 587
ail 587
kins 587
军事援助 587
办公设备 587
劳动密集型 587
受聘 587
喊@@ 587
宗教仪式 587
客运 587
崇拜 587
微博上 587
恩里克 587
手工业 587
格林@@ 587
碱@@ 587
礼仪 587
第九章 587
贫民 587
违法@@ 587
重重 587
间或 587
11.2 586
Dem@@ 586
Franc@@ 586
万次 586
其有 586
古兰经 586
囚室 586
年轻一代 586
拿走 586
旱@@ 586
最差 586
机动车 586
比什凯克 586
演进 586
特拉维夫 586
职业技能 586
肮脏 586
著称 586
1100 585
753 585
783 585
825 585
Science 585
nez 585
一头 585
偏僻 585
剩余时间 585
房东 585
氧化物 585
淋@@ 585
激动 585
短片 585
赞美 585
赶出 585
超级大国 585
重创 585
716 584
726 584
Ju@@ 584
eth@@ 584
亚语 584
克森 584
免责 584
准将 584
切合 584
卡西 584
夺去 584
无端 584
明确提出 584
核大国 584
棚 584
煤矿 584
第十七 584
经济部 584
编第 584
阿拉伯地区 584
驱赶 584
2021 583
po 583
中层 583
十天 583
半球 583
合同@@ 583
帝@@ 583
斯拉夫 583
洁@@ 583
虐@@ 583
行使主权 583
载体 583
长久以来 583
1333 582
755 582
91% 582
ecti@@ 582
ont@@ 582
二恶英 582
优惠条件 582
佛罗里达 582
可谓 582
大增 582
它同 582
官邸 582
小队 582
差错 582
恋童 582
敲诈 582
栅栏 582
环保局 582
相联 582
科纳克里 582
阅@@ 582
项所 582
Kaz@@ 581
uz 581
中介机构 581
傲慢 581
再者 581
分行 581
前哨 581
唱名 581
姊妹 581
守卫 581
安妮 581
徒@@ 581
战地 581
抗生素 581
林区 581
派任 581
液化 581
激素 581
税收制度 581
财政赤字 581
闲@@ 581
食堂 581
833 580
Nasiriyah 580
从小 580
多夫 580
秉持 580
第一号 580
簿 580
经第 580
膝上型 580
转化成 580
遗留下来 580
部副 580
639 579
811 579
Harvard 579
Lind@@ 579
MD@@ 579
Sor@@ 579
以至 579
口供 579
基斯 579
填 579
安的列斯群岛 579
携@@ 579
无故 579
本世纪 579
正以 579
深为 579
演变成 579
监察局 579
节点 579
谱@@ 579
812 578
Raf@@ 578
eira 578
tif@@ 578
剧增 578
单靠 578
塞克 578
弗雷德 578
战斗@@ 578
戴着 578
无能为力 578
澳新 578
画家 578
第十六 578
米斯 578
罗斯福 578
轰@@ 578
近些年来 578
12.7 577
659 577
684 577
Hasan 577
West 577
ae 577
zo 577
公安部 577
少数@@ 577
徒劳 577
案头 577
水泵 577
法律手段 577
电子签名 577
积极@@ 577
绝食 577
耸@@ 577
财务司 577
过低 577
1.8% 576
56.@@ 576
own 576
东海 576
人民日报 576
传记 576
创造财富 576
参考@@ 576
各族人民 576
夹@@ 576
是非曲直 576
月末 576
民粹主义 576
法轮功 576
窗@@ 576
7.7 575
70.@@ 575
XXX 575
ista 575
min@@ 575
x365 575
一行 575
交易法 575
入境签证 575
减为 575
土壤@@ 575
平等@@ 575
弘扬 575
托运 575
拉罗 575
无从 575
普拉@@ 575
著@@ 575
ily 574
凯特 574
如为 574
宇航员 574
小幅 574
幼儿教育 574
持股 574
条所列 574
珍贵 574
生产成本 574
祖传 574
籽 574
被困 574
转拨 574
辜负 574
763 573
Luk@@ 573
anov 573
ayr 573
代号 573
代谢 573
供货 573
俊@@ 573
凯利 573
加在一起 573
卡梅伦 573
定期检查 573
得分 573
押@@ 573
拉布 573
目击 573
致命性 573
路易 573
频 573
655 572
Add.15 572
Air@@ 572
Lev@@ 572
eka 572
ome 572
一日 572
不同之处 572
串 572
全天 572
合作性 572
国际标准化组织 572
妇女@@ 572
寄 572
层楼 572
带上 572
彭博 572
未偿 572
权是 572
海上运输 572
特别@@ 572
特斯 572
离心机 572
粒子 572
蓄 572
警示 572
许许多多 572
遥@@ 572
间隙 572
马先生 572
ania 571
中核 571
份量 571
写明 571
十四条 571
南联盟 571
唤起 571
奇迹 571
威尼斯 571
库尔 571
心灵 571
挡 571
整体性 571
未收 571
死囚 571
米奇 571
跟随 571
路易@@ 571
辛基 571
限值 571
124.@@ 570
1860 570
671 570
Henry 570
ardo 570
〕 570
中国外交部 570
六位 570
商法 570
地同 570
家禽 570
尽其所能 570
所有制 570
明显改善 570
病症 570
祖父母 570
私人机构 570
裁决书 570
距@@ 570
飘@@ 570
649 569
95.@@ 569
Services 569
Steve 569
ug 569
wood 569
二个 569
充分体现 569
刘易斯 569
巴拉克 569
市场需求 569
布罗德 569
提炼 569
氧@@ 569
特大 569
男同性恋 569
男女生 569
科将 569
管理权 569
精密 569
美分 569
联军 569
行不通 569
购买者 569
Hug@@ 568
PS@@ 568
act@@ 568
fr@@ 568
ism 568
ron 568
一大步 568
九十年代 568
剩 568
垂@@ 568
尼亚@@ 568
欧佩克 568
水文学 568
理学 568
监察@@ 568
近身 568
适切 568
136.@@ 567
627 567
769 567
D1 567
HR@@ 567
MS@@ 567
erc@@ 567
eth 567
个人信息 567
二审 567
亡 567
住院治疗 567
侵袭 567
俊 567
含铅 567
和世卫 567
增量 567
岩石 567
庄 567
恶性 567
悄@@ 567
手上 567
无情 567
焦 567
电力公司 567
空军基地 567
肢 567
良好基础 567
行走 567
讲演 567
贤 567
费时 567
跟着 567
709 566
766 566
805 566
Khane 566
Pu@@ 566
Rodr 566
oud@@ 566
yt@@ 566
五条 566
候补委员 566
停机坪 566
妓 566
客厅 566
工作力度 566
工商@@ 566
必 566
战区 566
拥有权 566
核电厂 566
空洞 566
经过培训 566
艾未 566
莫迪 566
足球@@ 566
频频 566
801 565
816 565
COP.4 565
Court 565
Lav@@ 565
ards 565
eau 565
不端 565
介绍所 565
共鸣 565
勒斯 565
哈特 565
恰好 565
法定人数 565
片段 565
空中交通 565
简况 565
赤@@ 565
0.2 564
CD@@ 564
Limited 564
ave 564
下限 564
中途 564
做会 564
减员 564
尔塔 564
布置 564
担保人 564
提单 564
政治派别 564
有线电视 564
桑给巴尔 564
正确@@ 564
沙发 564
波尔 564
湿@@ 564
粒 564
英文@@ 564
讨价还价 564
酰氟 564
重庆 564
项目组 564
742 563
Hen@@ 563
ogo 563
三起 563
不相容 563
伍 563
全程 563
出口品 563
出口商品 563
即刻 563
岁者 563
德州 563
政治体制 563
文具 563
斑@@ 563
洛伊 563
爱好者 563
第三种 563
货车 563
资本化 563
趣@@ 563
雅各布 563
黑山共和国 563
118.@@ 562
853 562
955 562
LL 562
Land@@ 562
Nar@@ 562
三至 562
与世隔绝 562
储金 562
加工业 562
半月 562
古迹 562
奉献精神 562
布尔@@ 562
广播电视 562
应付账款 562
斯雷 562
明确@@ 562
科医生 562
重大@@ 562
773 561
It@@ 561
Laur@@ 561
ff 561
ning 561
up 561
千美元 561
委内瑞拉政府 561
得力 561
数百万美元 561
晚期 561
权势 561
格拉@@ 561
理论@@ 561
留有 561
美联社 561
联预 561
脱钩 561
脸上 561
萨德 561
蛋白 561
谢克尔 561
还款 561
重大成果 561
53.@@ 560
804 560
BA 560
Commun@@ 560
Conn@@ 560
Dom@@ 560
SW@@ 560
anna 560
乙烷 560
产儿 560
切除 560
块@@ 560
塔克 560
开创性 560
扎尔 560
抛售 560
敏感度 560
新世纪 560
晶@@ 560
滑 560
盾 560
管理所 560
良好@@ 560
贝特 560
颁奖@@ 560
52.@@ 559
Inc 559
Sn@@ 559
上应 559
偏 559
医疗队 559
取暖 559
呼叫 559
天津 559
安慰 559
我于 559
拉希德 559
无助 559
第一部 559
第二十@@ 559
罢@@ 559
酬 559
serv@@ 558
⑷ 558
保住 558
兑换率 558
冷却 558
叙@@ 558
地球物理 558
处理程序 558
拥抱 558
推论 558
插 558
未用尽 558
梅洛 558
溢@@ 558
现将 558
省议会 558
虫病 558
该信 558
贝尔纳 558
问询 558
隔开 558
预谋 558
高等@@ 558
GU@@ 557
Rep@@ 557
Victor 557
Watch 557
asi 557
ural 557
交替 557
人文@@ 557
人行道 557
以巴 557
劝@@ 557
劳役 557
各族 557
同值 557
呈报 557
唆使 557
尽全力 557
意见书 557
手持 557
挥@@ 557
方言 557
无损 557
暴雨 557
民营 557
池中 557
策@@ 557
肩 557
苗 557
象征意义 557
责令 557
10.3 556
131.@@ 556
714 556
Cro@@ 556
Society 556
sson 556
一百零@@ 556
不经 556
业余 556
传统观念 556
健身 556
华盛顿邮报 556
印度人 556
弊端 556
接待@@ 556
新书 556
构件 556
欲望 556
特拉@@ 556
联邦制 556
许多年 556
遥感技术 556
降雨量 556
2C 555
694 555
Fal@@ 555
ONUB 555
Ou@@ 555
fl@@ 555
代言人 555
儒瓦内 555
出名 555
化工 555
州级 555
弱小 555
征召 555
无休止 555
普世 555
有条理 555
衰落 555
贝都 555
遗孀 555
高尚 555
738 554
EM 554
Kap@@ 554
Yam@@ 554
专门化 554
单单 554
召开大会 554
吉尔吉斯 554
同等待遇 554
怎么样 554
房主 554
收成 554
漠视 554
王储 554
现金余额 554
珍 554
电视机 554
维克 554
自上而下 554
苏珊 554
遗传@@ 554
822 553
Che@@ 553
Fat@@ 553
Gir@@ 553
London 553
Mike 553
Paul@@ 553
ines 553
unt@@ 553
〔 553
加州大学 553
历程 553
受到重视 553
合作部 553
同僚 553
场外 553
好消息 553
宅 553
对罗姆人 553
微弱 553
心理治疗 553
执法@@ 553
斯坦福大学 553
激活 553
联合国人权委员会 553
734 552
762 552
814 552
Fran 552
IDB.36 552
POPRC.@@ 552
South 552
alia 552
ual 552
一些则 552
亏 552
亿英镑 552
修道院 552
半导体 552
卡拉@@ 552
四十@@ 552
国家所有 552
威权 552
技 552
搅@@ 552
敌对行为 552
替代物 552
瓷@@ 552
盲 552
篡改 552
耕@@ 552
萨拉姆 552
诺贝尔奖 552
那段 552
重现 552
阿斯塔纳 552
17A.@@ 551
三者 551
代表制 551
值班 551
减到 551
廷@@ 551
战火 551
抹@@ 551
捕捉 551
敞开 551
暴 551
梯@@ 551
热衷于 551
竹@@ 551
考核 551
聚集一堂 551
藉此 551
贵族 551
Cit@@ 550
IDB.21 550
SER 550
iba 550
中所@@ 550
保险业 550
因人 550
安纳波利斯 550
工伤事故 550
斑 550
特里@@ 550
缝@@ 550
莫里斯 550
辩护权 550
骗@@ 550
Add.14 549
Doc@@ 549
Hong 549
NG@@ 549
上周末 549
基准@@ 549
幼 549
按期 549
时能 549
暴动 549
未有 549
烦@@ 549
绕 549
美化 549
防雷 549
骇人听闻 549
2100 548
Dep@@ 548
Jorge 548
SR 548
esh@@ 548
reg@@ 548
uck@@ 548
令人瞩目 548
储备基金 548
全球@@ 548
准备就绪 548
前去 548
南桑威 548
唱片 548
多变 548
履历 548
惨重 548
深感不安 548
现今 548
砸 548
纳米技术 548
萨利姆 548
视像 548
解决目前 548
谈一谈 548
霸权 548
673 547
CP.10 547
Russ@@ 547
cher 547
law 547
ma@@ 547
令人担心 547
全员 547
军事冲突 547
劝 547
区间 547
南省 547
发展潜力 547
基亚 547
带回 547
敢 547
没错 547
深夜 547
督导 547
礼堂 547
第三十三条 547
蒸@@ 547
虚伪 547
观察所 547
109.@@ 546
749 546
789 546
COP.7 546
No.@@ 546
ã 546
到场 546
十年间 546
卖掉 546
变迁 546
思想@@ 546
惹@@ 546
技术部 546
文摘 546
文表 546
曼努埃尔 546
有的放矢 546
框@@ 546
渐@@ 546
炸@@ 546
狄@@ 546
罐体 546
郊 546
2758 545
42.@@ 545
764 545
IL 545
way 545
丑@@ 545
出血 545
办公房 545
匆忙 545
卡塔 545
受挫 545
吉姆 545
实际收入 545
尼罗河 545
工人党 545
年续 545
或分 545
控制程序 545
服务水平 545
校外 545
每星期 545
沟 545
离家 545
芒@@ 545
认出 545
谨以 545
资金@@ 545
适应@@ 545
镉 545
阿拉伯@@ 545
CNN 544
Museum 544
old@@ 544
书面资料 544
人事司 544
内含 544
南极洲 544
呈@@ 544
多得多 544
如其 544
局在 544
工作站 544
巴勒斯坦民族权力机构 544
布鲁金斯 544
息息相关 544
描写 544
朱利安 544
活动中心 544
紧接着 544
统一指挥 544
继承法 544
致信 544
覆 544
设计阶段 544
迁入 544
阿巴 544
马拉卡 544
1343 543
1940 543
776 543
Islamic 543
Jim 543
ago 543
edo 543
ska 543
ston 543
不容许 543
丰 543
头目 543
市场营销 543
恨 543
撤走 543
整治 543
旺 543
更深 543
混合@@ 543
温暖 543
羞@@ 543
解放党 543
这要 543
10.4 542
1904 542
698 542
717 542
Qal 542
Red@@ 542
amba 542
上瘾 542
不行 542
乙型 542
五月 542
伴@@ 542
值得一提 542
功 542
技师 542
捣毁 542
排队 542
杯@@ 542
民生 542
氨@@ 542
法院系统 542
牙买加政府 542
训练@@ 542
越狱 542
预言 542
魏斯 542
741 541
8.6 541
975 541
Sat@@ 541
eni 541
一和二 541
不实 541
刻板 541
半衰期 541
国有@@ 541
垄断@@ 541
塞浦路斯人 541
实体法 541
持发 541
方济各 541
棵 541
楼梯 541
突显出 541
组织科 541
詹 541
重要文件 541
45.@@ 540
788 540
CHW.@@ 540
Ko@@ 540
L.63 540
ures 540
不以 540
倒塌 540
八次 540
加拉 540
博尔@@ 540
压低 540
取得成效 540
国际惯例 540
复印 540
幸免 540
执 540
政治经济 540
楚@@ 540
狗@@ 540
生物医学 540
相互交织 540
积聚 540
窑 540
背叛 540
腐@@ 540
2A 539
792 539
798 539
AC.198 539
Lin@@ 539
Marie 539
SH@@ 539
ps 539
公证 539
六月 539
刑事法律 539
努尔 539
北极@@ 539
哈尼 539
国务委员会 539
季奇 539
投资额 539
排水 539
末期 539
演练 539
现行制度 539
磷@@ 539
移除 539
空间规划 539
腐蚀 539
该城 539
语言@@ 539
走势 539
这所 539
重整 539
锅 539
门店 539
2022 538
Bol@@ 538
Fox 538
Saleh 538
The@@ 538
ision 538
供认 538
冲动 538
受访 538
尚存 538
恳请 538
慰安妇 538
戈斯 538
排他性 538
无可 538
服装@@ 538
米亚 538
莫托科 538
行车 538
被劫持 538
该团 538
透 538
823 537
Aut@@ 537
LU@@ 537
dy 537
亚当 537
人家 537
佛教徒 537
侯@@ 537
净资产 537
可选 537
土库曼 537
圭@@ 537
巴特 537
希腊@@ 537
恩塔 537
沾@@ 537
独家 537
相对而言 537
短短 537
聘@@ 537
草原 537
费尔南德斯 537
赖以 537
转录 537
难者 537
AH@@ 536
Hill 536
Jav@@ 536
Jud@@ 536
eer 536
elo 536
不快 536
丢弃 536
中央委员会 536
人权宣言 536
仪@@ 536
仲裁法 536
军机 536
助处 536
同业 536
名古屋 536
呼应 536
四次会议 536
回购 536
壳@@ 536
平安 536
恋 536
托尼 536
新一届 536
无所作为 536
涅斯 536
相互协作 536
第十章 536
紧急会议 536
谈判者 536
1944 535
Energy 535
Iz@@ 535
Uber 535
no 535
一幕 535
丛书 535
交界 535
人类学 535
共事 535
冤情 535
培训者 535
大战 535
审计处 535
工匠 535
建房 535
无辜者 535
正对 535
留待 535
确凿证据 535
祝@@ 535
离不开 535
考察团 535
肠@@ 535
远东 535
部为 535
Christopher 534
Gro@@ 534
Ty@@ 534
uba 534
ï 534
一席之地 534
与会国 534
亮相 534
刷 534
十五年 534
女权 534
市价 534
布隆 534
年老 534
性伴侣 534
放贷 534
断然 534
条及 534
此类情况 534
泄@@ 534
看过 534
结婚@@ 534
罕 534
面具 534
饮用 534
784 533
EP 533
之春 533
乔治@@ 533
从现在起 533
以该 533
公立医院 533
其以 533
出入证 533
劣 533
向南 533
奶粉 533
宾馆 533
开销 533
当值 533
极小 533
毫@@ 533
秋 533
积极响应 533
米拉 533
较晚 533
辖 533
进军 533
随附 533
集思广益 533
静态 533
841 532
AH 532
GC.11 532
IO@@ 532
Nah@@ 532
Santa 532
ication 532
下班 532
之道 532
书状 532
作出评价 532
供暖 532
依托 532
军用物资 532
出兵 532
刊@@ 532
卡拉奇 532
双赢 532
可用资金 532
告别 532
小口径 532
未登记 532
极端重要 532
根本无法 532
梅斯 532
棍 532
殷@@ 532
磁 532
行凶 532
里海 532
长足进展 532
香港政府 532
090 531
GC.7 531
L.64 531
off 531
ren 531
ush 531
主办@@ 531
内称 531
几代人 531
几内亚共和国 531
剔除 531
受托人 531
役@@ 531
抵 531
植物检疫 531
汽@@ 531
猪@@ 531
直截了当 531
缘@@ 531
自焚 531
贪婪 531
贫铀 531
贺卡 531
趋@@ 531
退职 531
Louis 530
Young 530
ny 530
两难 530
为数众多 530
亚穆苏克罗 530
免职 530
军事训练 530
大举 530
如图 530
换成 530
早前 530
月工资 530
松散 530
柱@@ 530
法定年龄 530
海关总署 530
猜 530
生命统计 530
电台节目 530
相互影响 530
笑话 530
署为 530
访查 530
边界争端 530
陌生人 530
66.@@ 529
Gab@@ 529
UR@@ 529
ional 529
oro 529
out@@ 529
ww@@ 529
传播@@ 529
几处 529
剑 529
叹 529
各家 529
四类 529
塔伊 529
导航系统 529
收留 529
无动于衷 529
智库 529
朝鲜@@ 529
浴@@ 529
灭失 529
犹太@@ 529
留下来 529
矿产品 529
自然科学 529
誉 529
越来越少 529
饮酒 529
795 528
797 528
IBM 528
ija 528
下图 528
其同 528
力行 528
吸收能力 528
大有@@ 528
天安门广场 528
奥拉 528
新泽西州 528
有误 528
核发 528
消化 528
渔获量 528
猛增 528
税务局 528
肝脏 528
驾驶@@ 528
Canal 527
F3 527
Ly@@ 527
ille 527
tic 527
三世 527
不分 527
关头 527
刻意 527
哪儿 527
安全检查 527
官方网站 527
将予 527
并肩 527
得主 527
心目 527
意外事故 527
或性 527
战祸 527
期终 527
横跨 527
毗连 527
测算 527
溢出 527
相提并论 527
紊乱 527
舱位 527
规划者 527
话语 527
路边 527
轻而易举 527
金库 527
铁路运输 527
降排 527
雇@@ 527
鲜 527
｟1｠ 527
43.@@ 526
Elizabeth 526
Has@@ 526
INFCIRC 526
Samawah 526
仓促 526
优异 526
伽@@ 526
修订稿 526
凌驾于 526
国将 526
序号 526
新年 526
服务员 526
服务行业 526
相威胁 526
童子军 526
纪事 526
致开幕词 526
营收 526
谢谢 526
边界问题 526
阿兰 526
零售业 526
101.@@ 525
Will@@ 525
ther 525
一环 525
后台 525
国都 525
圣诞节 525
大型项目 525
夺回 525
巾 525
截肢 525
日时 525
模棱两可 525
温家宝 525
电视频道 525
第五十一条 525
篇章 525
解放后 525
解运 525
诗歌 525
说明性 525
贱民 525
车站 525
较强 525
返 525
719 524
768 524
Nak@@ 524
dh@@ 524
危急情况 524
发薪 524
同届 524
君@@ 524
境@@ 524
安德森 524
易懂 524
梁振英 524
欧洲各国 524
每股 524
满足@@ 524
犯罪预防 524
独角兽 524
现金管理 524
申请加入 524
电站 524
被申请人 524
赢利 524
身后 524
鉴@@ 524
754 523
AU 523
CMP.@@ 523
L.65 523
Pap@@ 523
乌斯 523
亿至 523
克拉克 523
具体实施 523
冬 523
前言 523
安德@@ 523
悔 523
承受能力 523
放行 523
敬 523
数十 523
月刊 523
淘@@ 523
畅 523
百姓 523
监督@@ 523
相近 523
社区@@ 523
纳粹主义 523
虎 523
虎@@ 523
迁出 523
适龄 523
酷 523
长城 523
面粉 523
826 522
EM.@@ 522
争吵 522
供应科 522
偷走 522
其新 522
医护 522
天文 522
夺 522
工资水平 522
有条不紊 522
每桶 522
民阵 522
疫 522
砍刀 522
第三批 522
自卫权 522
资金分配 522
顶峰 522
11.1 521
Ja@@ 521
Spr@@ 521
TE 521
uli 521
互操作性 521
印巴 521
各市 521
哈斯 521
外人 521
多所 521
大相径庭 521
幢 521
投行 521
柴 521
校准 521
桥@@ 521
海尔 521
甘达 521
省市 521
经济体制 521
综合@@ 521
编印 521
艰@@ 521
营救 521
裙@@ 521
身份证明 521
鹰 521
鼓舞人心 521
913 520
INF.2 520
Jan 520
Mustafa 520
Rash@@ 520
Rut@@ 520
~ 520
互为补充 520
去过 520
变化@@ 520
四级 520
宣示 520
探亲 520
操作员 520
更趋 520
竞相 520
给与 520
群落 520
联合阵线 520
裙 520
诉讼案 520
转帐 520
辐射@@ 520
飞来 520
VA 519
ony 519
不全 519
不定期 519
严重@@ 519
中要 519
亮@@ 519
优雅 519
似的 519
冲突法 519
几百万 519
出庭作证 519
塑料@@ 519
届@@ 519
年青 519
成问题 519
斯托@@ 519
普惠 519
淫@@ 519
燃 519
物质条件 519
详@@ 519
那年 519
雪上加霜 519
颂 519
黎巴嫩人 519
Cur@@ 518
Deb@@ 518
Morgan 518
ub 518
上尉 518
不动 518
与众不同 518
两艘 518
充分准备 518
反感 518
启示 518
吸取教训 518
多用途 518
巨型 518
敢@@ 518
有待于 518
比作 518
汉斯 518
特此 518
纸面 518
行政责任 518
该表 518
车道 518
辨别 518
近一半 518
57.@@ 517
Gran@@ 517
II@@ 517
Techn@@ 517
上年 517
不仅如此 517
丰田 517
君主 517
地国 517
奢华 517
屡@@ 517
岗@@ 517
巨大变化 517
市内 517
植物@@ 517
涨幅 517
渎职 517
游泳 517
滴 517
火力 517
简明扼要 517
维修费 517
背井离乡 517
虚拟@@ 517
议院 517
趟 517
通勤 517
速率 517
队长 517
123.@@ 516
80.@@ 516
Nov@@ 516
iw@@ 516
lav 516
oko 516
oz 516
举行会谈 516
二年 516
五十年 516
伊斯@@ 516
僵化 516
哭 516
培训教材 516
增减 516
多党 516
小小的 516
州立大学 516
揭@@ 516
攻 516
晚宴 516
消费国 516
甲基苯丙胺 516
瘤 516
筹 516
编造 516
萨阿布 516
蒂勒 516
AG 515
CM 515
Pav@@ 515
Sheikh 515
ven@@ 515
了不起 515
亚努 515
享 515
休息时间 515
出动 515
剥@@ 515
双亲 515
地理分布 515
壁@@ 515
大幅度提高 515
大致相同 515
契 515
我以 515
摄入量 515
斯州 515
池@@ 515
测量@@ 515
炼@@ 515
甘地 515
疾@@ 515
罩 515
美方 515
至关紧要 515
船运 515
西帝 515
谋取 515
饱和 515
驾车 515
NI@@ 514
世纪末 514
中除 514
亚州 514
兴 514
出处 514
占地 514
味@@ 514
国土@@ 514
尘 514
忙于 514
护理人员 514
无阻 514
既成事实 514
暗 514
未指定 514
杜尚别 514
档案馆 514
生命力 514
罗德 514
胡图 514
该节 514
远大 514
酿@@ 514
68.@@ 513
COP.3 513
Der@@ 513
Fran@@ 513
IE 513
Je@@ 513
Leon@@ 513
Mand@@ 513
acy 513
ild 513
为时尚早 513
具体方法 513
受难 513
变动表 513
可使 513
司法公正 513
围产期 513
寒 513
幅@@ 513
打下基础 513
打工 513
核心@@ 513
梅拉 513
毁掉 513
猎 513
看不出 513
细微 513
耗 513
远比 513
陌生 513
马车 513
786 512
803 512
Africa 512
BE@@ 512
Chris 512
Simon 512
cor@@ 512
℃ 512
万桶 512
仰@@ 512
公开性 512
口中 512
合著 512
哥伦比亚人 512
开明 512
开曼 512
搭 512
模块化 512
海图 512
深表遗憾 512
病患 512
破灭 512
管理中心 512
诀窍 512
还本付息 512
迷人 512
重要@@ 512
1863 511
58.@@ 511
901 511
Agu@@ 511
Anthony 511
Michel 511
eli 511
不下 511
互助会 511
伐 511
发性 511
因子 511
国家安全部 511
居民点 511
彼此间 511
手指 511
搭@@ 511
泽西岛 511
深处 511
痛心 511
第一周 511
结构图 511
钦佩 511
阿以 511
高压 511
729 510
Ast@@ 510
Sher@@ 510
inter@@ 510
ount@@ 510
人口稠密 510
人民法院 510
内以 510
内分泌 510
原谅 510
如该 510
家庭保健 510
家畜 510
强烈呼吁 510
所报 510
所要 510
扫 510
抽取 510
拉迪奇 510
映@@ 510
暗中 510
最深 510
村里 510
毒物 510
画作 510
翻一番 510
联想 510
金融公司 510
｟12｠ 510
1199 509
2.10 509
Android 509
PRO@@ 509
一小 509
不安全感 509
书面发言 509
买入 509
人际关系 509
克鲁@@ 509
军区 509
前向 509
基期 509
外溢 509
富豪 509
尺 509
杰弗里 509
萨拉@@ 509
蒙特@@ 509
财务数据 509
邻 509
问世 509
非同寻常 509
$ 508
Geneva 508
Intelligence 508
Rev.@@ 508
ys 508
五分 508
今天下午 508
何为 508
共管 508
关系紧张 508
增加值 508
大桥 508
存储@@ 508
完全@@ 508
实事求是 508
巫术 508
收件人 508
方应 508
本国货币 508
汉城 508
澳门@@ 508
生命线 508
硬拷贝 508
秘密@@ 508
约翰@@ 508
翁@@ 508
肺炎 508
设保 508
财产权利 508
过份 508
44.@@ 507
Amazon 507
KA 507
Mario 507
Miller 507
ouse 507
right 507
一页 507
克里斯蒂娜 507
六条 507
关照 507
刺杀 507
匿@@ 507
审校 507
所在区域 507
打着 507
抗御 507
拒不@@ 507
最坏 507
死刑犯 507
深层次 507
混杂 507
渗漏 507
熊@@ 507
略低于 507
称号 507
立法权 507
终端用户 507
舟 507
英勇 507
被害 507
转换成 507
辨明 507
郑重 507
｟15｠ 507
713 506
Ach@@ 506
EX@@ 506
GC.13 506
Lam@@ 506
ters 506
一杯 506
冻@@ 506
原教旨主义 506
咸海 506
奶酪 506
实际操作 506
审计@@ 506
我方 506
拘@@ 506
晓 506
有限责任 506
机构@@ 506
热潮 506
片中 506
稳步增长 506
评析 506
译本 506
贫富 506
销售量 506
闭路电视 506
降幅 506
骆驼 506
高度赞扬 506
高度集中 506
｟11｠ 506
1515 505
Alex@@ 505
Mis@@ 505
aro 505
一刀切 505
上载 505
不得已 505
允诺 505
全力以赴 505
包装@@ 505
困 505
德克萨斯州 505
抢掠 505
暂时性 505
最重 505
机组 505
此时此刻 505
法学@@ 505
特质 505
生存@@ 505
碗 505
腊 505
调处 505
财产@@ 505
贸易额 505
领头 505
３ 505
｟10｠ 505
1933 504
837 504
Ministry 504
OU@@ 504
Sun@@ 504
Williams 504
br@@ 504
一无所知 504
下均 504
伦理学 504
公共设施 504
分明 504
卫生状况 504
危难 504
历经 504
城乡@@ 504
多层次 504
对水 504
小姐 504
已到 504
总参谋长 504
揭发 504
攻击性 504
文革 504
本部 504
水陆 504
炮@@ 504
私生活 504
维派 504
罗马@@ 504
荷兰王国 504
语气 504
马尔科 504
｟17｠ 504
12.2 503
1920 503
739 503
CRP.6 503
CS 503
Carr@@ 503
Coll 503
L.69 503
Tab@@ 503
Taylor 503
不满情绪 503
专为 503
二等 503
亚行 503
假肢 503
其核 503
别名 503
国共 503
境内外 503
平日 503
建于 503
怎样才能 503
意想不到 503
投票率 503
潜水@@ 503
秀@@ 503
编写@@ 503
羽@@ 503
聋人 503
西亚@@ 503
通胀率 503
集中管理 503
预发 503
Cy@@ 502
PP@@ 502
PV.4@@ 502
Stud@@ 502
TF 502
XXIV 502
ann 502
ax 502
会议主题 502
华纳 502
卡瓦 502
填埋场 502
增高 502
大湖 502
天才 502
夸 502
威廉姆斯 502
平常 502
微量 502
抗药性 502
拉各斯 502
拉登 502
挤 502
掩@@ 502
无私 502
条向 502
桌上 502
毫无道理 502
水池 502
理顺 502
皮革 502
究 502
绌 502
罢免 502
美术馆 502
自律 502
若泽 502
警卫人员 502
货币贬值 502
黛@@ 502
｟2｠ 502
817 501
881 501
Chan 501
L.66 501
Mam@@ 501
atha 501
elli 501
sh 501
一切顺利 501
伤势 501
午夜 501
头寸 501
妇产科 501
希德 501
床上 501
归还给 501
悉 501
榜 501
浦 501
环球时报 501
电信服务 501
科特 501
统计员 501
跑步 501
逝 501
逢 501
阿贝歇 501
隙 501
12.3 500
A.2 500
Art@@ 500
MISC.2 500
PIC 500
iah 500
一岁 500
人口数量 500
传闻 500
低工资 500
勘察 500
复制件 500
夫斯 500
寡@@ 500
对案 500
尊 500
挣 500
日趋严重 500
极地 500
水体 500
水污染 500
浇@@ 500
第二十二次 500
绝非 500
肾@@ 500
赠@@ 500
逼婚 500
长足 500
集团公司 500
｟16｠ 500
004 499
COM@@ 499
Social 499
农地 499
出租人 499
句子 499
哈格 499
常年 499
数为 499
次年 499
毁@@ 499
民主改革 499
由本 499
盲@@ 499
私刑 499
符合@@ 499
简要地 499
藏品 499
言行 499
金正日 499
｟18｠ 499
84.@@ 498
855 498
Coun@@ 498
Dev@@ 498
Nad@@ 498
Stat@@ 498
人员名单 498
供应者 498
其一 498
农业工人 498
凌@@ 498
初选 498
哈尔@@ 498
多国公司 498
多长时间 498
弗洛@@ 498
急救@@ 498
捆绑 498
无比 498
法拉 498
澳元 498
科隆 498
终 498
蒙古政府 498
负债@@ 498
魏@@ 498
Brook@@ 497
E2 497
TS 497
ms 497
下应 497
丸 497
五分钟 497
亚洲地区 497
偏爱 497
卑 497
囤积 497
在押人员 497
堵@@ 497
德国联邦 497
打乱 497
护堤 497
指导性 497
挖 497
提振 497
摄氏度 497
施虐 497
明确性 497
本手册 497
电动 497
管治 497
系列@@ 497
行政官员 497
讨厌 497
账面 497
麻醉 497
895 496
Acc@@ 496
By@@ 496
Son@@ 496
公债 496
再有 496
加奥 496
喂@@ 496
地方@@ 496
天主教会 496
好奇 496
姑娘 496
嫩 496
巴尔干地区 496
栖@@ 496
水库 496
污蔑 496
滴滴 496
盯 496
计划外 496
费尔 496
资金流 496
闲置 496
除贫 496
雕@@ 496
鲁滨逊 496
10.5 495
18A.@@ 495
F4 495
L.67 495
下以 495
之水 495
假冒 495
僧侣 495
全心全意 495
凯文 495
十氯酮 495
国营企业 495
将视 495
戴维斯 495
清晨 495
电气化 495
看守所 495
税制 495
第三十六条 495
荒唐 495
路段 495
运输业 495
794 494
Cont@@ 494
Santos 494
上星期 494
亏@@ 494
伸张 494
佩奇 494
倍@@ 494
化妆品 494
可查 494
同盟军 494
名列 494
域名 494
子里 494
布基 494
平衡@@ 494
广域网 494
柴@@ 494
直径 494
第三轮 494
粮食@@ 494
统计人员 494
老兵 494
自首 494
越南@@ 494
踪@@ 494
808 493
Dur@@ 493
PF@@ 493
Prog.@@ 493
ands 493
ott 493
业务部门 493
入院 493
军装 493
初级产品 493
千人 493
卫生间 493
堪@@ 493
姑@@ 493
宿 493
席卷 493
库马 493
当场 493
拉丁 493
控罪 493
放开 493
有助 493
查证 493
治外法权 493
瑞典@@ 493
电击 493
第二十九条 493
第八节 493
第四十六 493
终审 493
蒂姆 493
虚弱 493
遗留问题 493
阴道 493
｟9｠ 493
9.6 492
IDB.27 492
KNPC 492
SR.3 492
Vel@@ 492
att 492
北约组织 492
协办 492
坟墓 492
姿势 492
小鼠 492
开心 492
搜@@ 492
易燃 492
替@@ 492
求学 492
流行@@ 492
烦 492
线性 492
薪给 492
论调 492
起首 492
较之 492
鸡蛋 492
73.@@ 491
C1 491
中西部 491
商船 491
室外 491
工党 491
币值 491
念@@ 491
扔@@ 491
投票@@ 491
新政 491
民事案件 491
深重 491
瓦希德 491
直接费用 491
置之不理 491
藉 491
设计@@ 491
贷方 491
长崎 491
｟13｠ 491
2094 490
55.@@ 490
Gom@@ 490
Post 490
Public 490
TPP 490
aud 490
ver 490
well 490
伙@@ 490
体会 490
内应 490
减速 490
卢卡 490
基建 490
对来文 490
常识 490
弗利 490
形形色色 490
正向 490
渔 490
第十八 490
行业协会 490
觉悟 490
议事日程 490
诺维奇 490
达斯 490
部已 490
Engineering 489
Pos@@ 489
ett@@ 489
ood@@ 489
ram 489
sk 489
下定义 489
不提 489
伤者 489
哈迪 489
城堡 489
尼泊尔共产党 489
希奇 489
推介 489
救生 489
文化交流 489
沉重负担 489
沿岸国 489
被选为 489
资源配置 489
选取 489
铸@@ 489
阿瑟 489
鞋@@ 489
高价 489
Khalil 488
imi 488
信条 488
假想 488
各组 488
同心协力 488
唐 488
彼得@@ 488
担保@@ 488
接战 488
无处不在 488
无线@@ 488
更有意义 488
滩 488
煽动性 488
环保@@ 488
碑 488
联系@@ 488
衬衫 488
许可@@ 488
证券交易 488
该章 488
1844 487
201@@ 487
eu 487
不禁 487
互联互通 487
兵营 487
危害性 487
土耳其人 487
映 487
渺茫 487
管制中心 487
系统实施 487
纳米材料 487
贮器 487
陪审员 487
颜@@ 487
高调 487
2.0 486
CL 486
CP.3 486
CRP.7 486
㈨ 486
上海@@ 486
不得而知 486
人身攻击 486
修补 486
值此 486
发行@@ 486
可惜 486
坝 486
忆 486
描@@ 486
波斯湾 486
舰队 486
计价 486
贵宾 486
赫拉特 486
远处 486
迫 486
遍 486
驻守 486
高估 486
｟3｠ 486
不一 485
保障法 485
叛国罪 485
婆 485
急迫 485
拍卖会 485
昌 485
桑迪 485
武器库 485
流利 485
现实@@ 485
电车 485
砂@@ 485
统计分析 485
途@@ 485
BO@@ 484
COP.10 484
__ 484
ido 484
三十 484
丛林 484
初衷 484
十分之一 484
哀@@ 484
墓@@ 484
外表 484
大湖地区 484
宝贵@@ 484
帮佣 484
度量 484
当着 484
想想 484
战争@@ 484
探雷 484
提出抗议 484
新高 484
洗劫 484
海军陆战队 484
炼油 484
狭小 484
直言不讳 484
膳宿 484
询 484
院子 484
９ 484
0.3% 483
807 483
86.@@ 483
Pedro 483
acc@@ 483
ario 483
ech 483
ian@@ 483
intern@@ 483
oph@@ 483
res 483
中所提 483
伤口 483
伯尔尼 483
务农 483
堪培拉 483
大学教授 483
头盔 483
市政厅 483
德里@@ 483
涌 483
爆炸@@ 483
班子 483
第三十二条 483
联普 483
至高无上 483
讨@@ 483
调阅 483
醚 483
1.9% 482
Ras@@ 482
Som@@ 482
alla 482
ia@@ 482
ix@@ 482
ongo 482
一一 482
人才库 482
人诉 482
估计值 482
倒台 482
公开信 482
只用 482
大亨 482
巡逻艇 482
弯@@ 482
旁观者 482
无保留 482
溴化 482
第十三章 482
缠@@ 482
节省@@ 482
若要 482
赋 482
长途@@ 482
阿卜杜 482
麻风病 482
818 481
ABB 481
C.19 481
WTO 481
erty 481
上扬 481
两轮 481
为人所知 481
人才外流 481
公主 481
塞尔吉奥 481
大大@@ 481
干脆 481
文化大革命 481
暗淡 481
有步骤 481
款所列 481
注@@ 481
燃烧@@ 481
珍惜 481
电影院 481
空域 481
跟@@ 481
运出 481
0.3 480
12.1 480
54.@@ 480
CEO 480
CP.9 480
IDB.30 480
MH@@ 480
May 480
SG@@ 480
iki 480
rich 480
三重 480
不明朗 480
不需 480
伐@@ 480
入口处 480
军费 480
印刷@@ 480
即该 480
吐@@ 480
妥善处理 480
封闭式 480
已予 480
度假村 480
愈来愈 480
挡@@ 480
无益 480
法兰克福 480
波斯 480
用到 480
联络网 480
近亲 480
退席 480
重返家园 480
问候 480
阿塞拜疆人 480
零增长 480
771 479
ICC 479
Jones 479
Sir@@ 479
UR 479
rel@@ 479
军力 479
加工厂 479
失窃 479
悲哀 479
新兴国家 479
时髦 479
明智地 479
星巴克 479
有所@@ 479
村长 479
渗透到 479
码@@ 479
粗略 479
胜地 479
蓄水 479
通讯员 479
锁@@ 479
003 478
802 478
832 478
Miguel 478
Nam@@ 478
allah 478
aza 478
ration 478
事发 478
内多 478
冲绳 478
功能性 478
女囚 478
尼克松 478
布鲁克 478
引出 478
彩 478
微粒 478
教师@@ 478
昆 478
桂@@ 478
病床 478
茂@@ 478
莱尔 478
藤 478
藻 478
表情 478
诺斯 478
韦尔 478
项目经理 478
824 477
866 477
Mart 477
Philip 477
ington 477
une 477
作案 477
信任@@ 477
光灯 477
发送@@ 477
句@@ 477
可供使用 477
同龄人 477
履行合同 477
崩@@ 477
年复一年 477
摩洛 477
无核区 477
泪 477
烂 477
第五十五 477
腐 477
自毁 477
衬@@ 477
起源于 477
除去 477
黑莓 477
｟4｠ 477
｟7｠ 477
COM.1 476
lie 476
tha 476
两款 476
付出代价 476
分立 476
利奥 476
协会主席 476
即以 476
各式各样 476
吉特 476
天然@@ 476
布伦@@ 476
平时 476
廖@@ 476
感知 476
振 476
杨 476
染上 476
栏中 476
汉密尔顿 476
海拔 476
滨@@ 476
用词 476
盆 476
社区活动 476
符 476
设于 476
起伏 476
104.@@ 475
7.8 475
BT 475
CB 475
NBC 475
aft 475
下院 475
不解 475
两极分化 475
传说 475
使之能 475
多语种 475
崭新 475
杜阿尔特 475
永 475
污染源 475
波兰共和国 475
灯光 475
盖拉 475
篮球 475
莱昂 475
螺@@ 475
课税 475
819 474
Aj@@ 474
Benjamin 474
Bri@@ 474
NP@@ 474
SR.1 474
ayy@@ 474
ents 474
por@@ 474
不为过 474
之高 474
优惠@@ 474
公安@@ 474
各县 474
合在一起 474
咨询@@ 474
对裁 474
扶轮社 474
无耻 474
步兵 474
涂 474
球迷 474
男女双方 474
社保 474
第四批 474
落到 474
评论家 474
调整@@ 474
质量@@ 474
远高于 474
避孕措施 474
｟0｠ 474
Ahm@@ 473
Bus@@ 473
CMW 473
Riv@@ 473
交易量 473
人性化 473
养人 473
加息 473
卡路里 473
可接受性 473
因而是 473
失职 473
婚姻@@ 473
学习班 473
席尔瓦 473
弗吉尼亚 473
手工艺品 473
效率高 473
教育部长 473
机上 473
树脂 473
波动性 473
激励机制 473
熟 473
用法 473
畅@@ 473
贝里 473
进口量 473
鄙视 473
障 473
非苏 473
顺序排列 473
838 472
90@@ 472
Andre@@ 472
Ec@@ 472
L.68 472
Mid@@ 472
ange 472
ris 472
亚松森 472
公文 472
几十个 472
只得 472
史蒂文 472
多起 472
完成率 472
彦 472
怒@@ 472
排污 472
控股公司 472
政坛 472
敢于 472
梅尔@@ 472
治外 472
流网 472
混为一谈 472
演化 472
病毒@@ 472
表达@@ 472
见过 472
身在 472
躲 472
醒 472
黑市 472
KPC 471
sy@@ 471
上周四 471
中等学校 471
假装 471
具体办法 471
加工区 471
加征 471
台湾@@ 471
四所 471
垮台 471
底线 471
廉洁 471
归为 471
心智 471
性价比 471
总结经验 471
损失赔偿 471
撤 471
档案管理 471
法国人 471
深陷 471
电信公司 471
睦邻 471
礼貌 471
美国大使馆 471
贷款人 471
阿塔 471
高加索地区 471
1.1% 470
835 470
882 470
Add@@ 470
Christian 470
Fac@@ 470
Mug@@ 470
ria 470
wit@@ 470
伊斯梅尔 470
供需 470
南斯拉夫联邦 470
厌@@ 470
哨@@ 470
塌 470
开战 470
情况@@ 470
情理 470
掩埋 470
暴发 470
更多@@ 470
没人 470
法理 470
溢价 470
滞 470
矿藏 470
社工 470
粪便 470
纽伦堡 470
维基 470
Do@@ 469
Holl@@ 469
I.@@ 469
aq 469
enga 469
ern 469
交易员 469
休斯顿 469
全是 469
匪@@ 469
卧@@ 469
双管齐下 469
叛逃 469
均匀 469
堵 469
宣讲 469
工兵 469
年龄结构 469
并不知道 469
成品 469
普遍@@ 469
气球 469
独裁统治 469
盖尔 469
组应 469
肠 469
西伯利亚 469
调来 469
129.@@ 468
915 468
946 468
985 468
Artawi 468
ande 468
ander 468
enberg 468
下个月 468
互联 468
五份 468
仗 468
任何迹象 468
合算 468
囚徒 468
女方 468
学期 468
富于 468
尼古拉 468
惩 468
提高质量 468
搭乘 468
新途径 468
时以 468
时日 468
杀手 468
沃尔 468
灌@@ 468
第二十五次 468
调查科 468
谈判桌 468
车库 468
那法索 468
长寿 468
阿斯@@ 468
陷@@ 468
｟14｠ 468
63.@@ 467
69.@@ 467
Haw@@ 467
Justice 467
Kennedy 467
Mill@@ 467
Ram 467
eck 467
iana 467
一般说来 467
上传 467
不见 467
不计 467
二十四 467
南共市 467
古董 467
塞里 467
希伯@@ 467
当期 467
放权 467
欢迎@@ 467
电子信息 467
种植者 467
第二十 467
第十一章 467
第四十条 467
营企业 467
赫拉 467
运入 467
鸟@@ 467
４ 467
｟5｠ 467
030@@ 466
1556 466
891 466
Angela 466
CONF.192 466
Cs 466
Kerry 466
Lyn@@ 466
二字 466
卫生法 466
四十年 466
国际劳工局 466
国际合作部 466
垫@@ 466
堵塞 466
威慑@@ 466
很多年 466
悔@@ 466
愤@@ 466
抚@@ 466
概念性 466
比利时政府 466
熟练@@ 466
状况不佳 466
看好 466
筑@@ 466
组群 466
自制 466
重度 466
随便 466
雷克 466
｟6｠ 466
1B 465
Baz@@ 465
CP.2 465
Gil@@ 465
Lewis 465
Susan 465
iev 465
˙ 465
中南部 465
价格下降 465
凶杀 465
哈米德 465
坚守 465
学习@@ 465
就让 465
年于 465
戏剧性 465
搭载 465
65.@@ 464
796 464
SNA 464
omo 464
ž 464
交换@@ 464
以性 464
俘虏 464
充分@@ 464
全局 464
受到@@ 464
善后 464
多种不同 464
家事 464
射杀 464
急切 464
数日 464
断绝 464
本意 464
本批 464
殿 464
汇票 464
游民 464
演讲人 464
玛雅 464
用餐 464
类人 464
精通 464
维茨 464
血清 464
警察法 464
阅 464
Abe 463
Francis 463
Sum@@ 463
asa 463
nd@@ 463
oss@@ 463
para 463
publ@@ 463
不断@@ 463
中型企业 463
丹尼斯 463
亲善大使 463
人体器官 463
人民阵线 463
件@@ 463
充分证明 463
加热 463
半小时 463
受人 463
可据 463
埃利亚 463
奥利@@ 463
怀特 463
旅游部 463
板块 463
消毒 463
生气 463
童兵 463
肌@@ 463
财政负担 463
赫尔姆斯 463
避难者 463
鲸 463
｟8｠ 463
933 462
ABC 462
Alvar@@ 462
Anne 462
ady 462
ert@@ 462
严重危害 462
人用 462
出勤 462
募捐 462
外部环境 462
天主教徒 462
奥斯 462
战备 462
攻击行为 462
核武 462
棒@@ 462
率低 462
生物物理 462
疾 462
绍@@ 462
绿化 462
美国司法部 462
自始至终 462
英国广播公司 462
阿姆@@ 462
雷拉 462
高技能 462
0.1% 461
Coo@@ 461
Eduardo 461
Jalibah 461
KM 461
Mol@@ 461
cha 461
ih 461
ox 461
东京国际 461
偷盗 461
偿@@ 461
几近 461
喀 461
四家 461
对养 461
尔克 461
屏 461
属事 461
巧合 461
布雷@@ 461
庄@@ 461
恐怖@@ 461
招标书 461
斯科普里 461
杀人@@ 461
毒理学 461
沃尔夫 461
滑雪 461
电信@@ 461
统筹兼顾 461
缅怀 461
联合政府 461
诱使 461
钠 461
随信 461
魁北克省 461
1546 460
1A 460
Bag@@ 460
Kong 460
Sem@@ 460
Tem@@ 460
oki 460
中点 460
之列 460
乔纳森 460
冈 460
农耕 460
净水 460
前进方向 460
十名 460
博爱 460
发生@@ 460
和谈 460
地下@@ 460
情报人员 460
概念@@ 460
母体 460
添 460
演奏 460
班加罗尔 460
甘蔗 460
由衷 460
科军 460
组将 460
结构@@ 460
造访 460
高度评价 460
114.@@ 459
999 459
Lou@@ 459
Rahman 459
So@@ 459
Vall@@ 459
avi 459
iano 459
一切都是 459
产生@@ 459
共达 459
半期 459
坐下 459
批次 459
提要 459
气候系统 459
热心 459
符合要求 459
诸项 459
调至 459
路程 459
陷 459
鞋子 459
857 458
862 458
884 458
CP.1 458
Dr 458
ED 458
IG@@ 458
ND 458
any@@ 458
enz@@ 458
一无@@ 458
作一 458
击退 458
北纬 458
同情心 458
哈马德 458
底特律 458
开发者 458
抗争 458
拥@@ 458
推崇 458
时分 458
民主制 458
法律系 458
特雷@@ 458
现政府 458
着眼 458
神奇 458
第二级 458
纳比 458
自觉 458
表达方式 458
财年 458
贫乏 458
逼@@ 458
阿尔巴尼亚人 458
预算@@ 458
2.3% 457
CP.13 457
DVD 457
EG@@ 457
PL 457
iga 457
oria 457
三岁 457
不利因素 457
会议纪要 457
传译 457
催泪瓦斯 457
公共广播 457
向外 457
增加数 457
外语 457
客观@@ 457
家庭主妇 457
家长@@ 457
应答 457
所含 457
摆着 457
督促 457
符合标准 457
紧要 457
纬度 457
近十年 457
道德行为 457
锋 457
马来@@ 457
005 456
918 456
Ern@@ 456
IDB.39 456
Jonathan 456
Kad@@ 456
LC 456
Naz@@ 456
Yas@@ 456
afi 456
pez 456
se@@ 456
上要 456
侮辱性 456
出手 456
发明@@ 456
埃塞俄比亚人 456
夫妻@@ 456
套房 456
客房 456
悄悄 456
惧怕 456
成都 456
措 456
摧残 456
旋转 456
服饰 456
本可 456
监测站 456
职称 456
职级 456
行政官 456
角逐 456
近些年 456
陈旧观念 456
马克斯 456
鸣@@ 456
2.2% 455
8.7 455
DC2 455
Prot@@ 455
Tan 455
enda 455
red 455
sc@@ 455
一家人 455
互动性 455
侵扰 455
公证人 455
劳动保护 455
可兑换 455
司为 455
合作@@ 455
地中海地区 455
外援 455
干燥 455
彻 455
总则 455
戈马派 455
接见 455
时间推移 455
[...]
