the 23319895
, 15750556
of 15001011
and 12078686
. 11631133
to 9364997
in 6988818
a 4040879
for 3696445
on 3295749
that 3150783
) 2914313
( 2906841
The 2540944
/ 2126270
with 2040059
by 2035184
as 1860705
is 1715354
be 1565306
&quot; 1512206
its 1300719
; 1293014
was 1235744
at 1123657
from 1070799
United 1061582
are 1059606
&apos;s 1030165
or 1029842
: 957004
an 931598
Nations 876117
which 861601
their 845645
has 809183
have 805464
it 801360
not 789316
In 786350
Committee 723430
had 702131
States 685432
all 674853
also 672179
international 671143
been 670229
were 641514
this 626438
development 589652
other 588910
will 573126
countries 566849
rights 554388
A 544498
should 521507
would 513111
including 505079
women 497958
report 487585
Council 468854
such 449216
support 447657
national 446249
human 439515
resolution 433189
under 428431
work 401430
information 400790
It 400650
1 393230
State 375094
implementation 370239
more 365920
- 356843
General 350465
Government 342529
Assembly 340699
activities 339235
Convention 339214
per 330696
Mr. 327912
against 327705
into 326381
through 323896
made 320160
$ 314413
Commission 312902
between 309863
those 307663
I 300925
2 299290
new 299279
his 299221
law 299182
session 298966
they 296532
International 292711
country 291092
one 288615
system 284626
security 283286
measures 279426
children 275528
cent 272098
well 269565
organizations 269343
Secretary-General 265737
efforts 265249
programme 262476
who 262042
resources 258742
meeting 258660
cooperation 258310
out 257897
said 255935
regional 254221
any 246264
3 246159
but 244980
issues 244376
draft 243289
number 241013
services 239103
provide 238118
economic 235623
Development 235514
these 233884
ensure 233704
financial 233591
social 232844
process 230321
could 229630
assistance 229239
use 228365
people 228313
Security 224492
Conference 224303
can 223592
than 223308
management 223061
order 222223
Group 221337
he 221022
Rights 220488
there 220448
some 218286
Republic 217965
two 217961
provided 217401
further 214940
programmes 214933
paragraph 214838
may 213243
areas 212508
public 211854
need 210966
developing 209660
about 208099
article 207435
This 206759
members 203883
during 203875
no 202742
health 202238
within 202021
4 201958
years 201576
education 200818
Office 200051
only 199361
period 199163
5 199007
them 198447
level 198389
time 197053
Special 197016
staff 196833
particular 195345
held 193762
10 193558
party 193093
we 192560
training 192156
persons 191083
relevant 190791
Human 190179
right 189361
political 187464
over 186765
policy 186506
&apos; 186415
legal 186144
review 185090
b 182337
protection 179837
adopted 178236
access 177709
must 175615
6 173992
take 173428
As 173356
first 173250
action 172315
being 171873
At 171535
up 171027
regard 170814
most 168020
December 166079
among 165400
decision 165334
global 164521
year 164119
violence 162215
related 161883
community 161618
so 160536
our 159412
continue 158662
recommendations 158501
both 158291
effective 158014
7 157890
taken 157231
important 157126
parties 156168
role 155779
many 155389
following 155226
part 155210
where 155026
progress 154711
reports 152822
established 152749
million 152659
We 152334
situation 150878
technical 150546
Programme 150208
15 148750
respect 148552
Member 148125
National 147076
12 146754
world 146713
2005 146279
special 146217
working 145590
if 145079
when 145079
budget 144573
Africa 144491
groups 143881
cases 143123
President 141552
institutions 141205
policies 140901
China 140804
view 140738
gender 139717
June 139286
Organization 139215
accordance 139156
30 139062
local 138938
8 138864
2008 138200
data 137610
2006 137504
11 136599
2010 136460
since 135893
2009 135784
peace 135558
before 134760
capacity 134391
Board 133604
On 132788
basis 132311
noted 131932
make 131735
2004 131614
Parties 131584
three 130802
9 130386
20 129879
increase 129698
same 129479
set 129277
African 129007
14 128817
see 128807
framework 128396
based 127929
include 127680
necessary 127505
c 127241
2007 126841
World 126827
trade 126808
agenda 126193
needs 125914
appropriate 125671
proposed 125532
2011 125381
society 125380
group 125177
developed 125137
while 124591
meetings 123923
case 123091
sustainable 122519
13 121963
general 121915
July 121081
sector 120951
area 120622
present 120433
provisions 120393
project 120347
without 120156
possible 119684
region 119589
her 119476
issue 119424
particularly 119291
after 118905
2003 118842
military 118377
address 118324
To 118320
d 117621
Social 117473
2000 117348
18 116967
promote 116239
2002 116108
used 115861
specific 115682
available 115564
continued 115500
nuclear 115494
Economic 115313
16 115307
levels 115088
participation 115023
account 114908
2012 114064
do 113827
full 113681
civil 113657
considered 112927
concerned 112886
European 112861
poverty 112835
shall 112749
requirements 112492
authorities 112134
consideration 111909
projects 111563
plan 111554
Working 111402
Court 111340
addition 110939
current 110450
place 110163
various 109910
humanitarian 109778
He 109490
-- 109261
Women 108859
required 108509
each 107951
operations 107907
2001 107636
importance 107541
New 107341
Fund 107236
field 107031
delegation 106985
police 106586
Action 106113
bodies 106025
agencies 105661
child 104540
17 104374
additional 104328
approach 104159
government 103806
end 103627
31 103552
Department 103236
impact 102866
However 102447
submitted 102086
19 102057
reporting 102047
September 101705
conflict 101299
1999 100924
Secretariat 100799
Union 100756
future 100570
November 99871
context 99861
upon 99713
requested 99534
weapons 99433
agreed 99410
private 99322
For 99289
population 99219
control 99152
October 98699
May 98624
Governments 98561
major 98085
change 98076
item 97794
monitoring 97768
Act 97595
towards 97049
21 96757
increased 96326
total 96141
March 96118
25 96114
now 96109
systems 96097
legislation 95878
Law 95658
document 95438
domestic 94663
discrimination 94651
establishment 94583
conditions 94421
mandate 94098
Rapporteur 94012
2013 93917
technology 93551
Mission 93414
given 93210
resolutions 92689
There 92403
because 92256
way 92097
concern 91983
mechanisms 91558
organization 91489
practices 91318
especially 91097
note 91076
comprehensive 90938
22 90691
provision 90687
costs 90369
existing 90301
how 90299
1998 90246
did 89967
23 89933
No. 89911
justice 89821
coordination 89599
family 89492
&#91; 89430
Protocol 89389
like 89381
contained 89258
whether 89157
E 88967
South 88888
status 88827
included 88785
representatives 88720
challenges 88620
24 88507
strengthen 88469
attention 88443
member 88406
January 88380
April 87894
personnel 87593
&#93; 87403
key 87398
e 87302
expressed 87214
standards 87176
Article 86698
received 86555
improve 86386
result 86372
implement 86054
reported 86005
armed 85887
Ms. 85718
force 85396
relating 85380
risk 85302
procedures 85061
different 84814
means 84237
several 84167
response 84121
concerning 84029
indigenous 83876
what 83753
therefore 83678
consider 83471
request 83444
i 83443
still 83270
providing 83260
Declaration 83189
S 83144
They 82823
environment 82398
terms 82289
fully 81810
second 81629
criminal 81606
regarding 81386
recent 81360
very 81069
environmental 81001
Affairs 80945
UNDP 80886
funds 80646
above 80410
responsibility 80000
victims 79794
service 79693
entitled 79583
care 79519
high 79346
initiatives 79333
life 79212
Ministry 79047
strategy 79047
principles 78842
para 78721
assessment 78588
men 78419
taking 78398
provides 78395
representative 78351
26 78266
strengthening 78003
example 77798
significant 77664
Advisory 77555
obligations 77286
my 77227
agreement 77186
With 77166
growth 77043
develop 76972
amount 76800
rules 76739
even 76605
While 76404
adoption 76395
she 76103
statement 76067
results 75959
equality 75910
food 75899
lack 75872
Executive 75568
water 75489
28 75461
small 75373
These 75345
27 75050
addressed 75014
planning 74810
due 74732
Arab 74389
trafficking 74318
research 73991
help 73953
HIV 73936
sexual 73795
employment 73678
Service 73654
peacekeeping 73649
own 73590
secretariat 73581
funding 73509
you 73357
-@@ 73234
Palestinian 73105
last 73058
commitment 73054
least 72854
focus 72851
market 72789
mission 72615
II 72553
decisions 72508
partners 72427
prevention 72341
missions 72310
main 72060
subject 71931
actions 71652
question 71637
reform 71488
common 71041
investment 70927
officials 70889
contributions 70857
dialogue 70791
business 70211
might 70119
land 69863
29 69789
February 69518
organized 69392
able 69117
biennium 69076
supported 68927
does 68895
four 68816
August 68786
production 68705
fact 68591
establish 68276
rate 68163
cultural 68153
recommended 68122
strategies 68017
needed 67946
age 67912
disarmament 67692
consultations 67669
operational 67597
Report 67447
practice 67133
application 67069
rule 67063
strategic 66991
reduction 66983
problems 66960
foreign 66902
communities 66873
good 66859
already 66825
better 66533
called 66372
forces 66365
violations 66298
decided 66245
America 66192
girls 66067
priority 65882
however 65704
laws 65681
five 65651
60 65627
regular 65563
plans 65436
peoples 65194
annual 65111
terrorism 64900
Representative 64877
implementing 64872
administrative 64701
posts 64633
AIDS 64477
analysis 64427
But 64353
crime 64338
joint 64247
promoting 64237
notes 64202
All 64126
aimed 64117
treatment 64117
promotion 64106
Millennium 64013
space 63668
performance 63665
offices 63568
Centre 63462
equipment 63445
non-governmental 63290
agreements 63181
implemented 63174
energy 63119
person 62935
High 62926
best 62892
1997 62865
Israel 62783
prevent 62575
behalf 62462
involved 62423
expected 62371
documents 62335
evaluation 62329
un@@ 62308
potential 62273
That 62241
Iraq 62004
annex 61983
office 61961
took 61933
achieve 61838
arms 61838
previous 61682
During 61543
acts 61443
section 61422
past 61394
workers 61319
often 61229
official 61208
become 61154
50 61144
author 61010
committed 60979
approved 60944
cost 60887
S@@ 60746
greater 60744
early 60570
together 60527
opportunities 60477
property 60455
requests 60443
quality 60415
experts 60408
third 60403
instruments 60398
objectives 60359
responsible 60325
Global 60316
Chinese 60302
treaty 60275
study 60177
facilitate 60132
position 60110
individual 60082
rural 59997
processes 59951
informed 59945
affected 59897
climate 59845
building 59795
enhance 59712
? 59635
ensuring 59542
meet 59430
knowledge 59312
certain 59201
Panel 59173
clear 58766
Division 58716
2014 58701
steps 58700
A@@ 58618
forms 58602
adequate 58551
discussion 58484
stated 58463
another 58358
recommendation 58187
basic 58186
serious 58024
interest 57972
line 57830
living 57713
Central 57703
guidelines 57701
carried 57685
40 57633
Information 57603
Plan 57550
income 57401
C 57123
limited 57029
facilities 57022
Asia 56767
re@@ 56734
mechanism 56724
found 56562
media 56503
B@@ 56487
financing 56439
increasing 56231
currently 56218
goals 56190
crisis 56147
Bank 56097
awareness 56089
form 56043
undertaken 55955
free 55950
essential 55863
benefits 55818
independent 55748
labour 55651
East 55625
proposals 55506
next 55371
understanding 55364
One 55337
large 55305
concerns 55175
assist 55173
principle 55146
conducted 55108
us 55053
Tribunal 55015
issued 54818
matters 54795
arrangements 54647
months 54618
communication 54590
protect 54456
making 54336
individuals 54240
identified 54163
non-@@ 54060
conduct 54047
school 54002
Code 53915
others 53852
Covenant 53812
infrastructure 53781
Management 53696
de 53678
exchange 53611
integrated 53383
Criminal 53373
statements 53343
him 53190
matter 53093
crimes 52978
Treaty 52956
Support 52921
much 52899
overall 52803
former 52746
procedure 52632
proposal 52617
equal 52581
contribute 52580
Forum 52416
recognized 52311
Japan 52297
less 52235
just 52186
commitments 52176
remains 52143
prepared 52097
Russian 52090
detention 52012
economy 51992
presented 51970
entities 51860
purpose 51818
negotiations 51788
natural 51785
then 51735
Minister 51730
problem 51638
articles 51488
light 51447
governance 51390
57 51328
every 51205
nature 51096
value 51069
communications 51056
days 51015
state 51015
changes 50951
functions 50753
aspects 50718
led 50695
s 50688
give 50633
transfer 50580
Sudan 50337
authority 50253
American 50188
medical 50128
UNICEF 50114
institutional 50080
Other 49980
yet 49883
enforcement 49865
evidence 49798
experience 49766
young 49734
recommends 49714
D@@ 49713
G@@ 49688
pursuant 49623
Some 49609
stakeholders 49587
Commissioner 49528
thus 49502
court 49489
freedom 49415
opportunity 49398
remain 49264
dated 49125
administration 49092
resource 49046
reduce 49028
Federation 48888
according 48883
date 48851
follow-up 48799
Democratic 48654
below 48553
Israeli 48533
58 48482
list 48468
contribution 48441
delegations 48341
P@@ 48325
Justice 48317
capacity-building 48307
primary 48298
Review 48269
59 48228
Korea 48204
Director 48116
disabilities 48069
manner 48061
% 47997
centres 47944
An 47909
York 47904
effect 47890
families 47810
regions 47792
ongoing 47770
55 47754
internal 47754
preparation 47725
multilateral 47706
six 47633
65 47506
indicated 47476
o 47453
Constitution 47450
UNCTAD 47444
higher 47438
using 47438
Geneva 47380
conference 47374
refugees 47345
referred 47342
sessions 47291
point 47243
officers 47221
If 47220
having 47207
T@@ 47203
61 47072
1996 47070
judicial 47062
integration 46992
Unit 46939
compliance 46864
reference 46818
Regional 46804
fundamental 46764
Goals 46760
62 46735
M@@ 46733
L@@ 46730
day 46714
UNEP 46586
put 46500
body 46395
companies 46321
direct 46318
effectively 46266
K@@ 46201
Since 46195
critical 46193
welcomed 46131
N@@ 46122
rates 46116
safety 46033
power 45981
positive 45887
alia 45880
achieved 45854
outcome 45850
inter 45790
forward 45729
informal 45704
improving 45682
64 45588
indicators 45517
sectors 45472
until 45281
guidance 45180
Meeting 45130
around 45120
long 45120
revised 45119
discussions 45082
63 45068
connection 45053
schools 45027
Europe 45019
substantive 44977
53 44942
III 44877
E@@ 44837
claims 44826
52 44804
Canada 44790
exercise 44788
priorities 44771
views 44715
capital 44690
Trade 44572
combat 44550
collaboration 44493
35 44376
initiative 44329
Health 44279
Kingdom 44269
54 44268
paragraphs 44247
Summit 44220
participants 44204
His 44125
allow 44100
share 44065
hours 44061
enable 44045
Cooperation 43893
assets 43833
final 43745
far 43682
expert 43646
effects 43599
Institute 43586
active 43480
objective 43391
throughout 43381
Permanent 43313
vulnerable 43262
estimated 43238
effort 43228
Chairman 43192
range 43176
Implementation 43157
submit 43151
She 43141
lead 43137
addressing 43135
ways 43027
Agreement 43016
abuse 42997
act 42989
B 42982
course 42977
war 42973
elements 42737
56 42720
regulations 42583
* 42572
civilian 42559
Protection 42513
introduced 42455
material 42409
territory 42392
situations 42351
32 42346
benefit 42253
According 42204
includes 42106
effectiveness 42056
drug 42020
Charter 41938
India 41935
sources 41843
done 41701
F@@ 41618
items 41611
North 41585
proceedings 41556
technologies 41538
purposes 41509
34 41494
close 41465
legislative 41387
participate 41295
C@@ 41192
positions 41152
1995 41139
UNHCR 41096
achieving 41094
require 41093
66 41055
poor 41033
team 41019
k@@ 40996
company 40961
Crime 40901
questions 40870
torture 40851
term 40821
Public 40782
supporting 40608
open 40602
33 40601
across 40579
in@@ 40579
delivery 40558
cannot 40557
activity 40509
death 40501
strong 40466
materials 40457
continues 40445
universal 40367
identify 40342
whose 40291
few 40175
Agency 40158
return 40089
intergovernmental 40063
improved 40041
post 40032
text 40005
elections 39998
products 39997
travel 39985
partnership 39955
Furthermore 39926
leaders 39903
Section 39869
scope 39778
8@@ 39728
debt 39665
&apos;t 39531
central 39526
transport 39497
circumstances 39409
f 39341
call 39284
Children 39235
H@@ 39226
aid 39160
associated 39103
events 39084
Services 39069
table 39062
actors 39033
R@@ 38934
g 38907
relation 38881
Such 38809
responsibilities 38743
Afghanistan 38731
itself 38659
terrorist 38644
developments 38535
investigation 38489
create 38427
Political 38390
establishing 38329
maintenance 38321
45 38311
36 38249
housing 38091
37 38015
vote 37982
billion 37890
interests 37812
down 37789
met 37782
comments 37711
Force 37710
operation 37663
periodic 37659
encouraged 37616
wish 37607
religious 37580
citizens 37555
balance 37552
transition 37545
accountability 37460
continuing 37453
build 37448
67 37432
outside 37395
bring 37283
claim 37263
People 37260
remained 37221
core 37213
play 37202
ing 37193
methods 37189
relations 37161
prior 37156
rather 37093
Civil 36948
39 36901
encourage 36888
pay 36884
Education 36870
similar 36798
t 36741
displaced 36709
Cuba 36692
focused 36692
Pacific 36655
partnerships 36652
51 36604
long-term 36553
38 36521
great 36417
goods 36387
difficult 36371
Joint 36271
physical 36253
creation 36193
applied 36133
themselves 36082
Congo 36021
leadership 35995
By 35982
voluntary 35953
threat 35951
Headquarters 35895
extent 35882
Child 35848
directly 35790
Caribbean 35715
courts 35687
er 35671
initial 35656
completed 35649
treaties 35648
Mexico 35557
structure 35486
procurement 35468
consultation 35417
Syrian 35360
Environment 35323
es 35170
urban 35122
traditional 35080
Islamic 34953
Although 34928
paid 34908
9@@ 34901
100 34865
Sustainable 34862
jurisdiction 34851
female 34813
UNFPA 34811
ability 34760
obligation 34754
educational 34696
calls 34685
low 34677
points 34667
France 34659
raised 34657
US 34650
68 34631
violation 34609
youth 34580
economies 34572
factors 34552
peaceful 34496
although 34492
me 34448
language 34429
41 34416
reflected 34411
fund 34404
challenge 34375
efficiency 34372
Party 34360
students 34323
apply 34315
Peace 34312
contract 34311
demand 34291
compensation 34271
consensus 34270
Australia 34223
stability 34212
University 34170
Also 34142
recently 34102
capacities 34069
adopt 34027
discussed 33974
48 33940
deal 33936
recovery 33932
specialized 33931
debate 33886
beyond 33866
average 33826
s@@ 33808
Under 33795
construction 33750
emergency 33747
regime 33730
NGOs 33714
markets 33661
statistics 33640
practical 33626
suggested 33589
signed 33579
receive 33554
supply 33522
compared 33510
detailed 33504
letter 33491
distribution 33485
states 33460
ethnic 33422
culture 33398
studies 33386
judges 33367
44 33334
advice 33325
bilateral 33303
whole 33300
network 33282
42 33265
paper 33211
7@@ 33201
A. 33194
Brazil 33176
illegal 33164
Persons 33148
growing 33148
external 33131
O@@ 33109
y@@ 33075
W@@ 33037
your 33024
resulting 32968
either 32967
asked 32953
West 32942
approaches 32860
49 32809
goal 32773
Iran 32750
Germany 32710
temporary 32707
home 32702
monitor 32691
brought 32659
units 32627
successful 32621
applicable 32571
industry 32516
standard 32503
involving 32460
tools 32411
expenditure 32403
implications 32399
exploitation 32360
sanctions 32347
workshops 32336
concluded 32317
Discrimination 32276
46 32249
air 32244
Foreign 32179
Optional 32156
majority 32129
launched 32125
UNIDO 32111
requires 32043
destruction 32040
real 32039
designed 32029
senior 32024
reached 32014
parts 31964
2015 31944
Latin 31905
achievement 31870
created 31822
scientific 31811
Moreover 31777
today 31757
43 31735
e@@ 31679
Disarmament 31644
maintain 31614
source 31612
submission 31603
criteria 31587
Administrative 31573
again 31529
sufficient 31469
conferences 31444
subregional 31442
consistent 31424
once 31412
respective 31412
47 31373
aim 31344
transparency 31312
seek 31285
Annex 31263
Pakistan 31236
covered 31236
Beijing 31205
skills 31203
appreciation 31196
Prevention 31163
operating 31065
later 31021
off 31017
decision-making 30963
complete 30922
illicit 30905
Administration 30889
stressed 30873
Operations 30848
loss 30751
invited 30719
Police 30688
donors 30687
border 30669
finance 30653
back 30643
reasons 30625
deployment 30613
Countries 30588
agricultural 30510
ed 30488
disaster 30442
civilians 30440
plenary 30410
owing 30285
serve 30267
presence 30244
audit 30235
y 30198
Agenda 30162
Coordination 30119
Vienna 30051
Federal 30039
come 30030
Lebanon 29994
face 29916
model 29909
timely 29866
permanent 29848
Draft 29847
relationship 29799
carry 29794
mentioned 29753
along 29752
task 29703
attacks 29691
Labour 29657
leave 29591
movement 29586
event 29552
J@@ 29545
trial 29530
1994 29527
planned 29516
First 29496
recruitment 29467
ground 29446
Strategy 29434
cover 29422
too 29404
conflicts 29403
assessments 29380
net 29373
known 29364
enhancing 29354
workshop 29320
B. 29318
opinion 29311
consequences 29270
Somalia 29251
clearly 29226
risks 29221
settlement 29217
lower 29167
design 29166
IV 29161
expertise 29132
instrument 29100
observations 29080
Chair 29060
likely 29051
OHCHR 28998
Add.1 28994
commercial 28982
reflect 28959
i@@ 28953
follows 28929
ate 28909
closely 28894
involvement 28894
improvement 28883
formal 28811
migration 28805
target 28800
prison 28785
visit 28763
mandates 28757
despite 28683
committee 28662
independence 28606
times 28549
intended 28523
month 28471
Association 28463
reduced 28459
high-level 28427
described 28397
d@@ 28389
step 28363
success 28335
minimum 28328
Gender 28327
leading 28322
enhanced 28305
professional 28272
Many 28249
export 28236
ad 28225
appeal 28222
Kosovo 28188
participated 28184
V@@ 28153
Officer 28142
g@@ 28114
find 28080
Policy 28056
70 27894
reach 27876
shared 27847
2@@ 27845
believe 27782
added 27774
emphasized 27732
half 27697
fight 27660
recognition 27620
phase 27599
Legal 27591
definition 27580
urged 27580
efficient 27576
provisional 27554
host 27489
al 27469
art 27437
increasingly 27420
solution 27416
stage 27414
reducing 27410
alternative 27399
approval 27348
concept 27315
combating 27311
negative 27284
respond 27268
t@@ 27238
collection 27221
forced 27221
highlighted 27174
mainly 27172
personal 27172
Second 27166
hold 27165
o@@ 27163
reviewed 27141
series 27097
No 27076
seen 27054
When 27042
generally 27004
Internet 27003
77 26964
options 26959
welcomes 26944
published 26940
say 26937
strengthened 26936
possibility 26930
Elimination 26899
absence 26880
inclusion 26880
prepare 26880
Community 26865
campaign 26860
entry 26831
conventions 26823
Further 26815
corruption 26722
coordinated 26703
broad 26700
measure 26665
k 26641
duty 26637
approximately 26621
Indonesia 26613
Framework 26610
rehabilitation 26599
an@@ 26592
go 26580
Secretary 26578
Peacekeeping 26577
5@@ 26569
am 26560
concrete 26519
targets 26508
h 26485
Kuwait 26462
emerging 26450
defined 26443
b@@ 26415
offences 26389
80 26356
threats 26339
Turkey 26310
Field 26276
aircraft 26267
mass 26229
week 26213
conclusion 26131
avoid 26089
percent 26084
live 26047
urgent 26037
executive 26034
headquarters 26026
resulted 26021
assess 26009
democratic 25960
payment 25951
Egypt 25947
always 25944
actively 25929
Assistance 25871
c@@ 25863
useful 25825
Technology 25809
refugee 25783
Authority 25759
followed 25711
networks 25708
Technical 25701
undertake 25699
COP 25694
electronic 25687
And 25673
occupation 25658
difficulties 25636
fourth 25606
hope 25567
lives 25563
extended 25561
Asian 25558
n@@ 25520
sex 25520
Rules 25509
Ireland 25507
single 25485
69 25470
summary 25469
immediate 25442
complex 25432
representation 25409
solutions 25391
racial 25349
Chief 25332
1990 25315
f@@ 25301
applications 25294
m 25289
System 25282
insurance 25277
a@@ 25214
remaining 25208
raise 25202
component 25187
u 25171
scale 25168
ating 25156
words 25138
centre 25134
wide 25108
accounts 25089
crucial 25085
6@@ 25075
outcomes 25072
contributed 25045
After 25015
estimates 24982
forest 24973
Middle 24959
conclusions 24949
ii 24947
migrants 24947
Sierra 24943
Switzerland 24926
engaged 24926
dis@@ 24910
elected 24909
I@@ 24891
sharing 24887
specifically 24873
almost 24818
Liberia 24814
election 24749
grounds 24743
Those 24741
types 24738
French 24735
donor 24730
placed 24689
Financial 24686
island 24684
4@@ 24674
beginning 24660
sent 24646
ting 24646
Cultural 24634
caused 24626
namely 24618
paras 24613
Bureau 24592
occupied 24571
oil 24561
Norway 24556
responses 24419
causes 24418
determine 24415
relief 24393
D 24391
advance 24364
Experts 24331
know 24303
discuss 24284
cash 24253
origin 24237
safe 24223
h@@ 24220
Training 24188
Recalling 24182
industrial 24171
registration 24171
internationally 24160
Spain 24159
imposed 24130
dealing 24117
C. 24111
investigations 24106
man 24048
contracts 24033
documentation 24012
al@@ 24005
fair 24000
Western 23999
actual 23993
1993 23982
languages 23957
trust 23940
offer 23939
side 23939
survey 23920
represented 23892
competition 23889
site 23876
money 23860
seven 23858
city 23853
Parliament 23775
collective 23771
function 23763
inclusive 23753
move 23749
reforms 23743
Rwanda 23738
perspective 23736
findings 23731
shown 23716
Requests 23668
Italy 23663
p.m. 23645
membership 23615
parents 23615
Leone 23614
forum 23569
hand 23565
UNODC 23557
soon 23550
show 23529
z@@ 23508
Netherlands 23486
Argentina 23447
funded 23406
encourages 23382
reintegration 23372
p@@ 23369
3@@ 23368
statistical 23355
price 23353
cause 23339
10@@ 23329
Darfur 23269
faced 23266
sought 23262
minorities 23259
Space 23253
thematic 23237
takes 23232
prices 23227
respectively 23169
1@@ 23156
longer 23150
courses 23143
road 23113
reproductive 23103
ratification 23069
damage 23063
allegations 23052
emphasis 23023
Weapons 23010
science 22955
consumption 22922
base 22913
Gaza 22900
alleged 22889
engage 22884
Zealand 22883
democracy 22815
creating 22802
subsequent 22790
Research 22774
targeted 22761
produced 22760
freedoms 22752
organizational 22744
Ukraine 22725
participating 22693
ers 22662
left 22638
engagement 22631
written 22589
agriculture 22574
cooperate 22569
allowed 22560
mutual 22518
separate 22510
marriage 22509
l@@ 22498
U@@ 22497
never 22497
determined 22496
tax 22488
here 22485
visits 22454
norms 22445
accepted 22423
advisory 22383
ar@@ 22365
highest 22363
category 22359
trends 22350
guarantee 22339
structures 22329
constitute 22308
90 22265
appointed 22263
lessons 22237
Colombia 22221
ated 22184
gross 22176
eliminate 22165
availability 22139
j@@ 22086
candidates 22029
declaration 22028
little 22027
learned 22004
requirement 21995
significantly 21995
populations 21982
job 21981
emissions 21978
categories 21953
welcome 21953
Indigenous 21943
punishment 21931
reason 21927
Table 21918
listed 21909
75 21894
frameworks 21874
Cyprus 21842
enterprises 21842
Palestine 21836
authorized 21819
Territory 21818
identification 21814
tool 21782
Members 21753
ts 21729
experiences 21726
values 21717
1991 21708
governments 21701
unit 21701
marine 21644
l 21627
rise 21615
completion 21610
Following 21606
en@@ 21596
Z@@ 21518
Islands 21494
1992 21484
defence 21473
honour 21458
oversight 21453
mainstreaming 21448
internally 21430
though 21389
earlier 21376
electoral 21362
preventing 21354
Nigeria 21353
Several 21349
empowerment 21347
Y@@ 21333
territories 21330
endorsed 21298
complaints 21276
UN 21269
secure 21267
urges 21263
content 21262
affairs 21243
Despite 21237
regulatory 21231
eight 21229
Ministers 21220
components 21214
records 21189
Initiative 21182
began 21167
Another 21130
sites 21126
credit 21120
holding 21081
tasks 21060
type 21054
accounting 21051
expression 21040
website 21028
religion 21000
fields 20995
Morocco 20992
ILO 20986
secondary 20985
sound 20981
ratified 20974
offered 20947
IAEA 20933
bank 20927
mind 20919
follow 20899
restrictions 20899
&apos;Ivoire 20874
subprogramme 20865
setting 20852
substantial 20843
spoke 20815
seeking 20806
affect 20801
employees 20801
coverage 20799
considers 20780
observed 20772
w@@ 20763
Côte 20722
integrity 20713
disability 20689
CN.4 20683
linked 20664
teams 20631
waste 20588
enabling 20531
ICT 20522
V 20521
inform 20518
minority 20514
Internal 20475
dissemination 20470
Deputy 20463
mortality 20452
vehicles 20443
amended 20419
Sweden 20414
learning 20402
Monitoring 20390
press 20367
From 20320
agency 20316
start 20310
Humanitarian 20302
get 20272
contains 20267
m@@ 20265
failure 20254
previously 20245
highly 20211
chapter 20206
expenditures 20196
amendments 20163
entire 20160
sustainability 20159
granted 20156
ownership 20155
u@@ 20148
accused 20127
recorded 20122
ation 20119
kind 20109
Trump 20097
UNESCO 20086
worked 20086
outstanding 20078
en 20073
express 20068
registered 20062
release 20054
functioning 20030
topic 20027
Its 20020
Financing 20009
Kenya 20006
concluding 20003
pointed 19997
keep 19991
formulation 19987
Nuclear 19986
Ethiopia 19981
ch@@ 19976
makes 19949
considering 19926
non-proliferation 19912
R 19910
woman 19896
history 19886
ago 19876
updated 19866
extend 19856
dollars 19841
fuel 19835
reconciliation 19833
initiated 19812
supports 19804
constitutional 19796
vital 19779
Great 19774
indicate 19774
offence 19739
OIOS 19725
theme 19714
Chile 19710
why 19710
old 19694
decrease 19691
Haiti 19661
investments 19658
18@@ 19655
primarily 19650
observers 19642
convention 19627
adaptation 19619
percentage 19608
existence 19578
diseases 19574
al-@@ 19563
Myanmar 19553
diplomatic 19541
impacts 19536
aims 19530
Lebanese 19529
Third 19524
Burundi 19511
recognize 19511
away 19478
Assistant 19472
announced 19465
Staff 19464
facing 19459
payments 19445
recalled 19443
late 19428
Philippines 19425
Thailand 19425
Bosnia 19421
considerable 19421
name 19421
nationality 19403
Principles 19381
prosecution 19367
departments 19365
flows 19362
consent 19361
drugs 19347
places 19346
attended 19328
My 19305
disasters 19299
advocacy 19282
facilitating 19273
read 19272
THE 19270
immediately 19263
drafting 19258
elimination 19233
0@@ 19229
Northern 19223
cycle 19172
victim 19172
e-@@ 19170
presentation 19168
Supreme 19135
sustained 19125
fulfil 19121
database 19116
attack 19082
users 19066
equitable 19033
whom 19032
Malaysia 19031
Herzegovina 19025
maintained 18989
expansion 18988
want 18965
FAO 18964
er@@ 18961
nor 18958
diversity 18945
entered 18934
reservations 18930
Re@@ 18929
short 18927
Of 18925
strongly 18889
et 18876
killed 18872
record 18864
... 18852
sea 18850
C.2 18823
containing 18803
competent 18772
Hong 18771
uses 18770
interpretation 18764
OF 18749
confirmed 18741
on@@ 18722
systematic 18715
selected 18711
Prosecutor 18709
eradication 18705
failed 18693
governing 18690
introduction 18679
commissions 18663
Uganda 18657
Control 18634
incidents 18634
n 18631
arising 18629
p 18620
transparent 18614
older 18610
fifth 18589
What 18586
reiterated 18582
realization 18578
institution 18570
worldwide 18569
arrest 18564
contributing 18564
identifying 18562
widely 18550
instance 18549
comply 18537
Chamber 18514
globalization 18508
aware 18500
Fifth 18499
racism 18499
F 18495
amounts 18481
stations 18464
nations 18463
Resources 18455
played 18443
encouraging 18438
contact 18430
preparing 18418
e.g. 18410
Family 18401
Azerbaijan 18391
sanitation 18386
banks 18370
shows 18353
came 18351
Thus 18319
73 18305
C.3 18297
reviews 18289
Algeria 18273
started 18266
numerous 18225
assessed 18221
allocation 18203
identity 18201
&apos;@@ 18193
ad@@ 18193
sovereignty 18166
Prime 18157
Guinea 18145
Status 18137
delay 18135
heard 18080
Most 18072
Letter 18071
More 18062
direction 18050
NPT 18045
protected 18043
Project 18041
productive 18030
supplies 18025
obtain 18017
enjoyment 18009
Partnership 18008
organs 18000
publication 18000
near 17986
jobs 17977
budgetary 17949
weeks 17946
EU 17944
Austria 17932
In@@ 17932
CEDAW 17929
thereby 17923
Population 17902
regulation 17899
head 17892
look 17879
protecting 17874
17@@ 17856
Kong 17846
Trust 17842
Al@@ 17802
1.@@ 17793
Bangladesh 17784
appointment 17773
campaigns 17756
Congress 17753
produce 17746
Food 17744
chemical 17724
territorial 17721
Governing 17710
zone 17708
72 17684
delivered 17677
it@@ 17670
ar 17655
news 17635
migrant 17627
Strategic 17610
El 17607
online 17578
turn 17567
released 17514
improvements 17512
speaking 17505
innovative 17490
maintaining 17489
71 17480
perpetrators 17480
14@@ 17477
noting 17457
losses 17446
pending 17446
giving 17441
Forces 17429
Sea 17427
commission 17424
pilot 17385
obstacles 17379
coordinate 17375
Drugs 17370
numbers 17366
allocated 17344
raising 17328
Finally 17314
at@@ 17304
corporate 17302
transit 17300
works 17299
binding 17297
latter 17289
largest 17275
gaps 17271
penalty 17258
committees 17250
Their 17248
exist 17237
limit 17236
carrying 17235
Task 17226
broader 17193
Saudi 17186
Developing 17177
a.m. 17176
arrested 17167
troops 17167
focal 17165
staffing 17154
daily 17143
preliminary 17135
Peru 17128
Violence 17121
judiciary 17115
prisoners 17108
sentence 17108
interested 17099
Fourth 17087
Network 17076
WHO 17052
Two 17050
charges 17047
M 17033
South-South 17026
gap 17021
am@@ 17020
became 17019
entity 17018
regularly 17010
amendment 16997
publications 16991
processing 16987
doing 16983
partner 16979
charge 16977
proper 16963
1,@@ 16961
76 16957
Therefore 16928
teachers 16915
transactions 16893
pressure 16888
coming 16870
subsidiary 16870
unable 16861
detained 16858
VI 16855
Expert 16852
president 16850
ted 16848
.@@ 16845
think 16840
opening 16825
expenses 16819
interim 16806
15@@ 16803
constraints 16801
Subcommittee 16800
details 16799
19@@ 16798
expanded 16797
factor 16794
Forms 16761
13@@ 16753
Room 16753
Mechanism 16751
gas 16747
affecting 16740
Ambassador 16739
rapid 16734
Decade 16728
managers 16716
mandated 16710
element 16705
verification 16705
English 16692
ations 16683
round 16681
jointly 16679
favour 16678
P-3 16677
closed 16676
governmental 16654
preparatory 16654
capabilities 16647
going 16641
HRC 16631
guarantees 16602
impunity 16602
enterprise 16596
helped 16590
chemicals 16580
ever 16564
controls 16552
largely 16545
resolve 16527
roles 16512
cities 16509
achievements 16502
Yugoslavia 16495
exports 16487
joined 16466
differences 16462
Belarus 16457
receiving 16449
unemployment 16447
pursue 16443
product 16435
Georgia 16433
safeguards 16420
P-4 16414
scheduled 16408
Equality 16384
Coordinator 16358
Given 16355
trend 16353
Finland 16350
birth 16344
de@@ 16338
D. 16333
locations 16331
16@@ 16329
occurred 16306
2.@@ 16301
hoped 16298
substances 16296
is@@ 16288
Scientific 16286
guide 16274
vulnerability 16260
mental 16259
believes 16234
proportion 16234
LDCs 16233
designated 16232
trading 16227
geographical 16205
confidence 16187
remedies 16184
Professional 16178
dispute 16176
heads 16162
Guatemala 16157
room 16149
outlined 16144
200 16136
degree 16136
seminars 16112
extensive 16103
link 16093
Please 16076
intention 16074
run 16054
Questions 16052
Statistics 16042
Britain 16027
covering 16027
74 16001
coherence 15992
nearly 15977
convened 15959
expand 15951
socio-economic 15947
Accordingly 15941
legitimate 15940
associations 15938
influence 15930
violated 15924
iii 15908
Regulations 15892
top 15880
examination 15879
Comprehensive 15873
Nairobi 15844
focusing 15841
represent 15819
reaffirmed 15805
Croatia 15797
Chairperson 15794
sense 15790
etc 15778
Jordan 15770
agree 15769
duties 15760
option 15760
v@@ 15756
78 15752
prostitution 15749
UNOPS 15746
determination 15746
interventions 15742
ates 15736
Paris 15720
hoc 15720
unless 15715
declared 15712
technological 15683
x 15683
nine 15671
consultative 15670
trained 15652
decade 15641
bringing 15636
settlements 15635
Independent 15634
Southern 15630
selection 15601
coordinating 15593
constructive 15590
imprisonment 15584
mobilization 15578
sale 15578
Energy 15571
Belgium 15562
test 15557
C.5 15551
Ecuador 15550
Czech 15548
latest 15545
preventive 15536
es@@ 15532
modalities 15531
links 15515
satisfaction 15515
P 15507
methodology 15505
examine 15503
Movement 15502
Note 15501
disputes 15483
draw 15473
85 15471
Poland 15466
enough 15451
decades 15450
told 15445
things 15437
reconstruction 15432
Climate 15425
NGO 15416
drawn 15411
maximum 15406
Eritrea 15378
liability 15371
L.@@ 15356
panel 15354
ra@@ 15353
Nepal 15347
conformity 15330
son 15326
examples 15319
otherwise 15292
High-level 15284
fall 15275
Decides 15272
deployed 15266
assisting 15261
vision 15255
Statute 15250
manage 15242
Foundation 15228
ti@@ 15224
floor 15220
dignity 15215
ic 15212
tourism 15204
update 15203
ended 15199
95 15195
maternal 15193
comment 15173
opened 15165
size 15164
asset 15151
i.e. 15149
Sri 15143
20@@ 15132
complainant 15124
subsequently 15112
explained 15100
Torture 15069
acknowledged 15068
relevance 15047
extreme 15036
Al-@@ 15015
decide 15008
recognizes 14995
rape 14993
spirit 14973
multiple 14961
firm 14943
gave 14940
Our 14930
T 14926
mine 14923
Refugees 14913
Part 14908
camps 14908
programming 14903
self-@@ 14868
Serbia 14859
located 14859
combined 14854
Integrated 14844
arbitrary 14844
refer 14842
acquisition 14835
See 14828
humanity 14827
as@@ 14807
la 14804
budgets 14799
79 14796
principal 14782
UNRWA 14775
stock 14759
modern 14742
reflects 14737
98 14734
race 14732
posed 14724
topics 14724
obtained 14721
extension 14718
increases 14681
satellite 14673
Jerusalem 14668
house 14661
begin 14657
&amp; 14656
lost 14653
federal 14635
figures 14632
Day 14628
welfare 14627
mines 14623
outreach 14623
demonstrated 14620
sections 14617
Year 14615
Costa 14612
reservation 14592
reasonable 14580
proliferation 14543
background 14536
lines 14527
Peacebuilding 14524
relatively 14514
generation 14508
di@@ 14492
Iraqi 14490
changing 14490
Mar@@ 14489
transmitted 14485
enter 14477
structural 14477
el@@ 14470
contain 14451
grant 14446
inter-agency 14433
customs 14424
Russia 14419
alone 14417
represents 14411
Safety 14408
legally 14408
Spanish 14398
advantage 14394
Local 14392
enjoy 14387
im@@ 14378
believed 14376
Platform 14372
judge 14371
outer 14369
ro@@ 14361
board 14359
examined 14357
deliberations 14356
investigate 14355
Monday 14354
Ministerial 14353
barriers 14347
directed 14344
foster 14328
C.1 14323
SBI 14285
authors 14281
81 14280
envisaged 14280
Venezuela 14275
association 14269
ri@@ 14269
st@@ 14251
insufficient 14248
sh@@ 14246
solidarity 14231
deep 14214
witnesses 14214
widespread 14208
Denmark 14194
ine 14181
served 14168
Territories 14166
r@@ 14164
original 14159
boys 14155
burden 14155
soldiers 14155
century 14136
equity 14136
forums 14134
Rev.1 14122
Planning 14115
82 14112
ic@@ 14111
self-determination 14111
Ad 14105
peacebuilding 14103
monthly 14099
appear 14096
launch 14091
G 14079
Preparatory 14066
Lanka 14065
involve 14062
sometimes 14050
managed 14044
or@@ 14028
grave 14027
savings 14026
employed 14009
Turkish 14007
representing 14000
pension 13999
over@@ 13994
specified 13989
nationals 13986
Eastern 13981
Under-Secretary-General 13974
accept 13972
sixth 13964
crises 13957
periods 13950
formed 13947
transportation 13941
Obama 13930
Promotion 13929
showed 13920
opposition 13918
83 13906
acting 13882
conducting 13880
subjected 13876
Over 13873
asylum 13873
transferred 13861
keeping 13853
v. 13850
assigned 13836
says 13825
3.@@ 13822
Small 13822
disease 13813
th@@ 13812
post-conflict 13809
figure 13806
ag@@ 13803
Cambodia 13790
rest 13778
Trafficking 13775
suffering 13770
SBSTA 13753
prohibited 13751
86 13745
Tuesday 13738
societies 13723
Additional 13720
indicates 13719
ministries 13718
84 13688
search 13681
Model 13672
Universal 13658
Afghan 13653
accessible 13648
built 13644
87 13643
Korean 13643
helping 13642
ac@@ 13641
Roma 13639
ready 13625
Change 13620
Senegal 13616
promoted 13614
variety 13606
demands 13596
understand 13592
ab@@ 13589
officer 13589
becoming 13567
serving 13552
sets 13551
overcome 13541
behind 13538
L 13536
leaving 13520
I. 13516
discriminatory 13516
wishes 13509
except 13507
N 13498
observer 13496
location 13495
chief 13482
advanced 13479
Romania 13476
unilateral 13474
limits 13473
powers 13471
r 13460
97 13455
incorporated 13454
permit 13446
true 13438
dedicated 13429
traffic 13426
mitigation 13416
Even 13408
99 13406
nation 13405
forth 13394
12@@ 13379
degradation 13375
speakers 13369
resumed 13368
homes 13367
platform 13354
integrate 13351
seminar 13349
instead 13348
Peoples 13342
balanced 13338
British 13331
district 13312
co@@ 13306
regards 13296
Society 13293
spread 13292
attempt 13291
transnational 13265
ha@@ 13254
inadequate 13248
Her 13243
ant 13242
Guidelines 13237
disabled 13228
Rica 13223
Operation 13207
detainees 13206
Portugal 13191
Singapore 13180
suffered 13180
gender-based 13173
inventory 13170
acceptance 13166
attached 13162
Armed 13161
CRC 13158
O 13156
om@@ 13147
Oversight 13143
Noting 13136
resident 13121
Budgetary 13120
Employment 13115
Mali 13103
Resolution 13098
dealt 13093
appeals 13092
Based 13090
wider 13090
adopting 13085
experienced 13074
Kyoto 13073
projected 13039
lawyers 13032
commended 13030
condition 13011
fishing 13007
biological 13002
premises 13000
Armenia 12998
Budget 12995
embargo 12988
southern 12977
ideas 12974
Kazakhstan 12967
version 12962
distributed 12949
Arabia 12943
presidential 12942
vocational 12941
Wednesday 12934
abroad 12929
visited 12928
severe 12925
Finance 12920
conservation 12920
decline 12917
innovation 12912
92 12904
demobilization 12904
Through 12903
aged 12903
pre-@@ 12902
radio 12899
undertaking 12895
re-@@ 12894
300 12882
Palestinians 12882
fiscal 12871
Pursuant 12862
Team 12862
Strengthening 12856
el 12853
GEF 12852
valuable 12851
perform 12846
Activities 12842
well-being 12841
Greece 12831
claimed 12820
journalists 12810
professionals 12809
Angola 12806
wished 12799
idea 12796
sponsors 12790
belief 12788
unique 12784
deaths 12783
ul@@ 12775
male 12771
2,@@ 12767
sensitive 12761
remote 12750
fire 12743
airspace 12738
Hoc 12736
charged 12719
deliver 12715
Uruguay 12714
allowing 12713
Representatives 12698
91 12696
hard 12696
96 12694
complaint 12689
Ghana 12684
MDGs 12670
utilization 12668
Military 12655
reiterates 12651
operate 12649
Intergovernmental 12647
An@@ 12639
don 12625
biodiversity 12618
households 12611
seeks 12604
academic 12596
IN@@ 12590
investors 12578
fisheries 12577
returned 12572
reportedly 12569
performed 12567
facility 12563
Work 12558
500 12549
stable 12539
Doha 12538
93 12531
preparations 12513
competence 12508
WTO 12506
join 12504
cluster 12502
financed 12499
ia 12496
residence 12495
88 12494
anniversary 12493
Measures 12488
Among 12487
borders 12485
currency 12479
facts 12471
Process 12470
Power 12458
Any 12456
assisted 12456
felt 12456
stocks 12456
contrary 12453
AND 12442
mother 12436
leader 12434
House 12433
Nevertheless 12433
constitutes 12424
Youth 12419
ou@@ 12416
adequately 12407
disposal 12400
papers 12396
software 12389
intelligence 12386
da 12385
Tunisia 12384
adverse 12380
89 12379
intervention 12378
Assessment 12377
appears 12375
Washington 12371
SR.@@ 12370
Thursday 12360
harassment 12358
94 12353
evaluations 12347
2008-2009 12338
considerations 12319
Corr.1 12303
controlled 12293
prohibition 12288
v 12287
fighting 12269
Tanzania 12268
Hungary 12266
intellectual 12256
mercury 12251
vehicle 12251
Science 12250
awareness-raising 12250
adjustment 12243
thousands 12236
op@@ 12231
attributable 12218
extradition 12208
offers 12206
larger 12199
thank 12186
reviewing 12183
names 12181
advancement 12176
usually 12175
requiring 12169
ter 12162
mining 12161
requesting 12156
newly 12143
television 12136
ministerial 12135
CD 12118
Friday 12110
simply 12109
allowance 12098
organize 12088
intolerance 12073
seriously 12067
ones 12060
introduce 12059
warning 12059
farmers 12050
code 12046
program 12046
Bolivia 12043
Paragraph 12039
Conventions 12037
reaching 12037
born 12035
stages 12025
movements 12018
sub@@ 12007
businesses 12003
recommend 11999
facilitated 11995
revenue 11995
guaranteed 11994
outputs 11993
belonging 11989
functional 11989
choice 11971
drew 11969
Issues 11967
Defence 11966
defenders 11948
covers 11932
comprising 11927
Dr. 11926
ol@@ 11924
productivity 11919
Ch@@ 11911
Auditors 11906
changed 11900
successfully 11893
went 11892
be@@ 11889
revision 11887
gains 11880
Qatar 11873
VII 11870
reality 11870
testing 11867
UNCITRAL 11861
counsel 11860
customary 11841
denied 11838
household 11830
pollution 11827
extremely 11825
Increased 11816
substance 11811
Reduction 11804
surveys 11802
Rio 11795
UN-Habitat 11795
Adviser 11792
flexibility 11792
Procedure 11789
procedural 11788
sign 11786
explore 11783
linkages 11779
web 11778
custody 11770
liberty 11766
Slovenia 11763
transfers 11756
z 11743
co-@@ 11738
em@@ 11704
Both 11695
mobile 11675
segment 11666
recognizing 11665
forests 11661
quarter 11659
writing 11650
Penal 11640
allegedly 11637
Calls 11635
station 11631
1,000 11624
Taking 11611
conjunction 11611
rejected 11611
Procurement 11610
salary 11608
letters 11587
orders 11587
word 11575
facilitation 11567
coastal 11566
ESCAP 11555
E. 11553
Use 11538
biennial 11537
IC@@ 11525
submissions 11523
2010-2011 11522
Each 11522
buildings 11520
managing 11509
displacement 11505
volume 11501
village 11499
qualified 11498
consolidated 11493
continuous 11487
Libyan 11482
import 11474
post-@@ 11471
Total 11470
treated 11468
amounted 11466
flow 11463
Salvador 11461
briefing 11460
accountable 11454
industries 11454
invitation 11449
behaviour 11445
overview 11445
loans 11443
00 11441
everyone 11440
reliable 11439
WFP 11434
Observer 11430
vacancy 11425
conventional 11421
negotiation 11418
devoted 11417
+ 11411
protocol 11409
agents 11408
remedy 11408
starting 11402
grants 11394
explosive 11391
Nam 11389
recalls 11389
le 11381
talks 11380
inter@@ 11376
demonstrate 11374
Similarly 11367
notably 11367
reflecting 11351
Building 11347
Chad 11346
responded 11340
ap@@ 11333
assessing 11330
ban 11324
urge 11312
Communications 11309
Treatment 11305
above-mentioned 11303
ammunition 11303
Viet 11297
bearing 11292
des 11292
scheme 11292
providers 11290
actually 11289
integral 11288
zones 11287
Chapter 11276
method 11276
consultants 11274
Mauritius 11267
Investment 11264
ak@@ 11264
expanding 11257
Regarding 11246
northern 11243
Rome 11241
withdrawal 11241
finding 11228
delays 11223
City 11220
coherent 11218
appeared 11213
pleased 11208
determining 11204
strength 11203
ly 11196
So 11190
expresses 11190
counter-terrorism 11189
execution 11189
V. 11184
transitional 11180
spent 11162
il@@ 11149
attend 11146
Evaluation 11138
Decision 11132
fees 11128
interaction 11126
Number 11125
pertaining 11121
.1 11120
mostly 11111
residents 11111
inequality 11105
Racial 11104
psychological 11103
Organized 11100
Recognizing 11097
sides 11096
alternatives 11095
flexible 11089
si@@ 11081
Agriculture 11077
enforced 11074
instances 11073
consolidation 11066
-based 11063
2006-2007 11061
extrabudgetary 11051
system-wide 11040
input 11039
map 11033
storage 11023
composition 11016
patterns 11016
techniques 11014
non@@ 11011
FCCC 11007
Yemen 11006
IPSAS 11002
filed 10979
hazardous 10965
exception 10959
Cameroon 10953
purchase 10952
begun 10950
seventh 10945
Constitutional 10943
schemes 10935
anticipated 10932
Environmental 10921
San 10921
a-@@ 10920
j 10918
conclude 10904
thought 10900
municipal 10893
passed 10889
res 10888
exclusion 10887
Guide 10886
inputs 10886
tried 10886
ous 10882
message 10880
competitive 10879
sales 10879
track 10875
renewed 10869
harm 10868
teaching 10859
equally 10851
devices 10848
repatriation 10846
Nicaragua 10843
Poverty 10836
trying 10835
Bulgaria 10824
employers 10816
Montenegro 10804
Q@@ 10804
constituted 10803
indeed 10792
mean 10790
Occupied 10778
Syria 10770
equivalent 10769
Red 10766
incentives 10765
se 10759
heavy 10758
terrorists 10753
le@@ 10752
evaluate 10747
harmonization 10713
adjustments 10712
maritime 10712
us@@ 10712
formulated 10703
OECD 10699
models 10699
Indeed 10688
allows 10686
oral 10683
inside 10681
prosecutors 10678
se@@ 10677
ending 10670
&apos;re 10663
kept 10656
format 10651
neighbouring 10650
Within 10648
lasting 10647
Burkina 10643
bl@@ 10641
wage 10630
Faso 10628
Transitional 10627
Ombudsman 10622
ally 10605
acceptable 10599
relative 10594
something 10586
Developed 10585
big 10578
Heads 10572
historical 10563
commodity 10562
neither 10560
contractual 10559
dangerous 10558
Excellency 10555
ex@@ 10554
P-5 10550
seems 10548
1989 10542
tenth 10540
phenomenon 10534
stop 10528
Terrorism 10526
abuses 10525
organizing 10524
incorporate 10516
corresponding 10511
relationships 10507
te@@ 10501
properly 10490
via 10487
rising 10477
.2 10468
fear 10457
regardless 10456
relate 10454
sovereign 10454
negotiating 10452
duration 10438
refers 10429
3,@@ 10426
try 10423
transmitting 10422
po@@ 10414
hunger 10413
0.@@ 10409
literacy 10404
RE@@ 10403
mandatory 10393
understood 10391
CN.9 10389
lists 10384
violent 10376
analytical 10375
Slovakia 10371
character 10358
frequently 10343
MONUC 10341
annually 10340
Earth 10335
Lithuania 10323
red 10321
commit 10320
hearing 10313
environmentally 10309
Basel 10308
calling 10307
Where 10306
moving 10299
Timor-Leste 10298
schedule 10294
120 10290
Un@@ 10286
standing 10285
tolerance 10278
citizenship 10276
removal 10272
Indian 10263
dimensions 10258
mothers 10256
define 10249
package 10248
spending 10248
Standing 10240
FDI 10234
Business 10231
School 10230
responding 10230
generated 10229
xenophobia 10228
aggression 10227
mis@@ 10226
ratify 10225
anti-@@ 10217
targeting 10215
Counter-Terrorism 10209
ill-treatment 10201
career 10188
difference 10187
renewable 10174
introducing 10172
Progress 10165
inspection 10163
War 10162
stress 10157
Jamaica 10149
digital 10147
2012-2013 10142
Ar@@ 10140
H 10139
mobility 10119
master 10114
prisons 10113
landlocked 10111
balances 10098
desertification 10094
reserve 10089
Audit 10087
Protocols 10077
signing 10072
UNIFIL 10067
replace 10064
applying 10060
programs 10060
4.@@ 10057
summit 10051
Center 10044
Decree 10044
out@@ 10042
arbitration 10030
Army 10027
Notes 10020
ahead 10019
2004-2005 10015
distinction 10012
lands 10010
NEPAD 10009
logistical 10009
ding 10008
universities 10002
Island 9996
Guinea-Bissau 9994
Con@@ 9993
generate 9991
estimate 9990
Migration 9989
ODA 9989
firms 9986
pre@@ 9985
director 9984
proceed 9983
Zambia 9981
bill 9981
Euro@@ 9980
mobilize 9978
collected 9975
Mr 9972
dependent 9969
arrangement 9967
themes 9966
Having 9961
accession 9959
rapidly 9955
incurred 9952
Document 9947
notice 9942
deeply 9937
Appeals 9930
Xi 9926
UN@@ 9916
Encourages 9904
Albania 9900
meaning 9895
suggestions 9893
speak 9888
Arms 9884
Habitat 9881
incident 9880
father 9874
army 9872
sub-@@ 9869
y-@@ 9867
wastes 9864
Mongolia 9863
liaison 9858
German 9853
limitations 9852
Uzbekistan 9844
You 9838
beneficiaries 9836
award 9835
owned 9831
gives 9830
ment 9830
London 9828
finds 9828
Lastly 9825
nutrition 9824
UNAMID 9822
Committees 9815
UNIFEM 9812
book 9812
issuance 9807
provincial 9794
wife 9792
quickly 9788
declined 9787
juvenile 9782
worth 9769
ship 9767
drawing 9765
normal 9764
Water 9763
secured 9755
sectoral 9736
Yet 9732
Drug 9731
te 9730
counselling 9724
foundation 9719
Acting 9712
Sixth 9712
St@@ 9709
arts 9708
USD 9704
harmful 9702
Montreal 9695
short-term 9693
.3 9692
_ 9681
let 9680
pursued 9680
immigration 9679
reply 9670
makers 9665
really 9664
é@@ 9662
disseminate 9661
health-care 9659
detail 9653
carbon 9650
supervision 9650
shift 9642
Disabilities 9638
object 9632
invasion 9631
ah 9627
ages 9623
Macedonia 9621
genocide 9616
.6 9615
explanation 9610
killing 9608
declarations 9604
marked 9601
occupying 9600
so-called 9596
accommodation 9591
characteristics 9591
Senior 9587
Japanese 9585
1988 9583
Emergency 9580
gain 9576
Resource 9573
occur 9571
provinces 9567
cooperative 9565
ra 9560
Official 9559
reductions 9559
add 9557
attempts 9553
machinery 9551
UNMIK 9548
x@@ 9546
.4 9545
Welcomes 9541
parliamentary 9539
town 9535
150 9532
meaningful 9530
UN-Women 9522
Goal 9518
underlying 9518
objects 9517
liabilities 9497
Right 9486
os 9485
Moldova 9466
deprived 9465
transmit 9465
offset 9453
interactive 9446
lawyer 9445
compulsory 9443
ent 9440
page 9437
danger 9432
29@@ 9431
counter 9427
strict 9427
husband 9422
pregnancy 9416
eastern 9411
injured 9405
judgement 9398
stay 9389
-related 9384
hospitals 9384
.5 9381
est 9378
wrote 9368
closer 9367
sentenced 9366
Transnational 9365
adolescents 9365
accelerate 9360
ism 9360
Consequently 9355
replaced 9351
applies 9349
fraud 9349
Ad@@ 9348
millions 9343
respected 9330
Director-General 9329
Inspection 9328
consumer 9327
diverse 9327
eighth 9325
video 9321
continent 9317
Annual 9313
27@@ 9309
night 9308
400 9305
Provision 9301
output 9298
hosted 9294
separation 9285
stresses 9284
iv 9277
composed 9272
deemed 9265
Head 9263
als 9260
presents 9260
Between 9257
methodologies 9256
hospital 9255
.8 9252
Facility 9252
convening 9247
li@@ 9246
greatest 9245
results-based 9243
chap 9240
underlined 9239
é 9239
resolved 9235
League 9228
expulsion 9228
comes 9221
Transport 9220
pro@@ 9210
computer 9204
orally 9204
occasion 9203
Least 9202
Item 9199
X@@ 9199
accompanied 9199
bo@@ 9198
Only 9194
surveillance 9189
liberalization 9188
camp 9187
Malta 9179
villages 9172
votes 9167
5.@@ 9163
continuation 9160
Alliance 9159
university 9159
elaboration 9158
1990s 9156
eligible 9155
plant 9155
manufacturing 9148
genuine 9140
greatly 9140
der 9138
advances 9135
Today 9134
looking 9133
concepts 9132
Directorate 9123
pl@@ 9123
destroyed 9122
stronger 9121
pregnant 9120
Yugoslav 9116
disadvantaged 9114
moved 9109
Non-Proliferation 9108
aspect 9106
medium-term 9101
suspected 9099
green 9095
Benin 9089
t-@@ 9086
formulate 9084
nothing 9082
regimes 9082
dimension 9081
Provisional 9078
clarify 9074
persistent 9073
Panama 9072
ings 9071
subparagraph 9069
producing 9060
ir@@ 9055
Ensure 9052
Educational 9051
clean 9047
ed@@ 9038
accordingly 9028
missing 9028
complement 9016
feel 9015
Dialogue 9008
observation 9007
heritage 9004
macroeconomic 9002
nuclear-weapon 8997
.9 8995
105 8991
Durban 8991
looked 8988
transaction 8986
unions 8982
sect 8981
Outer 8980
Officers 8979
convicted 8978
Combat 8976
ec@@ 8972
Add.@@ 8967
Saint 8966
relates 8964
derived 8954
fish 8945
fulfilment 8938
restricted 8933
capable 8929
laid 8929
focuses 8924
offering 8921
prospects 8918
lot 8917
qu@@ 8917
saying 8917
seem 8917
Man@@ 8916
trials 8916
acquired 8915
me@@ 8915
died 8914
memorandum 8905
IS@@ 8904
eliminating 8904
insecurity 8904
ur@@ 8898
exposure 8895
Zimbabwe 8891
tables 8885
supplementary 8884
ch 8883
emphasize 8881
cross-border 8878
breach 8877
non-discrimination 8877
suggest 8875
class 8872
undermine 8872
Sector 8866
lo@@ 8866
participatory 8858
Strip 8857
expectations 8855
su@@ 8855
adults 8848
conducive 8848
How 8846
UNMIL 8844
tensions 8844
attitudes 8840
De@@ 8836
convinced 8836
instructions 8835
.7 8831
X 8828
protocols 8828
subjects 8825
ninth 8814
accurate 8812
citizen 8812
tions 8812
restructuring 8800
ist 8799
he@@ 8798
suitable 8796
mutually 8795
moral 8792
Statement 8791
Latvia 8787
telephone 8783
mainstream 8772
himself 8767
penalties 8766
addresses 8763
explain 8762
ecosystems 8760
parallel 8760
subregion 8760
ans 8757
notification 8754
id@@ 8750
north 8739
accomplishments 8736
inhuman 8736
logistics 8735
UNOCI 8732
stand 8727
translation 8726
Upon 8719
facto 8717
Statistical 8714
orientation 8698
Open-ended 8689
root 8685
subsidies 8683
contacts 8681
collect 8678
ordinary 8678
ling 8677
to@@ 8676
capability 8671
ator 8666
headed 8664
Summary 8663
sponsored 8663
prejudice 8660
um@@ 8653
degrading 8647
ratio 8645
NA@@ 8644
invite 8644
weak 8639
replies 8637
ties 8637
Data 8633
interview 8629
meant 8623
Urges 8622
ons 8619
decreased 8615
consistently 8614
Su@@ 8611
bear 8608
proved 8604
Follow-up 8603
Electoral 8602
mediation 8602
Biological 8600
28@@ 8596
competitiveness 8594
Participants 8593
no@@ 8582
SA@@ 8580
Gu@@ 8577
clarification 8571
reinforce 8569
speech 8559
fell 8557
forthcoming 8554
mid-@@ 8552
Standards 8547
bi@@ 8546
Efforts 8544
saw 8542
Di@@ 8539
recruited 8537
Session 8536
U 8535
Equal 8534
threatened 8533
Informal 8530
integrating 8525
commodities 8522
proceeds 8520
reserves 8520
Rule 8516
indicator 8514
budgeting 8512
Access 8509
department 8509
perhaps 8503
decides 8499
Recommendation 8497
enshrined 8497
tangible 8494
ors 8493
marginalized 8492
101 8485
unlawful 8485
102 8482
Conduct 8482
bound 8481
sufficiently 8476
ter@@ 8476
4,@@ 8461
exists 8457
south 8457
shares 8450
arise 8445
features 8442
coordinator 8441
voting 8441
prevalence 8437
conviction 8435
Estonia 8433
Country 8432
District 8431
ies 8431
Luxembourg 8429
Inter-Agency 8426
ators 8426
king 8421
thereto 8419
credibility 8411
title 8400
vast 8400
23@@ 8395
prosecute 8395
claimant 8394
contractors 8394
briefings 8389
110 8386
monitored 8386
Region 8384
entering 8382
systematically 8382
synergies 8373
Mozambique 8371
involves 8371
emphasizes 8370
rich 8362
finalized 8360
handling 8359
Libya 8358
Three 8357
transmission 8357
troop-contributing 8356
replacement 8355
driven 8351
1st 8346
confidence-building 8343
ka 8343
faith 8337
salaries 8335
Interim 8332
division 8327
Dominican 8317
seemed 8315
Reports 8314
Statements 8313
ships 8311
perspectives 8307
Logistics 8305
Industrial 8304
Tajikistan 8304
eradicate 8302
potentially 8297
tion 8297
2nd 8294
Ma@@ 8294
powerful 8293
Settlements 8292
Iceland 8291
gu@@ 8291
houses 8286
cultures 8283
banking 8282
suggests 8279
Basic 8278
Land 8276
credible 8274
decent 8272
slow 8271
excessive 8270
intensify 8262
delayed 8261
Relations 8260
complementary 8260
invites 8258
ya 8256
250 8255
Corruption 8252
tribunal 8252
guided 8250
gained 8246
malaria 8242
pose 8240
wealth 8236
Bill 8233
flight 8233
twenty-first 8232
Asia-Pacific 8231
disclosure 8230
reiterate 8227
111 8224
depend 8216
questionnaire 8214
IMF 8211
explicitly 8211
granting 8210
enabled 8202
Liechtenstein 8201
Mo@@ 8201
referring 8192
necessity 8191
money-laundering 8189
Stockholm 8187
highlight 8183
wanted 8181
cited 8180
Invites 8173
remove 8172
refused 8168
chain 8163
register 8162
engaging 8158
5,@@ 8157
ot@@ 8154
regarded 8154
formation 8146
beings 8144
necessarily 8143
exchanges 8139
103 8133
establishes 8132
Mrs. 8131
S-@@ 8127
in-depth 8127
circulated 8125
600 8124
clearance 8124
holders 8110
Emirates 8109
post-2015 8108
SE@@ 8106
Jamahiriya 8105
Disaster 8092
connected 8092
thereon 8092
permitted 8091
willing 8091
electricity 8089
engineering 8088
path 8086
Consultative 8084
closing 8082
popular 8079
signature 8078
immunity 8076
benefited 8075
excluded 8075
quite 8075
En@@ 8072
elderly 8050
preserve 8048
obtaining 8045
union 8039
analyse 8036
Al 8034
appropriation 8032
train 8028
um 8028
consequence 8026
era 8026
operative 8022
publicly 8021
favourable 8016
witness 8009
Cuban 8004
affordable 8001
Sub-Commission 7998
presentations 7995
maternity 7994
mitigate 7989
ministers 7986
ten@@ 7986
moment 7983
assumed 7979
emergencies 7978
imports 7974
shelter 7974
CA@@ 7973
sentences 7972
disappearance 7968
learn 7968
impose 7964
port 7964
possession 7962
emerged 7960
dynamic 7956
elsewhere 7954
enemy 7954
send 7952
wall 7950
ary 7948
104 7947
convene 7946
Takes 7940
Australian 7937
morning 7936
Organizations 7933
texts 7932
tackle 7923
whereby 7922
prevented 7920
Namibia 7917
auspices 7915
clients 7913
Area 7906
willingness 7904
Ab@@ 7900
doubt 7898
freely 7894
comparison 7893
minutes 7893
voice 7890
1967 7887
Pension 7883
dates 7883
Honduras 7882
aw@@ 7879
Participation 7868
cross-cutting 7857
realize 7857
consolidate 7852
propose 7852
Air 7851
Interior 7847
Against 7846
Th@@ 7842
ne@@ 7840
sub-item 7835
cruel 7834
la@@ 7834
command 7833
preparedness 7831
momentum 7830
toward 7826
www.@@ 7825
tons 7824
healthy 7817
politics 7817
removed 7815
workplace 7812
remarks 7810
F. 7807
Punishment 7804
concerted 7799
injury 7799
inflation 7798
IA@@ 7797
con@@ 7794
assembly 7791
front 7791
progressive 7790
2002-2003 7788
servicing 7787
heading 7784
struggle 7784
accessibility 7782
suffer 7782
drafted 7781
duplication 7778
6.@@ 7775
livelihoods 7773
girl 7767
Studies 7766
receipt 7765
reaffirm 7764
pace 7762
UNCCD 7754
brief 7754
minors 7751
enhancement 7748
assume 7747
ge@@ 7745
drinking 7739
http 7735
ECOWAS 7728
certification 7726
comparative 7725
Survey 7723
Volunteers 7721
disaggregated 7721
K 7718
won 7710
minor 7709
Articles 7708
mention 7704
Regulation 7697
approve 7695
Y 7694
choose 7693
Customs 7692
cut 7692
normative 7691
Legislative 7690
ing@@ 7686
List 7683
enrolment 7683
hundreds 7682
manual 7681
firearms 7680
consists 7678
PA@@ 7676
species 7675
twentieth 7672
nuclear-weapon-free 7671
simple 7667
OSCE 7665
Paraguay 7663
monetary 7661
square 7659
fired 7656
viable 7655
hopes 7647
drought 7646
disciplinary 7644
significance 7644
RA@@ 7639
street 7639
Conflict 7638
Consideration 7634
consisting 7630
easily 7630
Bahrain 7629
fostering 7627
seized 7626
Because 7621
workload 7621
province 7619
fixed 7617
Pro@@ 7614
Prohibition 7614
av@@ 7613
Recommendations 7611
fissile 7607
ana 7606
Sahara 7603
objection 7599
wages 7597
easy 7592
Bar@@ 7590
sure 7590
ard 7588
regrets 7588
Sh@@ 7586
Now 7584
indicating 7577
transformation 7576
Monterrey 7571
Muslim 7569
Chemical 7568
therein 7567
prompt 7561
5,000 7560
partly 7560
106 7559
Continue 7559
ay 7559
dollar 7558
missile 7555
tu@@ 7551
authorization 7548
Establishment 7546
formally 7546
Former 7545
inquiry 7545
valid 7545
vessels 7545
budgeted 7544
combination 7544
delegates 7543
Communication 7542
candidate 7542
carefully 7542
deprivation 7537
impossible 7534
Somali 7529
ASEAN 7519
Branch 7519
pattern 7517
ceasefire 7516
tests 7516
ren@@ 7513
trans@@ 7511
defining 7510
ultimately 7506
durable 7501
corporations 7496
municipalities 7493
patients 7491
ECA 7488
thanks 7487
thing 7485
well-@@ 7482
par@@ 7480
Greek 7475
CO@@ 7472
Institutions 7471
substantially 7471
mon@@ 7468
Main 7462
advisers 7461
completely 7456
Non-@@ 7452
double 7451
initiate 7449
ir 7447
Canadian 7444
length 7441
Kim 7439
indirect 7439
accounted 7437
merely 7436
repeatedly 7436
exceptional 7435
SecretaryGeneral 7434
seats 7434
Taiwan 7432
man@@ 7430
Advancement 7426
complexity 7421
analyses 7419
suppliers 7415
pornography 7414
year-old 7414
VIII 7410
redress 7409
rely 7407
Reform 7403
Workshop 7399
updating 7397
ensured 7396
108 7395
Se@@ 7393
ance 7392
car@@ 7392
intends 7388
branch 7386
ordered 7386
closure 7384
107 7383
acquire 7379
Property 7378
ecosystem 7376
hands 7375
student 7375
retained 7372
contracting 7368
greenhouse 7368
frame 7365
os@@ 7365
fill 7362
Kyrgyzstan 7361
2016 7359
manufacture 7359
enacted 7355
6,@@ 7354
munitions 7354
assurances 7352
smaller 7350
imperative 7346
repeated 7345
enforce 7344
comprises 7341
exploration 7341
chaired 7338
executions 7338
initially 7338
huge 7334
inter-@@ 7334
desire 7333
ters 7332
Before 7331
reaffirms 7327
et@@ 7326
reimbursement 7326
whereas 7324
Concerning 7323
districts 7319
ask 7318
unity 7318
maintains 7316
hear 7315
contemporary 7313
user 7313
Par@@ 7311
argued 7308
Commonwealth 7307
permits 7305
submits 7303
Djibouti 7301
medium 7301
Co@@ 7297
opinions 7295
revealed 7294
ep@@ 7284
ay@@ 7282
negotiated 7276
recall 7266
friendly 7264
none 7261
heart 7259
insolvency 7259
occasions 7258
prohibit 7258
books 7251
continuity 7250
subsistence 7249
bu@@ 7246
115 7245
24@@ 7241
Inter@@ 7241
112 7233
promotes 7232
channels 7231
1.2 7228
Congolese 7228
predictable 7228
per@@ 7227
U.S. 7226
turned 7226
exposed 7223
re 7223
reading 7212
arrived 7207
deadline 7206
30@@ 7200
stereotypes 7199
tracking 7199
iz@@ 7197
Togo 7195
appointments 7194
showing 7194
putting 7192
severely 7189
ds 7186
Add.2 7184
Envoy 7182
retain 7181
ig@@ 7175
opposed 7175
1373 7171
soil 7170
Not 7168
ve 7168
Common 7167
producers 7162
abortion 7160
EC 7155
speaker 7155
impartial 7151
poorest 7151
ists 7148
appoint 7145
W 7143
generations 7142
ta 7138
Let 7135
constant 7129
Sexual 7126
Fiji 7123
Workers 7116
waters 7116
roads 7114
heavily 7112
suspended 7112
redeployment 7111
A.@@ 7110
Source 7109
Consensus 7106
hi@@ 7105
DP 7104
Ocean 7104
Niger 7103
2,000 7099
Ex@@ 7099
plants 7099
Hague 7097
inequalities 7097
Timor 7096
compilation 7096
intensive 7096
pursuing 7095
pillars 7094
contingent 7090
Bolivarian 7087
100,000 7086
employee 7081
ology 7079
emission 7078
paying 7077
interviews 7067
smuggling 7067
26@@ 7066
outline 7056
aviation 7054
deals 7054
restoration 7053
running 7052
probably 7051
multi-year 7048
consistency 7042
advancing 7040
entrusted 7037
stipulated 7036
characterized 7034
consult 7034
ong 7034
Medical 7033
ph@@ 7032
combatants 7030
sports 7029
Supplement 7023
referendum 7023
curriculum 7021
regulated 7020
realized 7019
urgency 7019
minister 7014
ton 7005
definitions 7003
killings 7003
Arabic 6999
married 6997
ov@@ 6997
ci@@ 6994
White 6991
Taliban 6988
pe@@ 6987
ud@@ 6987
Domestic 6983
res@@ 6981
safeguard 6981
employer 6975
eventually 6973
launching 6972
ina 6968
urgently 6964
readiness 6961
index 6955
113 6954
vi@@ 6952
possibilities 6947
up@@ 6947
25@@ 6946
depending 6946
prevailing 6945
encountered 6944
investigated 6943
curricula 6942
contributes 6938
Le@@ 6935
upgrading 6933
occupational 6931
Analysis 6929
fewer 6923
114 6919
3rd 6918
Once 6918
130 6916
Judicial 6916
presidency 6910
documented 6904
Kuwaiti 6900
Related 6899
biggest 6897
foundations 6897
revenues 6896
ves 6896
offenders 6895
Voluntary 6893
ruling 6892
weapon 6892
architecture 6891
amend 6888
eg@@ 6885
in-@@ 6883
8,@@ 6876
d-@@ 6876
registry 6874
ov 6873
Judge 6871
ten 6870
existed 6869
Cross 6864
strictly 6864
islands 6861
116 6860
Car@@ 6857
goes 6857
Province 6850
historic 6850
Promoting 6849
firmly 6848
depends 6844
EC@@ 6843
becomes 6843
sold 6843
western 6842
formulating 6833
merits 6833
guiding 6831
ality 6828
solid 6828
legitimacy 6826
UNMIS 6824
causing 6823
termination 6823
Sha@@ 6821
ethics 6821
loan 6816
absolute 6812
marketing 6809
consumers 6804
7,@@ 6803
ks 6803
2-@@ 6798
ibid 6790
proof 6790
hostilities 6786
troop 6785
welcoming 6785
thereof 6784
inhabitants 6780
Mu@@ 6776
serves 6775
taxes 6774
com@@ 6771
109 6770
adult 6770
suggestion 6769
promptly 6765
exclusively 6758
CAT 6749
considerably 6747
Forests 6742
amounting 6739
statute 6738
submitting 6736
difficulty 6735
administered 6733
collaborative 6733
robust 6732
Aid 6726
Bangkok 6721
adding 6721
ageing 6719
viewed 6719
UNDCP 6716
Order 6714
highlights 6712
id 6712
tend 6712
ma@@ 6711
servants 6711
tenure 6707
answer 6704
ESCWA 6703
murder 6703
sustain 6701
looks 6700
open-ended 6698
awarded 6696
incidence 6696
condemned 6691
entirely 6691
under@@ 6690
ST 6689
Base 6688
remuneration 6685
External 6684
ke 6684
nongovernmental 6683
restore 6682
signs 6682
debates 6680
ity 6680
800 6678
sixtieth 6678
Capital 6672
pledges 6668
utilized 6664
Illicit 6658
Tribunals 6658
elaborate 6650
3-@@ 6647
classification 6647
non-State 6647
2000-2001 6645
Relief 6644
file 6644
Welfare 6638
appreciated 6635
admissibility 6634
securing 6633
fulfilling 6632
Monetary 6630
Diversity 6629
feasible 6629
policymakers 6626
description 6623
AMISOM 6620
databases 6620
injuries 6620
instability 6620
,0@@ 6619
benchmarks 6619
Botswana 6617
weight 6617
divided 6613
advantages 6612
Contracting 6610
assignment 6607
1.5 6599
rose 6599
falling 6598
justified 6597
attract 6592
discharge 6592
1-@@ 6587
atmosphere 6585
MINUSTAH 6584
Turkmenistan 6584
administering 6580
networking 6578
large-scale 6577
friends 6575
stood 6574
autonomy 6573
truth 6573
1.1 6570
140 6565
s-@@ 6565
car 6564
certainly 6564
09 6560
Johannesburg 6559
Malawi 6558
118 6556
117 6555
H.E. 6555
ments 6555
briefed 6552
assurance 6548
picture 6548
undertook 6546
demographic 6545
GDP 6540
prove 6540
P-2 6536
pledged 6535
telecommunications 6535
cost-effective 6534
buyer 6531
UNAIDS 6530
strike 6530
SMEs 6529
tribunals 6529
Outcome 6528
interference 6527
finally 6524
gathering 6523
underscored 6519
Brussels 6518
film 6518
pages 6515
codes 6513
3,000 6505
compromise 6505
harmonized 6505
translated 6502
ma 6501
9,@@ 6496
allocate 6496
Victims 6494
detection 6493
ari@@ 6492
Take 6486
exercises 6486
summits 6482
2014-2015 6481
John 6481
normally 6481
adherence 6478
Effective 6477
ba 6477
2.1 6476
prosperity 6475
Currently 6468
investigating 6467
copy 6466
grow 6466
thorough 6460
JIU 6459
perceived 6458
122 6447
refrain 6445
minimize 6443
scientists 6443
destination 6442
survival 6442
C.4 6441
organ 6439
organisations 6435
baseline 6433
community-based 6433
story 6431
alization 6428
extending 6427
7.@@ 6426
Adoption 6422
hit 6422
rental 6417
Dis@@ 6416
2.5 6414
expressing 6411
anyone 6402
ang 6398
performing 6394
so@@ 6394
airport 6391
estate 6389
lived 6387
o-@@ 6384
overseas 6381
unemployed 6381
Non-Aligned 6378
enormous 6378
pursuit 6374
ocean 6373
AR@@ 6372
profile 6368
Last 6367
ST@@ 6361
Welcoming 6361
Atomic 6359
cl@@ 6356
ical 6354
assumption 6345
Rural 6344
globally 6341
religions 6340
ha 6338
exclusive 6336
ECE 6335
cancer 6335
partially 6335
endeavour 6333
anti-personnel 6329
solely 6329
epidemic 6324
adjusted 6323
regulate 6323
conversion 6319
supportive 6318
08 6317
af@@ 6316
capita 6316
commentary 6314
Apple 6313
truly 6309
relatives 6305
Communist 6301
mobilizing 6299
references 6299
operated 6296
Sa@@ 6295
IN 6294
slavery 6294
au@@ 6293
contrast 6293
twice 6291
oriented 6290
Suppression 6289
adapt 6289
Without 6284
stipulates 6284
2020 6278
CO 6278
challenging 6278
posted 6278
surrounding 6277
Mauritania 6276
Culture 6275
ked 6273
recipient 6272
ry 6271
indication 6269
Lu@@ 6266
1986 6263
Qu@@ 6263
RC 6263
calendar 6261
missiles 6261
chosen 6260
retirement 6257
125 6256
M. 6254
environments 6250
oc@@ 6250
TD 6248
genital 6246
elaborated 6245
practitioners 6244
obliged 6243
decentralization 6236
Iranian 6233
attendance 6233
Appeal 6232
executed 6232
observance 6229
rendered 6226
Reaffirming 6222
nevertheless 6222
ensures 6221
exceed 6219
plays 6219
ying 6217
ale 6216
ob@@ 6216
Subsequently 6215
owners 6215
du@@ 6210
119 6209
az@@ 6206
Madagascar 6205
CERD 6200
1,0@@ 6196
resolving 6196
frequent 6194
unprecedented 6194
ics 6192
holistic 6188
Case 6185
700 6184
tra@@ 6184
phases 6182
feedback 6178
researchers 6178
feasibility 6176
messages 6175
abstentions 6173
Mal@@ 6170
lies 6168
expect 6165
Housing 6159
allocations 6159
&apos;ve 6157
Bi@@ 6157
reinforcing 6157
possibly 6155
confirm 6154
Cypriot 6148
governed 6148
Mine 6145
delivering 6145
resilience 6145
Manual 6144
J. 6142
hour 6142
transboundary 6136
appraisal 6132
grade 6132
jurisdictions 6128
Freedom 6125
oceans 6124
leads 6117
copies 6114
divisions 6114
G. 6110
jurisprudence 6110
ratifying 6110
we@@ 6107
wording 6107
Times 6106
Round 6105
apparent 6104
2.2 6102
comparable 6102
fine 6101
portfolio 6101
playing 6100
Barbados 6098
proposes 6098
classified 6092
economically 6089
4th 6088
sp@@ 6087
INF 6086
low-income 6086
preservation 6085
ses 6085
resort 6083
01 6078
piracy 6074
pool 6074
client 6072
Programmes 6070
extraordinary 6070
Maritime 6066
ai 6065
descent 6065
listing 6064
ev@@ 6062
Samoa 6061
correct 6061
high-@@ 6060
bis 6059
proceeding 6059
certificate 6057
evolving 6054
Desertification 6053
investigative 6053
lay 6052
mutilation 6050
SS 6046
tive 6046
ged 6045
getting 6044
geographic 6042
tri@@ 6041
Production 6036
examining 6036
ized 6036
break 6035
Maldives 6030
Standard 6029
1980 6026
11@@ 6024
massive 6016
commerce 6013
ati@@ 6008
feature 6004
attributed 6002
gathered 6002
Study 5995
Swiss 5985
sell 5983
audits 5982
ins 5982
Vice-President 5979
decree 5978
outset 5978
grown 5977
alized 5969
Multilateral 5967
contractor 5965
mark 5960
disparities 5958
Cape 5957
sc@@ 5957
suspension 5957
Lao 5953
123 5948
sole 5947
constitution 5946
Contributions 5944
Additionally 5942
inspections 5941
phone 5941
returns 5940
excellent 5934
partial 5933
121 5930
4-@@ 5928
gradually 5928
buy 5927
for@@ 5927
damages 5925
affects 5924
interpreted 5924
statutory 5924
incorporating 5923
05 5922
placement 5922
Response 5915
Golan 5914
Bo@@ 5912
distinct 5912
limitation 5907
evident 5906
MA@@ 5899
advocate 5899
census 5899
privacy 5897
1540 5896
separately 5896
th 5895
sphere 5893
AP@@ 5890
essentially 5890
debris 5888
est@@ 5888
unpaid 5888
ded 5887
intersessional 5885
portion 5885
Overall 5880
multi@@ 5879
stands 5879
Ba@@ 5877
rights-based 5877
IX 5875
optional 5874
6-@@ 5873
summarized 5873
thinking 5870
retention 5868
IP@@ 5867
modified 5865
= 5863
ultimate 5863
Guyana 5862
Haitian 5862
ise 5860
withdraw 5860
Prosecution 5857
multi-@@ 5856
fi@@ 5854
Mon@@ 5852
kinds 5850
rec@@ 5850
low-@@ 5847
CONF.@@ 5846
Racism 5844
births 5844
Final 5841
ECLAC 5833
aforementioned 5832
aligned 5832
seas 5830
secret 5830
unacceptable 5826
gh@@ 5825
inherent 5822
arbitral 5821
argument 5817
Trial 5816
malnutrition 5816
notion 5815
clause 5810
ill 5809
realities 5809
Narcotic 5806
spare 5805
calculated 5803
hatred 5803
indispensable 5803
invest 5802
Target 5800
Is 5799
extrajudicial 5798
UNFCCC 5796
Provide 5795
D-1 5792
phrase 5790
Introduction 5788
survivors 5788
10,000 5787
&apos;m 5786
maximize 5786
militia 5785
aspirations 5782
prominent 5782
fl@@ 5777
Governance 5775
confidential 5774
Americans 5772
coordinators 5772
Cor@@ 5771
1987 5769
uncertainty 5769
resettlement 5768
Academy 5764
diversification 5762
Program 5761
settings 5757
sub-Saharan 5756
40@@ 5751
circled 5750
white 5747
colleagues 5745
workforce 5744
everything 5741
prohibits 5741
secretariats 5741
mo@@ 5739
programmatic 5738
intimidation 5735
counterparts 5733
Major 5732
immigrants 5732
0 5728
124 5724
equipped 5723
acknowledge 5722
Steering 5721
allowances 5718
micro@@ 5718
MO@@ 5717
traditions 5716
Accounting 5715
filled 5715
organic 5713
returning 5710
Moscow 5709
assault 5708
1982 5706
CEB 5706
satisfactory 5703
Com@@ 5702
tor 5702
clarified 5700
parameters 5700
forestry 5698
gen@@ 5696
5th 5693
ani 5693
irrespective 5693
Responsible 5692
CE@@ 5691
Conferences 5691
got 5691
guilty 5687
negotiate 5687
Personal 5684
enjoyed 5683
five-year 5681
Bu@@ 5680
Coordinating 5680
spite 5679
153 5673
Private 5672
disseminated 5671
ian 5671
proactive 5670
138 5667
ble 5666
realistic 5666
explicit 5664
nationally 5664
00@@ 5663
beneficial 5663
CDM 5660
speed 5660
abolition 5659
182 5658
measured 5657
Me@@ 5655
ment@@ 5655
officially 5655
Be@@ 5654
summer 5654
ach@@ 5649
specialists 5649
bases 5648
air@@ 5647
guideline 5647
1.3 5643
dec@@ 5643
Violations 5642
denial 5641
q@@ 5639
weekly 5639
duly 5638
gratitude 5637
Ali 5635
countering 5634
ID@@ 5632
contingency 5630
For@@ 5625
College 5624
AN@@ 5621
Web 5620
medicines 5618
Shanghai 5613
prescribed 5613
Increase 5610
parent 5609
locally 5607
infant 5605
ak 5604
06 5600
inadmissible 5600
ty 5599
managerial 5595
Every 5593
classes 5588
tic 5587
ative 5586
collecting 5584
structured 5582
thanked 5582
on-@@ 5581
contingent-owned 5578
eleventh 5577
measurement 5575
justify 5574
5-@@ 5573
90@@ 5570
non-compliance 5569
proven 5568
1985 5567
handed 5567
patrol 5563
Account 5560
entrepreneurship 5560
Sunday 5557
ful 5557
efficiently 5554
slightly 5551
P.@@ 5550
Urban 5550
ports 5550
hosting 5546
cultivation 5544
stating 5542
originally 5539
protests 5538
Har@@ 5534
sed 5534
accorded 5531
frequency 5531
Delegations 5529
ite 5528
advise 5527
anything 5526
evolution 5526
intensified 5523
creditors 5522
appropriately 5518
w 5518
Proposed 5515
ethical 5513
ge 5513
cargo 5512
sum 5511
refusal 5508
134 5507
foreigners 5505
towns 5504
worker 5504
sponsoring 5503
skilled 5502
prosecuted 5501
exceptions 5499
faces 5499
surface 5498
incorporation 5497
pressing 5495
180 5493
crops 5493
discipline 5491
obstacle 5490
Bhutan 5488
33@@ 5487
justification 5487
manifestations 5484
Mediterranean 5483
image 5475
IT@@ 5474
penal 5473
pupils 5473
ang@@ 5472
desirable 5471
Instead 5470
evaluating 5470
exercised 5469
chance 5468
appealed 5466
hearings 5466
Administrator 5464
qualifications 5463
mu@@ 5462
il 5461
LA@@ 5456
fit 5455
prohibiting 5455
ness 5454
parental 5452
MI@@ 5451
middle 5451
Care 5450
politically 5449
radiation 5449
ass@@ 5447
ging 5447
gone 5447
newspaper 5447
manager 5440
comprise 5439
IMO 5437
TO 5437
acceded 5437
Agricultural 5434
Matters 5431
guaranteeing 5430
Inter-American 5428
Cabinet 5424
Inhuman 5424
Promote 5423
ES 5417
GM 5417
Degrading 5412
acted 5411
drive 5411
stabilization 5411
bad 5408
preceding 5408
uniform 5408
vacancies 5407
misconduct 5406
Non-Self-Governing 5405
fragile 5400
6th 5398
Certain 5397
imposition 5396
attempted 5395
precise 5393
broadly 5392
utmost 5392
profits 5391
Systems 5389
attending 5387
typically 5387
surplus 5385
quantity 5384
2.3 5383
releases 5383
discussing 5382
helps 5378
Company 5376
satisfied 5375
Addis 5373
resume 5370
Kar@@ 5366
Madrid 5365
unified 5363
Umoja 5362
founded 5361
motivated 5360
punish 5359
ambitious 5358
patrols 5358
testimony 5358
Am@@ 5356
ER@@ 5356
separated 5356
named 5354
pass 5352
I.@@ 5350
50@@ 5349
7-@@ 5347
shot 5346
associate 5344
instruction 5343
prosecutor 5342
doctors 5338
HR 5336
Istanbul 5333
assure 5332
generating 5332
spouses 5332
8.@@ 5331
Ro@@ 5330
.org 5329
Woods 5329
fifty-eighth 5329
defend 5328
Ababa 5327
ats 5327
deleted 5327
impartiality 5326
Four 5325
valuation 5325
upcoming 5321
Arbitration 5320
Meanwhile 5320
weather 5316
creditor 5314
4,000 5312
fail 5312
commenced 5308
branches 5306
communicate 5303
worst 5303
Parliamentary 5302
fifty-ninth 5302
seller 5301
verify 5301
ders 5300
fulfilled 5300
violate 5299
IT 5296
Atlantic 5295
black 5295
appreciate 5291
pa@@ 5290
SA 5289
Serious 5289
07 5288
profit 5288
incitement 5285
ish 5284
! 5281
Italian 5280
CMP 5277
den@@ 5277
160 5276
El@@ 5276
Reaffirms 5276
Opportunities 5275
cross-@@ 5274
Body 5273
Develop 5272
kilometres 5271
departure 5268
ko 5266
screening 5266
entrepreneurs 5265
126 5263
concentrated 5259
Integration 5256
min@@ 5252
placing 5252
128 5251
attainment 5247
SC 5245
Sudanese 5245
deterioration 5245
ranging 5245
fashion 5240
prime 5240
awards 5239
verbale 5239
anti-corruption 5238
corporal 5235
River 5234
dropped 5230
preambular 5229
gold 5228
Question 5222
affirmed 5222
tested 5220
IF@@ 5216
excess 5213
disappearances 5212
cooperating 5211
radioactive 5211
Free 5210
Marine 5210
Bretton 5209
Trinidad 5208
sexually 5208
135 5207
nominated 5206
1978 5205
mixed 5204
activists 5203
earnings 5203
properties 5203
residential 5200
169 5199
der@@ 5198
please 5196
Operational 5193
witnessed 5192
900 5191
debtor 5189
talk 5189
standardized 5187
3.1 5184
whatever 5184
wood 5184
advised 5182
dismissed 5180
borne 5177
1949 5174
reinforced 5171
bridge 5170
Gabon 5169
mar@@ 5168
repair 5168
tr@@ 5168
validity 5168
perpetrated 5167
Investigation 5166
driving 5165
un 5165
platforms 5163
punishable 5163
middle-income 5162
127 5161
arguments 5161
unlikely 5161
212 5160
to-@@ 5157
Monaco 5156
Reporting 5155
decolonization 5151
withdrawn 5149
Clinton 5147
Unfortunately 5147
Min@@ 5146
exercising 5146
q 5145
sport 5145
evaluated 5143
accommodate 5142
Aviation 5140
observe 5137
grateful 5136
Royal 5133
avoiding 5133
false 5130
certificates 5127
excluding 5123
og@@ 5123
analysed 5122
tension 5120
kg 5118
NATO 5114
obvious 5113
plus 5113
three-year 5111
indirectly 5109
er-@@ 5108
CCW 5107
sixty-first 5107
pensions 5106
Baghdad 5101
innocent 5101
presenting 5101
Corporation 5100
WP.@@ 5099
fifty-seventh 5099
genetic 5099
workplan 5099
1998-1999 5098
Tobago 5098
clarity 5098
Rwandan 5097
Cruel 5096
lending 5095
flag 5093
deficit 5091
Park 5089
holds 5085
accidents 5081
C.6 5079
describe 5077
parliament 5077
regulating 5075
voters 5074
South-East 5070
diamonds 5069
livelihood 5067
customers 5066
racist 5063
all@@ 5061
Nuclear-Test-Ban 5060
explosives 5060
investigators 5060
Road 5057
129 5055
ja 5052
professor 5050
Recent 5048
shortcomings 5047
Gulf 5046
designing 5045
men@@ 5045
ou 5045
Democracy 5041
ret@@ 5041
analysing 5039
Copenhagen 5038
Registry 5035
7th 5034
Amendment 5034
applicant 5034
childhood 5031
damaged 5031
Resident 5029
Sub.2 5029
peer 5029
arrival 5027
flights 5027
analysts 5026
updates 5026
Recognizes 5025
relocation 5022
boards 5020
limiting 5020
ICRC 5019
Ac@@ 5015
ff@@ 5015
careful 5013
Industry 5012
aside 5011
war@@ 5011
linking 5008
contents 5005
agent 5002
attacked 5002
Q 5001
admission 5001
Per@@ 4999
rapporteurs 4998
choices 4996
weaknesses 4996
consulted 4994
crossing 4993
141 4992
132 4991
afford 4991
computers 4989
enquiry 4988
participant 4986
threaten 4986
6,000 4984
aries 4984
marriages 4984
payable 4979
ME@@ 4977
reparation 4977
responsive 4977
C.@@ 4975
CARICOM 4974
landmines 4974
Senate 4973
whenever 4973
accelerated 4971
Ivorian 4967
Prevent 4967
continuously 4963
empower 4963
anti@@ 4962
resumption 4962
Tokyo 4960
Register 4958
annexes 4956
pen@@ 4956
ba@@ 4954
9-@@ 4952
Others 4952
incumbent 4950
supplement 4946
Al-Qaida 4945
non 4945
argues 4944
Immigration 4943
creative 4943
DE@@ 4942
Lesotho 4942
Reconciliation 4941
teacher 4938
commencement 4937
ler 4934
Specific 4932
recording 4932
confident 4931
dead 4931
announcement 4930
133 4928
ib@@ 4922
bar@@ 4921
concentration 4919
e-mail 4919
medicine 4919
freeze 4918
unanimously 4916
tariffs 4915
ITC 4913
threshold 4913
intent 4910
ence 4909
CST 4906
concludes 4906
FA@@ 4905
sur@@ 4905
XI 4903
owner 4902
IR@@ 4901
tor@@ 4897
recalling 4894
divorce 4891
expedite 4891
Meetings 4890
Stresses 4889
ade 4889
ges 4889
highlighting 4889
Unity 4888
institutes 4887
adapted 4886
ON 4885
Puerto 4885
admitted 4885
processed 4885
reverse 4885
Library 4884
measuring 4883
cease 4882
PRST 4881
Wang 4881
disseminating 4879
H. 4877
shelters 4876
Strengthen 4875
ru@@ 4875
easier 4874
IDB.@@ 4871
ely 4871
Secondly 4870
policymaking 4869
utilize 4869
34@@ 4868
Professor 4865
UNDAF 4865
Views 4864
casualties 4863
modules 4863
Registrar 4862
didn 4862
Coalition 4857
Combating 4857
Rotterdam 4857
UNITAR 4857
Liberian 4856
east 4856
Acts 4855
acute 4852
AI 4850
contexts 4848
Lakes 4845
Street 4843
Ordinance 4842
131 4840
1973 4839
volunteers 4837
describes 4834
lowest 4834
CRIC 4833
Regular 4833
ow@@ 4833
spheres 4832
declare 4831
Google 4830
ational 4830
ist@@ 4830
3.2 4829
acknowledges 4829
Go@@ 4826
punished 4826
Practice 4825
SC@@ 4825
recosting 4821
pertinent 4820
claimants 4819
ously 4819
demonstration 4818
expressly 4818
Ethics 4817
No@@ 4813
universality 4813
systemic 4812
Records 4811
visiting 4810
Im@@ 4808
parliamentarians 4807
autonomous 4805
monitors 4804
Cairo 4802
ps 4802
grew 4801
ars 4800
alien 4798
ization 4796
visible 4796
1981 4795
9.@@ 4795
traditionally 4793
UK 4790
36@@ 4789
incompatible 4785
distance 4784
ie 4784
congratulate 4782
demonstrations 4781
revisions 4781
UNCDF 4780
confiscation 4776
Insurance 4773
les 4771
wondered 4771
developmental 4768
sing 4767
PR@@ 4765
licence 4765
AC.109 4762
Papua 4761
Presidential 4761
questioned 4761
councils 4759
brings 4757
unclear 4757
adviser 4756
selling 4756
Radio 4755
TA@@ 4755
harmonize 4754
ore 4754
images 4752
37@@ 4751
suspects 4750
ver@@ 4749
1980s 4746
Li@@ 4745
spouse 4745
solve 4744
ill@@ 4743
unknown 4743
9th 4742
peacekeepers 4742
socially 4742
za 4740
panels 4739
pillar 4739
ven@@ 4739
0,000 4737
ically 4737
adversely 4736
assured 4736
liquidation 4736
protest 4736
Mc@@ 4735
Aspects 4734
alleviation 4731
02 4729
izing 4729
returnees 4729
herewith 4728
specify 4728
rations 4726
Col@@ 4724
amending 4722
di 4719
Abu 4715
instalment 4710
regret 4710
accede 4709
shipping 4708
irregular 4706
zero 4704
UNAMA 4703
ens 4702
inventories 4701
operators 4700
protective 4700
stories 4696
voted 4692
Five 4691
ering 4691
Genocide 4690
inconsistent 4689
timetable 4687
139 4685
aliens 4685
Capacity 4684
Liberation 4684
labor 4683
Mogadishu 4681
ants 4681
200@@ 4679
satellites 4679
breakdown 4678
Commercial 4677
defines 4674
chronic 4670
succession 4670
revise 4668
Hu@@ 4667
licensing 4665
sending 4665
receivable 4664
decentralized 4663
Election 4661
atory 4661
motion 4660
145 4658
consequently 4657
directors 4657
Zone 4655
sion 4655
1.4 4651
Z 4651
females 4650
uphold 4650
han@@ 4649
miles 4649
falls 4648
arrests 4647
attitude 4646
Sub@@ 4644
accident 4644
emphasizing 4642
Li 4640
ping 4638
happened 4636
nationwide 4635
promulgated 4635
attain 4634
accreditation 4632
installation 4632
UNFICYP 4628
liable 4626
vary 4626
someone 4624
comprised 4623
fe@@ 4623
objections 4623
operates 4621
blood 4619
rooms 4617
í@@ 4616
48@@ 4615
capture 4613
infection 4613
meets 4613
settled 4611
Improving 4610
one-@@ 4610
MINURSO 4607
issuing 4604
MONUSCO 4602
adolescent 4599
Key 4598
CC@@ 4597
methodological 4597
142 4595
Life 4595
136 4593
GA 4592
entail 4592
applicants 4590
Situation 4586
Improved 4583
fifty-sixth 4582
60@@ 4581
illiteracy 4578
explored 4577
155 4576
ran@@ 4573
Accounts 4572
ent@@ 4572
owed 4572
projections 4570
Jo@@ 4569
players 4568
wrongful 4568
Swedish 4567
asylum-seekers 4567
orbit 4567
143 4566
recourse 4566
Ben@@ 4564
decisive 4564
emergence 4563
shortly 4562
2.4 4560
Press 4559
consultant 4558
ecological 4555
reflection 4555
News 4554
St. 4554
Oman 4553
Risk 4552
PO@@ 4549
ai@@ 4546
Abyei 4544
drop 4543
arrears 4542
endeavours 4541
mapping 4540
AC.@@ 4539
steady 4539
Americas 4538
137 4536
IM@@ 4536
Soviet 4535
alignment 4535
declining 4535
fate 4535
ala 4534
IMIS 4532
RES 4531
studied 4528
8th 4527
Bahamas 4527
fertility 4527
valued 4526
Commerce 4525
OAU 4525
small-scale 4525
50,000 4524
respecting 4523
Natural 4521
warrant 4521
Young 4520
constantly 4520
violating 4519
collectively 4517
gender-sensitive 4517
consolidating 4516
EN@@ 4515
qualitative 4513
Media 4512
exploring 4511
council 4510
chairman 4509
Intelligence 4508
assumptions 4508
alizing 4506
isolation 4506
ourselves 4505
ran 4504
Bonn 4503
CH@@ 4502
two-@@ 4502
Guiding 4501
km 4501
2017 4500
fifty-fifth 4500
ex 4499
navigation 4499
Mandate 4498
Powers 4497
ize 4497
confidentiality 4495
beliefs 4494
clinics 4494
hu@@ 4494
save 4491
twelfth 4490
prolonged 4489
socioeconomic 4489
Eradication 4485
sixty-second 4485
preferred 4483
na 4482
39@@ 4479
commends 4479
cuts 4478
10,@@ 4477
segments 4476
Ra@@ 4475
broadcast 4474
timing 4473
do@@ 4469
commend 4467
variance 4467
alism 4466
deploy 4466
infections 4465
SR@@ 4464
roster 4464
Good 4461
quantitative 4461
S. 4454
Should 4454
cor@@ 4454
Gambia 4451
farming 4451
Islam 4448
Mohamed 4447
restrictive 4447
afternoon 4446
microfinance 4446
discretion 4445
restrict 4445
vendors 4445
Facebook 4443
Consider 4441
aiming 4441
colonial 4441
8-@@ 4439
Verde 4439
visitors 4439
draws 4437
non-post 4437
Transfer 4433
chains 4432
162 4431
ped 4430
0-@@ 4429
J 4429
earthquake 4429
exceeded 4427
quarterly 4427
profound 4426
Liaison 4424
medium-sized 4423
IDPs 4422
distinguished 4422
specialist 4422
consist 4421
urbanization 4421
1984 4420
Personnel 4419
col@@ 4419
securities 4418
thereafter 4418
independently 4416
Chemicals 4415
Policies 4415
drivers 4415
resistance 4414
ur 4413
toxic 4412
align 4410
147 4408
AU 4404
are@@ 4401
coast 4401
dependence 4401
finalize 4399
invoked 4397
enables 4396
Rec@@ 4393
144 4392
files 4392
Cha@@ 4390
inalienable 4390
Families 4389
mat@@ 4389
strive 4389
end@@ 4388
annexed 4387
mere 4387
supporters 4386
lacking 4385
Expresses 4384
corrections 4383
treat 4383
investing 4382
gradual 4381
wrong 4380
criticism 4379
totalling 4379
receives 4378
unnecessary 4378
co 4377
modest 4377
Ensuring 4376
advocates 4375
earmarked 4375
twenty-third 4373
Danish 4372
halt 4372
module 4372
varied 4367
Prison 4366
deficiencies 4366
solar 4364
expensive 4363
shortage 4363
tion@@ 4363
Pre@@ 4361
diplomacy 4361
SO@@ 4357
UNU 4356
scene 4355
persistence 4354
Partnerships 4352
AL@@ 4351
suicide 4351
As@@ 4350
elect 4350
installations 4348
Anti-@@ 4347
Committed 4345
Dispute 4338
10-@@ 4336
fresh 4334
smooth 4334
Commander 4333
Minorities 4333
lose 4332
west 4332
metres 4330
center 4329
Brazilian 4328
Enhanced 4328
fallen 4328
alize 4325
block 4325
enactment 4324
helpful 4324
notwithstanding 4324
hence 4323
ze 4322
Du@@ 4320
reaction 4317
expense 4316
Plenary 4315
Role 4315
committing 4315
ef@@ 4314
win 4314
Add.3 4313
FARDC 4312
trainers 4311
David 4310
Exchange 4310
Stabilization 4310
ber@@ 4310
str@@ 4308
Current 4306
1325 4305
authorize 4302
exemption 4302
hazards 4302
proceeded 4301
divide 4300
print 4300
Agreements 4299
ner 4299
phased 4299
Centres 4298
San@@ 4296
conceptual 4296
4.1 4294
Presidents 4294
love 4294
CR@@ 4293
cessation 4291
consulting 4291
harmony 4291
incomes 4291
poses 4291
80@@ 4289
35@@ 4288
contingents 4287
cell 4286
undermined 4286
Seminar 4285
deputy 4285
tradition 4283
157 4282
else 4282
ms 4282
NE@@ 4280
virtually 4279
LE@@ 4278
rebel 4277
inability 4275
supplied 4275
invested 4273
chair 4272
visibility 4272
appropriations 4271
spend 4271
visa 4271
Enforced 4268
Sal@@ 4267
country-specific 4267
Construction 4264
Providing 4263
marginalization 4261
cur@@ 4260
narrow 4257
upgrade 4255
38@@ 4253
Mor@@ 4253
Destruction 4252
fee 4251
write 4251
CC 4250
forensic 4249
trip 4249
Practices 4248
1979 4247
151 4246
ation@@ 4245
tribute 4245
non-discriminatory 4243
apparently 4241
indicative 4241
commented 4239
ends 4237
Future 4235
Market 4235
helicopters 4235
individually 4235
respondents 4235
sixty-third 4229
Sam@@ 4227
simultaneously 4227
abolished 4226
filing 4225
ve@@ 4225
eligibility 4223
linguistic 4222
agendas 4221
ish@@ 4221
routes 4221
waiting 4221
seekers 4219
multilateralism 4218
3.3 4215
entitlements 4215
Ber@@ 4214
FOR 4213
cars 4211
Chambers 4210
stimulate 4210
stopped 4209
47@@ 4208
146 4207
Light 4207
bar 4207
C-@@ 4206
Performance 4206
commence 4206
completing 4206
render 4206
establishments 4205
Ver@@ 4204
ley 4203
quantities 4203
scenario 4202
Bali 4201
del@@ 4201
sixty-fifth 4201
secretary 4200
SADC 4199
ches 4199
Christian 4197
166 4196
audience 4196
57@@ 4195
rotation 4194
03 4192
Competition 4192
marital 4190
venture 4190
NLB 4189
collaborate 4189
crop 4188
Disability 4187
complemented 4186
desired 4186
156 4185
awaiting 4185
deferred 4185
methyl 4184
seat 4184
start-up 4184
Compliance 4183
ut@@ 4183
incentive 4182
exclude 4179
communicated 4177
eb@@ 4177
• 4177
route 4175
dangers 4174
coalition 4173
wherever 4172
Treaties 4171
Blue 4170
Ha@@ 4170
4.2 4169
inception 4169
laboratory 4169
illegally 4168
perception 4168
websites 4167
Conventional 4166
exemptions 4166
diversion 4165
neighbours 4162
Date 4161
notified 4158
devastating 4156
Hence 4155
fairly 4155
10-year 4154
Minimum 4153
prosecutions 4152
Impact 4151
ease 4151
non-nuclear-weapon 4151
breaches 4148
Ru@@ 4147
Migrant 4146
Then 4146
moratorium 4146
sen@@ 4146
-up 4145
degrees 4145
154 4144
promise 4144
disappeared 4142
restriction 4141
tell 4141
challenged 4139
creates 4137
reliance 4136
thirteenth 4136
channel 4134
ari 4133
streamlining 4132
policing 4131
examinations 4130
Groups 4129
deliberate 4129
preference 4128
an-@@ 4126
cooperatives 4126
ethnicity 4126
civic 4124
em 4124
Kivu 4123
iv@@ 4123
Higher 4120
tic@@ 4120
170 4117
Tourism 4116
Establish 4114
Gra@@ 4113
sensing 4113
tackling 4113
furniture 4112
push 4112
parliaments 4111
Sir 4109
revitalization 4109
Men 4108
20,000 4105
IC 4103
compatible 4103
controlling 4101
judgements 4100
tuberculosis 4099
Ku@@ 4098
realizing 4098
pandemic 4097
season 4097
carrier 4095
ture 4095
permission 4094
daughter 4093
long-standing 4093
MDG 4092
accessing 4091
que 4090
remittances 4090
politicians 4089
certified 4087
nineteenth 4087
complicated 4086
exceeding 4086
happen 4086
translate 4086
Nonetheless 4085
Advice 4084
ke@@ 4084
152 4083
Early 4083
Pe@@ 4083
flying 4082
Ne@@ 4081
Adopted 4080
chapters 4080
warned 4080
Still 4079
Governmental 4078
IA 4075
rel@@ 4075
Sch@@ 4072
UR@@ 4072
library 4072
sal@@ 4071
succeed 4071
UNV 4070
ys 4070
commonly 4067
Gibraltar 4066
college 4066
ol 4066
magnitude 4065
Or@@ 4062
isolated 4062
three-@@ 4061
io 4058
privileges 4057
fiftieth 4056
shape 4056
P. 4055
Reference 4055
12.@@ 4053
ING 4053
neutral 4050
fifteenth 4049
trafficked 4049
check 4046
dy 4045
boundaries 4044
alleviate 4042
Green 4039
interdependence 4038
ning 4038
CTBT 4037
sions 4037
La@@ 4036
imported 4036
mainland 4036
149 4034
208 4034
reminded 4034
rent 4034
Presidency 4032
ber 4032
hardship 4031
dr@@ 4030
vulnerabilities 4030
Dec@@ 4029
Defense 4028
Muslims 4024
positively 4024
prerequisite 4024
04 4023
adhere 4023
can@@ 4023
ice 4023
younger 4023
Refugee 4021
multi-stakeholder 4018
Civilian 4017
theory 4017
high-quality 4016
Approach 4014
parity 4014
communiqué 4012
Tokelau 4008
ICC 4007
guard 4007
modernization 4007
Objective 4006
aftermath 4006
46@@ 4001
Crimes 4001
Republican 4001
addendum 4001
quota 4000
cancellation 3998
streets 3998
IS 3997
ane 3997
expects 3996
illness 3996
3.5 3993
Owing 3993
cope 3993
gather 3993
unencumbered 3993
Em@@ 3992
the@@ 3991
underlines 3991
threatening 3990
accredited 3989
har@@ 3989
possess 3989
fifty-third 3987
Mer@@ 3985
ines 3985
Courts 3984
Here 3984
Beirut 3983
fifty-fourth 3983
GHG 3980
imposing 3980
stressing 3979
usual 3979
cards 3978
Inter-@@ 3977
couple 3977
UNDOF 3975
ern@@ 3975
158 3974
ca@@ 3973
Like 3971
faster 3971
schooling 3969
style 3969
vacant 3969
plane 3967
Counsel 3966
CP@@ 3965
formula 3965
handle 3965
fast 3964
wounded 3964
farm 3963
wants 3963
vis-à-vis 3960
infected 3959
inspectors 3956
UNAMI 3953
Border 3952
Belize 3951
Income 3951
cre@@ 3950
doesn 3950
ju@@ 3949
So@@ 3946
avoided 3946
publishing 3946
proposing 3945
242 3943
Ge@@ 3943
Hall 3943
cutting 3943
civilizations 3942
Electronic 3941
Tax 3941
recipients 3941
turning 3941
cells 3940
ruled 3939
demining 3938
del 3937
deportation 3937
fighters 3937
ica 3937
identifies 3936
UNMEE 3935
competencies 3935
endorsement 3935
Independence 3934
deposits 3933
legacy 3933
11,@@ 3932
Challenges 3932
Considering 3932
referral 3932
Line 3930
Embassy 3928
Judges 3928
accelerating 3927
installed 3927
logical 3926
Detention 3925
Figure 3925
streamline 3925
wi@@ 3925
accomplished 3924
148 3923
bid 3920
militias 3920
somewhat 3920
bonds 3917
uranium 3917
161 3914
pat@@ 3914
benefiting 3913
fied 3913
Rehabilitation 3911
brother 3908
22@@ 3907
discovered 3907
pro-@@ 3906
CIS 3905
depth 3905
full-time 3905
tonnes 3905
PV.@@ 3903
UNAMSIL 3901
failing 3901
shocks 3901
Likewise 3900
Together 3900
Peaceful 3899
UNMIT 3899
confirmation 3899
eradicating 3898
asking 3897
interesting 3896
Revised 3895
convey 3895
dual 3895
intercultural 3893
201 3891
diligence 3888
settlers 3887
1970 3884
Due 3884
tw@@ 3884
DA@@ 3883
automatically 3883
audited 3882
bed 3882
escalation 3882
disclosed 3881
door 3881
E.@@ 3880
accuracy 3880
248 3879
agrees 3879
ki 3879
165 3877
213 3876
longer-term 3875
removing 3875
predecessor 3872
Bearing 3870
exhausted 3870
occurring 3870
preserving 3870
Investigations 3869
tin@@ 3868
270 3866
boost 3865
Putin 3863
stake 3862
Scheme 3861
UNDG 3861
designation 3861
tly 3861
vessel 3861
criterion 3859
ung 3857
ably 3855
marking 3855
broken 3853
judgment 3852
renew 3852
periodically 3849
sixteenth 3849
sixty-fourth 3847
vi 3847
L. 3846
Recovery 3846
UNMISS 3846
ess@@ 3846
introductory 3844
knew 3844
music 3844
49@@ 3843
eliminated 3842
ker 3842
stakeholder 3838
respects 3837
outlines 3835
restitution 3835
contributors 3833
settle 3832
interpretative 3831
persecution 3831
Ri@@ 3830
leg@@ 3829
publish 3829
Compact 3828
accord 3828
cu@@ 3828
memory 3827
promising 3827
ey 3826
nominations 3826
temporarily 3826
Vice-Chairman 3825
sincere 3825
negatively 3824
Percentage 3823
postponed 3823
Tra@@ 3821
maps 3821
public-private 3821
Enforcement 3820
Various 3820
tors 3820
interviewed 3819
tan@@ 3819
Held 3817
advocated 3816
ess 3816
overarching 3816
peace-building 3816
Capacity-building 3815
runs 3815
Application 3814
TS 3812
coordinates 3812
humankind 3812
oversee 3811
pressures 3811
continental 3810
Swaziland 3808
connectivity 3808
189 3807
wh@@ 3805
Solomon 3804
empowered 3803
1974 3802
Jewish 3802
detect 3802
ast@@ 3801
acknowledging 3800
utility 3800
affirmative 3799
mer 3799
packages 3799
Ta@@ 3797
cold 3796
Ageing 3795
Conservation 3795
mer@@ 3795
rarely 3794
seventeenth 3793
ordnance 3791
tailored 3791
1.6 3790
voluntarily 3790
compiled 3787
dynamics 3787
subprogrammes 3786
ster 3785
Ministries 3784
successor 3784
Much 3783
friend 3782
replied 3782
recover 3781
ce 3780
els 3780
impetus 3780
pretrial 3780
Os 3779
bn 3779
ell@@ 3777
substitute 3774
signatories 3773
ama 3772
volatility 3772
GS 3771
King 3770
device 3769
virtue 3768
Saturday 3767
alongside 3767
Far@@ 3766
Ham@@ 3766
studying 3766
Substantive 3765
defense 3762
mountain 3761
IOM 3760
scourge 3760
yield 3760
70@@ 3759
D.@@ 3759
coercive 3759
Goods 3758
CN@@ 3757
abandoned 3757
checks 3757
industrialized 3757
regretted 3757
ash@@ 3756
rounds 3754
Compensation 3753
La 3752
auditors 3752
nomination 3752
220 3751
calculation 3751
box 3750
interregional 3750
prioritize 3750
Comoros 3749
desk 3749
Twenty-@@ 3748
im 3748
hundred 3745
overcoming 3744
two-year 3744
8,000 3742
Enhancing 3742
OIC 3742
L.1 3741
Organizational 3741
designate 3741
lie 3741
and@@ 3740
Procedures 3739
boundary 3738
gaining 3737
demonstrates 3736
sample 3736
directives 3735
Governor 3733
synergy 3733
archives 3732
ised 3732
Decisions 3731
laundering 3731
gases 3730
XII 3729
4.5 3728
steadily 3728
Aboriginal 3727
clusters 3725
Mat@@ 3722
contaminated 3721
informing 3721
211 3719
deny 3719
lacked 3716
vendor 3715
fo@@ 3714
evacuation 3713
Decolonization 3711
finalization 3711
childcare 3710
Empowerment 3708
Journal 3705
spring 3703
Egyptian 3702
holder 3702
volatile 3701
exacerbated 3700
back@@ 3699
taxation 3699
hazard 3698
pres@@ 3698
1977 3696
Andorra 3696
Signed 3696
Verification 3693
ID 3692
2.6 3690
rejection 3690
feed 3688
pan@@ 3688
12,@@ 3686
sl@@ 3685
159 3683
ric@@ 3682
sen 3681
aggregate 3680
safeguarding 3680
Holy 3679
PA 3679
backed 3679
store 3679
ali 3678
ing-@@ 3678
go@@ 3676
Solidarity 3675
cycles 3675
Twitter 3674
count 3674
scrutiny 3674
We@@ 3673
notable 3673
IG@@ 3672
164 3671
1975 3671
Prior 3671
5.2 3669
euros 3669
Equatorial 3668
renewal 3664
bus 3662
wishing 3661
Marino 3660
Friends 3658
13,@@ 3656
convictions 3655
du 3655
males 3655
ignored 3654
mercenaries 3654
sharp 3654
Wall 3653
ministry 3653
ri 3653
terror 3653
hotel 3652
1983 3651
Suriname 3651
institute 3651
Executives 3650
broaden 3650
rare 3650
down@@ 3649
passage 3647
Norwegian 3644
210 3643
CISG 3643
Estimate 3642
Reiterates 3642
About 3641
ales 3641
dic@@ 3641
acceding 3640
country-level 3640
raises 3640
Maintenance 3639
Notwithstanding 3639
demanded 3639
tariff 3638
IDF 3637
sixty-sixth 3635
undermining 3635
Kimberley 3634
bulk 3634
coal 3632
precisely 3632
recovered 3632
remnants 3632
shells 3631
da@@ 3630
defendant 3630
worse 3630
pledge 3629
175 3627
beneficiary 3627
circulation 3626
173 3625
usage 3624
clothing 3623
ished 3623
abduction 3622
revolution 3622
apart 3620
mobilized 3619
Forest 3617
verified 3617
Eritrean 3615
Supply 3615
stockpiles 3615
CP 3614
carries 3614
struck 3614
gra@@ 3613
risen 3612
customer 3610
sk@@ 3610
euro 3609
supplier 3609
ot 3608
Provisions 3607
Michael 3606
berg 3606
José 3605
allies 3605
expectancy 3604
Ban@@ 3603
succeeded 3603
chairmanship 3602
linkage 3602
14,@@ 3600
constructed 3600
planet 3600
patient 3599
acquiring 3595
ji 3593
Works 3592
immunities 3592
satisfy 3592
cohesion 3590
sha@@ 3590
adds 3589
clearing 3589
implies 3589
ple@@ 3588
passengers 3586
des@@ 3584
apportionment 3583
Po@@ 3582
credits 3582
Enterprise 3581
earned 3581
AC.105 3579
claiming 3578
reserved 3578
allegation 3577
profession 3577
PS 3574
conscience 3574
hom@@ 3574
occurs 3574
blockade 3573
hampered 3572
10.@@ 3571
dem@@ 3571
innovations 3571
part-time 3571
provider 3571
scenarios 3571
seizure 3570
Plurinational 3569
CON@@ 3568
destroy 3568
supervisory 3567
aya 3566
ure 3566
4.3 3563
lease 3563
Communities 3562
endorse 3562
om 3560
59@@ 3559
251 3558
executives 3558
entitlement 3557
tortured 3557
automatic 3556
1951 3555
Lucia 3555
Fundamental 3554
vol 3554
printing 3553
totally 3553
die 3552
leverage 3551
IFAD 3550
Albanian 3549
doctor 3548
inheritance 3548
ano 3547
inmates 3547
handled 3546
neglect 3545
bromide 3544
Though 3543
hostile 3542
eighteenth 3541
mm 3538
directions 3537
facilitates 3537
usefulness 3537
ring 3536
tribal 3535
guards 3534
TE@@ 3533
reliability 3532
sis 3532
interface 3530
56@@ 3529
K. 3529
OP@@ 3528
exit 3527
roughly 3527
Comm@@ 3524
backlog 3524
FMCT 3523
fairness 3523
Watch 3522
foreseen 3522
Paul 3520
deforestation 3520
licences 3520
5.1 3519
literature 3519
Registration 3516
Funds 3514
mal@@ 3514
reconnaissance 3514
profiles 3513
bin 3512
joining 3512
sponsor 3512
15,@@ 3511
15-@@ 3511
Contracts 3510
Si@@ 3510
propaganda 3510
administrations 3509
miscellaneous 3509
advertising 3508
extra 3508
ozone-depleting 3508
readily 3508
Citizens 3507
Liu 3507
accomplishment 3506
piece 3506
Engineering 3505
instrumental 3505
impede 3504
167 3500
Almaty 3500
IL@@ 3500
ti 3499
varying 3499
IPCC 3498
R. 3498
residing 3498
Greater 3497
Ethiopian 3495
privatization 3495
spectrum 3495
broadcasting 3494
expeditiously 3494
ingly 3494
lawful 3494
Rather 3493
bond 3492
economics 3492
1961 3491
game 3491
intend 3491
remind 3491
raw 3490
extremism 3489
fuels 3489
Dar@@ 3488
XV 3488
suspicious 3488
optimal 3487
rescue 3486
preferential 3485
000 3483
58@@ 3483
experiencing 3483
Kabul 3481
clauses 3480
dry 3479
jo@@ 3479
Ban 3478
ours 3478
Treasury 3476
UNLB 3476
commensurate 3476
freight 3476
routine 3476
segregation 3476
affiliated 3474
doctrine 3474
empowering 3474
ire 3474
phones 3474
currencies 3473
work@@ 3473
GE@@ 3472
ann@@ 3472
dialogues 3472
adi 3471
complementarity 3471
residual 3471
att@@ 3470
bit 3470
renovation 3470
ard@@ 3469
172 3468
192 3468
Na@@ 3468
procuring 3468
enrolled 3467
OR@@ 3466
Khartoum 3464
requisite 3463
colour 3462
RO@@ 3461
@ 3460
Projects 3460
Te@@ 3460
legality 3459
mid@@ 3459
select 3458
oo@@ 3455
livestock 3454
quotas 3454
tendency 3454
1,500 3452
Church 3452
asserted 3452
measurable 3452
super@@ 3452
qualification 3451
thirds 3449
dominated 3448
hiring 3448
Brunei 3447
168 3446
competing 3444
Argentine 3443
academia 3443
Institutional 3441
163 3439
diamond 3439
recycling 3438
43@@ 3436
unfair 3435
captured 3434
promised 3434
Vanuatu 3433
fleet 3433
reg@@ 3432
remarkable 3431
tobacco 3431
enacting 3430
instituted 3430
disproportionate 3428
Ap@@ 3426
Transparency 3422
sixty-seventh 3422
consisted 3419
k-@@ 3418
Lee 3417
214 3415
earliest 3415
od@@ 3415
California 3414
Examples 3414
purchasing 3413
driver 3412
familiar 3412
bur@@ 3409
cast 3409
factory 3409
inappropriate 3409
lift 3409
Time 3408
generic 3408
Mad@@ 3406
Ukrainian 3406
briefly 3406
buyers 3405
ow 3405
coupled 3404
tur@@ 3404
Towards 3403
millennium 3403
rap@@ 3403
Applications 3402
ban@@ 3401
dramatic 3400
Background 3399
stateless 3399
banned 3397
ik@@ 3397
Lack 3396
clashes 3396
escape 3395
tragic 3395
receivables 3394
accompanying 3393
corrected 3393
formerly 3393
Ahmed 3391
TV 3390
progressively 3390
Organisation 3386
universally 3386
hygiene 3384
Fisheries 3382
Ay@@ 3381
quick 3381
thousand 3380
wars 3380
au 3379
Georgian 3378
Uses 3378
pour 3378
rice 3378
steel 3378
183 3377
iti@@ 3377
contracted 3376
227 3375
educated 3374
suit 3374
Nations-@@ 3372
assignments 3371
ger 3371
sensitization 3371
1971 3370
Ram@@ 3369
abide 3369
card 3368
ew@@ 3368
Ni@@ 3367
fourteenth 3367
Her@@ 3366
connections 3365
17,@@ 3364
Campaign 3364
Ho@@ 3363
171 3362
multisectoral 3362
costly 3361
multinational 3361
selective 3360
tional 3360
financially 3359
acy 3358
fying 3358
spaces 3357
Kinshasa 3356
deciding 3356
lifting 3355
mitigating 3355
Reserve 3354
nets 3354
reveal 3354
abducted 3353
signatory 3353
und@@ 3353
versions 3353
cha@@ 3352
forming 3352
intense 3352
174 3351
after-service 3349
extremist 3349
passing 3349
applicability 3348
dominant 3347
seizures 3346
tering 3346
fa@@ 3345
ali@@ 3344
Just 3343
apartment 3343
buying 3343
accrued 3342
portal 3342
&apos;d 3341
190 3341
Intolerance 3341
ement 3340
Assistants 3338
GA@@ 3336
ming 3336
1976 3335
Ca@@ 3335
226 3334
animal 3334
loc@@ 3334
10th 3333
ery 3333
tended 3333
Mexican 3332
de-@@ 3331
Throughout 3330
attaches 3329
CT@@ 3328
16,@@ 3327
devote 3327
entails 3327
spokesman 3327
Tu@@ 3324
Recalls 3323
ranks 3323
long-@@ 3322
afforded 3321
Bel@@ 3320
window 3320
Subsidiary 3319
answers 3317
ceiling 3317
ta@@ 3315
Adaptation 3314
supplemented 3314
Address 3313
D-2 3313
eth@@ 3313
illustrated 3313
PC 3312
ozone 3312
adjust 3311
bills 3311
ICCD 3310
gi@@ 3310
Can@@ 3309
Chen 3309
Organic 3309
Ste@@ 3309
visas 3309
fin@@ 3308
rocket 3308
cooperated 3306
At@@ 3305
UPR 3305
Shi@@ 3304
CA 3303
Until 3303
norm 3301
Mines 3300
complied 3300
demanding 3300
ao 3299
concessions 3299
information-sharing 3299
Fi@@ 3298
bel@@ 3298
Open 3297
TION 3297
ascertain 3297
Rico 3296
countermeasures 3296
meantime 3296
domain 3295
hate 3295
bottom 3294
char@@ 3294
med 3294
supposed 3294
Vincent 3291
benchmark 3290
appreciates 3288
embodied 3288
mix 3288
Del@@ 3287
á@@ 3287
1972 3286
successes 3286
1.7 3285
2.7 3285
ara 3285
steering 3285
COM@@ 3282
Eight 3282
suspect 3282
206 3281
Zhang 3281
commissioned 3279
metal 3278
signal 3278
shipment 3276
up-to-date 3276
185 3274
Gar@@ 3274
doubts 3273
helicopter 3273
st 3273
correspondence 3272
sensitivity 3272
ACC 3270
unequal 3270
pieces 3269
cul@@ 3268
disclose 3268
redeployed 3268
Ak@@ 3266
177 3265
alike 3265
laboratories 3265
opium 3265
urging 3265
CCPR 3264
Similar 3264
deadlines 3264
prompted 3264
compound 3262
virus 3261
Peter 3260
overwhelming 3260
240 3259
notifications 3257
Tuvalu 3256
1,7@@ 3255
1969 3255
aggressive 3255
marks 3255
Southeast 3254
rebels 3254
shipments 3254
260 3253
rationale 3253
reputation 3253
ron@@ 3253
utilizing 3253
misuse 3252
181 3251
exporting 3250
her@@ 3250
unchanged 3250
IV@@ 3249
floods 3249
0,@@ 3248
Pan@@ 3248
ho@@ 3248
confront 3247
ei@@ 3246
Indonesian 3245
deposit 3245
unsustainable 3245
1,6@@ 3244
Home 3244
Olympic 3244
Pol@@ 3244
assistant 3244
Landlocked 3243
Travel 3243
199@@ 3242
reject 3242
Malaria 3240
belong 3239
ev 3239
attempting 3237
243 3236
Antigua 3236
Mil@@ 3236
recruit 3234
tsunami 3234
imply 3233
IP 3231
ste@@ 3231
Nu@@ 3230
self-defence 3230
textbooks 3230
ada 3229
newspapers 3227
350 3226
Growth 3225
lin@@ 3223
0.7 3222
45@@ 3222
ceremony 3222
differentiated 3221
Guam 3219
amb@@ 3219
condemn 3219
pain 3219
abilities 3218
theft 3218
Cities 3216
attaining 3216
openness 3215
feet 3214
remainder 3212
yl@@ 3210
Atlas 3209
Tr@@ 3209
fifty-second 3209
sophisticated 3209
freezing 3208
machine 3208
&apos;ll 3207
1.8 3207
Rad@@ 3205
moves 3205
arose 3204
enact 3204
influenced 3204
suppression 3204
FO@@ 3202
Inspectors 3202
recruiting 3202
merit 3200
sel@@ 3200
202 3199
Globalization 3199
Evidence 3198
know-how 3197
186 3196
fellow 3195
midterm 3195
panellists 3195
Portuguese 3193
ash 3193
ians 3192
sive 3192
traffickers 3190
Commitment 3189
Level 3188
refuse 3188
tanks 3188
twenty-fourth 3188
Daily 3187
ris@@ 3187
233 3186
sw@@ 3186
HR@@ 3185
happy 3185
ss@@ 3185
kits 3184
7,000 3183
Paper 3183
sort 3183
ye 3183
Addressing 3182
ICSC 3182
Officials 3182
centred 3180
voter 3179
230 3178
criminals 3177
suspend 3176
paramount 3175
purchased 3175
ah@@ 3174
diplomats 3174
minimal 3174
libraries 3173
Seychelles 3172
modifications 3171
indiscriminate 3169
interrelated 3169
appropriated 3168
br@@ 3168
WA@@ 3167
successive 3167
forwarded 3166
235 3164
Request 3164
breaking 3164
consultancy 3164
equ@@ 3164
218 3163
surge 3163
arrive 3162
bought 3162
commanders 3162
INSTRAW 3161
multidimensional 3161
205 3160
Rev@@ 3157
US@@ 3157
191 3156
Post 3156
LRA 3155
ile 3155
modification 3155
collapse 3154
tasked 3154
ee 3153
sees 3153
match 3151
Vietnam 3150
ain 3149
modify 3149
178 3148
George 3148
3.4 3147
gravity 3147
Moroccan 3146
suggesting 3146
upheld 3146
Front 3145
Understanding 3144
liquidity 3144
ong@@ 3143
banning 3142
explanations 3142
mode 3142
pol@@ 3141
ga@@ 3140
phenomena 3140
watch 3140
Delhi 3139
demonstrating 3139
departmental 3139
wa 3137
multidisciplinary 3136
contamination 3134
strikes 3134
References 3132
counter@@ 3132
ff 3132
ther@@ 3132
accepting 3130
IO@@ 3129
ham 3128
participates 3128
dly 3127
confined 3126
disputed 3126
wan@@ 3126
amongst 3125
concentrate 3125
fluctuations 3125
geared 3125
Funding 3124
fled 3124
infrastructures 3124
&apos;a 3123
artillery 3123
emotional 3123
checkpoints 3122
regulators 3122
therapy 3122
alarming 3121
approached 3121
che@@ 3121
credentials 3121
volunteer 3121
Economy 3120
perpetrator 3120
protracted 3120
bureau 3119
pu@@ 3119
ue 3119
Attorney 3118
Darussalam 3118
Offices 3118
Accord 3117
exactly 3117
indications 3117
discriminate 3116
tes 3116
Poor 3115
founding 3115
recurrent 3114
educate 3113
seeing 3113
C.12 3112
prospect 3112
alternate 3108
ex-combatants 3108
Is@@ 3107
Emphasizes 3106
criminalization 3106
feeding 3106
ched 3105
relied 3105
D.C. 3104
Sar@@ 3104
animals 3104
dismissal 3101
samples 3101
stra@@ 3101
bio@@ 3100
county 3099
reunification 3099
Expressing 3098
Subcommission 3098
notify 3098
ata 3097
observes 3097
opposite 3096
exploited 3093
TC 3092
actuarial 3092
lengthy 3092
govern 3091
grass-roots 3091
ial 3090
Ps 3089
ft 3089
44@@ 3088
attracting 3087
factual 3086
Abidjan 3084
brand 3084
II.@@ 3083
187 3082
arranged 3082
Dutch 3081
Serbian 3081
184 3080
CD@@ 3080
Arusha 3079
river 3079
ori@@ 3077
reaffirming 3077
Catholic 3076
Girls 3074
Add.4 3073
500,000 3072
CO2 3072
istic 3072
fact-finding 3071
promises 3071
ESA 3070
Principal 3070
disproportionately 3070
restoring 3070
terminology 3069
Areas 3068
defer 3068
electrical 3068
supplementing 3067
narrative 3066
sick 3066
203 3065
Ag@@ 3065
in-house 3065
mankind 3065
Nor@@ 3064
RA 3064
TO@@ 3063
ths 3063
Sanctions 3062
erosion 3062
2,500 3060
SubCommission 3060
documentary 3060
error 3060
1,8@@ 3058
176 3058
cannabis 3058
san@@ 3058
tics 3058
ICEF 3057
cumulative 3057
evolved 3057
fears 3056
225 3055
Accra 3055
Abuse 3054
Be 3054
Ko@@ 3054
MINURCAT 3054
Supporting 3054
confrontation 3054
employ 3054
AP 3053
pollutants 3053
Seoul 3052
Satellite 3051
Wal@@ 3051
Valley 3050
orphans 3050
SP 3049
occurrence 3049
predictability 3049
POPS 3048
L.2 3047
beaten 3047
Port 3046
overdue 3046
sky 3046
vice 3045
194 3044
Bur@@ 3044
appendix 3044
Ms 3043
ensuing 3043
ne 3043
Brindisi 3042
Implementing 3041
LDC 3041
Bal@@ 3040
inviting 3039
May@@ 3037
undertakings 3037
Crisis 3036
bomb 3036
plight 3036
edition 3035
fund-raising 3035
thoroughly 3035
criticized 3033
replacing 3032
tech 3032
undue 3032
argue 3031
rating 3031
comm@@ 3030
forecast 3030
unauthorized 3030
attained 3028
hand@@ 3028
magazine 3027
police-contributing 3026
188 3025
Cluster 3025
Barbuda 3023
NG@@ 3023
Effects 3022
ities 3022
imbalances 3021
minute 3021
gun 3020
peak 3019
1960 3018
interactions 3018
tracing 3017
228 3016
pi@@ 3016
Belgrade 3015
Reintegration 3015
Sol@@ 3015
Colombian 3014
207 3012
impediments 3011
passport 3011
ballot 3010
enforcing 3010
alist 3007
Under@@ 3006
UNOMIG 3004
237 3003
Inquiry 3003
alcohol 3003
filling 3002
19,@@ 3001
pricing 3001
sixty-eighth 3001
Hospital 3000
offshore 3000
barrier 2998
saving 2997
upper 2997
battle 2996
our@@ 2996
11.@@ 2994
hired 2994
ls 2994
protesters 2994
ame 2992
exact 2992
Val@@ 2991
transform 2991
evening 2990
herself 2990
persist 2989
ts@@ 2989
centers 2988
ni@@ 2988
centralized 2987
defendants 2987
manuals 2987
1267 2986
retired 2986
quarters 2985
sign@@ 2982
ited 2981
nearby 2981
converted 2980
deeper 2980
emanating 2980
psychosocial 2980
under-@@ 2980
viability 2980
James 2977
Volunteer 2977
legislature 2977
offensive 2977
democratization 2976
favoured 2976
non-expendable 2976
HA@@ 2975
litem 2975
Cal@@ 2974
253 2973
Significant 2973
def@@ 2973
Net 2972
encompass 2972
graduates 2972
l-@@ 2972
18,@@ 2971
PRO@@ 2971
Supplementary 2971
emerge 2971
bra@@ 2970
journalist 2970
Annexes 2969
emb@@ 2969
i-@@ 2969
ological 2969
ching 2968
four-year 2966
recommending 2966
Knowledge 2964
lu@@ 2964
Periodic 2963
Non-Governmental 2962
expelled 2962
s.@@ 2962
Sahel 2961
aging 2961
generous 2961
post@@ 2961
third-party 2960
deteriorating 2959
encouragement 2959
Point 2958
val@@ 2958
30,000 2957
appearance 2957
S.@@ 2956
curb 2956
Initial 2954
Near 2954
coexistence 2954
taught 2954
column 2953
triangular 2953
prevail 2952
stores 2952
179 2951
Actions 2951
executing 2951
overlap 2951
virtual 2951
Kh@@ 2950
LO@@ 2950
manufacturers 2950
reasonably 2949
Da@@ 2948
printed 2948
5.3 2947
Xenophobia 2947
boy 2947
talking 2947
restraint 2946
rigorous 2946
2.8 2945
delegate 2945
likewise 2945
12-@@ 2944
Do@@ 2944
ved 2944
222 2943
compile 2943
accurately 2942
phase-out 2942
synthesis 2942
Elections 2941
nu@@ 2941
electric 2940
scholarships 2940
ón 2940
TA 2939
describing 2939
Sim@@ 2938
Ottawa 2937
immigrant 2937
SP@@ 2936
ion 2936
Ibid 2935
debts 2935
pre-trial 2934
Subject 2931
abolish 2931
Physical 2930
spiritual 2930
1970s 2929
sm@@ 2929
ain@@ 2928
detected 2928
inspired 2928
tremendous 2928
269 2927
68@@ 2927
Mohammed 2927
Strategies 2927
confinement 2926
ites 2926
ances 2924
ed-@@ 2924
reclassification 2924
Co-@@ 2922
fails 2922
perceptions 2922
differential 2921
petition 2921
assuming 2920
bombs 2920
safer 2920
Ozone 2919
Sciences 2919
Legislation 2918
Sen@@ 2917
collaborating 2916
investor 2916
terminated 2916
Stockpiling 2915
Tri@@ 2915
Paragraphs 2914
depended 2914
regrettable 2914
renminbi 2913
ICTs 2912
tied 2912
Entity 2911
physically 2911
Dakar 2910
losing 2910
wave 2910
Cs 2909
display 2909
Hotel 2908
admissible 2907
MS 2905
Jinping 2904
incomplete 2904
oring 2904
1,5@@ 2903
mineral 2903
215 2902
Exploitation 2901
ITU 2900
-level 2899
pleasure 2898
purchases 2898
Missions 2897
UNITA 2897
eventual 2896
fu@@ 2895
voices 2895
Six 2893
shortages 2893
immunization 2891
confiscated 2890
outbreak 2889
ple 2889
reforming 2889
Grenadines 2888
leaves 2887
proclaimed 2886
extensively 2885
extraterritorial 2885
Alibaba 2884
sustaining 2884
Vice-Chair 2882
abused 2882
holdings 2882
policy-making 2882
schedules 2882
sciences 2882
unusual 2882
4.4 2881
ades 2880
compensate 2880
configuration 2880
nonetheless 2880
DC 2879
advocating 2879
finalizing 2877
hi 2877
volumes 2877
241 2875
harmonizing 2875
Directive 2874
F-@@ 2873
Sales 2873
ceased 2873
Grenada 2872
NO@@ 2872
Priority 2872
attractive 2872
cost-sharing 2872
hel@@ 2872
internet 2872
den 2871
foremost 2871
ek 2870
intervene 2870
Pact 2869
kers 2869
Why 2867
accumulated 2867
assi@@ 2866
ballistic 2866
ently 2866
200,000 2865
inf@@ 2865
Ter@@ 2864
differ 2864
explains 2864
tim@@ 2864
UNSOA 2863
eye 2860
presumption 2859
CTC 2858
Departments 2857
He@@ 2857
fac@@ 2857
compete 2855
puts 2854
tens 2853
landscape 2851
236 2850
fruitful 2850
MD@@ 2847
imp@@ 2846
Mus@@ 2844
spoken 2844
reparations 2843
intensity 2842
margin 2842
int@@ 2841
Specifically 2840
narcotic 2840
wa@@ 2840
Guidance 2839
sa 2838
Infrastructure 2834
accusations 2834
timber 2834
ce@@ 2833
lan@@ 2833
204 2832
Apart 2832
Facilitation 2831
graduate 2831
streamlined 2830
extends 2829
offender 2829
strengths 2829
193 2828
Besides 2827
ERP 2827
Relevant 2827
broad-based 2827
comprehensively 2827
sexes 2826
Responsibility 2825
tric@@ 2825
verifiable 2824
199 2823
ces 2823
221 2822
Overseas 2821
globe 2821
Indicators 2820
Substances 2820
substantiated 2820
scarce 2819
y-related 2819
Berlin 2818
Trans@@ 2817
nutritional 2817
Fifty-@@ 2816
dozen 2816
Whether 2815
prioritized 2815
skill 2815
Nos. 2814
Er@@ 2813
simplified 2813
EX@@ 2811
Mi@@ 2811
indictment 2811
216 2810
D-@@ 2810
ads 2810
of@@ 2810
totalled 2810
wind 2810
convergence 2809
Preparation 2808
ious 2808
XIII 2807
array 2807
blocks 2807
row 2807
unaccompanied 2806
Female 2804
arsenals 2804
conciliation 2804
Claims 2803
GC 2803
consular 2803
Are 2802
ening 2802
groupings 2802
couples 2801
st-@@ 2800
197 2799
Identification 2799
aggravated 2799
preamble 2799
robbery 2799
van 2799
195 2798
Documentation 2798
abortions 2798
hinder 2798
cleaner 2797
consecutive 2796
payroll 2796
66@@ 2794
calm 2794
importantly 2794
encumbered 2793
farms 2793
Bush 2791
Turning 2791
accumulation 2791
unexploded 2791
kill 2790
Commissions 2789
NAP 2788
Whole 2788
elaborating 2788
Especially 2787
Migrants 2787
Laws 2786
day-to-day 2786
imprisoned 2785
197@@ 2784
Encourage 2784
transferring 2782
Austrian 2781
caught 2781
cornerstone 2781
veto 2781
Ass@@ 2779
inquiries 2779
similarly 2779
266 2778
communal 2778
eyes 2778
precedent 2777
venue 2776
cleared 2775
ents 2775
Robert 2772
conditional 2772
donations 2772
everywhere 2772
isi@@ 2772
ord@@ 2772
delegated 2771
failures 2771
non-Annex 2771
ory 2771
HIPC 2770
condemns 2769
clearer 2768
20,@@ 2767
Allow 2767
ex-@@ 2767
pr@@ 2766
Quartet 2764
chan@@ 2764
5.5 2763
Vi@@ 2763
crew 2763
bun@@ 2762
Controller 2761
distinguish 2759
Consolidated 2758
217 2757
AD@@ 2757
uneven 2757
Disabled 2756
Primary 2756
identical 2756
Res@@ 2755
hal@@ 2755
lodged 2755
grantor 2754
attach 2753
artists 2752
detrimental 2752
no-@@ 2751
dependency 2750
yesterday 2750
2,0@@ 2749
247 2749
Increasing 2749
solving 2749
Fe@@ 2748
Initiatives 2748
SU@@ 2748
kidnapping 2748
conform 2747
ideal 2747
likelihood 2747
aka 2746
engine 2746
proud 2746
Lo@@ 2745
enrichment 2745
gs 2745
Bar 2744
stolen 2743
ICAO 2742
corrupt 2742
shareholders 2742
Timorese 2740
hon@@ 2740
ip@@ 2740
low@@ 2740
overcrowding 2740
ear@@ 2739
eng@@ 2739
precursors 2739
reorganization 2738
speedy 2738
native 2737
Amnesty 2736
feeling 2736
NAM 2735
decreasing 2735
21st 2734
restored 2734
Kal@@ 2733
Memorandum 2733
Virgin 2733
assists 2733
certainty 2732
Sport 2731
demarcation 2731
attracted 2730
embarked 2730
69@@ 2728
ED 2728
Associate 2727
chairpersons 2727
manufactured 2726
ising 2725
AF@@ 2724
bs 2724
excellence 2724
precarious 2723
&gt; 2722
Master 2722
ew 2722
stigma 2722
High-Level 2721
confirms 2721
and-@@ 2720
ast 2720
deepen 2720
silence 2720
Dec.@@ 2719
Tonga 2718
academics 2718
default 2718
wake 2718
importing 2717
personality 2717
confronting 2716
evidence-based 2716
246 2714
gan@@ 2714
generators 2714
suspicion 2714
evidenced 2712
sharply 2712
tro@@ 2712
AC@@ 2711
destructive 2711
initiating 2711
tertiary 2711
Export 2710
adequacy 2710
personally 2710
purely 2710
constituting 2709
criminalize 2709
diagnosis 2709
ham@@ 2709
high-risk 2709
retaining 2709
arises 2708
colleges 2708
15,000 2707
Consultations 2707
Firearms 2707
ought 2707
reproduced 2707
Fight 2706
all-@@ 2706
healthcare 2706
MENT 2705
arm 2705
alliances 2704
238 2703
determines 2703
Pal@@ 2702
pri@@ 2702
scaling 2702
screen 2702
ined 2701
morbidity 2700
CN.7 2699
doubled 2699
temperature 2699
expectation 2698
extradite 2698
OAS 2697
cross 2697
han 2696
sheet 2696
Abe 2695
combine 2695
255 2694
EL@@ 2694
Pl@@ 2694
heightened 2694
ira 2693
reception 2693
sitting 2693
cr@@ 2692
movie 2692
Ob@@ 2691
childbirth 2691
problematic 2690
united 2689
ky 2688
209 2687
dramatically 2687
tragedy 2687
microcredit 2686
condemnation 2685
infectious 2684
municipality 2684
To@@ 2683
charter 2683
occupations 2683
Ju@@ 2682
deepening 2682
Best 2679
imbalance 2679
earn 2677
Arctic 2675
Armenian 2675
Index 2675
Religious 2675
exported 2675
factories 2675
ick 2675
passenger 2674
evictions 2673
hardly 2672
mil@@ 2672
coercion 2671
read@@ 2671
Hal@@ 2670
Intellectual 2670
dozens 2670
II@@ 2669
distribute 2667
pregnancies 2667
self-sustainment 2667
asi@@ 2666
244 2665
Language 2665
commander 2665
conducts 2665
ick@@ 2665
concentrations 2664
warming 2664
borrowing 2662
ide 2662
Traffic 2661
gar@@ 2659
preferences 2659
BE@@ 2657
hub 2657
hereinafter 2656
photographs 2656
sti@@ 2656
EM@@ 2654
exporters 2654
fruit 2654
rank 2654
shortfall 2654
258 2653
CN.15 2653
Narcotics 2653
albeit 2653
knows 2653
1,9@@ 2652
276 2652
KFOR 2652
rockets 2652
Srpska 2651
compatibility 2651
shop 2651
Cam@@ 2650
Judiciary 2650
bro@@ 2650
materiel 2650
Agencies 2649
Truth 2649
underline 2649
wait 2649
CI 2648
196 2647
Crescent 2647
atrocities 2647
chart 2647
ratios 2647
Donald 2646
Resolutions 2646
ation-@@ 2646
exploit 2646
initiation 2646
Age 2643
alliance 2643
WG@@ 2642
collaborated 2642
frozen 2642
expressions 2641
án 2641
Marshall 2640
Sub-@@ 2640
attainable 2640
tour 2640
timeliness 2639
Conclusion 2638
Contact 2638
Gazette 2638
Mas@@ 2638
spatial 2637
AS@@ 2636
sheets 2636
undoubtedly 2636
scales 2635
deliberately 2634
261 2633
auditing 2633
pur@@ 2633
MSP 2632
bo 2632
flagrant 2632
Conclusions 2631
expeditious 2631
Debt 2629
handbook 2629
societal 2628
imminent 2627
milestone 2627
prosecuting 2627
Republika 2626
ineffective 2626
198 2625
ns 2625
reporters 2625
credited 2624
deposited 2622
Hamas 2621
Ka@@ 2621
LEG 2621
biotechnology 2621
inflows 2621
Thematic 2620
confronted 2620
first-@@ 2620
inserted 2618
WIPO 2617
cap@@ 2617
wear 2617
bribery 2616
metals 2616
ratione 2616
th-@@ 2616
ODS 2615
defamation 2615
B.@@ 2613
ü@@ 2611
ini 2610
6.2 2609
contributor 2609
FD@@ 2607
qualify 2606
yearly 2606
ISAF 2605
absolutely 2605
controversial 2605
IPU 2604
retail 2604
ö@@ 2604
stemming 2603
DO@@ 2601
furthermore 2600
producer 2600
triennial 2600
case-by-case 2599
seriousness 2599
ums 2599
Respect 2598
Thirdly 2598
sun@@ 2598
Black 2596
ac 2596
naval 2596
sight 2596
summaries 2596
unresolved 2596
seize 2595
reads 2594
op 2593
M.@@ 2592
Pat@@ 2592
articulated 2592
contested 2592
instructed 2592
67@@ 2590
Cypriots 2589
SS@@ 2588
chairs 2588
chose 2588
cocaine 2588
corporation 2588
airports 2587
irrigation 2587
Nor 2586
gender-@@ 2586
Hol@@ 2585
Mac@@ 2585
Cu@@ 2584
delete 2584
insisted 2584
validation 2584
Cases 2583
ises 2583
stance 2583
juveniles 2582
FDLR 2579
cen@@ 2579
rebuilding 2579
265 2578
Establishing 2578
uncertain 2578
Ger@@ 2577
Joseph 2577
Equipment 2576
Extension 2576
Inspector 2576
forcing 2576
inc@@ 2576
Beyond 2575
DPKO 2574
Israelis 2574
Rs 2574
Documents 2573
lacks 2572
Quality 2571
deter 2571
283 2570
Def@@ 2569
CRP.@@ 2566
Frente 2566
clarifying 2566
Rapporteurs 2564
ack 2564
9,000 2563
Thomas 2563
Ur@@ 2563
allocating 2563
awa 2562
intentions 2562
I-@@ 2561
Mag@@ 2561
interrogation 2561
maker 2561
ICCPR 2559
alisation 2558
fed 2558
travelling 2558
ach 2557
band 2557
Serb 2556
remember 2556
umbrella 2556
unconditional 2556
essence 2555
moderate 2555
aut 2554
sa@@ 2554
spreading 2553
Using 2552
Br@@ 2551
WMO 2551
dedication 2551
insofar 2551
Full 2550
confusion 2550
1,200 2548
Ren@@ 2548
1948 2547
Series 2547
devise 2547
moreover 2546
1,4@@ 2545
codification 2544
routinely 2544
hot 2543
quest 2542
Learning 2541
non-core 2541
sentencing 2541
quick-impact 2540
standardization 2540
1,3@@ 2538
Airport 2538
Claimant 2538
55@@ 2537
mail 2537
Yes 2536
industrialization 2536
questionnaires 2536
bal@@ 2535
compounds 2535
outsourcing 2535
Ma 2534
ell 2534
graduation 2534
Grand 2532
encompasses 2532
frames 2532
oning 2532
over-@@ 2532
Bra@@ 2531
complainants 2531
remedial 2531
stored 2531
2018 2530
bulletin 2530
Bas@@ 2529
Diplomatic 2529
Partners 2529
Damascus 2528
ICPD 2528
TIONS 2528
travelled 2528
cal@@ 2527
organisation 2527
antiretroviral 2526
Heritage 2525
harsh 2524
pharmaceutical 2524
soci@@ 2524
223 2523
INTERPOL 2523
Mao 2523
Afro-@@ 2522
Limited 2522
MOP 2520
mi@@ 2520
guides 2519
&lt; 2518
Juvenile 2518
slum 2518
widening 2518
conveyed 2517
gl@@ 2517
isn 2516
231 2515
constructively 2515
produces 2515
unlike 2515
Directors 2514
Dra@@ 2513
affirm 2513
affirms 2513
compounded 2513
AC 2511
GIS 2511
films 2511
protects 2511
6.5 2510
Discussions 2510
discriminated 2510
2.9 2509
Ahmad 2509
Mel@@ 2509
land-use 2509
CM@@ 2508
far-reaching 2508
statutes 2508
dioxide 2507
irreversible 2507
scholars 2507
trips 2507
zed 2507
249 2505
non-communicable 2505
petroleum 2505
cost-effectiveness 2504
matrix 2504
typical 2504
sister 2503
recession 2502
UNIDIR 2500
234 2499
Almost 2499
Ser@@ 2498
versus 2498
30-@@ 2497
neutrality 2497
1.9 2496
20-@@ 2496
transformed 2496
254 2495
TH 2494
insured 2494
errors 2493
spot 2493
Vol 2492
by-@@ 2492
232 2491
Janeiro 2491
aerial 2491
founder 2491
ca 2490
Au@@ 2489
Bou@@ 2489
ich 2489
isation 2489
privately 2489
shelf 2489
Drafting 2488
Polish 2488
appointing 2488
Des@@ 2487
fy 2487
time-@@ 2487
trees 2487
1996-1997 2486
artistic 2486
retaliation 2486
culturally 2485
specifications 2485
Freedoms 2484
LA 2484
Martin 2484
twenty-fifth 2484
53@@ 2483
underrepresented 2483
withdrew 2483
Plans 2482
contravention 2482
ita 2482
constrained 2481
psychiatric 2481
1701 2480
contends 2480
popul@@ 2480
brain 2479
264 2478
containers 2478
hol@@ 2478
twenty-second 2478
Char@@ 2477
Opinion 2477
Sports 2476
liberation 2476
rou@@ 2476
prisoner 2475
Hassan 2473
fathers 2473
Reconstruction 2472
ida 2472
stone 2472
audiences 2471
church 2471
Caledonia 2470
sat 2470
exchanged 2469
hardware 2469
tion-@@ 2469
RIGHTS 2468
adjacent 2468
foot 2468
conservative 2467
disciplines 2467
,000 2466
289 2466
behavior 2466
horizontal 2466
onto 2466
Ash@@ 2464
ab 2463
ine@@ 2463
tourists 2463
27,@@ 2461
heroin 2459
stockpile 2459
20th 2458
Phase 2458
accomplish 2458
footing 2458
prevalent 2458
quoted 2458
Kam@@ 2457
earth 2457
Particular 2456
sit 2456
Vo@@ 2455
citing 2454
directive 2454
pays 2454
permanently 2454
6.1 2453
Aires 2453
encompassing 2453
lifted 2453
Labor 2452
Ombudsperson 2452
bigger 2452
Commissioners 2450
Fu@@ 2450
Muhammad 2450
ranking 2450
reprisals 2450
of-@@ 2449
technically 2449
undergoing 2449
Improve 2448
micro-@@ 2448
oun@@ 2448
Buenos 2447
Consultation 2447
approving 2447
broadening 2447
Add.5 2446
Approximately 2446
County 2446
Disappearance 2446
variations 2446
259 2445
Technological 2445
bombing 2445
coffee 2445
e-commerce 2445
tures 2445
Classification 2444
builds 2444
ining 2444
varies 2444
Chi@@ 2443
UNMOVIC 2443
MA 2442
asserts 2442
interdependent 2442
repercussions 2442
alert 2441
PE@@ 2440
5.4 2439
capitals 2439
enn@@ 2439
itation 2439
tank 2439
victory 2439
Do 2438
head@@ 2438
rests 2438
Perhaps 2437
inflicted 2437
originating 2437
selecting 2435
Punish 2434
drawdown 2434
ey@@ 2434
Sin@@ 2432
Granting 2431
fragmentation 2431
CRP.1 2430
Ir@@ 2430
brokering 2430
fossil 2430
Making 2428
subnational 2427
upholding 2427
Bay 2426
Economics 2426
enriched 2426
ese 2425
revising 2425
shifting 2424
SAT 2423
begins 2423
ired 2423
kes 2423
rac@@ 2423
Mutual 2422
half-@@ 2422
landing 2422
275 2421
Tehran 2420
brackets 2420
outlets 2420
publicity 2420
Temporary 2418
myself 2418
pragmatic 2418
Experience 2417
Marriage 2417
disadvantage 2417
magistrates 2417
ski 2417
arm@@ 2416
subregions 2416
acclamation 2415
or-@@ 2415
yed 2415
219 2414
adapting 2414
explaining 2414
foregoing 2414
Amazon 2412
Club 2412
Oslo 2412
accepts 2412
finances 2412
obstetric 2412
deserve 2411
alists 2410
elementary 2410
signatures 2410
trade-related 2410
Ti@@ 2408
compliant 2408
subparagraphs 2408
Transit 2407
email 2407
gay 2407
symposium 2407
vested 2407
ere 2406
201@@ 2405
walk 2405
Schools 2404
non-profit 2404
Co-Chairs 2403
agreeing 2403
predominantly 2403
prefer 2403
red@@ 2403
Biodiversity 2402
removals 2402
troop- 2402
224 2401
Associations 2401
pushed 2401
Adopt 2398
Je@@ 2398
complained 2397
ened 2397
245 2396
272 2395
Fre@@ 2395
water@@ 2395
sixty-ninth 2394
ty@@ 2394
lectures 2393
organised 2393
OL 2390
interpreters 2390
Have 2389
Settlement 2389
explosion 2389
rooted 2389
vertical 2388
deficits 2387
incremental 2387
operator 2387
cleansing 2386
counter-@@ 2386
exhibition 2386
fines 2386
ova 2386
ER 2385
forcibly 2385
formats 2385
ICTY 2384
Nauru 2384
Sp@@ 2384
incorporates 2384
dra@@ 2383
Observers 2382
Stressing 2382
restricting 2382
ver 2382
margins 2381
Bre@@ 2379
Nation@@ 2379
run@@ 2379
Units 2378
incoming 2378
tically 2378
Annan 2377
Charles 2377
Han@@ 2377
cut-off 2377
intermediate 2377
lend 2377
crowd 2376
mortar 2376
1. 2375
institution-building 2375
spec@@ 2375
cri@@ 2374
Gen@@ 2372
Khan 2372
luxury 2372
257 2371
liberal 2371
precautionary 2371
shooting 2371
tively 2371
96@@ 2370
bias 2369
fifty-first 2369
arena 2368
ga 2368
invitations 2368
ter-@@ 2368
AM@@ 2367
nonproliferation 2367
pe 2367
peacefully 2367
underscore 2367
on-site 2366
praised 2366
Rem@@ 2365
broke 2365
grades 2365
hydro@@ 2365
18-@@ 2364
protections 2364
N.@@ 2362
advising 2362
rational 2359
Camp 2358
interact 2358
Art. 2357
caution 2357
cra@@ 2357
overflew 2357
Offences 2356
single-@@ 2356
Referring 2355
compelling 2355
crossed 2353
modes 2353
proximity 2353
disruption 2352
Hazardous 2351
SPT 2351
ail@@ 2351
ium 2351
overtime 2351
tre@@ 2351
hectares 2350
256 2349
Delivering 2349
blocked 2349
rough 2349
stepped 2349
yah 2349
Francisco 2348
disposition 2347
guns 2347
CB@@ 2346
ACABQ 2345
Contract 2345
PRESIDENT 2345
deb@@ 2345
reconcile 2345
regulates 2345
age-@@ 2344
ek@@ 2344
titles 2343
rapporteur 2342
reluctant 2342
www.un@@ 2342
262 2341
ore@@ 2341
undertakes 2341
-to-@@ 2340
Acknowledging 2339
backgrounds 2339
critics 2339
traders 2339
450 2338
Harvard 2338
humans 2338
presently 2338
star@@ 2338
CE 2337
rated 2337
77@@ 2336
radical 2336
cost-@@ 2335
simultaneous 2333
1.15 2332
365 2332
Juba 2332
discrepancies 2332
stri@@ 2332
complying 2331
Relationship 2328
ignore 2328
ush@@ 2328
E-@@ 2327
Out 2327
288 2326
administer 2326
multifaceted 2326
Abuja 2325
North-South 2325
talent 2325
constituent 2324
alleges 2323
artificial 2322
clothes 2322
Estimated 2321
Guard 2321
intra-@@ 2321
ving 2320
wearing 2320
99@@ 2319
mentally 2319
not@@ 2319
tripartite 2319
whereabouts 2319
poorly 2318
threatens 2318
anger 2317
fax 2317
ned 2316
outlining 2316
subsidy 2316
6.3 2315
lat@@ 2315
minerals 2315
Emphasizing 2314
combining 2314
unfortunately 2314
Gi@@ 2313
Richard 2313
efficiencies 2313
T. 2312
Auditor 2311
conscious 2311
relies 2311
tropical 2309
Cas@@ 2308
Malvinas 2308
Andean 2307
SIDS 2307
prospective 2307
Tar@@ 2305
USA 2305
transported 2305
burning 2304
facilitator 2304
Interpol 2303
cancelled 2303
invoices 2303
mentoring 2303
229 2302
brothers 2302
239 2301
slowly 2301
Accountability 2300
Chairs 2300
Schedule 2300
ets 2300
hor@@ 2300
winter 2300
Concluding 2299
tel 2299
uncertainties 2298
counts 2297
Tenth 2296
alities 2296
bas@@ 2296
editor 2296
Trustees 2295
repairs 2295
She@@ 2293
clubs 2292
anti-discrimination 2291
wor@@ 2291
7.5 2290
carriers 2290
bing 2288
destroying 2288
England 2287
TNCs 2287
break@@ 2287
impressive 2287
striking 2287
uk@@ 2286
ila 2285
novel 2285
á 2285
Bor@@ 2284
bidding 2284
li 2284
stan@@ 2284
sts 2284
walls 2284
AT@@ 2283
TH@@ 2283
milk 2283
nation@@ 2282
ration 2282
specially 2282
ISU 2281
PP@@ 2281
laying 2281
space-based 2281
Fish 2280
Mak@@ 2280
Oil 2280
RS 2280
Serbs 2280
Suppress 2280
employing 2280
strongest 2280
P-@@ 2279
Sul@@ 2279
prioritization 2279
reversed 2279
tourist 2279
trucks 2279
armaments 2278
3.6 2277
Thai 2277
bling 2277
four-@@ 2277
implied 2277
Tom@@ 2275
premature 2275
utilities 2275
Instrument 2274
pretext 2273
slight 2273
ny 2272
teenage 2271
G-@@ 2270
Ros@@ 2270
defending 2270
Cartagena 2269
Recently 2269
disparity 2269
actor 2268
replenishment 2268
ake 2267
criminalized 2267
machines 2267
motivation 2267
litigation 2266
ush 2266
2030 2265
compensable 2265
observing 2265
dismantling 2264
educators 2264
mann 2264
ung@@ 2264
impeding 2263
ICTR 2262
Republicans 2262
populated 2262
time-bound 2262
hum@@ 2261
amnesty 2260
eh 2260
impeded 2260
2. 2259
BWC 2259
kin 2259
weakness 2259
Columbia 2258
bureaux 2258
16-@@ 2257
suited 2256
turnover 2256
absent 2255
Credentials 2254
UNISFA 2254
ok 2254
prosperous 2253
Santiago 2252
implements 2252
catch 2251
summarizes 2251
pivotal 2250
tends 2250
outlook 2249
Provincial 2248
deserved 2248
disturbing 2248
undergo 2248
338 2247
Cook 2247
L.3 2247
Tunis 2246
che 2246
editorial 2246
accommodated 2245
exhaustion 2245
fore@@ 2245
pul@@ 2245
Arrangements 2244
Bad@@ 2244
Money 2244
fies 2244
4.6 2243
burdens 2243
Sheikh 2241
hou@@ 2241
repeat 2241
relying 2240
Colonial 2239
Palau 2239
elite 2239
gets 2239
unrest 2239
Overview 2238
Preventing 2238
TR@@ 2238
damaging 2237
visual 2237
XIV 2236
shaping 2236
tel@@ 2236
Census 2235
Croatian 2235
Games 2235
Entebbe 2234
connect 2234
Conditions 2233
Ibrahim 2233
diffusion 2233
EM 2232
Unless 2232
distress 2232
firing 2232
rail 2232
inevitably 2231
writer 2231
disregard 2230
staffed 2230
ez 2229
hard-@@ 2229
nursing 2229
NP@@ 2228
V.@@ 2227
mor@@ 2227
aquifer 2226
child-@@ 2226
insert 2226
metric 2226
second-@@ 2226
furthering 2225
law@@ 2224
openly 2224
cou@@ 2223
din@@ 2223
DS 2222
Symposium 2222
fil@@ 2221
Az@@ 2220
obviously 2220
Algiers 2219
enjoys 2219
income-generating 2219
respondent 2219
cement 2218
neglected 2218
va 2218
IE@@ 2217
Persistent 2217
Sil@@ 2217
freshwater 2217
Hel@@ 2216
OD@@ 2216
breastfeeding 2216
dumping 2216
ich@@ 2216
violates 2215
Alternative 2214
avoidance 2214
memorandums 2214
Kan@@ 2213
clinical 2213
harder 2213
orderly 2213
reminder 2213
undermines 2213
zz@@ 2213
Handbook 2212
embrace 2212
noteworthy 2212
sexuality 2212
shifts 2212
78@@ 2211
occupy 2211
tar@@ 2211
administrators 2210
Distribution 2209
Rom@@ 2209
enti@@ 2209
government-@@ 2209
illustrate 2209
EA 2208
Requirements 2208
perfect 2208
for-@@ 2207
homeless 2207
lam@@ 2206
Chernobyl 2205
Improvement 2205
compelled 2205
contraceptive 2205
featured 2205
struggling 2205
POPs 2204
Proposal 2204
Transition 2204
choosing 2204
congratulated 2204
declaring 2204
Authorities 2203
Nicosia 2203
constituencies 2203
cat@@ 2202
invaluable 2202
paramilitary 2202
restaurant 2202
understands 2202
Falkland 2201
Includes 2201
lethal 2201
universalization 2200
promotional 2199
Rel@@ 2198
Vision 2198
engineers 2198
pro-poor 2198
sake 2198
anthropogenic 2197
ce-@@ 2197
terminate 2197
EA@@ 2195
Micronesia 2195
Ph@@ 2195
ideological 2195
unsafe 2195
weekend 2195
Prisoners 2194
catalyst 2194
posters 2194
ura 2194
celebration 2193
definitive 2193
roll 2193
signals 2193
layer 2192
1966 2191
concession 2191
290 2190
Add 2188
Cost 2188
Museum 2188
Reproductive 2188
Seabed 2188
marry 2188
state-owned 2188
Objectives 2187
chances 2187
rebuild 2187
reconsider 2187
wisdom 2187
ó@@ 2187
Speakers 2186
announcements 2186
exhaustive 2186
underscores 2186
CPC 2185
ace 2185
refuge 2185
263 2184
Ten 2184
conf@@ 2183
geospatial 2183
Concern 2182
tender 2182
Dem@@ 2181
bargaining 2181
sum@@ 2181
foreseeable 2180
Managing 2179
Particularly 2179
sanction 2179
Comments 2178
injustice 2178
stringent 2178
suppress 2178
Arabs 2177
corrective 2177
har 2177
prevents 2177
slowdown 2177
landmark 2176
š@@ 2175
Abkhazia 2174
arisen 2174
cross-sectoral 2174
slave 2174
HC@@ 2173
Pi@@ 2173
Pres@@ 2173
action-oriented 2173
analyst 2173
happens 2173
principally 2173
tered 2173
25,000 2172
Microsoft 2172
commemoration 2172
permitting 2172
ug@@ 2172
counties 2171
le-@@ 2171
classifications 2170
entrepreneurial 2170
seeds 2170
G.@@ 2169
UNA@@ 2169
denying 2169
és 2169
280 2168
292 2168
GNSS 2168
brutal 2168
ishing 2168
Fa@@ 2167
crude 2167
ment-@@ 2167
ser@@ 2167
ys@@ 2167
SAICM 2166
lesser 2166
1968 2165
Mah@@ 2165
ole 2165
soft 2165
minimizing 2164
11th 2162
Cl@@ 2162
Page 2162
Possible 2162
Pyongyang 2162
Vocational 2161
refined 2161
13.@@ 2160
IF 2160
Mun@@ 2160
eng 2160
sh 2158
touch 2158
TE 2156
radi@@ 2156
OC 2155
assertion 2155
ays 2155
thirtieth 2155
0.5 2154
arbitrarily 2154
associates 2154
obsolete 2154
park 2154
Individual 2153
deceased 2153
caring 2152
contraception 2152
surrender 2152
Laundering 2151
Mediation 2151
posting 2151
regionally 2151
worship 2151
Leaders 2150
Ltd 2150
Material 2150
detainee 2150
kin@@ 2150
11-@@ 2149
Carlos 2149
aff@@ 2149
examines 2149
inv@@ 2149
lic@@ 2149
pers 2149
# 2148
Command 2147
heat 2147
organisms 2147
12th 2146
Cambodian 2146
Subregional 2146
arriving 2146
fortieth 2146
pointing 2146
baby 2145
mainstreamed 2144
underground 2144
Sources 2143
atic 2143
dire 2143
interfere 2143
ket 2143
tier 2143
bienniums 2142
correction 2142
delimitation 2142
feels 2142
fication 2142
° 2142
Stocks 2141
co-operation 2141
Changes 2140
W. 2140
coup 2140
disorders 2140
Socialist 2139
Technologies 2139
assistants 2139
institutionalized 2139
deploying 2138
endorses 2138
tical 2138
fullest 2137
human@@ 2137
off-@@ 2137
sch@@ 2137
ul 2137
22,@@ 2136
Belgian 2136
DPRK 2136
Pristina 2136
unforeseen 2136
pp. 2135
trauma 2135
clarifications 2134
ox@@ 2133
Design 2132
confirming 2132
dri@@ 2132
Jordanian 2131
Restrictions 2131
ola 2131
unliquidated 2131
app 2130
footnote 2130
symbol 2130
Sect 2129
roots 2129
15.@@ 2128
Paulo 2128
redouble 2128
Credit 2127
IB@@ 2127
buffer 2127
wasn 2127
OCHA 2125
negotiable 2125
MYFF 2124
Municipal 2124
invoke 2124
reformed 2124
www.un.org 2124
54@@ 2123
museum 2123
New@@ 2122
quadrennial 2121
web-based 2121
squ@@ 2120
14.@@ 2119
Algerian 2119
Il@@ 2119
repression 2119
Havana 2118
assert 2118
identities 2118
discourage 2117
hamper 2117
int 2117
void 2117
Moon 2116
Mur@@ 2116
complications 2116
doors 2116
haven 2116
Goma 2115
OR 2115
285 2114
SGB 2114
Sk@@ 2114
differing 2114
passports 2114
19th 2113
scores 2113
16.@@ 2112
Award 2112
promulgation 2112
migratory 2111
pos@@ 2111
games 2110
pursuance 2110
L.4 2109
reveals 2109
267 2108
cleaning 2108
voiced 2108
None 2107
ben@@ 2107
hire 2107
impediment 2107
overseeing 2107
rightly 2107
warfare 2107
Lord 2106
OPCW 2106
private-sector 2106
shorter 2106
split 2106
DAC 2105
trigger 2105
MERCOSUR 2104
boat 2103
Average 2102
ION 2102
hindered 2102
12-month 2101
aire 2101
correctional 2101
self-assessment 2101
surprise 2101
responds 2100
unanimous 2100
mg 2099
objectivity 2099
preconditions 2099
sil@@ 2099
vicinity 2098
yan@@ 2098
exchanging 2097
silent 2097
279 2096
ath 2096
professionalism 2096
23,@@ 2095
situated 2095
unutilized 2095
disadvantages 2094
ranges 2094
repeal 2094
Af@@ 2093
NC@@ 2093
Oceans 2093
gn@@ 2093
Observation 2092
one-time 2092
un.org 2092
1963 2091
Neither 2091
ams 2091
statelessness 2091
Tan@@ 2090
lim@@ 2090
Philippine 2089
modality 2089
Che@@ 2088
ado 2088
pay@@ 2088
sol@@ 2088
soldier 2088
survive 2088
-led 2087
dent 2087
impression 2087
shortfalls 2087
28,@@ 2086
7.2 2086
Results 2086
litres 2086
avenues 2085
positioning 2085
God 2084
conceived 2084
exc@@ 2084
impasse 2084
locked 2084
self-government 2084
300,000 2083
Sun@@ 2083
hidden 2083
Ref@@ 2082
Unlawful 2082
non-permanent 2082
Mul@@ 2081
ratifications 2081
paradigm 2079
petitioner 2079
vii 2079
interlocutors 2078
pon@@ 2078
DA 2077
Fer@@ 2077
announce 2077
diversify 2077
forty-sixth 2077
ino 2077
Observatory 2076
Preliminary 2076
let@@ 2076
basically 2074
celebrate 2074
contacted 2074
operationalization 2074
punitive 2074
Vietnamese 2073
18.@@ 2072
Forestry 2072
unregulated 2072
CGE 2071
CP.@@ 2071
EU@@ 2071
absorb 2070
induced 2070
peninsula 2070
unfortunate 2070
annum 2069
quo 2069
upgraded 2069
diversified 2068
trillion 2068
hotels 2067
hy@@ 2067
poorer 2067
professions 2067
Television 2066
Trends 2066
SAR 2065
ass 2065
automation 2065
bold 2065
don@@ 2065
jeopardize 2065
preclude 2065
Puntland 2064
Tal@@ 2064
boo@@ 2064
envisages 2064
indebted 2064
Lima 2063
Azerbaijani 2062
ideals 2062
bi 2061
commendable 2061
ered 2061
interpret 2061
hen@@ 2060
influential 2060
wide-ranging 2060
wing 2060
stem 2059
Existing 2058
M-@@ 2058
Ratification 2058
deliveries 2058
enforceable 2058
Insolvency 2057
Kofi 2057
Set 2057
Seven 2057
Seventh 2057
Traditional 2057
acquisitions 2057
ro 2057
NS@@ 2056
commits 2056
exceeds 2056
ides 2056
precondition 2056
raped 2056
uniformed 2056
vo@@ 2056
Men@@ 2055
ail 2055
Coast 2054
Fin@@ 2054
costing 2054
irregularities 2054
bre@@ 2053
incommunicado 2053
A-@@ 2052
Slovak 2052
vic@@ 2052
79@@ 2051
Terrorist 2051
concurred 2051
presiding 2051
Arbitrary 2050
co-sponsored 2050
infants 2050
ust 2050
widest 2050
gue 2049
precursor 2049
Facilities 2048
dual-use 2048
experiment 2048
nominal 2048
1958 2047
Bermuda 2047
Fair 2047
off@@ 2047
preceded 2047
Bos@@ 2046
R.@@ 2046
impacted 2046
ré@@ 2046
6.4 2045
Nature 2045
Kampala 2044
PR 2044
es-@@ 2044
extraction 2044
rendering 2044
videos 2044
Boards 2043
Eleventh 2043
Leg@@ 2043
deadly 2043
ids 2043
PL@@ 2042
reduces 2042
Citizenship 2041
anywhere 2041
ards 2040
exert 2040
wives 2040
Anti-Corruption 2039
Literacy 2039
alter 2039
Lan@@ 2038
destabilizing 2038
polymetallic 2038
Outreach 2037
SME 2037
approaching 2037
questioning 2037
198@@ 2036
illustrates 2036
Sao 2035
oppose 2035
287 2034
AS 2034
Students 2034
gro@@ 2034
tru@@ 2034
Core 2033
checklist 2033
historically 2033
simplification 2033
tran@@ 2033
PIC 2032
preferable 2032
zi 2032
IGAD 2031
Revolution 2031
affiliation 2031
detentions 2031
log@@ 2031
twenty-sixth 2031
Amman 2030
Pa@@ 2030
arrange 2030
rem@@ 2030
warranted 2030
BiH 2029
alive 2029
backdrop 2029
catalytic 2029
ency 2029
iron 2029
telling 2029
maximizing 2028
differently 2027
gr@@ 2027
IM 2026
mes 2026
poppy 2026
shifted 2026
Contribution 2025
NA 2025
20.@@ 2024
CESCR 2024
finished 2024
ić 2024
optimize 2024
theoretical 2024
warplanes 2024
Agreed 2023
Discussion 2023
64@@ 2022
groundwater 2022
pping 2022
Colonel 2021
Ituri 2021
UN-SPIDER 2021
happening 2021
automated 2020
correspond 2020
noble 2020
Populations 2019
armoured 2019
24,@@ 2017
Self-@@ 2017
Abdullah 2016
Sub 2016
3.7 2015
knowledge-sharing 2015
pushing 2015
reaches 2015
252 2014
Bro@@ 2013
billions 2013
breast 2013
reinforcement 2013
296 2012
Proposals 2012
forefront 2012
glass 2012
sanitary 2012
scarcity 2012
sleep 2012
compliments 2011
interpretations 2011
unilaterally 2011
encounter 2010
explosions 2010
vaccines 2010
Options 2009
fun@@ 2009
jury 2009
solved 2009
teach 2009
twenty-seventh 2009
worried 2009
PRE@@ 2008
censorship 2008
presumed 2008
supervise 2008
7.1 2007
CS@@ 2007
honoured 2007
logging 2007
sec@@ 2007
top@@ 2007
Lusaka 2006
gh 2006
1244 2005
jurisdictional 2005
well-known 2005
Make 2003
timeline 2003
26,@@ 2002
absorbed 2002
develops 2002
recurring 2002
subsidized 2002
criminality 2001
guardian 2001
factions 2000
Confederation 1999
answered 1999
bles 1999
devised 1999
evolve 1999
mined 1999
14-@@ 1998
Attorney-General 1998
Donor 1998
atmospheric 1998
ez@@ 1998
fires 1998
stimulus 1998
Transboundary 1997
ck 1997
critically 1997
house@@ 1997
13-@@ 1996
dark 1996
ier 1996
servers 1996
toll 1996
268 1995
til@@ 1995
Combined 1994
Effectiveness 1994
Ethnic 1994
narcotics 1994
19.@@ 1993
305 1993
warehouse 1993
0s 1991
ign@@ 1991
opposing 1991
Lessons 1990
hin@@ 1990
provisionally 1990
UNCT 1989
fraudulent 1989
pronounced 1989
resignation 1989
ton@@ 1989
bears 1988
expiring 1988
nationalities 1988
Investments 1987
diminished 1987
eli@@ 1987
iss@@ 1987
forge 1986
Membership 1985
amid 1985
stat@@ 1985
WA 1984
abl@@ 1984
ela 1984
nurses 1984
Cooperative 1983
sugar 1983
M23 1982
Den@@ 1981
Leadership 1981
friendship 1981
skin 1981
Hy@@ 1980
State-@@ 1980
surveyed 1980
2000-@@ 1979
25,@@ 1979
Amendments 1979
Art 1979
Ouagadougou 1979
experimental 1979
Ceasefire 1978
ination 1978
low-cost 1978
mentation 1978
Disappearances 1977
Subprogramme 1977
Which 1977
custom 1977
proc@@ 1977
yan 1977
18th 1976
Minority 1976
UNISPACE 1976
Expenditure 1975
IES 1975
UNO@@ 1975
abandon 1975
colleague 1975
fic@@ 1975
ventures 1975
Civilizations 1974
Comment 1974
Bri@@ 1973
registers 1973
30,@@ 1972
Implement 1972
logic 1972
militants 1972
Jean-@@ 1971
Naqurah 1971
14th 1970
modelling 1970
preserved 1970
ries 1970
institutionalization 1969
semi-@@ 1969
tracks 1969
Dominica 1967
inevitable 1967
SNA 1966
Tur@@ 1966
demonstrators 1966
Collective 1965
aring 1965
discretionary 1965
sted 1965
Koreans 1964
giant 1964
induction 1964
vis@@ 1964
consequent 1963
el-@@ 1963
facilitators 1963
forty-fourth 1963
francs 1963
pesticides 1963
Older 1962
circle 1962
fold 1962
long@@ 1962
316 1961
Los 1961
Med@@ 1961
SO 1961
Saharan 1961
hur@@ 1961
Clearly 1960
Yu@@ 1960
authorizing 1960
cheap 1960
gender-related 1960
land@@ 1960
overlapping 1960
searches 1960
yo 1960
13th 1959
profiling 1959
BY 1958
FNL 1958
persisted 1958
4.8 1957
constraint 1957
trusted 1957
warm 1957
ECOSOC 1956
ading 1956
poly@@ 1956
triggered 1956
economists 1955
restaurants 1955
tually 1955
by@@ 1954
condemning 1954
courage 1954
disbursement 1954
Bak@@ 1953
plastic 1953
undergone 1953
crossings 1952
stabilize 1952
Unlike 1951
deserves 1951
forecasting 1951
lots 1951
coral 1949
gate 1949
writers 1949
Continental 1948
Demobilization 1948
Option 1948
dissolution 1948
striving 1948
entailed 1947
Luis 1946
16th 1945
depositary 1945
variables 1945
ICT@@ 1944
76@@ 1943
Collaborative 1943
UND@@ 1943
consensual 1943
deletion 1943
shopping 1943
star 1943
interior 1942
sia 1942
Slavery 1941
UNOWA 1941
Up 1941
hill 1941
rationalization 1941
N. 1940
UNCLOS 1940
WG 1940
Kyrgyz 1939
SM@@ 1939
The@@ 1939
Twelfth 1939
lock 1939
governorates 1938
polling 1938
FA 1937
bridges 1937
civilization 1937
conversation 1936
deteriorated 1936
eminent 1936
monopoly 1936
stimulating 1936
Ah@@ 1935
Drought 1935
conflicting 1935
Nationality 1934
ación 1934
chambers 1934
criminalizing 1934
forty-ninth 1934
prohibitions 1934
revitalize 1934
687 1933
blind 1933
settling 1933
WP@@ 1932
debt-@@ 1932
recreational 1932
sor@@ 1932
treating 1932
5.6 1931
expired 1931
fire@@ 1931
junior 1931
specifies 1931
turns 1931
condolences 1930
repatriated 1930
EULEX 1929
iPhone 1929
marginal 1929
premium 1929
purview 1929
wastewater 1929
17th 1928
HUMAN 1928
refusing 1928
CP.7 1927
cabinet 1927
imposes 1927
Democrats 1926
FIR 1926
Kitts 1926
ally-@@ 1926
delicate 1926
Thanks 1925
gun@@ 1925
hostage 1925
kh@@ 1925
OS 1924
doc@@ 1924
SPLA 1923
Secondary 1923
liber@@ 1923
downward 1922
shut 1922
web@@ 1922
Mis@@ 1921
liquid 1921
29,@@ 1920
BA 1920
Better 1920
unequivocal 1919
clandestine 1918
net@@ 1918
2,8@@ 1917
lo 1917
neighbourhood 1917
sewage 1917
Nordic 1916
entirety 1916
winning 1916
15th 1915
Bol@@ 1915
SCO 1915
club 1915
40,000 1914
Generally 1914
fundamentally 1914
Closed 1913
Turks 1912
cas@@ 1912
conc@@ 1912
resilient 1910
274 1909
Does 1909
Kat@@ 1909
Wor@@ 1909
deems 1909
psychotropic 1909
129@@ 1908
battalion 1908
dental 1908
form@@ 1908
rev@@ 1908
assemblies 1907
wealthy 1907
98@@ 1906
CS 1906
Pollutants 1906
container 1906
ils 1906
two-thirds 1906
SD@@ 1905
Sun 1905
forty-fifth 1905
Mass 1904
Pending 1904
Yang 1904
closures 1904
Recognition 1903
edge 1903
iled 1903
y-based 1902
4.7 1901
AN 1901
Sami 1901
chamber 1901
tiny 1901
CCA 1899
Lar@@ 1899
cia 1899
preferably 1899
reiterating 1899
Along 1898
RU@@ 1898
compiling 1898
ena 1898
sponsorship 1898
frustration 1897
gam@@ 1897
Nations-owned 1896
compact 1896
fellowship 1896
Preventive 1895
War@@ 1895
diagnostic 1895
Methods 1894
Navy 1894
boats 1894
lays 1894
merger 1894
Bern@@ 1893
DPI 1893
Nation 1893
Residual 1893
Signature 1893
timelines 1893
xenophobic 1892
Nevis 1891
computing 1891
Associated 1890
Cro@@ 1890
IR 1890
cing 1890
jure 1890
rah 1890
contemplated 1889
meat 1889
sy@@ 1889
273 1888
Hon@@ 1888
dered 1888
scheduling 1888
correctly 1887
terminal 1887
warrants 1887
Opening 1886
Recruitment 1886
embedded 1886
por@@ 1886
akh@@ 1885
aling 1885
aquifers 1885
tas@@ 1885
Manager 1884
William 1884
AG@@ 1883
aki 1883
cy 1883
discovery 1883
reside 1883
round-table 1883
colonialism 1882
weakened 1882
281 1881
LE 1881
Lake 1881
Recommends 1881
assassination 1881
fly 1881
Companies 1880
recruits 1880
discusses 1879
famous 1879
Mainstreaming 1878
dependants 1878
286 1877
3,500 1877
dou@@ 1876
flood 1876
ment-related 1876
sessional 1876
STA@@ 1875
expiration 1875
Exploration 1874
O. 1874
Single 1874
mindful 1874
parking 1874
railway 1874
sampling 1874
tal@@ 1874
trusts 1874
waiver 1874
worsening 1874
L.7 1873
Post-@@ 1872
Somaliland 1872
iro 1872
GC.@@ 1871
CB 1870
Lower 1870
measurements 1870
organizers 1870
vigorously 1870
dé@@ 1869
Air@@ 1868
ancient 1868
comp@@ 1868
displayed 1868
elec@@ 1868
endanger 1868
exempt 1868
chiefs 1867
Eradicate 1866
IV.@@ 1866
Romney 1866
conscientious 1866
descriptions 1866
end-of-service 1866
Vladimir 1865
husbands 1865
CSOs 1864
babies 1864
č@@ 1864
XX@@ 1863
eat 1863
invalid 1863
Hom@@ 1862
Ou@@ 1862
oon 1862
vague 1862
278 1861
Maria 1861
holiday 1861
17-@@ 1859
Advocacy 1859
camera 1859
ous@@ 1859
shops 1859
depletion 1858
maturity 1858
Abdel@@ 1857
Al-Shabaab 1857
On@@ 1857
Geographical 1856
Sor@@ 1856
diverted 1856
real@@ 1856
refine 1856
Horn 1855
Telecommunication 1855
disposed 1855
mag@@ 1855
1964 1854
circulate 1854
co-chairs 1854
fixed-wing 1854
ni 1854
smart 1854
Asset 1853
acc@@ 1853
creativity 1853
pipeline 1853
system@@ 1853
Societies 1852
vaccination 1852
wise 1852
∙ 1852
expire 1851
massacre 1851
L.6 1850
centuries 1850
execute 1850
warnings 1850
Fo@@ 1849
Inclusion 1849
s-related 1849
the-@@ 1849
withdrawing 1849
ECCAS 1848
intensifying 1848
outgoing 1848
widows 1848
globalized 1847
Continued 1846
presidents 1846
Gre@@ 1845
SH@@ 1845
Strengthened 1845
entrance 1845
extractive 1845
licensed 1845
stayed 1845
Hussein 1844
practically 1844
retirees 1844
sized 1844
Abdul 1843
ONUB 1843
Wil@@ 1843
entries 1843
ack@@ 1842
resource-@@ 1842
swift 1842
transforming 1842
25-@@ 1841
Database 1841
Lin@@ 1841
Living 1841
Reducing 1841
mercenary 1841
van@@ 1841
DDT 1840
FGM 1840
Federated 1840
bridging 1840
e-based 1840
Appointment 1839
circumstance 1839
derive 1839
oms 1839
recurrence 1839
worthy 1839
Direct 1838
Finnish 1838
fer@@ 1838
stream 1838
avail 1837
wards 1837
Aliens 1836
surprising 1836
backstopping 1835
privilege 1835
tomorrow 1835
2002-2005 1834
aj@@ 1834
congratulations 1834
cybercrime 1834
lab@@ 1834
1962 1833
7.3 1833
Councils 1833
Innovation 1833
as-@@ 1833
passive 1833
Abdul@@ 1832
1995-@@ 1831
reactions 1831
decreases 1830
practicable 1830
tation 1830
one-year 1829
seabed 1829
traded 1829
fragmented 1828
loading 1828
Certification 1827
Corporate 1827
Greenland 1827
responsiveness 1827
LS 1826
Yearbook 1826
bin@@ 1826
discontinued 1826
fought 1826
ideology 1826
severity 1826
tactics 1826
Achieving 1825
Juan 1825
manifest 1825
supervised 1825
swiftly 1825
upward 1825
1,600 1824
Mos@@ 1824
Tuberculosis 1824
na@@ 1824
rer 1824
3.8 1823
abolishment 1823
holidays 1823
295 1822
circular 1822
lesson 1822
supplements 1822
flooding 1821
immense 1821
2008-2011 1820
Nigerian 1820
adjournment 1820
assign 1820
designs 1820
Cash 1819
Por@@ 1819
XVI 1819
characteristic 1819
forty-third 1819
ily 1819
FPA 1818
pic@@ 1818
boarding 1817
wildlife 1817
ene 1816
ever-@@ 1816
ok@@ 1816
shadow 1816
educating 1815
DD@@ 1814
collateral 1813
si 1813
stigmatization 1813
17.@@ 1812
indicted 1812
ym@@ 1812
CFCs 1811
DNA 1811
proportionality 1811
worry 1811
Faculty 1810
L.5 1810
two-State 1810
12,000 1809
Add.1-@@ 1809
JS1 1809
Mark 1809
Or 1808
1945 1807
Cayman 1807
Mechanisms 1807
Ugandan 1807
isc@@ 1807
rival 1807
963-@@ 1806
fabric 1806
lifetime 1806
smoking 1806
communicating 1805
ram@@ 1805
Burundian 1804
worrying 1804
ERW 1803
HS 1803
65@@ 1802
75@@ 1802
ranked 1802
1960s 1801
Call 1801
Op@@ 1801
Prince 1801
checkpoint 1801
quar@@ 1801
Cre@@ 1800
End 1800
alised 1800
unhindered 1799
Don@@ 1798
hostility 1798
pre-session 1798
sons 1798
influx 1797
intentional 1797
simplify 1797
F.@@ 1796
inclusiveness 1795
sanctioned 1795
Smuggling 1794
Wi@@ 1794
AL 1793
brands 1793
manages 1793
menting 1793
prone 1793
Exc@@ 1792
construct 1792
disappointed 1792
yielded 1792
Malaysian 1791
contraceptives 1791
forecasts 1791
neighborhood 1791
queries 1791
secrecy 1791
JI 1790
Ten@@ 1790
cotton 1790
PN@@ 1789
acknowledgement 1789
sudden 1789
terrible 1789
Africans 1787
Wu 1787
developers 1787
precedence 1787
prudent 1787
sensitize 1787
thrust 1787
whatsoever 1787
Responding 1786
clinic 1786
disbursements 1786
journey 1786
São 1785
Expected 1784
Transportation 1784
careers 1784
convert 1784
experiments 1784
petitioners 1784
OA@@ 1783
304 1782
Fac@@ 1782
conferred 1782
coping 1782
esti@@ 1782
282 1781
Actual 1781
Manhattan 1781
contest 1781
rid 1781
shi@@ 1781
L.8 1780
PM@@ 1780
UNPOS 1780
campus 1780
concise 1780
disbursed 1780
rhetoric 1780
Can 1779
De 1779
Non-governmental 1779
Principle 1779
churches 1779
IFRS 1778
Add.1. 1777
Prize 1777
calculations 1777
enters 1777
liaise 1777
substantiate 1777
ES-10 1776
Materials 1776
ables 1776
bul@@ 1776
enquired 1776
forget 1776
lar@@ 1776
Commodities 1775
Items 1775
Non@@ 1775
ography 1775
philosophy 1775
pun@@ 1775
Offenders 1774
confessions 1774
endangered 1774
windows 1774
Had@@ 1773
Opportunity 1773
Palais 1773
ix 1773
template 1773
WG.6 1772
deterrent 1772
forty-seventh 1772
starts 1772
Submission 1771
foot@@ 1771
celebrated 1770
ishes 1770
locate 1770
posing 1770
Pra@@ 1769
Sex 1769
dream 1769
fre@@ 1769
strides 1769
ambassador 1768
earning 1768
gran@@ 1767
CMP.1 1766
auction 1766
matched 1766
risk-@@ 1766
mayor 1765
predicted 1765
360 1764
Arts 1764
MINUSMA 1764
Ny@@ 1764
decrees 1764
heating 1764
non-formal 1764
Mobile 1763
cher 1763
underway 1762
Delegation 1761
Long-term 1761
Malian 1761
Fun@@ 1760
compromised 1760
forest-related 1760
hot@@ 1760
ind@@ 1760
victimization 1760
CERs 1759
Collaboration 1759
counting 1759
arguing 1758
conflict-affected 1758
foods 1758
ill-@@ 1758
271 1757
88@@ 1757
Chadian 1757
Globally 1757
Sanitation 1757
enjoying 1757
everyday 1757
1954 1756
Developments 1756
RD 1756
1946 1755
but@@ 1755
mid-term 1755
ut 1755
Extradition 1754
RE 1754
permissible 1754
positioned 1754
supplying 1754
Kon@@ 1753
Pr@@ 1753
aids 1753
audio 1753
inconsistencies 1753
Taylor 1752
contempt 1752
non-traditional 1752
authoritative 1751
Abkhaz 1750
Maternal 1750
boom 1750
detriment 1750
hair 1750
tough 1750
Kigali 1749
asa 1749
continually 1749
directing 1749
optimism 1749
Aung 1748
Karabakh 1748
ancy 1748
charts 1748
communicable 1748
discourse 1748
gratis 1748
ć 1748
750 1747
Bon@@ 1747
ins@@ 1747
blue 1746
distributing 1746
izes 1746
jo 1746
Union-United 1745
eller 1745
illnesses 1745
commencing 1744
ili@@ 1744
photo 1744
seed 1744
Bl@@ 1742
Montserrat 1742
achievable 1742
yes 1742
Man 1741
rejects 1741
sinks 1741
solitary 1741
7.4 1740
Failure 1740
indices 1740
practised 1740
defeat 1739
ward 1739
KP 1737
Nile 1737
REP 1737
Resistance 1737
believing 1737
insights 1737
naturally 1737
prioritizing 1737
radiological 1737
supreme 1737
tom@@ 1737
1,800 1736
dispatched 1736
multicultural 1736
shed 1736
commemorate 1735
motor 1735
Attention 1734
Hammarskjöld 1734
Hen@@ 1734
Numerous 1734
e.@@ 1734
.com 1733
medi@@ 1733
tactical 1733
Dissemination 1732
Regrettably 1732
counterpart 1732
effected 1732
Caucasus 1731
XVII 1731
harmonious 1731
impaired 1731
load 1731
277 1730
CN.3 1730
ON@@ 1730
Pri@@ 1730
vaccine 1730
Awareness 1729
Expenditures 1729
airline 1729
barely 1729
charitable 1729
vigorous 1729
è@@ 1729
specifying 1728
2050 1727
Equity 1727
milestones 1727
Tome 1726
comparability 1726
inspected 1726
370 1725
Anti@@ 1725
Inter-Parliamentary 1725
atomic 1725
compare 1725
fishery 1725
bolster 1724
Benefits 1723
Gal@@ 1723
Inter-agency 1723
CRPD 1722
Negotiations 1722
Problems 1722
contentious 1722
Bir@@ 1721
Dag 1721
PNTL 1721
Senator 1721
UNTAET 1721
consortium 1721
feelings 1721
mortgage 1721
AB@@ 1720
Enhance 1720
Nearly 1720
nominate 1720
tight 1720
Anguilla 1719
Lawyers 1719
Monrovia 1719
bail 1719
bit@@ 1719
concessionaire 1719
superior 1719
Dou@@ 1717
diminish 1717
frank 1717
ji@@ 1717
photos 1717
ashed 1716
flagship 1716
1612 1715
stimulants 1715
CM 1714
Principe 1714
spots 1714
trouble 1714
Pound@@ 1713
ature 1713
genuinely 1713
keen 1713
oned 1713
Ali@@ 1711
Pakistani 1711
co-sponsors 1711
endemic 1711
insist 1711
Real 1710
Wales 1710
ema 1710
pluralism 1710
hubs 1709
prejudices 1709
Needs 1708
grievances 1708
guilt 1708
easing 1707
pretty 1707
co-chaired 1706
MENTS 1705
domination 1705
CF@@ 1704
disappointment 1704
short-@@ 1704
1718 1703
Cap@@ 1703
high@@ 1703
deported 1702
ITL 1701
Ol@@ 1701
motions 1701
noticed 1701
prostitutes 1701
3,0@@ 1700
Fran@@ 1699
cautioned 1699
reluctance 1699
Kir@@ 1698
ately 1698
involuntary 1698
reproduction 1698
Bo 1697
chi 1697
crackdown 1697
opponents 1697
H.@@ 1696
dy@@ 1696
forty-first 1696
hierarchy 1696
searching 1696
speculation 1696
Focus 1695
Safeguards 1695
truck 1695
1,400 1694
discount 1694
pled 1694
Town 1693
lit@@ 1693
,@@ 1692
Assets 1692
Es@@ 1692
Pollution 1692
channelled 1692
empty 1692
legislators 1692
prenatal 1692
Dev@@ 1691
Everyone 1691
admit 1691
burg 1691
thirty-eighth 1691
2001-2010 1690
daughters 1690
TF 1689
attorney 1689
bly 1689
conflict-@@ 1689
petrol 1689
broadband 1688
relocated 1688
AT 1687
exacerbate 1687
Le 1686
ains 1686
ambitions 1686
ase 1686
bon@@ 1686
Square 1685
humane 1685
shock 1685
L.9 1684
conver@@ 1684
forged 1684
rolled 1684
GNP 1683
Jean 1683
40,@@ 1682
Antonio 1682
ath@@ 1682
beat 1682
coun@@ 1682
Pre-@@ 1681
RI 1681
repository 1681
sit@@ 1681
Who 1680
ly@@ 1680
ty-@@ 1680
Mahmoud 1679
health-related 1679
Mental 1678
fir@@ 1678
Jul@@ 1677
MT@@ 1677
O-@@ 1677
deriving 1677
prevailed 1677
speci@@ 1677
advisable 1676
assignee 1676
six-@@ 1676
Dj@@ 1675
L.10 1675
SD 1675
Your 1675
censuses 1675
knowing 1675
readers 1675
broadcasts 1674
fications 1674
Hyogo 1673
Practical 1673
Soci@@ 1673
watching 1673
backing 1672
custodial 1672
Tor@@ 1671
bilingual 1671
cru@@ 1670
procured 1670
surprised 1670
kids 1669
Biennial 1668
blame 1668
jan 1668
yields 1668
311 1667
Gener@@ 1667
Maz@@ 1667
Xinjiang 1667
ae 1667
forty-eighth 1667
ora 1667
registering 1667
storm 1667
zing 1667
Fellowship 1666
Mari@@ 1666
Vice 1666
Hungarian 1665
PB@@ 1665
T-@@ 1665
workplans 1665
19-@@ 1664
AC.26 1664
Johnson 1664
MB@@ 1664
301 1663
Ammunition 1663
Holocaust 1663
goodwill 1663
inhumane 1663
tours 1663
Government-@@ 1662
ures 1662
425 1661
Macao 1661
at-@@ 1661
expiry 1661
1737 1660
extensions 1660
fifty@@ 1660
school@@ 1660
Autonomous 1659
BEIJING 1659
Bilateral 1659
Vol@@ 1659
Witnesses 1659
deputies 1659
followers 1659
react 1659
unreported 1659
Ninth 1658
graphic 1658
hereby 1658
six-month 1658
Details 1657
NAPs 1657
Points 1657
Whereas 1657
abandonment 1657
lasted 1657
Harmonized 1656
adhered 1656
registries 1656
stalemate 1656
303 1655
Antarctic 1655
Identify 1655
Later 1655
belongs 1655
recreation 1655
Governors 1654
Recommended 1654
saved 1654
Nutrition 1653
reforestation 1653
1950 1652
Illegal 1652
Monthly 1652
demobilized 1652
omission 1652
volunteerism 1652
63@@ 1651
Mercury 1651
acid 1651
influencing 1651
slowed 1651
Aware 1650
Telecommunications 1650
Tim@@ 1650
Zhou 1650
disorder 1650
handover 1650
baselines 1649
cooking 1648
forty-second 1648
Cell 1647
Gross 1647
favourably 1647
reserving 1647
stereotyping 1647
330 1646
Mother 1646
SG 1646
anxiety 1645
89@@ 1644
Again 1644
Encouraging 1644
Jakarta 1644
Continuing 1643
FC 1643
exhaust 1643
five-@@ 1643
punishing 1643
ron 1643
-and-@@ 1642
Institution 1642
Multi-@@ 1642
proportionate 1642
radar 1642
retreat 1642
Detailed 1641
bil@@ 1641
gers 1641
slums 1641
.... 1640
FM@@ 1640
Movements 1640
eviction 1640
pervasive 1640
telecommunication 1640
CONA@@ 1639
caregivers 1639
kets 1639
1,300 1638
Nobel 1638
aking 1638
dropout 1638
inal 1638
meteorological 1638
wells 1638
OP 1637
food-@@ 1636
thirty-seventh 1636
toxicity 1636
Fed 1635
MP 1635
infringement 1635
intermediaries 1635
yer 1635
1965 1634
Next 1634
Waste 1634
nexus 1634
Kab@@ 1633
Wastes 1633
behaviours 1633
speeches 1633
theatre 1633
Caicos 1632
Forced 1632
Proliferation 1632
RBM 1632
SLM 1632
TRA@@ 1632
presences 1632
accompany 1630
ović 1630
packaging 1630
trainees 1630
Ed@@ 1629
Tel 1629
biomass 1629
drafts 1629
enhancements 1629
Rican 1628
demolition 1628
downsizing 1628
hurt 1628
license 1628
Mohammad 1627
accessed 1627
adopts 1627
aggravating 1627
anga 1627
attribution 1627
log 1627
matching 1627
self 1627
sou@@ 1627
Consortium 1626
Publications 1626
Thirty-@@ 1626
assignor 1626
intervals 1626
oes 1626
Samsung 1625
looting 1625
nouvelles 1625
rolling 1625
tam@@ 1625
Consumer 1624
eager 1624
technicians 1624
trace 1624
Steps 1623
fol@@ 1623
prepares 1623
vice-@@ 1623
STI 1622
accords 1622
mel@@ 1622
verdict 1622
CL@@ 1621
domestically 1621
fifty 1621
fostered 1621
receipts 1621
sk 1621
thirty-sixth 1621
Claim 1620
Concerned 1620
Sur@@ 1620
abusive 1620
graduated 1620
peacemaking 1620
programmed 1620
tries 1620
Bangui 1619
Barcelona 1619
Ji@@ 1619
ever@@ 1619
grouped 1619
ney 1619
seventy-@@ 1619
shaped 1619
Sec@@ 1618
ree 1618
entertainment 1617
organizes 1617
Maj@@ 1616
declares 1616
general-purpose 1616
sn@@ 1616
unjust 1616
Century 1615
Co 1615
escalating 1615
Jews 1614
Peninsula 1614
flu@@ 1614
postpone 1614
testify 1614
Revision 1613
comfort 1613
dre@@ 1613
ests 1613
honest 1613
Sy@@ 1612
lec@@ 1612
tis 1612
Jan 1611
resourced 1611
seasonal 1611
trainings 1611
E4 1610
dil@@ 1610
electronically 1610
missed 1610
diaspora 1609
painful 1609
weakening 1609
GNI 1608
Oc@@ 1608
diet 1608
homeland 1608
in-kind 1608
intangible 1608
Snowden 1607
rulings 1606
undocumented 1606
Israeli-Palestinian 1605
noon 1605
parks 1604
administrator 1603
artist 1603
verifying 1603
Disposal 1602
III.@@ 1602
Vice-Presidents 1602
uc@@ 1602
en-@@ 1601
tackled 1601
write-off 1601
299 1600
NHRIs 1600
Tam@@ 1600
boxes 1600
bri@@ 1600
variable 1600
HFCs 1599
austerity 1599
disagreement 1599
DF 1598
depleted 1598
journal 1598
kit 1598
patent 1598
ratings 1598
staying 1598
Add.6 1597
dia 1597
gent 1597
Manila 1596
Presentation 1596
depreciation 1596
gear 1596
improvised 1596
reassignment 1596
DP@@ 1595
ISO 1595
UN-@@ 1595
excuse 1595
minds 1595
twelve 1595
controversy 1594
kitchen 1594
lifestyle 1594
terrestrial 1594
vicious 1594
Deng 1593
fur@@ 1593
keeps 1593
revert 1593
shipped 1593
sub-items 1593
60,000 1592
mar 1592
movies 1592
Tunisian 1591
enhances 1591
forward-looking 1591
ony 1591
1996-@@ 1590
284 1590
alleviating 1590
Pu@@ 1589
bes 1589
GE 1588
guardians 1588
intensification 1588
Baltic 1587
Facilitator 1587
GO@@ 1587
Speaking 1587
anda 1587
bat@@ 1587
gender-responsive 1587
residency 1587
sy 1587
ude 1586
87@@ 1585
Commitments 1585
NAPAs 1585
appearing 1585
broadened 1585
democracies 1585
fence 1585
swing 1584
1,700 1583
73@@ 1583
L.11 1583
apartments 1583
balancing 1583
cooperates 1583
Prosecutors 1582
optimistic 1582
proportional 1582
resist 1582
shoulder 1582
Scope 1581
a.@@ 1581
add@@ 1581
enduring 1581
variation 1581
Kor@@ 1580
direc@@ 1580
erv@@ 1580
favor 1580
ide@@ 1580
yn@@ 1580
MTSP 1579
Maori 1579
Over@@ 1579
collections 1579
cyber@@ 1579
devising 1579
dispatch 1579
entrenched 1579
291 1578
AMIS 1578
ICA 1578
L.13 1578
compensated 1578
translating 1578
Ongoing 1577
fugitives 1577
Being 1576
fronts 1576
milit@@ 1576
publicize 1576
25th 1575
Helena 1575
Sel@@ 1575
Wh@@ 1575
bombings 1575
ei 1575
recognised 1575
spo@@ 1575
22nd 1574
320 1573
activist 1572
occasionally 1572
thirty-fourth 1572
550 1571
Appendix 1570
crash 1570
lah 1570
leveraging 1570
Bat@@ 1569
SW@@ 1569
agu@@ 1569
altered 1569
indefinite 1569
listen 1569
thirty-ninth 1569
Alma 1568
Van 1568
eling 1568
hn@@ 1568
origins 1568
plaintiff 1568
sympathy 1568
auditor 1567
geopolitical 1567
juridical 1567
projection 1567
touched 1567
Ky@@ 1566
Safe 1566
strengthens 1566
Coordinators 1565
Estimates 1565
FE@@ 1565
downturn 1565
penitentiary 1565
reciprocal 1565
yl 1565
294 1564
Boundary 1564
X. 1564
Xinhua 1564
liqu@@ 1564
tongue 1564
unidentified 1564
Sum@@ 1563
spacecraft 1563
warheads 1563
juncture 1562
Immediate 1561
Map 1561
debated 1561
distant 1561
elling 1561
CFC 1560
departed 1560
lawmakers 1560
rehabilitate 1560
judged 1559
medium- 1559
Individuals 1558
Shelf 1558
villagers 1558
Disengagement 1557
Hu 1557
strategically 1557
subordinate 1557
twenty-eighth 1557
Broad@@ 1556
calculating 1556
embraced 1556
je 1556
restorative 1556
Hybrid 1555
exhibit 1555
imagery 1555
non-citizens 1555
standpoint 1555
21.@@ 1554
Gor@@ 1554
transgender 1554
unfounded 1554
293 1553
IFF 1553
constructing 1553
dating 1553
gendarmerie 1553
medication 1553
preventable 1553
1000 1552
Adequate 1552
Adolescents 1552
Commun@@ 1552
Prostitution 1552
Unions 1552
breaks 1552
hoping 1552
307 1551
ICP 1551
TP@@ 1551
guardianship 1551
state-run 1551
Discipline 1550
FM 1550
Smith 1550
alo@@ 1550
pride 1550
sums 1550
Crown 1549
DDR 1549
additions 1549
beds 1549
meals 1549
rig@@ 1549
Sab@@ 1548
lubricants 1548
thirty-third 1548
GATS 1547
Specialized 1547
Work@@ 1547
diabetes 1547
lowering 1547
Kas@@ 1546
Shu@@ 1546
arity 1546
desirability 1546
impairment 1546
rit@@ 1546
unreasonable 1546
4.9 1545
conference-servicing 1545
dose 1545
evidentiary 1545
Kiribati 1544
Shar@@ 1544
je@@ 1544
Back 1543
ck@@ 1543
maybe 1543
4,500 1542
imagine 1542
302 1541
AWG-LCA 1541
ambassadors 1541
ho 1541
portable 1541
24-@@ 1540
autumn 1540
economist 1540
asks 1539
full-@@ 1539
DFS 1538
IOC 1538
fixed-term 1538
Ga@@ 1537
Psychotropic 1537
Unemployment 1537
basin 1537
rain 1537
thirty-second 1537
23-@@ 1536
Hg 1536
acies 1536
high-ranking 1536
if@@ 1536
results-oriented 1536
safely 1536
KO@@ 1535
antly 1535
fistula 1535
ion@@ 1535
stand-alone 1535
ear 1534
feared 1534
symptoms 1534
G-8 1533
Navigation 1533
Scotland 1533
Sometimes 1533
Stability 1533
ati 1533
cel@@ 1533
cho@@ 1533
corridors 1533
ik 1533
penetrated 1533
persists 1533
L.15 1532
Tibetan 1532
XX 1532
cam@@ 1532
injecting 1532
technique 1532
1,100 1531
310 1531
Mountain 1531
Tel@@ 1531
condoms 1531
expose 1531
motor@@ 1531
ologists 1531
shore 1531
wal@@ 1531
Aw@@ 1530
Irish 1530
Land@@ 1530
SB@@ 1530
aim@@ 1530
polio 1530
lers 1529
onset 1529
tireless 1528
Jan@@ 1527
activated 1527
brokers 1527
pros@@ 1527
transporting 1527
B-@@ 1526
Balkans 1526
Chairperson-Rapporteur 1526
Facilitating 1526
alled 1526
illed 1526
iri 1526
ows 1526
ranged 1526
wholly 1526
VE@@ 1525
contradiction 1525
ight 1525
leaflets 1525
rally 1525
Equally 1524
Rou@@ 1524
Wa@@ 1524
dinner 1524
introduces 1524
privileged 1524
tribes 1524
Replace 1523
apparatus 1523
zes 1523
Consistent 1522
Fs 1522
Ja@@ 1522
XXI 1522
carriage 1522
carto@@ 1522
mountains 1522
swe@@ 1522
unstable 1522
Costs 1521
Proceedings 1521
cautious 1521
pesticide 1521
precious 1521
tickets 1521
Banking 1520
Undertake 1520
burned 1520
div@@ 1520
modernize 1520
proving 1520
estimation 1519
unwilling 1519
weaken 1519
Dubai 1518
sickness 1518
Bil@@ 1517
Equalization 1517
L.14 1517
Securities 1517
charging 1517
connecting 1517
eating 1517
editing 1517
onic 1517
owns 1517
Referendum 1516
aligning 1516
governor 1516
standby 1516
CN.6 1515
Displaced 1515
adjusting 1515
deficiency 1515
explanatory 1515
reefs 1515
solicitation 1515
FS 1514
Ok@@ 1514
South-Eastern 1514
TCDC 1514
Concerns 1513
HKSAR 1513
Kyi 1513
Preparations 1513
Week 1513
density 1513
exhibitions 1513
unrestricted 1513
2,9@@ 1512
outdated 1512
tine 1512
minim@@ 1511
VA 1510
altitude 1510
aug@@ 1510
22-@@ 1509
AWG-KP 1509
human-@@ 1509
avi@@ 1508
circum@@ 1508
Dili 1506
Kin@@ 1506
ero@@ 1506
validated 1506
Approves 1505
Category 1505
SF 1505
player 1505
proportions 1505
FR@@ 1504
L.12 1504
Not@@ 1504
embark 1504
graphy 1504
L.18 1503
Mit@@ 1503
perpetuate 1503
jus 1502
phasing 1502
unpredictable 1502
298 1501
Afghans 1501
ISAR 1501
ater 1501
inherited 1501
Donors 1500
JISC 1500
Santa 1500
flee 1500
geological 1500
leisure 1500
ordering 1500
retro@@ 1500
therapeutic 1500
fasc@@ 1499
gang 1499
reasoning 1499
Geographic 1498
González 1498
Nur@@ 1498
faction 1498
forging 1498
60,@@ 1497
Transactions 1497
UNC@@ 1497
al-Sha 1497
bled 1497
drove 1497
prerequisites 1497
unwanted 1497
wild 1497
Ke@@ 1496
Ki@@ 1496
Neighbouring 1496
dro@@ 1496
functionality 1496
sup@@ 1496
Hay@@ 1495
Indebted 1495
enlargement 1495
eva 1495
p-@@ 1495
persuade 1495
reminds 1495
und 1495
Martínez 1494
arch@@ 1494
behavioural 1494
confession 1494
depression 1494
outlying 1494
remand 1494
value-added 1494
1955 1493
Outlook 1493
co-organized 1493
multi-ethnic 1493
oppression 1493
prof@@ 1493
Kashmir 1492
L.16 1492
alls 1492
declines 1492
donated 1492
mother-to-child 1492
museums 1492
precision 1492
static 1492
deadlock 1491
disrupt 1491
hun@@ 1491
inter-sessional 1491
profitable 1491
ration@@ 1491
Clean 1490
Lab@@ 1490
consumed 1490
user-friendly 1490
Liability 1489
harness 1489
ity-@@ 1489
massacres 1489
Approved 1488
Ds 1488
Important 1488
ä@@ 1488
1990-@@ 1487
Francophonie 1487
KPC 1487
Ontario 1487
cable 1487
family-@@ 1487
Avenue 1486
Omar 1486
empirical 1486
hospitality 1486
improper 1486
oz@@ 1486
sson 1486
unsatisfactory 1485
Cat@@ 1484
HRI 1484
INTERNATIONAL 1484
Mining 1484
doctrines 1484
Creation 1483
Meteorological 1483
aga 1483
correlation 1483
grounded 1483
tone 1483
tree 1483
alleging 1482
cross@@ 1482
diesel 1482
oth 1482
Guarantee 1481
cons@@ 1481
floors 1481
outs 1481
tense 1481
uniforms 1481
ç@@ 1481
306 1480
74@@ 1480
Amended 1480
arbitrator 1480
assumes 1480
compel 1480
degraded 1480
ented 1480
oma 1480
pa 1480
reciprocity 1480
unexpected 1480
unspent 1480
BC 1479
Hab@@ 1479
interconnected 1479
stockpiling 1479
ula 1479
Appropriate 1478
Mé@@ 1478
equip 1478
Creating 1477
Representation 1477
SPLOS 1477
quiet 1477
Pretoria 1476
eve 1476
iting 1476
Complaints 1475
breached 1475
congress 1475
F-16 1474
Hill 1474
affiliates 1474
complies 1474
determinants 1474
ero 1474
interreligious 1474
landmine 1474
150,000 1473
Nacional 1473
mad@@ 1473
reconvened 1473
tentative 1473
thirty-fifth 1473
Pen@@ 1472
abductions 1472
dispose 1472
fellowships 1472
mounting 1472
watched 1472
Long 1471
UNMIBH 1471
discharging 1471
documenting 1471
escorted 1471
gift 1471
notices 1471
testimonies 1471
warmly 1471
youths 1471
Briefing 1470
Deb@@ 1470
Port-au-Prince 1470
belonged 1470
merged 1470
surgery 1470
treatments 1470
vacation 1470
Angeles 1469
CRP.2 1469
Has@@ 1469
PBC.@@ 1469
peers 1469
polygamy 1469
vigilance 1469
Ebola 1468
mentioning 1468
motives 1468
state-@@ 1468
Stat@@ 1467
anonymity 1467
arsenal 1467
comparisons 1467
curbing 1467
destined 1467
iling 1467
overlooked 1467
real-time 1467
Medicine 1466
Pas@@ 1466
centrally 1466
electronics 1466
2004-@@ 1465
Ben 1465
Chan@@ 1465
Submitted 1465
blast 1465
denounced 1465
3. 1464
50,@@ 1464
Brown 1464
circles 1464
heed 1464
ories 1464
rever@@ 1464
Ankara 1463
Demand 1463
in-country 1463
mistake 1463
possessing 1463
Coun@@ 1462
ette 1462
patriarchal 1462
rez 1462
tin 1462
250,000 1460
COMMITTEE 1460
Will 1460
provocative 1460
self-reliance 1460
vibrant 1460
8.1 1459
counted 1459
tery 1459
Metohija 1458
Mid@@ 1458
asing 1458
concert 1458
murdered 1458
L.20 1457
endosulfan 1457
newborn 1457
security-related 1457
Book 1456
Dam@@ 1456
EF 1456
Repertory 1456
atively 1456
memorial 1456
obligatory 1455
Bodies 1454
CT 1454
FOR@@ 1454
Regulatory 1454
WP 1454
climatic 1454
famine 1454
flat 1454
checking 1453
planes 1453
sho@@ 1453
sincerely 1453
vein 1453
Daniel 1452
Peer 1452
Pic@@ 1452
Threats 1452
Upper 1452
5.7 1451
objected 1451
History 1450
Often 1450
edi@@ 1450
forgotten 1450
thin@@ 1450
err@@ 1449
inter-ministerial 1449
underlining 1449
LD@@ 1448
launches 1448
mixture 1448
oul@@ 1448
gender-specific 1447
23rd 1446
Proportion 1446
addiction 1446
discharged 1446
650 1445
Banks 1445
catering 1445
donation 1445
expendable 1445
handful 1445
judgments 1445
pictures 1445
symbols 1445
underdevelopment 1445
approves 1444
broker 1444
logistic 1444
2,5@@ 1443
MC 1443
aving 1443
efficacy 1443
apartheid 1442
consensus-building 1442
doubling 1442
immunodeficiency 1442
operationalize 1442
pass@@ 1442
Fuel 1441
illa 1441
sul@@ 1441
Earlier 1440
Fl@@ 1440
attachment 1440
Industries 1439
Kafr 1439
convenience 1439
onwards 1439
ample 1438
broadest 1438
corpus 1438
envisage 1438
innocence 1438
Has 1437
fault 1437
manifestation 1437
quantified 1437
stones 1437
walking 1437
318 1436
ied 1436
slowing 1436
subjective 1436
Ann@@ 1435
ISBA 1435
Interest 1435
convoy 1435
ique 1435
micro 1435
opted 1435
alarm 1434
lenders 1434
open-@@ 1434
professors 1434
8.2 1433
Ari@@ 1433
Co-Chair 1433
Parts 1433
checked 1433
insight 1433
interlinked 1433
pal@@ 1433
specialization 1433
Xu 1432
arrivals 1432
convincing 1432
index@@ 1432
lifestyles 1432
Corps 1431
dwellers 1431
mented 1431
23.@@ 1430
380 1430
Bujumbura 1430
L.17 1430
besides 1430
composite 1430
long-range 1430
petitions 1430
wine 1430
308 1429
Box 1429
TN@@ 1429
habitats 1429
pave 1429
297 1428
drug-@@ 1428
expel 1428
hyper@@ 1428
occasional 1428
seemingly 1428
Course 1427
ced 1427
predict 1427
Endorses 1426
Bamako 1425
L.19 1425
Suu 1425
arid 1425
ario 1425
compromising 1425
painting 1425
recovering 1425
2,4@@ 1424
21-@@ 1424
40th 1424
45th 1424
7,500 1424
hard@@ 1424
insurgency 1424
ques 1424
Dar 1423
Eliminate 1423
Involuntary 1423
Update 1423
distinctive 1423
hosts 1423
START 1422
Station 1422
Supervision 1422
appropriateness 1422
bore 1422
cer@@ 1422
definitely 1422
dogs 1422
mus@@ 1422
yi 1422
Speci@@ 1421
indivisible 1421
anti-terrorism 1420
corresponds 1420
cro@@ 1420
duplicate 1420
viii 1420
ate-@@ 1419
oni 1419
wan 1419
Chicago 1418
DE 1418
UNMISET 1418
XIX 1418
gangs 1418
2,400 1417
Awards 1417
Jobs 1417
articulate 1417
daunting 1417
deterrence 1417
immune 1417
rs 1417
slower 1417
surely 1417
VIII.@@ 1416
stipulate 1416
syndrome 1416
ute 1416
IASC 1415
aker 1415
manufacturer 1415
troubled 1415
Brigade 1414
NAPA 1414
g-@@ 1414
preschool 1414
· 1414
Para 1413
irs 1413
lag 1413
misleading 1413
312 1412
97@@ 1412
PFOS 1412
Don 1411
Inclusive 1411
aren 1411
una 1411
uring 1411
Dec. 1410
Tak@@ 1410
alteration 1410
aly@@ 1410
optimum 1410
2.45 1409
Kuala 1409
Louis 1409
Sections 1409
impl@@ 1409
non-refoulement 1409
tolerated 1409
Gbagbo 1408
Rein@@ 1408
outward 1408
ation-related 1407
concessional 1407
informally 1407
manifested 1407
Strongly 1406
biased 1406
person@@ 1406
salt 1406
ï@@ 1406
2,200 1405
My@@ 1405
Position 1405
Stock 1405
aria 1405
overly 1405
possessed 1405
sporting 1405
8.3 1404
DI 1404
Firstly 1404
ICESCR 1404
ante 1404
engineer 1404
Buddhist 1403
Ratify 1403
eds 1403
esh 1403
paths 1403
Dan@@ 1402
Liber@@ 1402
Riyadh 1402
tations 1402
309 1401
5,500 1401
Angolan 1401
Kenyan 1401
Lumpur 1401
Speaker 1401
dable 1401
destinations 1401
embassy 1401
newsletter 1401
Fem@@ 1400
Gran@@ 1400
complexities 1400
indictments 1400
refining 1400
tal 1400
turmoil 1400
worsened 1400
REC@@ 1399
amphetamine-type 1399
anticipation 1399
blocking 1399
catastrophic 1399
dog 1399
land-based 1399
multimedia 1399
premise 1399
roll-out 1399
tec@@ 1399
tum@@ 1399
conspiracy 1398
continents 1398
ert 1398
400,000 1396
Emerging 1396
enumerated 1396
insecure 1396
intentionally 1396
murders 1396
smo@@ 1396
Acknowledges 1395
bureaucratic 1395
Abbas 1394
Chairmen 1394
contention 1394
eful 1394
isa 1394
non-interference 1394
e-learning 1393
gifts 1393
illiterate 1393
interpreting 1393
man-made 1393
show@@ 1393
Chinese-@@ 1392
Mitrovica 1392
deem 1392
merchandise 1392
8.5 1391
Hollywood 1391
TER@@ 1391
Tun@@ 1391
artisanal 1391
suddenly 1391
Disputes 1390
Term 1390
attributes 1390
complain 1390
domains 1390
hide 1390
paternity 1390
Displacement 1389
UNE@@ 1389
assaults 1389
backs 1389
mechanical 1389
non-tariff 1389
setbacks 1389
unduly 1389
Florida 1388
hall 1388
itting 1388
magazines 1388
sta@@ 1388
zation 1388
Different 1387
Heavily 1387
Inc 1387
eries 1387
Kennedy 1386
Operative 1386
PF 1386
PPPs 1386
PRSP 1386
ambition 1386
computerized 1386
craft 1386
eration 1386
los 1386
vetting 1386
Rev.1. 1385
UNA0@@ 1385
gravely 1385
igh@@ 1385
implicit 1385
manipulation 1385
modifying 1385
respectful 1385
variability 1385
weaker 1385
2003-@@ 1384
book@@ 1384
SI 1383
Tripoli 1383
ences 1383
RT@@ 1382
couldn 1382
negotiators 1382
oph@@ 1382
strain 1382
verbal 1382
Gl@@ 1381
Host 1381
Jab@@ 1381
aba 1381
com 1381
ford 1381
harvesting 1381
land-@@ 1381
sav@@ 1381
cour@@ 1380
homicide 1380
jail 1380
El-@@ 1379
intergenerational 1379
ía 1379
AC.51 1378
Need 1378
cheaper 1378
detec@@ 1378
27th 1377
Assad 1377
Convinced 1377
Mol@@ 1377
aa 1377
ith 1377
afraid 1376
altogether 1376
classroom 1376
ICJ 1375
Names 1375
Otherwise 1375
ald 1375
desktop 1375
dominate 1375
mine-@@ 1375
ram 1375
siege 1375
specificities 1375
sterilization 1375
EB@@ 1374
Rodríguez 1374
Trusteeship 1374
ech@@ 1374
emp@@ 1374
etc. 1374
win@@ 1374
Eighth 1373
Gali 1373
Mindful 1373
Minsk 1373
hand-@@ 1373
kil@@ 1373
acceleration 1372
engagements 1372
server 1372
symbolic 1372
ú@@ 1372
6.6 1371
Christians 1371
Subsequent 1371
commercially 1371
dor@@ 1371
informative 1371
28th 1370
3.9 1370
ased 1370
epidemiological 1370
reimbursed 1370
bedroom 1369
self-employed 1369
ñ@@ 1369
Covenants 1368
cameras 1368
iles 1368
inefficient 1368
presided 1368
temperatures 1368
CWC 1367
Eurostat 1367
Maoist 1367
avert 1367
dignified 1367
fleeing 1367
inspiration 1367
ref@@ 1367
wel@@ 1367
Dangerous 1366
Fal@@ 1366
cop@@ 1366
deprive 1366
keynote 1366
Immunities 1365
Trading 1365
agro-@@ 1365
futures 1365
loaded 1365
manifestly 1365
non-United 1365
Ara@@ 1364
EN 1364
catalogue 1364
tings 1364
Less 1363
aqu@@ 1363
pensionable 1363
two-day 1363
Kisangani 1362
Pierre 1362
Rob@@ 1362
custom@@ 1362
droughts 1362
gg@@ 1362
387 1361
CEO 1361
Counter@@ 1361
Village 1361
extremists 1361
pir@@ 1361
rents 1361
replicated 1361
-year 1360
Definition 1360
HCFCs 1360
Introducing 1360
RECOMMENDATIONS 1360
contradictory 1360
harvest 1360
xi 1360
Remote 1359
Responses 1359
Revolutionary 1359
Toxin 1359
zo 1359
echoed 1358
eu@@ 1358
ool 1358
titled 1358
waves 1358
§ 1358
Tripartite 1357
incorrect 1357
picked 1357
pounds 1357
ão 1357
Damage 1356
aw 1356
ffe@@ 1356
hunting 1356
unjustified 1356
DIS 1355
G-20 1355
Orthodox 1355
Plus 1355
UN-HABITAT 1355
dering 1355
elev@@ 1355
um-@@ 1355
Exercise 1354
corner 1354
pilots 1354
repetition 1354
respiratory 1354
subsection 1354
Completion 1353
OU@@ 1353
barred 1353
hai 1353
iness 1353
mature 1353
mounted 1353
sing@@ 1353
standard-setting 1353
usable 1353
2014-2017 1352
Canal 1352
GENERAL 1352
countryside 1352
hear@@ 1352
multilingualism 1352
sto@@ 1352
Majesty 1351
Suppl 1351
eco-@@ 1351
explo@@ 1351
geostationary 1351
officio 1351
46th 1350
Bin 1350
Extraordinary 1350
Han 1350
Hos@@ 1350
IDP 1350
finish 1350
oud 1350
MAL 1349
educ@@ 1349
inland 1349
underpin 1349
Enterprises 1348
detecting 1348
literary 1348
vol@@ 1348
liberties 1347
lifelong 1347
negligence 1347
ome 1347
primacy 1347
RT 1346
conven@@ 1346
fare 1346
reimbursable 1346
revive 1346
streams 1346
CMP@@ 1345
az 1345
conten@@ 1345
ent-@@ 1345
ices 1345
straight 1345
Elements 1344
Gro@@ 1344
R-@@ 1344
Requ@@ 1344
mal 1344
rot@@ 1344
tle 1344
Identical 1343
Munitions 1343
bay@@ 1343
hat@@ 1343
iring 1343
jet 1343
planted 1343
pressed 1343
secondly 1343
stewardship 1343
Occupational 1342
Romanian 1342
caseload 1342
pre-school 1342
rein@@ 1342
short- 1342
Airlines 1341
Boston 1341
Lib@@ 1341
Manufacturing 1341
Mess@@ 1341
abolishing 1341
ico 1341
lobbying 1341
mur@@ 1341
osphere 1341
poli@@ 1341
pull 1341
ray 1341
score 1341
2025 1340
HRW 1340
lights 1340
Vice-Chairperson 1339
cle@@ 1339
lev@@ 1339
uk 1339
3,8@@ 1338
Co-operation 1338
Organs 1338
PBC 1338
brochures 1338
injuring 1338
motherhood 1338
refurbishment 1338
smuggled 1338
tab@@ 1338
thoughts 1338
2004-2007 1337
Lau@@ 1337
aci@@ 1337
dominance 1337
engages 1337
mistakes 1337
vacuum 1337
42nd 1336
Cel@@ 1336
DR 1336
Jurists 1336
Reg@@ 1336
metadata 1336
314 1335
Publication 1335
Som@@ 1335
cloning 1335
flo@@ 1335
lan 1335
tak@@ 1335
CU@@ 1334
comparing 1334
inity 1334
interlinkages 1334
ote 1334
qualities 1334
tioning 1334
unlawfully 1334
Reiterating 1333
improves 1333
sacred 1333
trade-@@ 1333
0.1 1332
Observations 1332
dropping 1332
ills 1332
Protecting 1331
bans 1331
characters 1331
classrooms 1331
det@@ 1331
grid 1331
gy 1331
originated 1331
wonder 1331
&apos;b 1330
Positive 1330
Teaching 1330
Thirteenth 1330
badly 1330
interdisciplinary 1330
opens 1330
predecessors 1330
proxy 1330
rifles 1330
Assist 1329
Helsinki 1329
RB@@ 1329
Sus@@ 1329
barracks 1329
lighting 1329
pick 1329
rubber 1329
workplaces 1329
Add.7 1328
Guatemalan 1328
Tre@@ 1328
dam@@ 1328
governorate 1328
importation 1328
numbered 1328
346 1327
Ambassadors 1327
Contemporary 1327
Missile 1327
bert 1327
culminated 1327
embassies 1327
intermediary 1327
landed 1327
rationalize 1327
stalled 1327
LT@@ 1326
Mary 1326
Sustainability 1326
longstanding 1326
nodules 1326
thirty-first 1326
ud 1326
wil@@ 1326
,000,000 1325
22.@@ 1325
Mai 1325
ascertained 1325
AD 1324
HONG 1324
Missing 1324
co-financing 1324
competitors 1324
episode 1324
26th 1323
Monitor 1323
Objects 1323
Victoria 1323
Sharing 1322
capacitybuilding 1322
climate-@@ 1322
glob@@ 1322
unequivocally 1322
unused 1322
MOTAPM 1321
lower-@@ 1321
neighbourhoods 1321
overs 1321
resigned 1321
stabilizing 1321
wounding 1321
313 1320
319 1320
Large 1320
any@@ 1320
bankruptcy 1320
chem@@ 1320
colon@@ 1320
ito 1320
oversees 1320
pes@@ 1320
irrelevant 1319
Focal 1318
Niño 1318
affordability 1318
lying 1318
plan@@ 1318
repu@@ 1318
sla@@ 1318
supervisors 1318
tion-related 1318
DLDD 1317
Rapid 1317
multiplier 1317
ood 1317
overhead 1317
rable 1317
underpinned 1317
4. 1316
Represents 1316
dealers 1316
par 1316
safeguarded 1316
set@@ 1316
2,6@@ 1315
bags 1315
fundraising 1315
30th 1314
Fiscal 1314
dismantle 1314
fa 1314
lin 1314
substitution 1314
KONG 1313
LC 1313
batteries 1313
black@@ 1313
engines 1313
exile 1313
past@@ 1313
people-centred 1313
raids 1313
Bio@@ 1312
Strait 1312
interrupted 1312
scar@@ 1312
unite 1312
ér@@ 1312
hybrid 1311
investigator 1311
meg@@ 1311
mi 1311
rivers 1311
tus 1311
ICA@@ 1310
Innovative 1310
Lisbon 1310
Operating 1310
Sev@@ 1310
dress 1310
ept 1310
intersectoral 1310
rejecting 1310
z-@@ 1310
Nothing 1309
biofuels 1309
defended 1309
diminishing 1309
stand@@ 1309
stationed 1309
talked 1309
HCFC 1308
Hillary 1308
WASHINGTON 1308
exceptionally 1308
pulled 1308
Investigate 1307
Ye@@ 1307
a-based 1307
essed 1307
forcible 1307
representations 1307
tax@@ 1307
0.2 1306
1997-@@ 1306
Childhood 1306
Hil@@ 1306
repayment 1306
Kerry 1305
Prohibitions 1305
day@@ 1305
federations 1305
obligated 1305
Form 1304
reimbursements 1304
stic 1304
Chin@@ 1303
UNCC 1303
clu@@ 1303
refinement 1303
1957 1302
Connec@@ 1302
TED 1302
Wat@@ 1302
cancel 1302
excludes 1302
geographically 1302
high-profile 1302
iga 1302
Collec@@ 1301
amp@@ 1301
competency 1301
dam 1301
dies 1301
Price 1300
postponement 1300
re-establish 1300
releasing 1300
Looking 1299
angle 1299
complements 1299
construed 1299
ook 1299
pirates 1299
risky 1299
Arabian 1298
Emphasis 1298
POLISARIO 1298
arian 1298
drylands 1298
geography 1298
hostages 1298
patrolling 1298
reversing 1298
ship@@ 1298
tenders 1298
cy@@ 1297
gy@@ 1297
hia 1297
irresponsible 1297
ori 1297
340 1296
aming 1296
dd@@ 1296
enclosure 1296
needy 1296
pro 1296
Olympics 1295
basket 1295
escaped 1295
synthetic 1295
water-@@ 1295
RP@@ 1294
Ultimately 1294
WSIS 1294
best-@@ 1294
defensive 1294
deployments 1294
intake 1294
vegetables 1294
29th 1293
Forty-@@ 1293
GGE 1293
Nuclear-Weapon-Free 1293
afforestation 1293
bor@@ 1293
expended 1293
market-based 1293
passes 1293
325 1292
Loss 1292
Tindouf 1292
aquatic 1292
need@@ 1292
polls 1292
MN@@ 1291
Weekly 1291
cap 1291
courtroom 1291
dol@@ 1291
intimate 1291
plot 1291
Privileges 1290
acti@@ 1290
chil@@ 1290
influences 1290
performs 1290
24th 1289
TRIPS 1289
cocoa 1289
flew 1289
low- 1289
twenty-ninth 1289
Internally 1288
Payment 1288
Seas 1288
Sept 1288
bet 1288
ener@@ 1288
incursions 1288
multilingual 1288
reversal 1288
sters 1288
tuition 1288
GU@@ 1287
Micro@@ 1287
RY 1287
XVIII 1287
idi 1287
teenagers 1287
unarmed 1287
Nazi 1286
Purpose 1286
Spe@@ 1286
attacking 1286
dat@@ 1286
designer 1286
editors 1286
prominence 1286
100@@ 1285
Gh@@ 1285
NASA 1285
Potential 1285
SB 1285
airlines 1285
al. 1285
calculate 1285
disappointing 1285
neighbors 1285
stepping 1285
Khmer 1284
everybody 1284
breakthrough 1283
localities 1283
olog@@ 1283
politicization 1283
GB@@ 1282
Maternity 1282
coca 1282
drug-related 1282
inaction 1282
proactively 1282
restructured 1282
smoke 1282
ME 1281
PER@@ 1281
dying 1281
implication 1281
outright 1281
post-crisis 1281
401 1280
5.8 1280
UA@@ 1280
disrupted 1280
fix 1280
logy 1280
sentiment 1280
strip 1280
1999-@@ 1279
6.8 1279
Lev@@ 1279
Plant 1279
Protect 1279
T.@@ 1279
beatings 1279
convince 1279
informs 1279
probability 1279
ulation 1279
well-established 1279
CBD 1278
WE@@ 1278
aps 1278
much-needed 1278
tual 1278
rers 1277
resorting 1277
wouldn 1277
315 1276
Alfonso 1276
intern@@ 1276
Sound 1275
beautiful 1274
centr@@ 1274
eless 1274
ners 1274
studio 1274
susceptible 1274
tia 1274
£ 1274
Demographic 1273
Us 1273
free-@@ 1273
1624 1272
2,7@@ 1272
Including 1272
geo@@ 1272
questionable 1272
Return 1271
Seek 1271
biting 1271
descendants 1271
divorced 1271
lodge 1271
shell 1271
Entry 1270
Lam@@ 1270
Lim@@ 1270
Low 1270
TIVE 1270
dwellings 1270
lessly 1270
reactors 1270
Cho@@ 1269
Green@@ 1269
bright 1269
categorized 1269
comfortable 1269
life-@@ 1269
tap 1269
1874 1268
Advanced 1268
Albanians 1268
Judgement 1268
road@@ 1268
seconds 1268
superiority 1268
translators 1268
ISS 1267
UNITED 1267
ep 1267
ress 1267
ria 1267
Asylum 1266
Ful@@ 1266
Nov@@ 1266
Zh@@ 1266
aud@@ 1266
cantons 1266
gre@@ 1266
stricter 1266
Macroeconomic 1265
ailing 1265
data-processing 1265
epidemics 1265
measles 1265
4,0@@ 1264
420 1264
Honourable 1264
aded 1264
exploiting 1264
lawfulness 1264
327 1263
Yo@@ 1263
appellate 1263
ar-@@ 1263
ona 1263
shelling 1263
Coastal 1262
authorizes 1262
copper 1262
remittance 1262
surviving 1262
BO@@ 1261
Payments 1261
clean@@ 1261
deliverables 1261
kov 1261
per-@@ 1261
1959 1260
328 1260
ISIS 1260
Online 1260
audio-visual 1260
battery 1260
conception 1260
formalized 1260
physicians 1260
pped 1260
reward 1260
Fra@@ 1259
Indi@@ 1259
Type 1259
closest 1259
rage 1259
scenes 1259
Ker@@ 1258
corridor 1258
democratically 1258
ologist 1258
principled 1258
retraining 1258
rul@@ 1258
acquitted 1257
compendium 1257
conversations 1257
main@@ 1257
scaled 1257
2005-2006 1256
Conf@@ 1256
Kra@@ 1256
UNDP-@@ 1256
cruise 1256
dom 1256
owe 1256
scholarship 1256
widen 1256
Old 1255
Tlatelolco 1255
assembled 1255
smartphone 1255
Euro 1254
Rab@@ 1254
Underlines 1254
WMD 1254
discrepancy 1254
ops 1254
shots 1254
spar@@ 1254
supervising 1254
warehouses 1254
Commends 1253
Ven@@ 1253
allied 1253
athletes 1253
bars 1253
non-recurrent 1253
ombudsman 1253
sex-disaggregated 1253
Bulletin 1252
CAC 1252
Very 1252
interpreter 1252
326 1251
Deeply 1251
XXIX 1251
double-@@ 1251
extortion 1251
polar 1251
unfavourable 1251
INF@@ 1250
Rep@@ 1250
affirming 1250
commentaries 1250
constituency 1250
ong-@@ 1250
work-@@ 1250
yard 1250
48th 1249
Jersey 1249
bodily 1249
catastrophe 1249
expedi@@ 1249
pools 1249
stick 1249
storms 1249
Disciplinary 1248
HA 1248
Requested 1248
SAF 1248
arized 1248
oy@@ 1248
Far 1247
Uni@@ 1247
followup 1247
sad 1247
unaware 1247
1956 1246
asting 1246
plat@@ 1246
ren 1246
space-related 1246
DH 1245
Deployment 1245
Event 1245
Nine 1245
defects 1245
detailing 1245
null 1245
publicized 1245
sle@@ 1245
underpinning 1245
DM 1244
Mano 1244
Texas 1244
adm@@ 1244
exerted 1244
highway 1244
mentions 1244
mile 1244
Inventory 1243
outbreaks 1243
rock 1243
tem@@ 1243
tile 1243
transferable 1243
wounds 1243
Cy@@ 1242
Vice-Chairmen 1242
absorption 1242
evil 1242
militant 1242
supporter 1242
Iraqis 1241
ached 1241
bids 1241
blog 1241
constitutions 1241
embargoes 1241
forbidden 1241
ly-@@ 1241
GPS 1240
battalions 1240
Disasters 1239
EEC 1239
L.22 1239
Raj@@ 1239
chairing 1239
habits 1239
lows 1238
piloted 1238
Aircraft 1237
headings 1237
interruption 1237
revitalizing 1237
44th 1236
Rol@@ 1236
SL@@ 1236
complementarities 1236
consciousness 1236
differed 1236
extra-@@ 1236
anticipate 1235
apps 1235
completeness 1235
human-rights 1235
inspire 1235
mb@@ 1235
Met@@ 1234
insufficiently 1234
375 1233
Grant 1233
IONS 1233
Peruvian 1233
Silicon 1233
drilling 1233
prosecutorial 1233
scandal 1233
unsuccessful 1233
L.24 1232
app@@ 1232
indefinitely 1232
magistrate 1232
27-@@ 1231
Nav@@ 1231
check@@ 1231
sequence 1231
Abolition 1230
rey 1230
sco@@ 1230
translations 1230
Q. 1229
Strong 1229
awarding 1229
ki@@ 1229
policemen 1229
rises 1229
stereotypical 1229
Depending 1228
JEM 1228
ger@@ 1228
ison 1228
sely 1228
Active 1227
Kr@@ 1227
Scale 1227
ap 1227
sustainably 1227
tracked 1227
520 1226
Equ@@ 1226
Franc@@ 1226
Worst 1226
Yemeni 1226
ace@@ 1226
suffers 1226
3,200 1225
Len@@ 1225
Teachers 1225
anonymous 1225
hopeful 1225
inauguration 1225
lex 1225
materiae 1225
tured 1225
2007-@@ 1224
AB 1224
Sarajevo 1224
incur 1224
me-@@ 1224
2006-@@ 1223
CN.17 1223
Death 1223
Hunger 1223
Nas@@ 1223
impoverished 1223
realm 1223
prescription 1222
thresholds 1222
6.7 1221
Commissioner-General 1221
Jal@@ 1221
Laboratory 1221
Start 1221
buses 1221
iyah 1221
same-sex 1221
self@@ 1221
Alexander 1220
Kun@@ 1220
Renewable 1220
ence-@@ 1220
itable 1220
notions 1220
percentages 1220
retains 1220
128@@ 1219
ashi 1219
economical 1219
inter-State 1219
GEO 1218
aegis 1218
fans 1218
housed 1218
median 1218
reconfiguration 1218
rivals 1218
26.@@ 1217
LD 1217
Up@@ 1217
arbitrators 1217
infantry 1217
9.1 1216
Around 1216
ED@@ 1216
buried 1216
ima 1216
mayors 1216
rainfall 1216
researcher 1216
9.2 1215
F-15 1215
Ken@@ 1215
Save 1215
envisioned 1215
omissions 1215
orbital 1215
predic@@ 1215
tage 1215
wat@@ 1215
1992-@@ 1214
50th 1214
Laden 1214
Workshops 1214
ases 1214
expelling 1214
four@@ 1214
tea 1214
ATS 1213
Oli@@ 1213
blueprint 1213
mistreatment 1213
stems 1213
Mandela 1212
esa 1212
mediators 1212
Modern 1211
loved 1211
old-age 1211
tou@@ 1211
unconstitutional 1211
155-mm 1210
Bay@@ 1210
Bloomberg 1210
IDA 1210
Processing 1210
ais 1210
generously 1210
mon 1210
personalities 1210
Pot@@ 1209
blamed 1209
cli@@ 1209
disclosures 1209
proclamation 1209
serviced 1209
sian 1209
196@@ 1208
2,600 1208
frontier 1208
sex@@ 1208
whilst 1208
Diseases 1207
ITA@@ 1207
aires 1207
rigid 1207
uncontrolled 1207
2.30 1206
2001-@@ 1206
24.@@ 1206
expedited 1206
extract 1206
fan 1206
neg@@ 1206
2013-@@ 1205
IPF 1205
L.21 1205
Pay 1205
cogens 1205
corps 1205
desert 1205
lesbian 1205
resistant 1205
revolutionary 1205
70,@@ 1204
CD-ROM 1204
PP 1204
Santos 1204
bottlenecks 1204
races 1204
videoconferencing 1204
wrongdoing 1204
rous 1203
95@@ 1202
Broadcasting 1202
Counsellor 1202
Miguel 1202
convenient 1202
eous 1202
gri@@ 1202
idity 1202
labelling 1202
out-of-@@ 1202
practise 1202
urs 1202
heinous 1201
incite 1201
rati@@ 1201
366 1200
Highway 1200
SE 1200
designating 1200
protectionism 1200
tian 1200
ug 1200
631 1199
INF.@@ 1199
insul@@ 1199
inter-committee 1199
less@@ 1199
mers 1199
opt 1199
JS2 1198
Torres 1198
Vice-@@ 1198
cattle 1198
ele 1198
energies 1198
ner@@ 1198
seconded 1198
som@@ 1198
.. 1197
26-@@ 1197
AM 1197
Close 1197
booklet 1197
groundwork 1197
iti 1197
reactor 1197
tible 1197
tightening 1197
unconditionally 1197
cyclical 1196
enter@@ 1196
festival 1196
halted 1196
iri@@ 1196
ond@@ 1196
progressed 1196
renounce 1196
Facilitate 1195
eigh@@ 1195
ignorance 1195
inadequacy 1195
inspect 1195
invoking 1195
Gas 1194
advises 1194
inhabited 1194
thrown 1194
ticket 1194
trades 1194
Junior 1193
System-wide 1193
ame@@ 1193
commissioners 1193
devastation 1193
dispersed 1193
edo 1193
oke 1193
sequ@@ 1193
uma 1193
yourself 1193
Inspectorate 1192
MISC.5 1192
NATIONS 1192
U-@@ 1192
aerospace 1192
chaos 1192
eman 1192
height 1192
prominently 1192
L.29 1191
bursts 1191
eri 1191
objectively 1191
Available 1190
development-related 1190
fruits 1190
punishments 1190
tina 1190
understandable 1190
à 1190
2007-2008 1189
349 1189
dge 1189
endorsing 1189
habeas 1189
inger 1189
6,500 1188
EUR 1188
WCO 1188
aides 1188
norm@@ 1188
occupancy 1188
tening 1188
2,700 1187
Certificate 1187
Chilean 1187
EUFOR 1187
Edward 1187
Francis 1187
ancestral 1187
aux 1187
diplomat 1187
ose 1187
textiles 1187
24-hour 1186
323 1186
Beings 1186
Budapest 1186
Component 1186
Regions 1186
Terms 1186
Tribal 1186
commemorative 1186
exemplary 1186
facie 1186
football 1186
hotline 1186
importers 1186
inherently 1186
ots 1186
predeployment 1186
surrounded 1186
2,800 1185
Activity 1185
Aleppo 1185
Hum@@ 1185
bag 1185
probable 1185
reinsertion 1185
Mes@@ 1184
Successful 1184
struggled 1184
1820 1183
600,000 1183
assesses 1183
estimating 1183
happiness 1183
interdepartmental 1183
09@@ 1182
Compared 1182
Ecosystem 1182
JS@@ 1182
Rev.2 1182
conflict-related 1182
field-based 1182
fraction 1182
infringed 1182
keys 1182
performances 1182
stal@@ 1182
tieth 1182
webcast 1182
Est@@ 1181
Procedural 1181
asbestos 1181
holy 1181
ington 1181
law-enforcement 1181
rence 1181
sem@@ 1181
333 1180
90,@@ 1180
CHW 1180
Fasher 1180
SR 1180
entr@@ 1180
sub-regional 1180
sun 1180
vil@@ 1180
Accession 1179
L.23 1179
non-members 1179
patents 1179
secrets 1179
upbringing 1179
85@@ 1178
Consolidation 1178
Ki-moon 1178
Liberty 1178
une 1178
1,900 1177
Corrections 1177
Pilot 1177
Singh 1177
anti-trafficking 1177
bel 1177
part@@ 1177
policy-@@ 1177
rented 1177
8.4 1176
ND@@ 1176
Oxford 1176
Phil@@ 1176
Pitcairn 1176
Sup@@ 1176
blow 1176
label 1176
ored 1176
unrelated 1176
ACTIVITIES 1175
Pre-Trial 1175
exempted 1175
rectify 1175
335 1174
Leon@@ 1174
MAN@@ 1174
dal 1174
one-day 1174
separatist 1174
1559 1173
Bunia 1173
Drawing 1173
Journalists 1173
Lomé 1173
Ran@@ 1173
destabilize 1173
ité 1173
planners 1173
planting 1173
precluded 1173
sellers 1173
situ 1173
year-end 1173
3,600 1172
AC.96 1172
ICG 1172
IMS 1172
Kordofan 1172
defences 1172
endeavoured 1172
unintended 1172
43rd 1171
Belarusian 1171
CERF 1171
Revenue 1171
spokeswoman 1171
Manuel 1170
charity 1170
complicity 1170
destiny 1170
moments 1170
ort@@ 1170
oti@@ 1170
tain 1170
unimpeded 1170
youth@@ 1170
2002-@@ 1169
Harmonization 1169
Shab 1169
Ya@@ 1169
ava 1169
journalism 1169
Kurdish 1168
testified 1168
wit@@ 1168
Hus@@ 1167
dividends 1167
first-hand 1167
ols 1167
rup@@ 1167
vo 1167
1947 1166
Shan@@ 1166
asts 1166
brochure 1166
higher-@@ 1166
prima 1166
prize 1166
zi@@ 1166
MI 1165
equitably 1165
Memorial 1164
North-East 1164
Popular 1164
Shenzhen 1164
benchmarking 1164
classic 1164
fauna 1164
lieu 1164
liv@@ 1164
speaks 1164
understandings 1164
bilaterally 1163
ety 1163
reconciling 1163
strife 1163
2,300 1162
41st 1162
Prisons 1162
Tw@@ 1162
bet@@ 1162
dealings 1162
desks 1162
printers 1162
sar@@ 1162
aran@@ 1161
busy 1161
commun@@ 1161
disc@@ 1161
insertion 1161
Except 1160
Silva 1160
hedge 1160
implicated 1160
resurgence 1160
tun@@ 1160
abi 1159
ester 1159
flowing 1159
intraregional 1159
neonatal 1159
Established 1158
eighty-@@ 1158
farmer 1158
formidable 1158
labour-intensive 1158
modernizing 1158
posi@@ 1158
wire 1158
Digital 1157
Ibero-American 1157
SESSION 1157
blatant 1157
cater 1157
surrendered 1157
Mir@@ 1156
Tables 1156
applauded 1156
min 1156
sal 1156
shareholder 1156
sof@@ 1156
stars 1156
317 1155
Bec@@ 1155
Intranet 1155
Patrick 1155
Turk@@ 1155
aching 1155
detain 1155
eral 1155
plutonium 1155
unification 1155
yp@@ 1155
UD@@ 1154
chron@@ 1154
data-@@ 1154
dness 1154
neuro@@ 1154
mig@@ 1153
opes 1153
overnight 1153
ville 1153
Amend 1152
CRP.3 1152
UNIKOM 1152
ayed 1152
dance 1152
fr@@ 1152
harnessing 1152
treasury 1152
year@@ 1152
HO@@ 1151
Petro@@ 1151
Petroleum 1151
Tibet 1151
ank 1151
antenatal 1151
dom@@ 1151
rosters 1151
tar 1151
Archives 1150
Freetown 1150
Nat@@ 1150
Plan@@ 1150
ogo 1150
sm 1150
yen 1150
Conven@@ 1149
FATF 1149
Fel@@ 1149
NS 1149
Wol@@ 1149
fri@@ 1149
harb@@ 1149
non-binding 1149
ply 1149
public@@ 1149
unofficial 1149
winner 1149
ball 1148
embl@@ 1148
employs 1148
fat@@ 1148
fora 1148
gener@@ 1148
r. 1148
resolute 1148
self-employment 1148
volunteering 1148
354 1147
Bran@@ 1147
Indiscriminate 1147
Managers 1147
ference 1147
nit@@ 1147
oil-@@ 1147
nautical 1146
reconciled 1146
uro@@ 1146
Š@@ 1146
Collection 1145
PRSPs 1145
deliberation 1145
demilitarized 1145
fatal 1145
47th 1144
80,@@ 1144
Ts 1144
Victim 1144
excav@@ 1144
path@@ 1144
relocate 1144
revival 1144
venues 1144
RUF 1143
admissions 1143
aspiration 1143
habitat 1143
vouchers 1143
RO 1142
Twenty 1142
af 1142
para@@ 1142
stakes 1142
Chiefs 1141
Dim@@ 1141
Limits 1141
Reduced 1141
authentic 1141
competences 1141
initi@@ 1141
ounding 1141
propri@@ 1141
qualifying 1141
scal@@ 1141
9.3 1140
Os@@ 1140
Produc@@ 1140
REPORT 1140
overhaul 1140
redistribution 1140
tear 1140
86@@ 1139
Deputies 1139
Maghreb 1139
Mam@@ 1139
differentiation 1139
disturbed 1139
encies 1139
my@@ 1139
non-existent 1139
revisit 1139
35,@@ 1138
Katanga 1138
breeding 1138
cell@@ 1138
cost-benefit 1138
drastically 1138
mol@@ 1138
toolkit 1138
unmet 1138
Leader 1137
Poly@@ 1137
Sale 1137
arranging 1137
illegitimate 1137
ity@@ 1137
legislations 1137
premiums 1137
Aqu@@ 1136
García 1136
ami 1136
attendant 1136
ch-@@ 1136
distinctions 1136
regain 1136
schoolchildren 1136
Basin 1135
Colonialism 1135
Länder 1135
featuring 1135
inequities 1135
portions 1135
suits 1135
Few 1134
LAC 1134
LTTE 1134
cloud 1134
inten@@ 1134
ota 1134
searched 1134
terror@@ 1134
Bah@@ 1133
Log@@ 1133
Reduce 1133
solemn 1133
8,500 1132
AU@@ 1132
Galaxy 1132
Nam@@ 1132
appealing 1132
attackers 1132
enrich 1132
miners 1132
ologically 1132
tent 1132
Negotiating 1131
Red@@ 1131
authorizations 1131
cot@@ 1131
countless 1131
31st 1130
Bun@@ 1130
len@@ 1130
lun@@ 1130
rian 1130
tex@@ 1130
Jong-un 1129
Layer 1129
anim@@ 1129
broadcasters 1129
march 1129
meal 1129
prospecting 1129
scattered 1129
Bukavu 1128
Railway 1128
referrals 1128
switch 1128
1353 1127
Well 1127
cycl@@ 1127
divergent 1127
exhibits 1127
inaccurate 1127
post-disaster 1127
ws 1127
329 1126
Kaz@@ 1126
drone 1126
hiding 1126
lad@@ 1126
low-carbon 1126
stopping 1126
Guo 1125
Kol@@ 1125
L.26 1125
QU@@ 1125
cab@@ 1125
distortions 1125
feder@@ 1125
mot@@ 1125
span 1125
Efficiency 1124
band@@ 1124
icity 1124
intra@@ 1124
psych@@ 1124
wid@@ 1124
Employees 1123
Interregional 1123
Jorge 1123
Lead 1123
boosting 1123
dan 1123
electro@@ 1123
elle 1123
institutionalize 1123
insurgents 1123
pooled 1123
revol@@ 1123
servant 1123
sooner 1123
402 1122
Stephen 1122
al-level 1122
deepest 1122
mul@@ 1122
ve-@@ 1122
ITY 1121
Warning 1121
chi@@ 1121
complementing 1121
dos 1121
earthquakes 1121
end-user 1121
il-@@ 1121
manpower 1121
panellist 1121
prescribes 1121
transformative 1121
Accreditation 1120
Analy@@ 1120
Hampson 1120
Str@@ 1120
Uzbek 1120
aboriginal 1120
characterization 1120
elders 1120
remediation 1120
ry@@ 1120
CLA@@ 1119
Consent 1119
Jiang 1119
Michel 1119
Pedro 1119
Structure 1119
endured 1119
expediting 1119
survived 1119
Criteria 1118
Delegates 1118
ML@@ 1118
Standardization 1118
ashing 1118
beating 1118
forfeiture 1118
guests 1118
lac@@ 1118
liked 1118
lunch 1118
perfectly 1118
sediment 1118
surpluses 1118
37th 1117
Hizbullah 1117
Lou@@ 1117
denies 1117
fuller 1117
grouping 1117
nings 1117
twenty 1117
Big 1116
dust 1116
formulations 1116
secretaries 1116
vector 1116
Add.8 1115
IU@@ 1115
Indicator 1115
atically 1115
bidders 1115
development-oriented 1115
drain 1115
inaugural 1115
listening 1115
rostrum 1115
simul@@ 1115
ular 1115
1952 1114
7.6 1114
L.27 1114
briefs 1114
circuit 1114
disastrous 1114
fake 1114
femin@@ 1114
hypo@@ 1114
new@@ 1114
priv@@ 1114
rested 1114
Issue 1113
borrowers 1113
duty-free 1113
excessively 1113
interns 1113
oldest 1113
organ@@ 1113
specializing 1113
Virginia 1112
Xi@@ 1112
enthusiasm 1112
time-consuming 1112
Athens 1111
deser@@ 1111
home@@ 1111
miss 1111
multi-donor 1111
play@@ 1111
regulator 1111
Decree-Law 1110
Gaz@@ 1110
a.i. 1110
anne 1110
fal@@ 1110
markedly 1110
tial 1110
0.3 1109
2008-@@ 1109
Experiencing 1109
Mobilization 1109
NU@@ 1109
atives 1109
graph@@ 1109
hab@@ 1109
handicapped 1109
impartially 1109
mergers 1109
ounded 1109
paved 1109
reinforces 1109
unwavering 1109
walked 1109
2019 1108
345 1108
Create 1108
MOU 1108
Rod@@ 1108
fuelled 1108
noise 1108
possesses 1108
satisfactorily 1108
stark 1108
324 1107
426 1107
507 1107
Add.10 1107
Advisers 1107
Estonian 1107
Vis@@ 1107
XL@@ 1107
addenda 1107
minefields 1107
porting 1107
1993-@@ 1106
Chairpersons 1106
MSAR 1106
desperate 1106
egu@@ 1106
neo-@@ 1106
nuclear-@@ 1106
overriding 1106
resorted 1106
Explosives 1105
Roman 1105
leg 1105
looted 1105
morality 1105
twenty-@@ 1105
GCC 1104
Vic@@ 1104
XXVI 1104
assigning 1104
counterproductive 1104
depriving 1104
normalization 1104
reclassified 1104
uni@@ 1104
uri 1104
50-@@ 1103
Nar@@ 1103
Out@@ 1103
businessman 1103
ega 1103
ignoring 1103
mobil@@ 1103
ska 1103
L.25 1102
Tencent 1102
equipping 1102
instructors 1102
non-staff 1102
ples 1102
Import 1101
Kha@@ 1101
PD@@ 1101
Territorial 1101
Wid@@ 1101
aquaculture 1101
debtors 1101
isted 1101
leased 1101
prerogative 1101
prop@@ 1101
3,9@@ 1100
CNDP 1100
USAID 1100
accidental 1100
generates 1100
gues 1100
loyal 1100
meters 1100
nondiscrimination 1100
olu@@ 1100
DESA 1099
centrality 1099
clash 1099
competitions 1099
convoys 1099
end-@@ 1099
tioned 1099
CFA 1098
Cup 1098
Identifying 1098
Pentagon 1098
Updated 1098
iya 1098
non-violent 1098
outskirts 1098
random 1098
small-@@ 1098
322 1097
Medium-term 1097
ater@@ 1097
dev@@ 1097
grenades 1097
necessitated 1097
ware 1097
writes 1097
337 1096
Selected 1096
Starting 1096
authoritarian 1096
block@@ 1096
duc@@ 1096
flash 1096
itted 1096
lobby 1096
repealed 1096
&apos;affaires 1095
Adult 1095
F-14 1095
[...]
